#version: 0.2
一 个</w>
我 们</w>
他 们</w>
可 以</w>
研 究</w>
进 行</w>
方 法</w>
没 有</w>
这 个</w>
中 国</w>
公 司</w>
系 统</w>
问 题</w>
一 种</w>
这 些</w>
可 能</w>
使 用</w>
自 己</w>
如 果</w>
通 过</w>
分 析</w>
工 作</w>
美 国</w>
2 0
已 经</w>
因 为</w>
但 是</w>
影 响</w>
需 要</w>
一 些</w>
技 术</w>
提 供</w>
时 间</w>
以 及</w>
发 展</w>
设 计</w>
主 要</w>
什 么</w>
就 是</w>
不 同</w>
部 分</w>
本 文</w>
具 有</w>
这 种</w>
应 用</w>
现 在</w>
国 家</w>
目 的</w>
开 始</w>
所 有</w>
0 0</w>
认 为</w>
时 候</w>
作 为</w>
这 样</w>
结 果</w>
发 现</w>
作 用</w>
其 他</w>
过 程</w>
提 出</w>
采 用</w>
重 要</w>
世 界</w>
结 构</w>
成 为</w>
包 括</w>
方 面</w>
1 9
知 道</w>
同 时</w>
情 况</w>
20 0
经 济</w>
政 府</w>
人 们</w>
关 系</w>
产 品</w>
介 绍</w>
生 活</w>
数 据</w>
对 于</w>
模 型</w>
控 制</w>
或 者</w>
能 够</w>
利 用</w>
组 织</w>
存 在</w>
它 们</w>
发 生</w>
表 明</w>
治 疗</w>
处 理</w>
得 到</w>
那 些</w>
必 须</w>
服 务</w>
企 业</w>
市 场</w>
表 示</w>
实 现</w>
提 高</w>
非 常</w>
选 择</w>
任 何</w>
地 区</w>
许 多</w>
细 胞</w>
之 间</w>
信 息</w>
由 于</w>
所 以</w>
如 何</w>
而 且</w>
然 后</w>
探 讨</w>
学 生</w>
因 此</w>
生 产</w>
建 立</w>
一 次</w>
美 元</w>
出 现</w>
两 个</w>
管 理</w>
1 0</w>
起 来</w>
不 能</w>
并 且</w>
功 能</w>
很 多</w>
应 该</w>
不 会</w>
产 生</w>
理 论</w>
为 了</w>
要 求</w>
社 会</w>
一 样</w>
程 序</w>
之 一</w>
希 望</w>
基 础</w>
这 是</w>
环 境</w>
孩 子</w>
其 中</w>
大 学</w>
还 是</w>
看 到</w>
方 式</w>
获 得</w>
正 在</w>
显 示</w>
能 力</w>
根 据</w>
目 前</w>
活 动</w>
项 目</w>
基 于</w>
最 后</w>
计 划</w>
增 加</w>
变 化</w>
那 么</w>
人 员</w>
之 后</w>
支 持</w>
文 化</w>
中 心</w>
你 们</w>
相 关</w>
帮 助</w>
用 于</w>
安 全</w>
有 效</w>
e r
地 方</w>
目 标</w>
教 育</w>
城 市</w>
还 有</w>
喜 欢</w>
i n
一 直</w>
一 起</w>
网 络</w>
条 件</w>
原 因</w>
性 能</w>
有 关</w>
效 果</w>
材 料</w>
一 定</w>
形 成</w>
开 发</w>
比 较</w>
设 备</w>
质 量</w>
用 户</w>
这 里</w>
结 论</w>
实 验</w>
传 统</w>
一 位</w>
患 者</w>
模 式</w>
来 自</w>
行 为</w>
因 素</w>
试 验</w>
只 是</w>
来 说</w>
只 有</w>
及 其</w>
是 否</w>
成 功</w>
运 动</w>
内 容</w>
关 于</w>
计 算</w>
价 值</w>
学 习</w>
朋 友</w>
每 个</w>
国 际</w>
不 过</w>
我 国</w>
文 件</w>
意 义</w>
标 准</w>
主 义</w>
之 前</w>
东 西</w>
学 家</w>
讨 论</w>
表 现</w>
拥 有</w>
测 试</w>
告 诉</w>
水 平</w>
2 0</w>
结 果
甚 至</w>
导 致</w>
完 成</w>
历 史</w>
最 大</w>
特 点</w>
空 间</w>
决 定</w>
解 决</w>
反 应</w>
调 查</w>
保 护</w>
简 单</w>
资 源</w>
然 而</w>
过 去</w>
改 变</w>
a r
英 国</w>
这 一</w>
结 合</w>
方 案</w>
出 来</w>
通 常</w>
健 康</w>
各 种</w>
比 赛</w>
一 步</w>
银 行</w>
接 受</w>
今 天</w>
随 着</w>
了 解</w>
先 生</w>
明 显</w>
特 别</w>
减 少</w>
事 情</w>
完 全</w>
的 话</w>
领 域</w>
特 征</w>
直 接</w>
日 本</w>
机 构</w>
虽 然</w>
检 测</w>
结果 表明</w>
数 据
达 到</w>
e r</w>
算 法</w>
a n
语 言</w>
造 成</w>
多 数</w>
工 艺</w>
不 要</w>
人 类</w>
运 行</w>
计 算
观 察</w>
汽 车</w>
报 告</w>
学 校</w>
特 性</w>
继 续</w>
确 定</w>
全 球</w>
进 入</w>
投 资</w>
带 来</w>
尽 管</w>
考 虑</w>
第 二
基 本</w>
形 式</w>
那 个</w>
工 程</w>
状 态</w>
整 个</w>
程 度</w>
针 对</w>
类 型</w>
速 度</w>
大 量</w>
生 物</w>
如 此</w>
服 务
降 低</w>
建 议</w>
受 到</w>
位 于</w>
无 法</w>
o r
动 物</w>
1 2</w>
增 长</w>
保 持</w>
总 统</w>
范 围</w>
一 家</w>
有 些</w>
文 章</w>
一 名</w>
世 纪</w>
5 0</w>
下 来</w>
合 作</w>
觉 得</w>
以 来</w>
0 00</w>
价 格</w>
网 站</w>
工 具</w>
超 过</w>
1 1</w>
找 到</w>
应 用
o n
一 点</w>
系 列</w>
准 备</w>
未 来</w>
a t
研 究
报 道</w>
参 数</w>
一 项</w>
思 想</w>
容 易</w>
引 起</w>
政 策</w>
几 个</w>
那 里</w>
软 件</w>
小 时</w>
一 切</w>
建 设</w>
需 求</w>
e n
例 如</w>
同 样</w>
第 一
不 断</w>
3 0</w>
机 会</w>
事 件</w>
最 近</w>
位 置</w>
评 价</w>
措 施</w>
电 影</w>
区 域</w>
一 般</w>
管 理
一 下</w>
参 加</w>
严 重</w>
操 作</w>
压 力</w>
感 觉</w>
专 业</w>
客 户</w>
证 明</w>
分 布</w>
注 意</w>
更 加</w>
为 什么</w>
努 力</w>
科 学</w>
仍 然</w>
三 个</w>
感 到</w>
最 终</w>
控 制
自 然</w>
19 9
0 %</w>
临 床</w>
业 务</w>
大 多数</w>
指 出</w>
制 度</w>
执 行</w>
其 它</w>
进 一步</w>
风 险</w>
首 先</w>
家 庭</w>
组 成</w>
对 象</w>
体 系</w>
经 济
含 量</w>
艺 术</w>
最 好</w>
实 际</w>
资 料</w>
重 新</w>
表 面</w>
0 .
几 乎</w>
相 信</w>
政 治</w>
一 天</w>
也 许</w>
o n</w>
创 建</w>
良 好</w>
女 性</w>
阶 段</w>
自 由</w>
任 务</w>
代 表</w>
应用 程序</w>
生 命</w>
基 因</w>
描 述</w>
有 人</w>
从 而</w>
欧 洲</w>
经 验</w>
检 查</w>
测 量</w>
机 制</w>
另 外</w>
解 释</w>
植 物</w>
制 造</w>
真 正</w>
时 期</w>
包 含</w>
疾 病</w>
成 本</w>
游 戏</w>
快 速</w>
行 业</w>
装 置</w>
经 过</w>
稳 定</w>
故 事</w>
定 义</w>
当 然</w>
变 得</w>
总 是</w>
温 度</w>
作 品</w>
表 达</w>
说 明</w>
今 年</w>
现 代</w>
消 息</w>
电 子
关 注</w>
世 界
复 杂</w>
分 子</w>
法 律</w>
方 向</w>
持 续</w>
现 象</w>
自 动</w>
原 理</w>
将 会</w>
给 出</w>
音 乐</w>
个 人</w>
物 质</w>
北 京</w>
广 泛</w>
行 动</w>
不 仅</w>
身 体</w>
取 得</w>
分 别</w>
1 5</w>
运 用</w>
分 钟</w>
建 筑</w>
手 术</w>
信 号</w>
当 时</w>
代 码</w>
想 要</w>
记 录</w>
作 者</w>
保 证</w>
意 识</w>
改 善</w>
时 代</w>
两 种</w>
概 念</w>
期 间</w>
即 使</w>
精 神</w>
知 识</w>
似 乎</w>
显 著</w>
药 物</w>
电 话</w>
1 .
死 亡</w>
学 院</w>
越 来
比 如</w>
结 束</w>
一 条</w>
工 业</w>
经 常</w>
利 亚</w>
有 限
使 得</w>
连 接</w>
才 能</w>
教 学</w>
印 度</w>
食 物</w>
诊 断</w>
以 上</w>
至 少</w>
安 装</w>
更 好</w>
避 免</w>
联 系</w>
大 家</w>
允 许</w>
医 生</w>
理 解</w>
会 议</w>
销 售</w>
差 异</w>
巨 大</w>
部 门</w>
i c
效 率</w>
英 语</w>
s t
专 家</w>
越来 越</w>
数 字</w>
实 施</w>
图 像</w>
数 量</w>
意 味
正 常</w>
加 入</w>
参 与</w>
测 定</w>
那 样</w>
儿 童</w>
蛋 白</w>
元 素</w>
长 期</w>
r e
满 足</w>
认 识</w>
美 国
很 大</w>
曾 经</w>
预 测</w>
错 误</w>
分 析
函 数</w>
病 毒</w>
经 历</w>
类 似</w>
意味 着</w>
大 部分</w>
集 团</w>
创 造</w>
收 入</w>
仅 仅</w>
媒 体</w>
尤 其</w>
加 工</w>
有 着</w>
课 程</w>
规 模</w>
i t
优 化</w>
除 了</w>
食 品</w>
下 降</w>
新 型</w>
制 作</w>
模 拟</w>
怎 么</w>
策 略</w>
协 议</w>
金 属</w>
某 些</w>
以 前</w>
电 子</w>
这 么</w>
设 置</w>
真 的</w>
相 对</w>
最 佳</w>
每 天</w>
一 年</w>
a c
关 键</w>
规 定</w>
一 只</w>
5 %</w>
亿 美元</w>
相 同</w>
以 后</w>
去 年</w>
r o
特 殊</w>
教 授</w>
成 员</w>
状 况</w>
定 性</w>
照 片</w>
飞 机</w>
十 分</w>
大 约</w>
生 产
战 争</w>
国 内</w>
a l
访 问</w>
当 地</w>
上 海</w>
医 院</w>
感 染</w>
正 确</w>
一 部分</w>
改 进</w>
实 践</w>
限 制</w>
适 用</w>
电 脑</w>
父 亲</w>
社 会
丰 富</w>
这 次</w>
移 动</w>
一 份</w>
母 亲</w>
综 合</w>
这 位</w>
改 革</w>
这 项</w>
训 练</w>
团 队</w>
1 8
变 成</w>
用 来</w>
交 易</w>
实 际
强 度</w>
独 立</w>
适 合</w>
安 全
力 量</w>
罗 斯</w>
男 人</w>
促 进</w>
共 同</w>
科 学家</w>
巴 马</w>
e l
女 人</w>
称 为</w>
法 国</w>
中 国
人 民</w>
附 近</w>
合 物</w>
欢 迎</w>
官 员</w>
服务 器</w>
内 部</w>
一 场</w>
第 一</w>
原 则</w>
是 因为</w>
计算 机</w>
相 比</w>
举 行</w>
确 保</w>
工 作
规 则</w>
年 代</w>
采 取</w>
儿 子</w>
趋 势</w>
评 估</w>
属 于</w>
危 机</w>
培 养</w>
角 度</w>
员 工</w>
地 球</w>
病 人</w>
观 点</w>
奥 巴马</w>
组 合</w>
新 闻</w>
不 到</w>
面 临</w>
购 买</w>
4 0</w>
直 到</w>
必 要</w>
处 于</w>
只 要</w>
合 理</w>
此 外</w>
2 .
第 三
指 数</w>
寻 找</w>
德 国</w>
a n</w>
合 成</w>
在 于</w>
背 景</w>
调 整</w>
委 员
多 年</w>
论 文</w>
平 衡</w>
于 是</w>
M L</w>
生 长</w>
化 学</w>
平 均</w>
1 00</w>
添 加</w>
她 们</w>
恢 复</w>
多 少</w>
酒 店</w>
消 费
重 点</w>
指 标</w>
i l
效 应</w>
氧 化
大 型</w>
早 期</w>
星 期
依 据</w>
阐 述</w>
6 0</w>
名 字</w>
动 态</w>
试 图</w>
委员 会</w>
数据 库</w>
平 台</w>
别 人</w>
唯 一</w>
纤 维</w>
创 新</w>
放 在</w>
动 力</w>
电 视</w>
加 强</w>
人 口</w>
优 势</w>
危 险</w>
声 音</w>
当 前</w>
做 出</w>
父 母</w>
负 责</w>
贸 易</w>
实际 上</w>
困 难</w>
生 物
具 体</w>
手 机</w>
十 年</w>
活 性</w>
能 量</w>
混 合</w>
看 起来</w>
展 示</w>
自 我</w>
或 是</w>
2 5</w>
污 染</w>
生 成</w>
离 开</w>
小 说</w>
核 心</w>
涉 及</w>
品 牌</w>
科 技</w>
只 能</w>
详 细</w>
兴 趣</w>
回 到</w>
特 定</w>
构 成</w>
年 轻</w>
永 远</w>
全 国</w>
神 经
相 当</w>
发 布</w>
距 离</w>
配 置</w>
记 者</w>
最 高</w>
令 人</w>
可 是</w>
地 位</w>
竞 争</w>
构 建</w>
怎 样</w>
o o
投 资
线 性</w>
他 人</w>
角 色</w>
1 6</w>
神 经</w>
球 员</w>
地 震</w>
制 备</w>
应 当</w>
输 入</w>
资 金</w>
1 8</w>
多 个</w>
不 再</w>
而 言</w>
有限 公司</w>
清 楚</w>
空 气</w>
单 位</w>
大 小</w>
规 划</w>
联 合</w>
愿 意</w>
全 部</w>
视 频</w>
责 任</w>
实 验
很 快</w>
人 士</w>
版 本</w>
适 应</w>
产 业</w>
广 告</w>
e t
年 来</w>
艺 术
迅 速</w>
担 心</w>
第 一个</w>
力 学</w>
著 名</w>
老 师</w>
香 港</w>
教 师</w>
肿 瘤</w>
来 到</w>
1 0
颜 色</w>
事 实
解 决
旅 游</w>
分 离</w>
足 够</w>
经 营</w>
眼 睛</w>
挑 战</w>
理 想</w>
a s
葡 萄
皮 肤</w>
妇 女</w>
再 次</w>
基 本
土 地</w>
身 上</w>
发 明</w>
民 族</w>
办 公
以 下</w>
商 业</w>
论 述</w>
验 证</w>
20 10</w>
尝 试</w>
妈 妈</w>
成 分</w>
风 格</w>
手 段</w>
破 坏</w>
费 用</w>
俄 罗斯</w>
每 年</w>
第 一次</w>
联 合
上 升</w>
有 时</w>
疗 效</w>
增 强</w>
晚 上</w>
循 环</w>
第 二</w>
相 应</w>
看 见</w>
资 产</w>
一 系列</w>
里 面</w>
19 8
开 发
200 8</w>
积 极</w>
斯 坦</w>
发 表</w>
看 看</w>
1 4</w>
损 伤</w>
独 特</w>
出 口</w>
听 到</w>
不 可</w>
连 续</w>
反 映</w>
e s</w>
按 照</w>
1 3</w>
正 是</w>
全 面</w>
球 队</w>
国 际
想 法</w>
a m
博 士</w>
西 方</w>
工 程
女 孩</w>
动 机</w>
社 区</w>
运 动
宣 布</w>
典 型</w>
消费 者</w>
意 思</w>
估 计</w>
后 来</w>
关 键
最 新</w>
现 实</w>
一 件</w>
自 身</w>
邮 件</w>
血 管</w>
事实 上</w>
性 质</w>
多 种</w>
l e</w>
规 律</w>
其 实</w>
普 通</w>
本 身</w>
上 帝</w>
接 触</w>
途 径</w>
主 题</w>
开 放</w>
亚 洲</w>
房 间</w>
吸 引</w>
伦 敦</w>
交 流</w>
能 源</w>
高 度</w>
房 子</w>
威 胁</w>
领 导
充 满</w>
战 略</w>
公 园</w>
面 对</w>
快 乐</w>
发 展
往 往</w>
上 面</w>
固 定</w>
逐 渐</w>
5 00</w>
助 于</w>
一 张</w>
肯 定</w>
设 施</w>
一 致</w>
办 法</w>
信 息
传 播</w>
确 实</w>
例 子</w>
W e
如 今</w>
仿 真</w>
领 导</w>
电 视
200 9</w>
转 换</w>
失 去</w>
现 有</w>
总 结</w>
o u
攻 击</w>
纽 约</w>
方 便</w>
之 中</w>
面 积</w>
不 可
同 意</w>
阅 读</w>
周 围</w>
事 实</w>
或 许</w>
搜 索</w>
突 然</w>
意 大
合 同</w>
文 学</w>
一 旦</w>
金 融
建 筑
利 益</w>
创 作</w>
构 造</w>
农 业</w>
首 次</w>
属 性</w>
打 开</w>
权 利</w>
形 态</w>
技 术
集 中</w>
提 取</w>
回 答</w>
存 储</w>
识 别</w>
年 龄</w>
电 路</w>
杂 志</w>
衣 服</w>
尼 亚</w>
流 程</w>
拉 克</w>
开 展</w>
坚 持</w>
以 色
输 出</w>
指 导</w>
发 出</w>
人 物</w>
命 令</w>
指 定</w>
缺 乏</w>
男 性</w>
下 面</w>
我 会</w>
职 业</w>
防 止</w>
坐 在</w>
贷 款</w>
应 力</w>
美 丽</w>
r i
l i
通 信</w>
经 理</w>
说 道</w>
工 厂</w>
机 械</w>
以色 列</w>
比 例</w>
发 挥</w>
享 受</w>
请 求</w>
准 确</w>
制 定</w>
e s
更 新</w>
密 度</w>
妻 子</w>
成 立</w>
进 展</w>
基 金</w>
现 场</w>
体 现</w>
2 4</w>
石 油</w>
安 排</w>
扩 展</w>
失 败</w>
拒 绝</w>
转 移</w>
高 兴</w>
清 单</w>
绿 色</w>
人 民
常 见</w>
2 1</w>
整 体</w>
提 升</w>
稳 定性</w>
之 外</w>
实 例</w>
品 质</w>
探 索</w>
市 场
1 9</w>
3 .
常 常</w>
个 月</w>
居 民</w>
承 认</w>
7 0</w>
含 有</w>
女 儿</w>
符 合</w>
办公 室</w>
道 路</w>
有 助于</w>
土 壤</w>
无 论</w>
支 付</w>
a l</w>
节 目</w>
1 7</w>
武 器</w>
启 动</w>
症 状</w>
玻 璃</w>
免 费</w>
态 度</w>
浓 度</w>
翻 译</w>
损 失</w>
完 善</w>
系 统
反 对</w>
几 年</w>
现 状</w>
蛋 白
抑 制</w>
接 近</w>
遇 到</w>
大 脑</w>
l e
形 象</w>
心 理</w>
方 程</w>
赢 得</w>
流 行</w>
意大 利</w>
证 据</w>
真 实</w>
四 个</w>
红 色</w>
强 调</w>
8 0</w>
现 代
框 架</w>
较 大</w>
以 便</w>
设 计
曲 线</w>
精 度</w>
正 式</w>
自 然
左 右</w>
非 洲</w>
投资 者</w>
刺 激</w>
分 类</w>
对 比</w>
原 料</w>
完 整</w>
停 止</w>
规 范</w>
分 配</w>
公 开</w>
定 位</w>
制 造
申 请</w>
补 充</w>
分 为</w>
气 体</w>
另 一
混 凝
上 述</w>
约 翰</w>
培 训</w>
维 护</w>
施 工</w>
心 理
值 得</w>
前 景</w>
大 鼠</w>
警 察</w>
自 由
收 集</w>
驱 动</w>
化 学
可 靠</w>
名 称</w>
周 期</w>
机 理</w>
苹 果</w>
有 趣</w>
异 常</w>
处 理
令 人
太 阳</w>
作 出</w>
组 件</w>
障 碍</w>
卫 生</w>
俱 乐
推 动</w>
o l
混凝 土</w>
在 线</w>
俱乐 部</w>
强 大</w>
频 率</w>
赛 季</w>
男 孩</w>
工 人</w>
星 期</w>
网 络
明 确</w>
从 事</w>
事 业</w>
比 亚</w>
双 方</w>
动 脉</w>
军 队</w>
依 然</w>
修 改</w>
上 去</w>
内 外</w>
因 子</w>
200 7</w>
文 档</w>
证 实</w>
习 惯</w>
实验 室</w>
一 座</w>
斯 特</w>
成 果</w>
不 管</w>
回 来</w>
伟 大</w>
小 组</w>
系 数</w>
冲 突</w>
协 会</w>
基 地</w>
预 防</w>
模 块</w>
交 通</w>
进 程</w>
还 要</w>
完 美</w>
明 白</w>
商 品</w>
作 家</w>
不 足</w>
离 子</w>
很 少</w>
主 席</w>
我 要</w>
南 部</w>
品 种</w>
图 片</w>
c h
物 理</w>
公 里</w>
参 考</w>
伤 害</w>
成 长</w>
o m
人 生</w>
扩 大</w>
普 遍</w>
免 疫</w>
重 大</w>
北 部</w>
预 计</w>
引 发</w>
克 斯</w>
月 份</w>
太 阳
收 到</w>
提 到</w>
机 器</w>
到 达</w>
20 0</w>
根 本</w>
不 错</w>
逻 辑</w>
留 下</w>
动 作</w>
吸 收</w>
所 谓</w>
医 疗</w>
缺 陷</w>
西 班
更 为</w>
情 绪</w>
记 忆</w>
农 村</w>
数 值</w>
近 年来</w>
预 期</w>
电 池</w>
监 测</w>
能 性</w>
并 非</w>
N A</w>
意 见</w>
正 如</w>
释 放</w>
获 取</w>
i n</w>
声 明</w>
联 网</w>
客 户
来 源</w>
机 器
韩 国</w>
统 计</w>
家 人</w>
综 合
澳 大
人 群</w>
高 级</w>
生 态</w>
给 予</w>
中 间</w>
X ML</w>
解决 方案</w>
旅 行</w>
终 于</w>
单 元</w>
华 盛
对 此</w>
面 前</w>
等 等</w>
3 %</w>
加 拿
9 0</w>
感 器</w>
发 育</w>
研 制</w>
那 种</w>
标 记</w>
保 存</w>
激 光</w>
步 骤</w>
思 考</w>
编 码</w>
高 效</w>
强 烈</w>
有 点</w>
资 本</w>
变 形</w>
幸 福</w>
页 面</w>
相 似</w>
拍 摄</w>
痛 苦</w>
合 金</w>
追 求</w>
公 布</w>
调 节</w>
优 点</w>
i on</w>
机 场</w>
公 共
目 录</w>
好 像</w>
不 想</w>
氧 化</w>
公 路</w>
部 队</w>
4 .
高 于</w>
格 兰</w>
事 故</w>
过 来</w>
承 诺</w>
对 手</w>
引 入</w>
作 业</w>
操 作
特 色</w>
故 障</w>
想 象</w>
适 当</w>
白 色</w>
标 志</w>
功 率</w>
像 是</w>
消 费</w>
出 去</w>
20 00</w>
2 %</w>
年 轻
统 一</w>
竞 争
宗 教</w>
i s
英 里</w>
复 合</w>
为 主</w>
公 共</w>
国 家
S O
重 视</w>
是 从</w>
成 熟</w>
维 持</w>
而 是</w>
先 进</w>
家 里</w>
得 出</w>
气 候</w>
要 性</w>
文 本</w>
自 动
放 弃</w>
和 平</w>
来 看</w>
各 地</w>
卫 生
确 认</w>
表 演</w>
相 反</w>
联 盟</w>
初 步</w>
分 享</w>
2 2</w>
传 输</w>
考 察</w>
森 林</w>
丈 夫</w>
传 感器</w>
随 后</w>
记 得</w>
地 面</w>
和 华</w>
理 念</w>
化 合物</w>
下 去</w>
评 论</w>
共 和
以 为</w>
产 量</w>
包 装</w>
耶 和华</w>
感 受</w>
格 式</w>
决 策</w>
体 验</w>
投 入</w>
1 %</w>
科 学
e c
一 块</w>
本 书</w>
百 分
编 辑</w>
交 换</w>
1 6
某 个</w>
深 入</w>
袭 击</w>
澳大 利亚</w>
200 6</w>
节 点</w>
看 来</w>
技 巧</w>
消 除</w>
一 套</w>
in g</w>
机器 人</w>
金 融</w>
检 验</w>
带 有</w>
供 应
公 众</w>
保 险</w>
使 用
修 复</w>
展 开</w>
同 事</w>
返 回</w>
0. 0
电 流</w>
鼓 励</w>
加拿 大</w>
一 部</w>
时 刻</w>
潜 在</w>
互 联网</w>
为 止</w>
调 用</w>
一 半</w>
有 限</w>
观 念</w>
技 能</w>
响 应</w>
7 %</w>
顾 客</w>
覆 盖</w>
形 状</w>
S t
生 存</w>
教 学
精 神
等 待</w>
看 着</w>
制 品</w>
领导 人</w>
转 变</w>
出 生</w>
中 有</w>
理 由</w>
相 互</w>
日 子</w>
200 5</w>
有 机</w>
学 者</w>
万 美元</w>
部 长</w>
寻 求</w>
消 失</w>
选 举</w>
考 试</w>
传 递</w>
跟 踪</w>
满 意</w>
想 到</w>
辐 射</w>
合 适</w>
尺 寸</w>
保 障</w>
上 涨</w>
利 于</w>
飞 行</w>
耶 稣</w>
少 年</w>
运 输</w>
两 年</w>
a d
即 将</w>
国 人</w>
接 着</w>
权 力</w>
推 出</w>
突 出</w>
学 会</w>
常 规</w>
非 线性</w>
股 票</w>
贡 献</w>
医 学</w>
农 民</w>
阿 拉
u r
最 初</w>
通 道</w>
l o
细 节</w>
民 主
头 发</w>
图 书
犯 罪</w>
这 场</w>
流 动</w>
婴 儿</w>
生 态
有 所</w>
律 师</w>
误 差</w>
海 洋</w>
下 午</w>
法 院</w>
建 造</w>
判 断</w>
5 .
演 员</w>
t h
打 算</w>
第 三</w>
网 上</w>
卫 星</w>
商 业
安全 性</w>
a g
模 糊</w>
当 中</w>
变 量</w>
冠 军</w>
环 境
蛋白 质</w>
出 发</w>
年轻 人</w>
感 谢</w>
批 评</w>
充 分</w>
C A
2 3</w>
身 份</w>
警 告</w>
二 十
显 然</w>
回 家</w>
发 言
天 然</w>
事 务</w>
一 段</w>
部 件</w>
怀 疑</w>
关 联</w>
保 留</w>
接 口</w>
每 次</w>
一 片</w>
改 造</w>
产 品
难 以</w>
接 下来</w>
电 机</w>
一 边</w>
倾 向</w>
不 用</w>
假 设</w>
小 型</w>
4 %</w>
成 绩</w>
We b</w>
细 菌</w>
列 表</w>
硬 件</w>
地 址</w>
议 员</w>
华盛 顿</w>
众 多</w>
梦 想</w>
2 8</w>
电 压</w>
影 片</w>
进 步</w>
数 学</w>
阿 尔
真 是</w>
燃 料</w>
咖 啡</w>
推 广</w>
呈 现</w>
阳 光</w>
胜 利</w>
平 面</w>
代 理</w>
人 数</w>
8 %</w>
本 发明</w>
西 部</w>
相 互
么 样</w>
至 于</w>
匹 配</w>
历 史
原 来</w>
读 者</w>
体 育</w>
优 秀</w>
界 面</w>
体 育
各 个</w>
应 对</w>
无 论
振 动</w>
层 次</w>
链 接</w>
关 闭</w>
序 列</w>
公 式</w>
重 复</w>
联合 国</w>
查 询</w>
西班 牙</w>
三 种</w>
病 例</w>
干 扰</w>
19 7
脂 肪</w>
采 访</w>
I n
英 尺</w>
综 述</w>
商 店</w>
营 养</w>
u n
老 板</w>
音 乐
做 到</w>
哲 学</w>
旋 转</w>
阻 止</w>
后 面</w>
出 版</w>
立 即</w>
那 时</w>
大 陆</w>
年 人</w>
就 要</w>
埃 及</w>
伙 伴</w>
群 体</w>
融 合</w>
国 内外</w>
小 鼠</w>
3 5</w>
本 人</w>
绝 对</w>
高 速</w>
掌 握</w>
伊 拉克</w>
阿 富
随 机</w>
c o
尔 斯</w>
事 物</w>
源 于</w>
种 类</w>
有 效
观 众</w>
局 部</w>
运动 员</w>
可 能性</w>
移 植</w>
女 士</w>
共 享</w>
发言 人</w>
急 性</w>
成 就</w>
爱 情</w>
有 用</w>
7 .
全 世界</w>
疫 苗</w>
穿 着</w>
人 体</w>
人 才</w>
债 务</w>
说 话</w>
居 住</w>
e n</w>
男 子</w>
工 业
图书 馆</w>
通 知</w>
主 体</w>
部 署</w>
文 件
糖 尿
装 饰</w>
显 得</w>
供 应</w>
发 射</w>
色 彩</w>
协 调</w>
车 辆</w>
哪 里</w>
专 门</w>
黑 色</w>
信 心</w>
2 6</w>
段 时间</w>
扫 描</w>
生 素</w>
教 练</w>
分 之一</w>
集 成</w>
颗 粒</w>
结 构
呼 吸</w>
花 费</w>
见 到</w>
C T</w>
阿富 汗</w>
注 册</w>
统 计
禁 止</w>
动 力学</w>
3 2</w>
智 能</w>
严 格</w>
士 兵</w>
第 四
控制 系统</w>
血 液</w>
墨 西
天 气</w>
货 币</w>
化 剂</w>
最 小</w>
A P
部 位</w>
寿 命</w>
不 久</w>
前 面</w>
三 维</w>
已 有</w>
实 时</w>
效 益</w>
6 .
紧 张</w>
冲 击</w>
长 度</w>
流 量</w>
保 护
边 缘</w>
古 代</w>
发 动机</w>
大 规模</w>
道 德</w>
运 会</w>
刚 刚</w>
引 擎</w>
6 %</w>
配 合</w>
举 办</w>
担 任</w>
糖尿 病</w>
e l</w>
术 后</w>
首 席</w>
铁 路</w>
答 案</w>
所 在</w>
200 4</w>
国 外</w>
各 国</w>
之 下</w>
不 少</w>
联 邦</w>
博 客</w>
外 部</w>
漂 亮</w>
基 础
国 王</w>
看 法</w>
情 感</w>
夫 人</w>
地 产</w>
其 他人</w>
文 字</w>
体 内</w>
树 脂</w>
实 用
出 售</w>
的 确</w>
取 代</w>
旨 在</w>
均 匀</w>
人 工</w>
期 望</w>
否 则</w>
艾 滋
巴 基
精 确</w>
3 00</w>
轨 道</w>
航 空
低 于</w>
弹 性</w>
总 理</w>
e m
发 生
2 7</w>
进 口</w>
同 学</w>
谷 歌</w>
朝 鲜</w>
屏 幕</w>
关 节</w>
交 通
细 胞
同 步</w>
游 客</w>
种 子</w>
收 益</w>
心 脏</w>
希 腊</w>
路 径</w>
结 婚</w>
军 事</w>
本 质</w>
下 载</w>
治 理</w>
依 赖</w>
常 用</w>
罗 马</w>
叫 做</w>
报 纸</w>
艺术 家</w>
产 物</w>
大 学生</w>
4 5</w>
营 销</w>
管 道</w>
具 备</w>
监 控</w>
燃 烧</w>
伊 朗</w>
一 个
额 外</w>
国 会</w>
练 习</w>
辅 助</w>
文 明</w>
加 上</w>
财 富</w>
重 建</w>
政 治
对 方</w>
非 常
好 处</w>
兄 弟</w>
利 润</w>
A S
研 发</w>
区 别</w>
革 命</w>
思 维</w>
这 家</w>
损 害</w>
批 准</w>
a p
20 11</w>
爆 炸</w>
礼 物</w>
民 主</w>
为 例</w>
D NA</w>
合 并</w>
期 待</w>
官 方</w>
引 导</w>
长 时间</w>
文 献</w>
饮 食</w>
路 上</w>
灵 魂</w>
行 性</w>
某 种</w>
做 法</w>
巴基 斯坦</w>
较 为</w>
私 人</w>
实 行</w>
毕 业</w>
巴 西</w>
从 来</w>
软 件
新 闻
标 签</w>
护 理</w>
邀 请</w>
为 此</w>
经 典</w>
因 而</w>
外 国</w>
行 政</w>
替 代</w>
此 次</w>
C h
场 景</w>
将 来</w>
9 %</w>
清 洁</w>
转 化</w>
塑 料</w>
视 觉</w>
本 地</w>
地 点</w>
博 物
不 得</w>
H T
不 仅仅</w>
移 民</w>
分析 师</w>
极 大</w>
敏 感</w>
压 缩</w>
得 以</w>
一 代</w>
蓝 色</w>
基 督
i m
激 素</w>
打 击</w>
到 底</w>
婚 姻</w>
1 7
垃 圾</w>
认 知</w>
选 项</w>
提 示</w>
昨 天</w>
视 为</w>
中 央</w>
所 说</w>
不 了</w>
天 空</w>
不 起</w>
有 利于</w>
单 独</w>
理 性</w>
更 大</w>
信 仰</w>
夏 天</w>
变 换</w>
引 用</w>
o t
免 疫
很 难</w>
课 题</w>
文 中</w>
慢 性</w>
多 么</w>
最 为</w>
这 件</w>
熟 悉</w>
受 伤</w>
团 体</w>
自 行
行 星</w>
肌 肉</w>
一 生</w>
西 亚</w>
别 的</w>
o w
组 成
组成 部分</w>
通 用</w>
智 慧</w>
对 话</w>
体 制</w>
C O
e t</w>
自 从</w>
说 法</w>
内 存</w>
过 度</w>
达 成</w>
服 装</w>
控制 器</w>
睡 眠</w>
矛 盾</w>
克 尔</w>
爸 爸</w>
可 用</w>
美 好</w>
推 荐</w>
家 族</w>
9 .
记 住</w>
关 心</w>
其 次</w>
推 进</w>
教 堂</w>
做 好</w>
癌 症</w>
声 称</w>
数 字
博物 馆</w>
奥 运会</w>
保 罗</w>
餐 厅</w>
明 天</w>
早 上</w>
警 方</w>
水 果</w>
商 务</w>
原 子</w>
援 助</w>
信 任</w>
提 交</w>
保 险
预 算</w>
除 非</w>
欧 元</w>
学 科</w>
液 体</w>
样 品</w>
轻 松</w>
队 伍</w>
名 为</w>
房 屋</w>
开 关</w>
I B
克 里
可 靠
交 易
一 支</w>
这 部</w>
环 保</w>
血 清</w>
制造 商</w>
这 座</w>
噪 声</w>
可 行</w>
几 种</w>
导 弹</w>
血 压</w>
边 界</w>
清 晰</w>
前 往</w>
同 一</w>
力 于</w>
周 末</w>
重 要性</w>
种 植</w>
有 时候</w>
谈 判</w>
发 性</w>
所 示</w>
一 组</w>
文 化
原 始</w>
有 力</w>
不 够</w>
承 担</w>
可 见</w>
致 力于</w>
上 周</w>
蔬 菜</w>
庆 祝</w>
下 跌</w>
感 兴趣</w>
就 业</w>
那 儿</w>
假 如</w>
敌 人</w>
对 照
容 器</w>
高 校</w>
取 消</w>
要 是</w>
宣 传</w>
剂 量</w>
尔 德</w>
可靠 性</w>
疗 法</w>
至 今</w>
足 球</w>
岩 石</w>
糟 糕</w>
公 民</w>
看 上去</w>
在 内</w>
制 成</w>
时 尚</w>
马 上</w>
执 行
复 合
战 斗</w>
对照 组</w>
葡萄 酒</w>
及 时</w>
哪 些</w>
一 群</w>
老 人</w>
发 送</w>
大 概</w>
研究 者</w>
排 放</w>
害 怕</w>
S A
求 解</w>
古 老</w>
利 率</w>
200 3</w>
地 上</w>
物 种</w>
咨 询</w>
命 名</w>
运 作</w>
却 是</w>
物 品</w>
以 外</w>
印 象</w>
恐 惧</w>
代 表
这 儿</w>
日 益</w>
个 人
三 年</w>
u s
争 议</w>
遗 传</w>
作 物</w>
活 力</w>
欧 盟</w>
2 9</w>
地 图</w>
案 例</w>
一 类</w>
明 星</w>
百 万</w>
P C
决 于</w>
矩 阵</w>
. .
脉 冲</w>
知 识
大 卫</w>
8 .
取 决于</w>
黄 金</w>
到 来</w>
增 大</w>
支 撑</w>
高 温</w>
虚 拟</w>
超 声</w>
延 长</w>
工 资</w>
I D</w>
基 因
深 度</w>
如 同</w>
p h
黄 色</w>
今 后</w>
a b
总 体</w>
用 途</w>
A T
深 刻</w>
多 次</w>
几 天</w>
宇 宙</w>
营 养
伯 特</w>
遭 到</w>
扮 演</w>
充 分
接 收</w>
慢 慢</w>
反 应
玉 米</w>
一 篇</w>
编 写</w>
3 1</w>
饮 料</w>
超 级</w>
揭 示</w>
采 集</w>
相 结合</w>
主 任</w>
粒 子</w>
一 辆</w>
首 都</w>
收 购</w>
始 终</w>
一 体</w>
统 治</w>
分 解</w>
地 质</w>
发 行</w>
诱 导</w>
青 年</w>
程 序
测 试
实 在</w>
介 质</w>
1 5
减 轻</w>
走 向</w>
是 说</w>
多 样
疼 痛</w>
年 前</w>
写 作</w>
富 有</w>
姆 斯</w>
仪 器</w>
身 边</w>
D B
o r</w>
雷 达</w>
简 要</w>
北 京
艾滋 病</w>
航 空</w>
季 度</w>
静 脉</w>
异 性</w>
黑 暗</w>
任 何
M S</w>
透 露</w>
这 时</w>
遭 受</w>
样 子</w>
案 件</w>
外 交
和 谐</w>
a r</w>
脚 本</w>
P S</w>
代 替</w>
删 除</w>
不 好</w>
热 情</w>
注 射</w>
电子 邮件</w>
er v
纳 米</w>
研究 所</w>
暴 力</w>
创 造
这 份</w>
电 力</w>
利 物
观 测</w>
麻 烦</w>
0 0
机 械
体 重</w>
全 球
微 软</w>
天 然
供应 商</w>
忘 记</w>
查 看</w>
青 少年</w>
从 未</w>
穿 过</w>
聪 明</w>
u t
工程 师</w>
物 理
海 岸</w>
加 热</w>
爆 发</w>
心 里</w>
基 金
聚 集</w>
感 情</w>
小 孩</w>
催 化剂</w>
注 意
最 低</w>
复 制</w>
各 类</w>
还 会</w>
提 醒</w>
计算 机
一 周</w>
数 学
太 空</w>
19 6
话 题</w>
利物 浦</w>
本 周</w>
拉 斯</w>
顾 问</w>
物 体</w>
英 格兰</w>
单 一</w>
回 归</w>
约 束</w>
两 次</w>
示 例</w>
货 物</w>
加 速</w>
室 内</w>
纽 约
场 所</w>
仪 式</w>
窗 口</w>
渴 望</w>
演 讲</w>
年 度</w>
起 到</w>
巴 黎</w>
防 治</w>
教 育
优 质</w>
房 地产</w>
速 率</w>
认 证</w>
盆 地</w>
当 代</w>
相 关
无论 是</w>
设 立</w>
in d
干 燥</w>
简 化</w>
代 谢</w>
气 候
耦 合</w>
民 众</w>
个 体</w>
划 分</w>
纪 录</w>
架 构</w>
整 合</w>
级 别</w>
高 压</w>
编 程</w>
恐 怖
转 向</w>
花 园</w>
玩 具</w>
周 一</w>
一 本</w>
衰 退</w>
观 看</w>
e b
e d</w>
映 射</w>
日 期</w>
装 备</w>
溶 液</w>
而 成</w>
各 自</w>
自动 化</w>
彼 此</w>
补 偿</w>
两 人</w>
沟 通</w>
英 语
联 赛</w>
广 场</w>
伊 斯
层 面</w>
更 改</w>
足 以</w>
o s
教 会</w>
出 版
圣 诞
受 欢迎</w>
监 管</w>
五 年</w>
4 00</w>
芯 片</w>
激 励</w>
周 五</w>
五 个</w>
一 段时间</w>
密 码</w>
基 督</w>
主 人</w>
高 速
外 面</w>
焊 接</w>
可 行性</w>
沉 积</w>
危 害</w>
休 息</w>
喜 爱</w>
监 督</w>
平 均
英 文</w>
样 本</w>
学 位</w>
回 收</w>
膨 胀</w>
汉 语</w>
加 以</w>
成 像</w>
光 学</w>
e d
玻 璃
毫 无
协 助</w>
立 法</w>
电 站</w>
客 人</w>
处理 器</w>
依 靠</w>
债 券</w>
东 部</w>
纤 维
电 源</w>
公 平</w>
投 票</w>
专 业
现代 化</w>
味 道</w>
广 泛
对 待</w>
城 市
尊 重</w>
围 绕</w>
有 机
财 政
淋 巴
地 下</w>
引 力</w>
激 烈</w>
兴 奋</w>
女 子</w>
由 此</w>
骨 折</w>
墨西 哥</w>
表 达
销 售
o d
微 笑</w>
与 其</w>
远 程</w>
I S
舒 适</w>
符 号</w>
职 业
金 属
克 力</w>
自行 车</w>
i r
所 述</w>
平 方
第二 个</w>
奇 怪</w>
对 策</w>
心 中</w>
合 作
诉 讼</w>
另一 方面</w>
诗 歌</w>
光 谱</w>
设 定</w>
环 节</w>
难 以
生 涯</w>
大 会</w>
建 模</w>
企 业
鉴 定</w>
诸 如</w>
旁 边</w>
海 外</w>
i g
歌 曲</w>
与 此
景 观</w>
彻 底</w>
透 明</w>
讲 述</w>
升 级</w>
u l
总 部</w>
素 质</w>
太 太</w>
法 官</w>
尚 未</w>
一 句</w>
不 必</w>
扩 散</w>
陷 入</w>
象 征</w>
旅 游
英 雄</w>
中 文</w>
消 耗</w>
设计 师</w>
反 馈</w>
i v
强 化</w>
信 用
人民 币</w>
生 命
沿 着</w>
太阳 能</w>
出 色</w>
小 心</w>
之 上</w>
回 应</w>
杰 克</w>
参 观</w>
升 高</w>
超 越</w>
主 管</w>
米 兰</w>
社 交</w>
忽 视</w>
两 者</w>
潜 力</w>
全 新</w>
夫 妇</w>
加 州</w>
阶 级</w>
可 爱</w>
愤 怒</w>
意 外</w>
布 鲁
I T</w>
相 机</w>
主 动</w>
十 二
一 对</w>
前 提</w>
路 线</w>
P C</w>
面 向</w>
授 权</w>
克 服</w>
此 基础</w>
修 正</w>
临 床
周 二</w>
工作 人员</w>
劳 动</w>
网 页</w>
新 鲜</w>
缺 点</w>
不 多</w>
股 市</w>
中 央
干 预</w>
巧 克力</w>
般 的</w>
家 具</w>
现 金</w>
进 化</w>
谢 谢</w>
名 单</w>
任 意</w>
牛 奶</w>
容 量</w>
对 应</w>
谈 论</w>
演 出</w>
P L
火 车</w>
职 位</w>
生物 学</w>
co m</w>
3 6</w>
咖 啡
财 产</w>
思 路</w>
有 个</w>
太 平
遗 传
担 忧</w>
新 加
印 度
想 起</w>
锻 炼</w>
腐 蚀</w>
论 坛</w>
此 时</w>
斯 特
事 会</w>
en t</w>
欣 赏</w>
通 讯</w>
选 人</w>
削 减</w>
用 品</w>
更 是</w>
空 中</w>
地 说</w>
200 2</w>
依 赖
逐 步</w>
领 袖</w>
街 道</w>
定 量</w>
伴 随</w>
名 叫</w>
叙 述</w>
即 可</w>
友 好</w>
标 准
IB M</w>
理 论
小 麦</w>
对 抗</w>
家 庭
以 此</w>
200 1</w>
支 持
共 同
模 板</w>
二 氧化
法 庭</w>
当 局</w>
r a
住 宅</w>
帝 国</w>
C D
厚 度</w>
过 于</w>
法 案</w>
A P</w>
放 松</w>
尼 斯</w>
腺 癌</w>
对 称</w>
尼 亚
i P
便 宜</w>
维 生素</w>
一 台</w>
后 者</w>
此 类</w>
斗 争</w>
争 论</w>
抱 怨</w>
并 发
地 下
等 级</w>
日 常</w>
以 往</w>
视 图</w>
前 后</w>
透 过</w>
一 颗</w>
总 裁</w>
不 同
影 像</w>
回 顾</w>
司 机</w>
P E
领 先</w>
性 别</w>
印 刷</w>
乔 治</w>
t er</w>
A n
听 说</w>
实 用</w>
u b
结果 显示</w>
病 变</w>
吸 附</w>
扩 张</w>
一 款</w>
海 军</w>
反 射</w>
所 有人</w>
流 体</w>
情 形</w>
对 照</w>
选 择
球 场</w>
并发 症</w>
心 灵</w>
气候 变化</w>
汽 车
橡 胶</w>
垂 直</w>
抗 议</w>
即 便</w>
飞 行
地 板</w>
布 什</w>
尔 顿</w>
公 寓</w>
能 否</w>
整 理</w>
有 权</w>
I P</w>
负 荷</w>
1 4
决 赛</w>
打 电话</w>
负 责
石 头</w>
大 大
图 形</w>
减 小</w>
美 洲</w>
这 张</w>
财 政</w>
国 务
幸 运</w>
夏 季</w>
现 实
高 中</w>
着 重</w>
娱 乐</w>
e v
基本 上</w>
C D</w>
医 疗
美 联
灾 难</w>
议 会</w>
1 000</w>
送 到</w>
签 署</w>
每 周</w>
运 营</w>
手 中</w>
那 天</w>
薄 膜</w>
保 健</w>
一 道</w>
支 出</w>
抓 住</w>
一 面</w>
尽 可能</w>
水 泥</w>
持 有</w>
命 运</w>
重 量</w>
南 方</w>
一 把</w>
任何 人</w>
复 杂
红 外</w>
婚 礼</w>
我 能</w>
马 克</w>
3 3</w>
广泛 应用</w>
神 秘</w>
证 书</w>
体 积</w>
加 快</w>
注 入</w>
各 种
与此 同时</w>
可 怕</w>
具 体
剩 下</w>
前 进</w>
携 带</w>
奥 斯
o c
背 后</w>
高 等
缺 少</w>
沃 尔
议 院</w>
疑 问</w>
i d
魅 力</w>
社会 主义</w>
光 纤</w>
展 现</w>
有 没有</w>
C P
隐 藏</w>
贸 易
老 鼠</w>
断 裂</w>
找 出</w>
打 破</w>
资 格</w>
灵 活</w>
大 气</w>
大 众</w>
过 滤</w>
食 用</w>
厨 房</w>
互 相</w>
生 意</w>
爱 尔
流 感</w>
大 楼</w>
面 包</w>
活 跃</w>
不 良</w>
指 示</w>
英 寸</w>
上 市</w>
C S
城 镇</w>
参 考
照 顾</w>
而 已</w>
19 5
靠 近</w>
讲 话</w>
要 素</w>
天然 气</w>
近 期</w>
立 刻</w>
陶 瓷</w>
混 乱</w>
药 品</w>
圣 经</w>
候 选人</w>
u s</w>
到 处</w>
布 莱
冷 却</w>
自 主</w>
泡 沫</w>
毒 性</w>
at ion</w>
采 购</w>
缓 慢</w>
会 谈</w>
A R
借 鉴</w>
微 生物</w>
制 剂</w>
按 钮</w>
走 进</w>
病 理</w>
马 克
愉 快</w>
回 忆</w>
推 导</w>
相 当
器 官</w>
操作 系统</w>
文 学
组 织
射 线</w>
机 关</w>
几 何</w>
竞 选</w>
股 价</w>
学 术</w>
内 涵</w>
排 名</w>
顺 序</w>
密 切</w>
写 道</w>
实 体</w>
注意 力</w>
季 节</w>
叶 片</w>
加 利
选 手</w>
购 物</w>
缓 解</w>
周 四</w>
中 学</w>
7 5</w>
新加 坡</w>
站 点</w>
啤 酒</w>
O S</w>
审 查</w>
代 价</w>
语 音</w>
就 是说</w>
指 控</w>
汤 姆</w>
I S</w>
词 汇</w>
家 长</w>
基金 会</w>
繁 荣</w>
工 艺
优 于</w>
新 兴</w>
开 心</w>
临 时</w>
自 信</w>
服 用</w>
客户 端</w>
线 路</w>
语 法</w>
呼 吁</w>
动 性</w>
B A</w>
现 出</w>
一 个月</w>
温 暖</w>
布 朗</w>
氨 酸</w>
家 伙</w>
度 过</w>
E S
酸 盐</w>
球 迷</w>
浪 费</w>
0.0 5</w>
有限 元</w>
两 位</w>
短 期</w>
手 指</w>
监 狱</w>
明 年</w>
出 席</w>
再 生</w>
优 良</w>
筛 选</w>
最 早</w>
有效 性</w>
影 响
平 等</w>
相关 性</w>
必 然</w>
世界 各地</w>
调 查
水 分</w>
民主 党</w>
每 日</w>
元 件</w>
3 4</w>
体 外</w>
遭 遇</w>
人 会</w>
专 利</w>
些 时候</w>
诗 人</w>
姑 娘</w>
乘 客</w>
脸 上</w>
隧 道</w>
疲 劳</w>
主 义
解 析</w>
驾 驶</w>
影响 力</w>
南 非</w>
复 苏</w>
此 前</w>
插 入</w>
并 未</w>
建筑 物</w>
单 词</w>
出 血</w>
农 场</w>
立 场</w>
乙 烯</w>
分 裂</w>
分 散</w>
重 新
内 在</w>
密 切
弯 曲</w>
惊 讶</w>
留 在</w>
一 层</w>
S h
差 别</w>
英 国
少 数</w>
条 款</w>
会 员</w>
D P</w>
行 情</w>
忽 略</w>
三 角
形 势</w>
进 而</w>
i on
p l
证 券</w>
承 受</w>
4 8</w>
洛 杉
促 使</w>
利 比亚</w>
点 击</w>
遵 循</w>
回 报</w>
毕 业
指 责</w>
e x
抗 体</w>
主 张</w>
生 理</w>
放 置</w>
L in
用 作</w>
动 物
低 温</w>
电 影
幅 度</w>
之 处</w>
油 田</w>
3 7</w>
非 法</w>
布 斯</w>
发 病</w>
会 儿</w>
一 间</w>
为 何</w>
各 样</w>
经济 学家</w>
年 间</w>
镜 头</w>
后 果</w>
迁 移</w>
突 破</w>
发展 中
发展中 国家</w>
不 见</w>
无 线</w>
负 载</w>
股 份</w>
虚 拟
荷 兰</w>
舞 蹈</w>
焦 虑</w>
g le</w>
负责 人</w>
玩 家</w>
零 件</w>
导 演</w>
资 助</w>
字 符</w>
书 籍</w>
河 流</w>
专 用</w>
波 动</w>
财 务</w>
密 封</w>
s e</w>
选 用</w>
杆 菌</w>
o p
进 来</w>
器 件</w>
无 疑</w>
哪 个</w>
谈 话</w>
疯 狂</w>
杀 死</w>
生 活
暴 露</w>
多样 性</w>
今 日</w>
不 停</w>
失 望</w>
交 叉</w>
队 员</w>
周 日</w>
酒 吧</w>
定 制</w>
早 晨</w>
分 泌</w>
储 存</w>
清 除</w>
负 担</w>
认 可</w>
3 8</w>
顺 利</w>
艰 难</w>
集 合</w>
电 器</w>
内 心</w>
切 尔
维 修</w>
主义 者</w>
字 符
第二 天</w>
电 极</w>
无 线
斯 坦
M ar
配 方</w>
这 名</w>
晶 体</w>
普 通
深 入
受 体</w>
司 法</w>
心 脏
不 安</w>
民 族
曼 联</w>
迹 象</w>
王 子</w>
年 级</w>
S P
诸 多</w>
行 政
远 远</w>
泰 国</w>
价 值
C E
进 球</w>
on e</w>
a d</w>
相互 作用</w>
退 休</w>
离 子
准 则</w>
s h
资 源
赋 予</w>
排 除</w>
乐 观</w>
模 具</w>
认 真</w>
延 伸</w>
世界 杯</w>
发 酵</w>
中国 政府</w>
6 00</w>
谈 到</w>
大 多</w>
干 净</w>
精 力</w>
暗 示</w>
一 大
提 前</w>
清 洗</w>
探 测</w>
用 户
作 战</w>
轴 承</w>
大 于</w>
安 德
1 0%</w>
广 州</w>
布 局</w>
迈 克尔</w>
有 所
乡 村</w>
一 根</w>
穆 斯
i s</w>
oo k</w>
远 离</w>
积 累</w>
创 意</w>
登 记</w>
灰 色</w>
他 会</w>
字 母</w>
有 益</w>
类 别</w>
区 分</w>
焦 点</w>
出 于</w>
6 5</w>
金 钱</w>
价 格
摘 要</w>
北 方</w>
华 尔
表 格</w>
插 件</w>
u m
之 内</w>
黑 人</w>
聚 合物</w>
继 承</w>
放 射
激 发</w>
仔 细</w>
染 色
摄 影</w>
之 为</w>
瑞 士</w>
水 中</w>
太 多</w>
绘 画</w>
不 知</w>
不 但</w>
线 程</w>
并 不
追 踪</w>
准 确
o b
a k
个 性</w>
重 组</w>
节 能</w>
当 今</w>
舞 台</w>
要 么</w>
静 态</w>
热 量</w>
引 进</w>
进 去</w>
一 所</w>
否 认</w>
昂 贵</w>
en t
时 光</w>
订 单</w>
简 直</w>
oo gle</w>
相当 于</w>
将 要</w>
测 器</w>
极 端</w>
数 目</w>
太平 洋</w>
性 化</w>
火 山</w>
4 2</w>
之 类</w>
附 加</w>
高 达</w>
长 期
T h
D S
参 与
智 能
c e</w>
许 可</w>
D A</w>
定 期</w>
一 度</w>
当 作</w>
数学 模型</w>
隔 离</w>
劳 动
付 出</w>
织 物</w>
真 空</w>
桌 子</w>
申 请
融 资</w>
只 会</w>
积 分</w>
竞争 力</w>
白 宫</w>
提 供
爱尔 兰</w>
成 型</w>
难 题</w>
纪 念</w>
信 贷</w>
犹 太
之 所以</w>
索 引</w>
民 间</w>
检 索</w>
激 活</w>
1 50</w>
不 锈
玛 丽</w>
无 需</w>
L E
怎 么样</w>
维 尔</w>
本 来</w>
粮 食</w>
实 力</w>
长 大</w>
积 极
游 泳</w>
贝 尔</w>
小 学</w>
发 起</w>
纪 念
笔 者</w>
如 下</w>
遵 守</w>
上 下
志 愿
i a</w>
网 格</w>
大 幅</w>
频 繁</w>
I M
肌 肤</w>
洛杉 矶</w>
零 售
画 面</w>
义 务</w>
一 点
税 收</w>
心 情</w>
送 给</w>
共 有</w>
表达 式</w>
军 事
土 耳
优 先</w>
该 国</w>
空 调</w>
尸 体</w>
客 观</w>
决 心</w>
地 层</w>
加 载</w>
港 口</w>
节 日</w>
最 优</w>
什 么样</w>
心理 学</w>
涂 料</w>
主 流</w>
i t</w>
摄 影
穆斯 林</w>
互 动</w>
天 线</w>
毫 无</w>
极 其</w>
困 境</w>
彼 得</w>
乐 队</w>
芝 加
火 箭</w>
电视 台</w>
荧 光</w>
家 中</w>
中 部</w>
聚 会</w>
学 习
未 能</w>
20 %</w>
宣 称</w>
随 时</w>
易 于</w>
上 午</w>
一 百
庞 大</w>
溶 剂</w>
欧 洲
分 化</w>
分 割</w>
电 厂</w>
分析 方法</w>
造 型</w>
播 放</w>
拿 到</w>
广 阔</w>
航空 公司</w>
称 之为</w>
究 竟</w>
据 说</w>
s on</w>
成 形</w>
载 体</w>
约 翰
东 京</w>
紧 急</w>
校 园</w>
最 高
字符 串</w>
银 行
日 志</w>
克 逊</w>
S T
第 四</w>
号 码</w>
简 便</w>
各 项</w>
图 案</w>
苏 联</w>
占 据</w>
亲 爱</w>
阻 碍</w>
至 关
去 除</w>
灾 害</w>
共和 党</w>
展 览</w>
它 会</w>
视 角</w>
基础 设施</w>
切 除</w>
发 光</w>
冬 天</w>
餐 馆</w>
击 败</w>
流 域</w>
宝 宝</w>
吸 引力</w>
这 会</w>
注 重</w>
斯 科</w>
清 理</w>
直 径</w>
专 注</w>
两 国</w>
交 互</w>
过 渡</w>
挖 掘</w>
A C
切尔 西</w>
便 是</w>
摆 脱</w>
好 好</w>
地 理</w>
地 带</w>
性 恋</w>
船 舶</w>
里 克</w>
不 愿</w>
降 解</w>
彩 色</w>
S E
渠 道</w>
采 取
不 变</w>
至关 重要</w>
固 体</w>
海 滩</w>
去 世</w>
列 出</w>
冒 险</w>
激 光
州 市</w>
屋 顶</w>
那 位</w>
u x</w>
签 名</w>
救 援</w>
暂 时</w>
年 底</w>
询 问</w>
D S</w>
睡 觉</w>
产 权</w>
腐 败</w>
拯 救</w>
窗 户</w>
a t</w>
惊 人</w>
沙 漠</w>
浏 览</w>
桥 梁</w>
审 美</w>
下 滑</w>
路 透</w>
物 流</w>
无 限</w>
受 害
电 力
摩 擦</w>
合 法</w>
B C</w>
人 权</w>
一 大</w>
林 顿</w>
I C
an d</w>
波 器</w>
AP I</w>
皇 家</w>
春 天</w>
功 能
保 持
衡 量</w>
葡 萄</w>
差 不多</w>
理 学</w>
志愿 者</w>
干 细胞</w>
an d
将 军</w>
佛 罗
怀 孕</w>
反 复</w>
信 用</w>
性 格</w>
电 话
霉 素</w>
连 接
尺 度</w>
同 一个</w>
显 示
尼 尔</w>
模 拟
不 良
后 期</w>
淀 粉</w>
改 性</w>
根 本
分 辨
浪 漫</w>
不 幸</w>
机 组</w>
心脏 病</w>
天 堂</w>
胶 囊</w>
学 术
洪 水</w>
基督 教</w>
加利 福
热 点</w>
G oogle</w>
进 攻</w>
贫 困</w>
必 需</w>
外 观</w>
等 于</w>
分 支</w>
质 疑</w>
有 利</w>
节 省</w>
法 规</w>
感 性</w>
收 缩</w>
5 5</w>
I N
变 异</w>
8 00</w>
詹 姆斯</w>
场 合</w>
越 南</w>
底 部</w>
谨 慎</w>
树 木</w>
术 语</w>
很 小</w>
HT ML</w>
诞 生</w>
从 中</w>
中 期</w>
导 体</w>
位 移</w>
驱 动
东 方</w>
T P</w>
千 年</w>
传 说</w>
讨 厌</w>
科 技
牙 齿</w>
显 微
玫 瑰</w>
周 六</w>
一 杯</w>
二 维</w>
初 始</w>
不锈 钢</w>
支 架</w>
紧 密</w>
硬 化</w>
磁 场</w>
报 导</w>
哥 伦
利 用
天 使</w>
缩 短</w>
渗 透</w>
不 论</w>
高 血压</w>
子 宫</w>
神经 网络</w>
延 迟</w>
分 区</w>
两 名</w>
综合 征</w>
种 族</w>
自 杀</w>
召 开</w>
A C</w>
邻 居</w>
航 天
A p
R e
看 出</w>
带 领</w>
处 在</w>
友 谊</w>
列 车</w>
伴 侣</w>
直 升
搭 配</w>
人 工
中 药</w>
复合 材料</w>
3 9</w>
演 变</w>
抵 达</w>
威 廉</w>
杰 克逊</w>
吸 烟</w>
会 计</w>
马 斯</w>
宠 物</w>
迭 代</w>
极 为</w>
大 豆</w>
默 认</w>
4 4</w>
向 前</w>
脂 肪
I P
告 知</w>
阿 森
股 东</w>
吃 饭</w>
c on
戏 剧</w>
患 有</w>
储 备</w>
这 方面</w>
用 性</w>
概 述</w>
提 议</w>
安 静</w>
单 个</w>
群 众</w>
199 9</w>
适 应
肥 胖</w>
似 的</w>
适 宜</w>
海 水</w>
变 革</w>
菜 单</w>
放 到</w>
圆 形</w>
分 布
约 会</w>
光 线</w>
5 0%</w>
真 理</w>
十 字
调 度</w>
被 迫</w>
阿拉 伯</w>
论 证</w>
广 大</w>
参与 者</w>
一 处</w>
美 学</w>
空 间
计算 方法</w>
饭 店</w>
液 压</w>
气 管</w>
平 静</w>
不 如</w>
大 师</w>
导 航</w>
尽 量</w>
切 割</w>
夜 晚</w>
持 久</w>
如 说</w>
四 年</w>
史 蒂
S erv
激 情</w>
冬 季</w>
一 方面</w>
自 我
明 显
酒 精</w>
予 以</w>
护 士</w>
一 同</w>
不 住</w>
S Q
广 告
祝 福</w>
变 化
制 约</w>
开 支</w>
商 人</w>
E T</w>
上 海
M a
开 采</w>
演 示</w>
带 到</w>
反 对
土耳 其</w>
用 水</w>
开发 人员</w>
a s</w>
村 庄</w>
入 侵</w>
知 名</w>
新 生
指 导
老 年</w>
6 4</w>
催 化</w>
目 前
选 取</w>
破 产</w>
卡 尔</w>
活 性
开 放
苹 果
成 年人</w>
增 长
得 知</w>
差 距</w>
导 向</w>
指 南</w>
填 充</w>
当 年</w>
仿 佛</w>
一 人</w>
质 量
主 机</w>
更 换</w>
高速 公路</w>
审 判</w>
毕 竟</w>
神经 元</w>
罗 伯特</w>
磨 损</w>
氨 基
比 尔</w>
1 2
螺 旋</w>
档 案</w>
概 率</w>
突 变</w>
微 波</w>
0 1</w>
设 有</w>
武 装</w>
生 长
里 斯</w>
资 本
共和 国</w>
少 量</w>
存 储
阿森 纳</w>
编 制</w>
眼 镜</w>
齿 轮</w>
聚 合</w>
S C
气 氛</w>
开 车</w>
发 电</w>
恒 星</w>
集 体</w>
含 义</w>
当 天</w>
高 质量</w>
目前 为止</w>
排 列</w>
呼 吸
回 去</w>
t er
指 令</w>
工 作者</w>
DB 2</w>
并 用</w>
雇 员</w>
政 权</w>
变 更</w>
分 开</w>
一 会儿</w>
大 大</w>
语 义</w>
狭 窄</w>
课 堂</w>
享 有</w>
威 尔</w>
车 站</w>
德 尔</w>
c h</w>
退 出</w>
生 日</w>
英 镑</w>
调 控</w>
碰 撞</w>
一 声</w>
听 见</w>
分辨 率</w>
二 次</w>
4 6</w>
而 来</w>
手 工</w>
协 作</w>
依赖 于</w>
走 出</w>
致 命</w>
住 房</w>
主 意</w>
热 带</w>
所 得</w>
水 量</w>
应 变</w>
宪 法</w>
转 换
收 藏</w>
损 坏</w>
199 8</w>
炸 弹</w>
污 染
分 数</w>
a m</w>
监 视</w>
交 谈</w>
既 然</w>
客户 机</w>
集 群</w>
思 想
阳 性</w>
外 科</w>
人 格</w>
打 印</w>
染 色</w>
电 缆</w>
脱 离</w>
只 不过</w>
流 行
困 扰</w>
预 报</w>
违 反</w>
温 和</w>
露 出</w>
芝加 哥</w>
普 遍
持 续
为 期</w>
蛋 糕</w>
9 9</w>
瑞 典</w>
国 民
克 莱
月 球</w>
注 射
失 业</w>
初 期</w>
央 行</w>
国 有
极 限</w>
4 7</w>
使用 者</w>
集 中
床 上</w>
4 9</w>
毒 素</w>
标 题</w>
上 来</w>
演 化</w>
把 握</w>
卡 车</w>
渐 渐</w>
广 播
会 计
木 材</w>
支持 者</w>
帽 子</w>
A M
无 关</w>
摄 像
布 置</w>
一 门</w>
愿 望</w>
时 报</w>
饱 和</w>
斯 顿</w>
提 取
海 上</w>
始 人</w>
日 报</w>
崩 溃</w>
今 晚</w>
次 数</w>
死 亡
实 践
战 胜</w>
染色 体</w>
生 气</w>
斯 蒂
广 播</w>
色 素</w>
昆 虫</w>
史 密
公 正</w>
市 民</w>
塑 料
看 作</w>
教 徒</w>
克 林顿</w>
办 理</w>
门 口</w>
体 化</w>
二氧化 碳</w>
百分 之
勇 气</w>
分 子
封 闭</w>
两 组</w>
选择 性</w>
汇 率</w>
水 稻</w>
鉴 别</w>
落 后</w>
莱 坞</w>
裂 缝</w>
秩 序</w>
收 获</w>
实 质</w>
F ac
鸡 蛋</w>
苏 格兰</w>
节 奏</w>
寻 常</w>
C on
钢 琴</w>
第 五
鼻 子</w>
就 算</w>
or t
亨 利</w>
食 品
美联 储</w>
后 卫</w>
q u
交 给</w>
i d</w>
胰 岛
离 婚</w>
六 个</w>
A l
数 百
成 年</w>
牺 牲</w>
路 易
摩 托
Lin ux</w>
罕 见</w>
生 于</w>
耳 朵</w>
航 班</w>
每 月</w>
外 交</w>
S p
毕业 生</w>
某 种
原 本</w>
一 般
台 湾</w>
R S</w>
新 生</w>
惩 罚</w>
人 力
尽 快</w>
笔 记
全球 化</w>
伯 格</w>
业 务
最 多</w>
a y
之 地</w>
语 言
动 画</w>
再 也</w>
秘 密</w>
H P</w>
S S
蒸 汽</w>
烟 草</w>
压 缩
绘 制</w>
向 上</w>
信 念</w>
繁 殖</w>
事 务
指 挥</w>
破 裂</w>
o h
若 干</w>
教 训</w>
尼亚 州</w>
终 止</w>
收 费</w>
大 战</w>
地 铁</w>
供 给</w>
油 气</w>
总 会</w>
废 水</w>
A I
组 分</w>
恶 化</w>
原 油</w>
20 12</w>
难 道</w>
局 面</w>
U R
4 1</w>
该 文</w>
均 衡</w>
祈 祷</w>
矿 物</w>
账 户</w>
斯 基</w>
福 利</w>
配 件</w>
劳 动力</w>
争 取</w>
奥 运</w>
摧 毁</w>
一 头</w>
矿 床</w>
放 入</w>
无 数</w>
震 惊</w>
缓 存</w>
几 十年</w>
头 脑</w>
凝 胶</w>
决 策
遗 产</w>
百 姓</w>
运 转</w>
也 就是说</w>
We b
资 讯</w>
认 同</w>
很 长</w>
回 顾
4 3</w>
圣诞 节</w>
行 走</w>
法 律
主 教</w>
演 奏</w>
没 什么</w>
电子 商务</w>
早 已</w>
威 尔
休 闲</w>
显 著
著 作</w>
原 子
间 接</w>
机 遇</w>
近 代</w>
联 邦
抵 抗</w>
风 暴</w>
规 格</w>
丧 失</w>
管理 系统</w>
a y</w>
面 板</w>
辩 论</w>
已 知</w>
不 断
ic h
得 分</w>
发生 率</w>
ar d</w>
地 理
信用 卡</w>
时 间
迫 使</w>
种 种</w>
短 暂</w>
手 里</w>
国 防
创 始人</w>
高 尔
抵 押</w>
胰岛 素</w>
歌 手</w>
A D
in g
职 责</w>
一 幅</w>
照 明</w>
涂 层</w>
正 交</w>
9 5</w>
舒 服</w>
最 具</w>
先 前</w>
早 餐</w>
日 前</w>
选 民</w>
货 币
椅 子</w>
将 近</w>
抑 郁</w>
公 主</w>
合作 伙伴</w>
i l</w>
设 法</w>
单 纯</w>
优 雅</w>
部 落</w>
贫 穷</w>
设 想</w>
跟 着</w>
搜 索
称 作</w>
福 音</w>
销 量</w>
麦 克</w>
旅 馆</w>
宇 航
共 振</w>
详 细
产 业
一 流</w>
岗 位</w>
大 厦</w>
调 制</w>
日 常
交 往</w>
神 圣</w>
果 实</w>
深 圳</w>
模 仿</w>
悲 剧</w>
幻 想</w>
金融 危机</w>
第二 次</w>
比 如说</w>
化 石</w>
乐 趣</w>
三 分之一</w>
菲 尔德</w>
克 隆</w>
发 达</w>
遗 憾</w>
卡 扎
奖 励</w>
超 出</w>
晚 期</w>
顶 部</w>
头 上</w>
子 女</w>
传 染
份 额</w>
不 满</w>
滤 波器</w>
受害 者</w>
恐 怖</w>
化 工</w>
康 复</w>
菲 律
指 向</w>
双 重</w>
打 造</w>
确 立</w>
加 大</w>
裂 纹</w>
饲 料</w>
开 启</w>
量 子</w>
氨基 酸</w>
单 击</w>
其 余</w>
佛 教</w>
at e</w>
这 条</w>
8 5</w>
偶 尔</w>
之 际</w>
电 阻</w>
A R</w>
两 天</w>
上 个月</w>
马 拉
检 查
群 岛</w>
来 源于</w>
小 镇</w>
好 莱坞</w>
面 试</w>
精 彩</w>
可 怜</w>
所 知</w>
高 层</w>
第二 章</w>
妹 妹</w>
正 好</w>
宽 度</w>
主 导</w>
配 套</w>
都 市</w>
财 务
大 学
一 无
S D
火 焰</w>
墙 上</w>
总 线</w>
三 十
3 0%</w>
欲 望</w>
明 亮</w>
效 力</w>
保 守</w>
全 身</w>
199 7</w>
院 校</w>
管理 员</w>
直升 机</w>
安 娜</w>
风 景</w>
代 理
防 御</w>
画 家</w>
厂 商</w>
跑 步</w>
同 性恋</w>
各种 各样</w>
纳 米
提 名</w>
老 年人</w>
本 次</w>
改 良</w>
队 列</w>
一 致
图 书</w>
第三 章</w>
德 里</w>
净 化</w>
所 致</w>
宝 石</w>
卡扎 菲</w>
标 识</w>
前 言</w>
从 不</w>
显微 镜</w>
士 学位</w>
建 成</w>
研究 成果</w>
特 有</w>
双 手</w>
A N
电 脑
导 出</w>
小 小
早 些时候</w>
事 项</w>
SO A</w>
付 款</w>
确 定性</w>
目 的
it y</w>
以 至于</w>
o f</w>
正 确
座 位</w>
仓 库</w>
灵 感</w>
滤 波</w>
一 批</w>
5 1</w>
野 生</w>
星 系</w>
干 旱</w>
M R
国务 院</w>
史密 斯</w>
5 2</w>
永 久</w>
牧 师</w>
泄 漏</w>
垃 圾
发 作</w>
高 原</w>
逮 捕</w>
火 星</w>
勘 探</w>
有 害</w>
抽 象</w>
加 密</w>
瞬 间</w>
el l</w>
上 下</w>
M A</w>
大 声</w>
话 语</w>
咱 们</w>
发展 趋势</w>
勇 敢</w>
中 华
犹太 人</w>
原 型</w>
增 殖</w>
几 周</w>
带 给</w>
i b
包 裹</w>
中 毒</w>
ac h
执行 官</w>
研究 进展</w>
直 线</w>
目 光</w>
白 天</w>
固 醇</w>
人 为</w>
一 遍</w>
经 营
发 现
ind ow
限 于</w>
生 育</w>
eb ook</w>
er s</w>
在 家</w>
驾 驶
微 观</w>
量 化</w>
运 算</w>
战 略
上 网</w>
汽 油</w>
手 法</w>
内 核</w>
何 时</w>
赔 偿</w>
现 行</w>
接 种</w>
中 场</w>
不 清</w>
C P</w>
阻 力</w>
阶 层</w>
拉 德</w>
U S
死亡 率</w>
商 务
哥 哥</w>
入 口</w>
植 物
固 定
马 丁</w>
不同 于</w>
上 学</w>
m a
萃 取</w>
通 用
篇 文章</w>
排 序</w>
传 送</w>
碎 片</w>
塞 尔</w>
任 命</w>
神 话</w>
对 面</w>
参 议员</w>
坚 定</w>
u d
胚 胎</w>
眼 前</w>
制造 业</w>
语 句</w>
磁 盘</w>
战 士</w>
相 对
切 换</w>
体 系
三 次</w>
m l</w>
度 假</w>
测 量
小小 的</w>
近 日</w>
脆 弱</w>
借 助</w>
世 卫</w>
所 用</w>
巴 勒
侵 犯</w>
拉 里</w>
防 护</w>
编 译</w>
日 本
截 面</w>
助 理</w>
还 原</w>
晚 餐</w>
教 室</w>
半 年</w>
例 外</w>
一 架</w>
北 美</w>
战 斗
中 方</w>
马 尔
走 过</w>
专 辑</w>
输 送</w>
正 义</w>
旅 行
er e</w>
竞争 对手</w>
审 计</w>
视 野</w>
用 以</w>
o v
B S</w>
查 找</w>
犯 罪
微 型</w>
挑 选</w>
南 省</w>
液 相</w>
期 刊</w>
丙 烯
大 门</w>
说 服</w>
盈 利</w>
f f
199 0</w>
王 国</w>
气 味</w>
廉 价</w>
怎 么
山 区</w>
悲 伤</w>
5 6</w>
回 复</w>
业 绩</w>
预 后</w>
拿 出</w>
激 动</w>
市 长</w>
历 程</w>
菲律 宾</w>
热 器</w>
授 予</w>
间 隔</w>
坐 标</w>
向 量</w>
前 锋</w>
产 阶级</w>
琼 斯</w>
聊 天</w>
豪 华</w>
火 灾</w>
假 期</w>
1 3
董 事会</w>
头 部</w>
倾 斜</w>
上 方</w>
m an</w>
鉴 于</w>
丢 失</w>
SQ L</w>
纷 纷</w>
特 异性</w>
十 年代</w>
多 元
想 想</w>
场 地</w>
前 列
研究 生</w>
登 录</w>
月 亮</w>
e y</w>
乙 醇</w>
P D
创 立</w>
锅 炉</w>
替 换</w>
主 持</w>
配 备</w>
溶 性</w>
句 子</w>
体系 结构</w>
顶 级</w>
雇 主</w>
抗 原</w>
大 使</w>
回顾 性</w>
剩 余</w>
信 号
依 旧</w>
缅 甸</w>
家 乡</w>
indow s</w>
说 出</w>
医 师</w>
潮 流</w>
上 班</w>
统计 学</w>
懂 得</w>
寒 冷</w>
表 情</w>
毫无 疑问</w>
校 长</w>
展 望</w>
一 方</w>
P ro
一 刻</w>
E R
大 街</w>
转 会</w>
方 位</w>
键 盘</w>
平 板</w>
完 全
斯 科
性 状</w>
o g
范 畴</w>
二 者</w>
多 元</w>
迷 人</w>
轮 胎</w>
氧化 物</w>
姐 妹</w>
失 效</w>
一 九
i k
美国 政府</w>
载 荷</w>
塑 性</w>
鸟 类</w>
记 载</w>
发 动</w>
几 次</w>
这 句</w>
永 恒</w>
占 有</w>
协 同</w>
面 部</w>
见 面</w>
华尔 街</w>
等 到</w>
断 层</w>
雷 斯</w>
维 斯</w>
精 密</w>
新 西
帐 户</w>
半 岛</w>
色 谱</w>
用 量</w>
充 足</w>
首 相</w>
荷 载</w>
水 库</w>
染 料</w>
人 家</w>
G DP</w>
美 味</w>
行 驶</w>
轨 迹</w>
真 相</w>
描 绘</w>
千 万</w>
阐 明</w>
条 约</w>
建 设
接 到</w>
对 不起</w>
道 理</w>
殖 民
荣 誉</w>
确 切</w>
片 段</w>
近 似</w>
过 滤
起 源</w>
碰 到</w>
境 内</w>
错 过</w>
调 试</w>
各 位</w>
关 系
党 人</w>
每 当</w>
不 敢</w>
神 奇</w>
男 女</w>
整 天</w>
甲 状
发 达
沮 丧</w>
发达 国家</w>
吻 合</w>
诚 实</w>
相 位</w>
c t
增 多</w>
加 剂</w>
C N
会 见</w>
绝 大多数</w>
失 业
放 大</w>
医 学
出 口
上下 文</w>
这 点</w>
肝 脏</w>
热 爱</w>
血 糖</w>
毒 品</w>
反 而</w>
阿 根
阴 影</w>
离 散</w>
女 王</w>
少 数
四 周</w>
刚 才</w>
中 断</w>
言 论</w>
新 华
呈 现出</w>
西 洋</w>
孤 独</w>
塑 造</w>
传 奇</w>
高 科技</w>
融 入</w>
w it
势 力</w>
交 付</w>
上 万</w>
远 镜</w>
日 电</w>
凋 亡</w>
空 气
甲 基</w>
愚 蠢</w>
一 番</w>
终 端</w>
电 网</w>
捕 获</w>
小 于</w>
午 餐</w>
P S
政 党</w>
意 志</w>
奠 定</w>
干 涉</w>
压 器</w>
穿 越</w>
马 来
街 头</w>
结 晶</w>
星 球</w>
ic e</w>
分 成</w>
望 远镜</w>
有 名</w>
轻 易</w>
竞 赛</w>
东 北</w>
A d
网 膜</w>
祷 告</w>
显著 性</w>
中 等</w>
矢 量</w>
延 续</w>
防 守</w>
爱 好
农 业
公 斤</w>
不 利</w>
绑 定</w>
看 待</w>
时 机</w>
煤 矿</w>
拓 展</w>
必 要性</w>
缺 血</w>
8 0%</w>
土 壤
人 心</w>
辉 煌</w>
成 千
心 肌
同 期</w>
佛罗 里
企业 家</w>
第 十
码 头</w>
竟 然</w>
幽 默</w>
实用 新型</w>
克 萨
价值 观</w>
帮 忙</w>
判 决</w>
邪 恶</w>
皇 帝</w>
两 国
C R
布 尔</w>
主 权</w>
文件 系统</w>
化 疗</w>
体 会</w>
众 人</w>
期 限</w>
学 到</w>
原 有</w>
修 建</w>
阵 列</w>
指 挥
山 脉</w>
认 定</w>
玩 笑</w>
正 面</w>
星期 五</w>
强 劲</w>
恰 当</w>
言 语</w>
比 较
战 场</w>
对 外</w>
医 药</w>
贝 尔
读 书</w>
i c</w>
真 菌</w>
两 家</w>
标 本</w>
尊 敬</w>
1 20</w>
构 件</w>
温 室</w>
飞行 员</w>
谱 法</w>
A S</w>
PL C</w>
端 口</w>
气 温</w>
这 类</w>
解决 问题</w>
变 性</w>
边 境</w>
噪 音</w>
伊斯 兰</w>
美 术
H I
频 道</w>
杰 出</w>
姿 态</w>
股 权</w>
美 军</w>
沥 青</w>
健 康
大 地</w>
鞋 子</w>
经济 效益</w>
创 伤</w>
Fac ebook</w>
策 划</w>
旅 客</w>
外 界</w>
中 东</w>
预 定</w>
柏 林</w>
从 前</w>
着 手</w>
轿 车</w>
化 物</w>
创 业</w>
W indows</w>
重 力</w>
做 成</w>
谴 责</w>
获 得
强 制</w>
发现 自己</w>
厘 米</w>
除 术</w>
街 上</w>
节 约</w>
库 存</w>
7 00</w>
电 动</w>
停 留</w>
不 太
莫 斯科</w>
岛 屿</w>
日常 生活</w>
操 纵</w>
张 力</w>
低 成本</w>
剪 切</w>
一 轮</w>
r u
石 油
按 摩</w>
媒 介</w>
缩 小</w>
智 力</w>
忍 受</w>
声 波</w>
矿 石</w>
减 肥</w>
引 人
口 袋</w>
分 歧</w>
199 6</w>
橄 榄
乳 腺癌</w>
权 威</w>
空 军</w>
情 节</w>
图 表</w>
一 次
水 面</w>
使 命</w>
长期 以来</w>
一 体化</w>
入 手</w>
情 报</w>
传 动</w>
外 线</w>
叶 子</w>
企 图</w>
f or
金 额</w>
重 要
职 员</w>
灯 光</w>
混 合
有 者</w>
东 省</w>
4 0%</w>
定 价</w>
卓 越</w>
半 导体</w>
M P</w>
评 级</w>
电 台</w>
样 式</w>
微 小</w>
周 边</w>
一 阵</w>
组 装</w>
尔 特</w>
对 付</w>
r an
解 放
便 于</w>
比 率</w>
高 性能</w>
柔 软</w>
新 年</w>
h one</w>
E x
校 正</w>
两 周</w>
麦 克
感 激</w>
宝 贵</w>
预 先</w>
狮 子</w>
复杂 性</w>
兴 起</w>
金 山</w>
耐 心</w>
短 信</w>
临 界</w>
超 市</w>
搜索 引擎</w>
成千 上万</w>
四 种</w>
关键 技术</w>
零 售</w>
骄 傲</w>
项 目
消 化</w>
独 自</w>
未 经</w>
中 间
难 度</w>
试 验
随 意</w>
今 年
病 率</w>
火 山
深 深</w>
分析 法</w>
0 5</w>
高等 教育</w>
弟 弟</w>
峰 会</w>
协 定</w>
意 图</w>
人 口
乘 坐</w>
不 出</w>
生产 商</w>
卧 室</w>
感 染
启 用</w>
in e</w>
提取 物</w>
e w
歧 视</w>
多 糖</w>
地 形</w>
阿根 廷</w>
问 卷</w>
U n
职业 生涯</w>
e g
破 碎</w>
片 机</w>
开发 者</w>
委 会</w>
商 品
介 入</w>
证 券
胎 儿</w>
本 土</w>
履 行</w>
实 证</w>
爵 士</w>
炎 症</w>
收 率</w>
草 地</w>
便 利</w>
消 化
感 知</w>
宏 观</w>
加 固</w>
手 臂</w>
国 有</w>
死 去</w>
平 原</w>
一 级</w>
遥 远</w>
福 特</w>
最 快</w>
要 点</w>
战 术</w>
侵 蚀</w>
ar t
.. .</w>
抗 生素</w>
存 款</w>
at ion
一 首</w>
蒙 古</w>
横 向</w>
定 向</w>
精 英</w>
毫 米</w>
古 典</w>
通 货
一 行</w>
天 文
维 亚</w>
假 定</w>
简 称</w>
富 含</w>
P O
血 浆</w>
深 处</w>
数字 化</w>
功 效</w>
船 只</w>
四 川</w>
信息 系统</w>
人 性</w>
缺 损</w>
弗 兰
香 味</w>
西 北</w>
周 年</w>
一 月</w>
7 2</w>
纳 入</w>
受 益</w>
前 来</w>
成 因</w>
译 者</w>
尼 奥</w>
发 布
出版 社</w>
空 白</w>
沉 积
开 设</w>
化 妆
污 水</w>
早 就</w>
推 理</w>
孔 子</w>
占 领</w>
总 经理</w>
副 作用</w>
一 笔</w>
比 起</w>
抑 制
转 型</w>
某 人</w>
一致 性</w>
酸 性</w>
出 租
探 测器</w>
多 样</w>
人 人</w>
确 信</w>
白 人</w>
水 资源</w>
合 格</w>
s p
题 目</w>
特 征
估 算</w>
新生 儿</w>
员 国</w>
司 法
斯 托
钥 匙</w>
秋 天</w>
199 5</w>
鱼 类</w>
广 义</w>
马 里</w>
爱好 者</w>
欢 乐</w>
搅 拌</w>
印 第
转 基因</w>
添 加剂</w>
恐 怕</w>
P A</w>
8 6</w>
简 介</w>
希 尔</w>
I C</w>
锁 定</w>
计 量</w>
生产 线</w>
崇 拜</w>
培 养
训 练
批 判</w>
东 南
5 3</w>
试 着</w>
篮 球</w>
情 景</w>
工 具
吃 惊</w>
闻 名</w>
考 验</w>
澳 洲</w>
消 防
多 重</w>
生态 系统</w>
欺 骗</w>
亲 自</w>
英 国人</w>
起 诉</w>
悠 久</w>
姐 姐</w>
自 行</w>
目的 地</w>
星期 一</w>
媒 体
特 殊
新西 兰</w>
i e</w>
S S</w>
平 行</w>
三 角</w>
鲜 明</w>
种 群</w>
牛 肉</w>
形 容</w>
魔 法</w>
购 物
市场 经济</w>
迄 今
能 源
海 盗</w>
密切 相关</w>
举 措</w>
2 50</w>
话 说</w>
探 究</w>
分布 式</w>
分 之
商 标</w>
e p
梯 度</w>
无 人</w>
奇 迹</w>
切 除术</w>
文件 夹</w>
触 发</w>
面 上</w>
主 角</w>
不 像</w>
水 下</w>
姓 名</w>
军 人</w>
酸 钠</w>
经 验
线 索</w>
本 月</w>
收 益
队 长</w>
富 裕</w>
圣 诞</w>
钻 石</w>
推 测</w>
绩 效</w>
第一 章</w>
委 托</w>
中 是</w>
i f
达 州</w>
经济 体</w>
活 着</w>
培 育</w>
置 于</w>
科 研</w>
一 艘</w>
百 年</w>
强 迫</w>
储 层</w>
A L
连 续
路 面</w>
轻 轻</w>
合 约</w>
光 滑</w>
多 层</w>
iP hone</w>
5 4</w>
跳 舞</w>
P V
招 聘</w>
大 海</w>
管 如此</w>
尽 管如此</w>
地 域</w>
理 查
感 应</w>
间 隙</w>
启 示</w>
高 频</w>
该 项</w>
根 源</w>
口 味</w>
光 明</w>
波 兰</w>
油 机</w>
参 见</w>
此 事</w>
R O
村 民</w>
宗 旨</w>
哪 儿</w>
南 京</w>
凭 借</w>
全 局</w>
过 分</w>
读 取</w>
多 久</w>
米 尔</w>
意 愿</w>
久 性</w>
赤 字</w>
观 察
西 南</w>
步 行</w>
两 倍</w>
I D
5 000</w>
源 性</w>
团 结</w>
这 片</w>
3 0
表 单</w>
盒 子</w>
拉 伸</w>
不 上</w>
迎 接</w>
签 证</w>
放 大
弹 簧</w>
军 方</w>
转 动</w>
教 材</w>
夫 妻</w>
p ro
陆 地</w>
铸 造</w>
直 至</w>
备 份</w>
灌 注</w>
撰 写</w>
奥 林
利 斯</w>
推 行</w>
家 园</w>
物 料</w>
参 议院</w>
3 D</w>
腹 部</w>
缺 失</w>
编 辑
真 诚</w>
两 只</w>
安 慰</w>
书 写</w>
钢 筋</w>
挤 压</w>
骨 头</w>
美 食</w>
答 应</w>
烹 饪</w>
头 痛</w>
I I</w>
纯 粹</w>
猜 测</w>
海 域</w>
克 兰</w>
灵 活性</w>
重 构</w>
游 行</w>
沉 默</w>
成 本
基 质</w>
一 是</w>
普 尔</w>
传 达</w>
亚 马
中 说</w>
解 除</w>
注 释</w>
工 会</w>
型 号</w>
过 后</w>
祖 先</w>
波 长</w>
敏 捷</w>
摩托 车</w>
填 写</w>
re s
预 处理</w>
提 及</w>
外 表</w>
优 美</w>
装 配</w>
来 临</w>
拍 卖</w>
健 身</w>
9 8</w>
酰 胺</w>
敏 感性</w>
M S
限 度</w>
耶 路
衰 竭</w>
涵 盖</w>
An d
当 选</w>
公 司
郊 区</w>
耶路 撒
老 化</w>
数 以
大 自然</w>
大 胆</w>
自 豪</w>
栽 培</w>
信 道</w>
巨 头</w>
女 生</w>
格 局</w>
大 西洋</w>
身 体
讽 刺</w>
硬 度</w>
漫 长</w>
创造 性</w>
阀 门</w>
中 医</w>
er s
部 份</w>
远 处</w>
桌 上</w>
折 磨</w>
道 歉</w>
爱 德
法 则</w>
广 东</w>
存 活</w>
妊 娠</w>
权 限</w>
决 议</w>
系 列
一 股</w>
g e</w>
测 验</w>
天 赋</w>
大 桥</w>
一 日</w>
6 2</w>
6 6</w>
6 3</w>
树 林</w>
看 过</w>
口 腔</w>
8 8</w>
绝 望</w>
第四 章</w>
平 稳</w>
导 入</w>
T E
C S</w>
者 说</w>
外 国人</w>
字 节</w>
不 确定性</w>
耶路撒 冷</w>
电 梯</w>
传 统
跟 随</w>
坐 下</w>
名 词</w>
厂 家</w>
研究 员</w>
气 息</w>
C M
老 虎</w>
法 测定</w>
定 理</w>
LE D</w>
报 价</w>
地 球
取 向</w>
办 公</w>
主 持
三 天</w>
杂 交</w>
元 前</w>
0.0 1</w>
不可 避免</w>
表 现
管理 者</w>
来 讲</w>
描 写</w>
当 地
销 商</w>
总 量</w>
弥 补</w>
高 档</w>
一 路</w>
担 保</w>
当 事
全 国
le t</w>
电 信</w>
或 者说</w>
A r
重 庆</w>
记 忆
立 体</w>
百 万
新 疆</w>
密 钥</w>
基 准</w>
肝 炎</w>
结 核
既 有</w>
恶 劣</w>
天 下</w>
丹 麦</w>
发 放</w>
e st
预 言</w>
雇 佣</w>
工 件</w>
冰 箱</w>
关 节
结 核</w>
界 定</w>
最 有</w>
散 射</w>
一 眼</w>
2. 0</w>
见 证</w>
股 票
发 射
G A</w>
氛 围</w>
北 约</w>
r y</w>
直 流</w>
权 益</w>
流 失</w>
否 定</w>
单 片机</w>
优 先
植 入</w>
摄影 师</w>
布 拉
补 贴</w>
高 精度</w>
概 括</w>
多 人</w>
登 上</w>
斯 州</w>
中 心
第 五</w>
海 底</w>
发 电机</w>
模 糊
大 厅</w>
名 人</w>
D V
郁 症</w>
点 儿</w>
归 纳</w>
夜 间</w>
加 剧</w>
5 8</w>
亚 历
T A</w>
教 导</w>
A M</w>
9 0%</w>
美 妙</w>
精 子</w>
格 林</w>
基本 原理</w>
哈 利</w>
基督 徒</w>
北 韩</w>
偏 差</w>
身 份
评 定</w>
无 效</w>
并 行</w>
天 性</w>
电 磁
无 人
轻 微</w>
全 体</w>
责 任
放 电</w>
干 部</w>
解 读</w>
特 尔</w>
灭 绝</w>
救 助</w>
变 动</w>
i st
伤 口</w>
E n
聚 焦</w>
包 围</w>
乐 器</w>
平 民</w>
定 律</w>
路 由</w>
变 为</w>
G PS</w>
较 强</w>
职 工</w>
烦 恼</w>
污染 物</w>
分 层</w>
温 度
国 民</w>
L D
祖 国</w>
搜 寻</w>
给 定</w>
年 初</w>
地 毯</w>
后 续</w>
沉 重</w>
暂 停</w>
海 关</w>
建 构</w>
过 多</w>
此 后</w>
收益 率</w>
地 表</w>
产品 质量</w>
u p
F S</w>
后 代</w>
分析 表明</w>
海 啸</w>
管理 局</w>
仆 人</w>
乔 布斯</w>
适应 性</w>
宽 带</w>
th e</w>
俄 国</w>
溶 解</w>
条 例</w>
手 册</w>
德 拉</w>
坦 克</w>
6 8</w>
领导 者</w>
粉 丝</w>
电 动
独 立
房 价</w>
请 问</w>
大 国</w>
不 已</w>
粉 末</w>
畸 形</w>
珍 贵</w>
爱 好</w>
一 副</w>
残 留</w>
射 击</w>
词 语</w>
衰 老</w>
从 此</w>
饥 饿</w>
只 好</w>
am e</w>
草 原</w>
植 被</w>
动物 园</w>
跨 越</w>
荣 耀</w>
成 效</w>
事 长</w>
Q u
迄今 为止</w>
治 愈</w>
严 肃</w>
变 暖</w>
印 尼</w>
几 分钟</w>
一 小
X 射线</w>
O p
散 步</w>
幼 儿</w>
时 空</w>
平方 米</w>
不 易</w>
零售 商</w>
衬 衫</w>
格 兰
旅 程</w>
三 大</w>
ph ere</w>
真 实
接 收
盖 茨</w>
那 边</w>
董 事</w>
脖 子</w>
生产 力</w>
随 机
钢 铁</w>
自 定义</w>
最 大
奴 隶</w>
一 双</w>
遇 见</w>
评 分</w>
代表 性</w>
el l
CP U</w>
随 之</w>
水 晶</w>
拟 合</w>
麻 醉</w>
儿 童
美 金</w>
皮 细胞</w>
普 勒</w>
无 法
情 报
局 势</w>
叙 事</w>
用 药</w>
有 望</w>
方 言</w>
肺 癌</w>
管 制</w>
内 置</w>
il l
板 块</w>
云 南</w>
一 员</w>
多 种
W or
剧 院</w>
行 李</w>
而 易
此 刻</w>
城 堡</w>
许 可
胆 固醇</w>
心 态</w>
利 班</w>
几 率</w>
电 磁</w>
水 准</w>
采 样</w>
诱 惑</w>
血 流</w>
ag e</w>
5 0
故 意</w>
肠 道</w>
宗 教
图 像
转 子</w>
程 式</w>
慈 善</w>
总 数</w>
你 好</w>
2 5%</w>
数 十
高 端</w>
显示 器</w>
峰 值</w>
生态 环境</w>
透 明
访 者</w>
螺 旋
水 质</w>
改 革
拓 扑</w>
年 期</w>
视 网膜</w>
愈 合</w>
恶 性</w>
刚 度</w>
可 乐</w>
未 知</w>
塔 利班</w>
击 者</w>
设 在</w>
更 具</w>
源 代码</w>
公 元前</w>
野 生
拥 抱</w>
如 图</w>
航 行</w>
精 致</w>
换 句
毁 灭</w>
扫 描
嵌 入</w>
地下 水</w>
原 谅</w>
依 照</w>
S P</w>
翅 膀</w>
叙 利亚</w>
严 重
金 色</w>
受 损</w>
M P
当事 人</w>
取 出</w>
大 选</w>
a u
为 本</w>
两 大</w>
准确 性</w>
i p
曲 面</w>
变 迁</w>
o s</w>
计 画</w>
西 斯</w>
沙 发</w>
柴 油</w>
姿 势</w>
前 期</w>
值 得
买 家</w>
恢 复
过滤 器</w>
表 征</w>
浏 览
树 立</w>
光 电</w>
保 守
不 让</w>
长 达</w>
景 象</w>
年 纪</w>
轮 廓</w>
复 发</w>
C l
辞 职</w>
奥林 匹
唱 片</w>
ou r
资本 主义</w>
检 察
地 质
信息 化</w>
D M</w>
签 订</w>
小 企业</w>
不 太</w>
法 对</w>
基因 组</w>
口 气</w>
一 口</w>
通 风</w>
电 镜</w>
土 地
十 分
y p
机 体</w>
消 灭</w>
托 马斯</w>
5 7</w>
运 营
标准 化</w>
复 兴</w>
四 分之一</w>
稍 微</w>
州 长</w>
失业 率</w>
7 6</w>
飞 船</w>
受 力</w>
1 5%</w>
职 务</w>
穷 人</w>
球 菌</w>
深 层</w>
赛 事</w>
子 里</w>
D E
莎 白</w>
底 层</w>
对 阵</w>
队 友</w>
拉 丁
成 份</w>
感 动</w>
特 质</w>
灵 敏
惊 奇</w>
不 时</w>
b er
蔓 延</w>
条 目</w>
反应 堆</w>
入 式</w>
做 些</w>
综合 性</w>
B P</w>
紫 色</w>
用 到</w>
爆 破</w>
星期 二</w>
P HP</w>
镜 子</w>
高 中
应 有</w>
不 知
普 及</w>
困 惑</w>
刑 事</w>
i z
199 4</w>
除 此
累 积</w>
电 气</w>
发布 会</w>
马来 西亚</w>
照 射</w>
音 译</w>
抱 歉</w>
得 多</w>
尾 巴</w>
推 迟</w>
手 动</w>
扭 曲</w>
开 来</w>
视 力</w>
主持 人</w>
视 频
生 存
机 床</w>
尽 力</w>
华 丽</w>
T O</w>
S phere</w>
9 6</w>
迈 克</w>
符 合
杀 害</w>
国家 队</w>
偶 然</w>
人 文</w>
计 划
奶 奶</w>
u p</w>
深 受</w>
方 针</w>
多 功能</w>
性 感</w>
C A</w>
钢 板</w>
激光 器</w>
R E
风 味</w>
动 词</w>
骑 士</w>
那 条</w>
这 块</w>
熊 猫</w>
滥 用</w>
垄 断</w>
充分 利用</w>
不 及</w>
用 例</w>
开 口</w>
学 期</w>
相 处</w>
组 建</w>
收 取</w>
换句 话说</w>
合 法
知识 产权</w>
星 星</w>
保护 区</w>
眼 泪</w>
未 有</w>
强 有力</w>
大 道</w>
经济 衰退</w>
六 个月</w>
亿 元</w>
4 0
这 笔</w>
政 府
附 件</w>
旗 下</w>
捕 捉</w>
岁 月</w>
赚 钱</w>
摄 入</w>
挣 扎</w>
驱动 器</w>
优 惠</w>
中 介</w>
第三 方</w>
克里 斯</w>
二 战</w>
获 利</w>
充 满
U I</w>
罗 马
反应 器</w>
卡 罗
乃 至</w>
测 定
评 论
简 洁</w>
撞 击</w>
诚 信</w>
葡萄 牙</w>
充 电</w>
高 峰</w>
纺 织
相 连</w>
凯 恩</w>
装 修</w>
海 地</w>
大 致</w>
周 知</w>
双 向</w>
外 形</w>
厕 所</w>
中 性</w>
阻 塞</w>
置 信</w>
格 尔</w>
政治 家</w>
披 露</w>
马克 思
轮 机</w>
一点 点</w>
等 离子
外 壳</w>
周 期
旧 金山</w>
同 志</w>
众 所
一次 性</w>
应 付</w>
首 选</w>
礼 貌</w>
猩 猩</w>
C C</w>
奥 尔
墙 壁</w>
向 下</w>
M E
青 春</w>
无 可
鼠 标</w>
骨 髓</w>
供应 链</w>
产 出</w>
走 上</w>
il e</w>
统 治
冷 冻</w>
首 要</w>
注射 液</w>
审 核</w>
葡萄 糖</w>
自 制</w>
公 元</w>
6 7</w>
首 歌</w>
计算 结果</w>
等离子 体</w>
棉 花</w>
有 效率</w>
支 配</w>
速 器</w>
复 方</w>
分 组</w>
减 弱</w>
身 后</w>
裁 判</w>
多 媒体</w>
两 条</w>
天 津</w>
典 礼</w>
不 定</w>
J oh
7 0%</w>
这 样
宾 馆</w>
全 力</w>
高 级
此 项</w>
心 肌</w>
严 厉</w>
群 落</w>
润 滑
有 毒</w>
奋 斗</w>
吉 姆</w>
不 在
隐 私</w>
转 让</w>
蒸 发</w>
昨 晚</w>
步 伐</w>
明 智</w>
存 放</w>
动 态
农 药</w>
亚马 逊</w>
时 会</w>
尼 克</w>
举 动</w>
覆 盖
萝 卜</w>
病 学</w>
加 盟</w>
角 膜</w>
平 时</w>
同 行</w>
出 场</w>
w e
油 价</w>
水 性</w>
总 监</w>
削 弱</w>
桌 面</w>
服 饰</w>
无 力</w>
管理 器</w>
更 高</w>
线 性
百分 点</w>
度 量</w>
亲 密</w>
瑜 伽</w>
录 像</w>
6 0%</w>
运 输
血 症</w>
电 位</w>
水 位</w>
N I
软 骨</w>
启 发</w>
棕 色</w>
截 至</w>
雕 刻</w>
我 用</w>
像 素</w>
通 往</w>
解 剖</w>
纵 向</w>
有 过</w>
无 比</w>
忠 诚</w>
市 中心</w>
交易 所</w>
交 际</w>
钢 管</w>
词 典</w>
第 三个</w>
总 之</w>
剖 析</w>
en d
营 造</w>
查 尔斯</w>
擅 长</w>
成 员国</w>
好 友</w>
力 度</w>
10 0%</w>
听 众</w>
风 机</w>
挪 威</w>
力 学
抑 郁症</w>
导 管</w>
大 城市</w>
预 订</w>
通 胀</w>
进 制</w>
现 今</w>
接 触
3 000</w>
渗 透
喜 剧</w>
约翰 逊</w>
电 荷</w>
有 意思</w>
支 票</w>
众所 周知</w>
不 行</w>
总 体
地 基</w>
纠 纷</w>
理 工
伊 丽
香 港
高 品质</w>
脂肪 酸</w>
显 微</w>
手 上</w>
多元 化</w>
克 林</w>
住 院</w>
1. 5</w>
气 流</w>
极 度</w>
捐 赠</w>
不 足
表 面
口 感</w>
元 区</w>
议 题</w>
稳 定
场 上</w>
资 深</w>
新 颖</w>
光 子</w>
先 后</w>
集 成
初 始
某种 程度</w>
户 外</w>
解 放</w>
水 流</w>
198 0</w>
角 落</w>
脑 袋</w>
紧 紧</w>
痕 迹</w>
煤 炭</w>
灵敏 度</w>
日 圆</w>
放大 器</w>
多 名</w>
在 一起</w>
V M</w>
消 毒</w>
很 棒</w>
布 什
随 访</w>
和 平
取 得
反 弹</w>
使 人</w>
主 导
纠 正</w>
稀 土</w>
溃 疡</w>
最 长</w>
图 标</w>
修 饰</w>
wit ter</w>
S A</w>
董 事长</w>
沙 滩</w>
欧 元区</w>
回 事</w>
制 动</w>
上 次</w>
量 表</w>
第 一步</w>
5 9</w>
电视 节目</w>
派 对</w>
洛 克</w>
效 能</w>
战 役</w>
奶 酪</w>
使用 寿命</w>
万 人</w>
h t
设计 方案</w>
七 个</w>
质 性</w>
理查 德</w>
富 翁</w>
y n
我 方</w>
协 商</w>
博 会</w>
199 2</w>
是 非</w>
肺 炎</w>
封 信</w>
星期 三</w>
忧 虑</w>
丰 田</w>
一 时</w>
湖 泊</w>
梗 死</w>
新华 社</w>
提 起</w>
抛 弃</w>
再 度</w>
全 都</w>
主 观</w>
ec t
粒 度</w>
数 组</w>
山 上</w>
拥 挤</w>
分 量</w>
ac e</w>
限 性</w>
醒 来</w>
管理 人员</w>
实 习</w>
安 置</w>
主 教练</w>
一 看</w>
计算 公式</w>
泰 勒</w>
光 源</w>
交 换
一 切
被 动</w>
深 远</w>
曝 光</w>
崛 起</w>
哮 喘</w>
之 旅</w>
心理 学家</w>
巴 拉克</w>
铁 矿</w>
维 度</w>
皮 革</w>
本 赛季</w>
城 区</w>
第 六
待 遇</w>
墨西 哥
变 压器</w>
左 边</w>
美 的</w>
温 柔</w>
常 数</w>
饮 用</w>
结 局</w>
经 纪
算 是</w>
眼 中</w>
容 性</w>
力学 性能</w>
衍 射</w>
苏 丹</w>
快 捷</w>
7 1</w>
雕 塑</w>
不 去</w>
深入 研究</w>
并 发</w>
Web Sphere</w>
雅 虎</w>
边 界
许可 证</w>
褐 色</w>
粘 度</w>
盐 酸</w>
歇 尔</w>
时 说</w>
弗 吉
陈 述</w>
本 国</w>
拜 访</w>
下 次</w>
清 醒</w>
泳 池</w>
成 品</w>
应 急</w>
平 安</w>
安 东
兔 子</w>
一 步
言 之</w>
人 类
es s
e an</w>
网 球</w>
消 极</w>
对 性</w>
8 7</w>
高 度
装 有</w>
表 示
脊 髓</w>
奖 金</w>
投 影</w>
t o</w>
行 程</w>
海 湾</w>
尼 日
印第 安
o x</w>
车 间</w>
生 化</w>
尴 尬</w>
199 3</w>
面 向
精 心</w>
十 个</w>
烧 结</w>
右 边</w>
es s</w>
钻 井</w>
误 解</w>
的 是</w>
这 使</w>
语 文</w>
浏览 器</w>
希 拉里</w>
8 2</w>
香 气</w>
音 频</w>
融 化</w>
6 1</w>
联合 国
流 通</w>
概 况</w>
国 债</w>
即 时</w>
C om
金 刚
比 利
格 斯</w>
不 动</w>
碱 性</w>
星期 六</w>
奇 异</w>
伊丽 莎白</w>
直 观</w>
混 沌</w>
抑 制剂</w>
浓 缩</w>
奥斯 卡</w>
风 雨</w>
精 华</w>
生产 工艺</w>
摩 西</w>
之 路</w>
中 将</w>
世 上</w>
色 谱法</w>
材 质</w>
无 所
喜 悦</w>
沿 海</w>
克 鲁
菌 株</w>
哺 乳
参考 资料</w>
危 险
沉 降</w>
8 0
职 能</w>
短 缺</w>
正 当</w>
楼 梯</w>
抑制 作用</w>
固 化</w>
修 订</w>
仍 旧</w>
es t</w>
近 来</w>
终 结</w>
小 儿</w>
家 宝</w>
使 馆</w>
身 材</w>
西班 牙
湿 地</w>
点 燃</w>
源 自</w>
汉 字</w>
执 政</w>
品 尝</w>
吸 入</w>
海 洋
金 牌</w>
混 合物</w>
小 女孩</w>
园 林</w>
合 成
七 年</w>
i m</w>
信 徒</w>
u c
满 意
增 生</w>
o t</w>
销售 额</w>
造 影</w>
谋 杀</w>
标 志
字 体</w>
大 气
li p
M an
领 土</w>
结 石</w>
流 动性</w>
恋 爱</w>
S ch
肚 子</w>
小 男孩</w>
失 踪</w>
反 射
信 赖</w>
从 来
买 卖</w>
S L
风 险
重 大
血 性</w>
船 上</w>
疟 疾</w>
化妆 品</w>
诱 发</w>
访 问
客 房</w>
运 送</w>
马 里
诊 所</w>
冲 动</w>
贯 穿</w>
萎 缩</w>
好 奇</w>
反 思</w>
装 箱</w>
帐 篷</w>
商 场</w>
二 人</w>
模 特</w>
摄像 机</w>
问 道</w>
注 目</w>
景 点</w>
创造 力</w>
笑 话</w>
善 良</w>
供 电</w>
居 然</w>
少 女</w>
剧 本</w>
病 情</w>
核 武器</w>
想 像</w>
转 化
很 强</w>
I L</w>
问 卷
问卷 调查</w>
怎么 办</w>
希 腊
马克思 主义</w>
聚 糖</w>
妇 人</w>
别 墅</w>
公 认</w>
S c
预 防
无线 电</w>
工作 室</w>
境 界</w>
负 面</w>
纺 织</w>
精 灵</w>
所 有权</w>
基 层</w>
出租 车</w>
优 异</w>
伊斯 兰
湿 度</w>
淋巴 细胞</w>
水 域</w>
契 约</w>
哲 学家</w>
9 2</w>
骨 骼</w>
茶 叶</w>
童 年</w>
就 业
兼 容</w>
个 性化</w>
孕 妇</w>
加 斯</w>
时 常</w>
市 区</w>
工业 化</w>
一 封</w>
M T
开 源</w>
委 员</w>
保险 公司</w>
起 初</w>
纳 德</w>
物 资</w>
比 亚
各 个
冰 川</w>
手 套</w>
带 宽</w>
局 长</w>
不 适</w>
上 课</w>
一 枚</w>
第 一位</w>
氧 气</w>
患 儿</w>
会 话</w>
x ml</w>
e w</w>
薪 水</w>
罗 斯
原 材料</w>
事 先</w>
雨 水</w>
少数 民族</w>
单 体</w>
停 车
一 顿</w>
HI V</w>
2. 5</w>
维 奇</w>
C T
罪 犯</w>
平 常</w>
各 方</w>
动 脉
P P</w>
D O
1 0.
飓 风</w>
车 队</w>
气 象
印 机</w>
马克 思</w>
计 数</w>
约 定</w>
长 江</w>
蜜 蜂</w>
生命 周期</w>
生 效</w>
放 下</w>
损 耗</w>
孔 隙</w>
储 蓄</w>
逃 离</w>
贵 族</w>
碳 酸
热 门</w>
报 表</w>
子 弹</w>
国 产</w>
判 定</w>
八 个</w>
道 德
船 长</w>
秒 钟</w>
流 传</w>
波 特</w>
尔 森</w>
子 系统</w>
事务 所</w>
7 8</w>
半 径</w>
联 络</w>
活 动
恐 龙</w>
宁 静</w>
大 臣</w>
不 止</w>
CE O</w>
鼓 舞</w>
新 建</w>
ac k
W S</w>
深 化</w>
接 头</w>
开 销</w>
分 级</w>
偏 见</w>
肯 尼亚</w>
白 血
王 朝</w>
特 里</w>
处 罚</w>
在 此
娱 乐
a h
登 陆</w>
澳 门</w>
增长 率</w>
可 视
而 出</w>
生 人</w>
防 水</w>
酵 母</w>
恶 性
获 胜</w>
肩 膀</w>
刑 事
上 市
遗 址</w>
从来 不</w>
D C</w>
诠 释</w>
生 动</w>
湖 人</w>
通货 膨胀</w>
时 代
东 北部</w>
局 限性</w>
上市 公司</w>
一 堆</w>
机 票</w>
军 官</w>
非 凡</w>
科 尔</w>
多 余</w>
前 所
审 视</w>
区 间</w>
萧 条</w>
o f
报 酬</w>
i o</w>
饲 养</w>
腔 镜</w>
忽 然</w>
宇航 员</w>
新 娘</w>
屋 子</w>
消 息
核 电站</w>
温 家宝</w>
承 载
巴勒 斯坦</w>
书 中</w>
下 游</w>
祭 司</w>
原 发性</w>
除此 之外</w>
过 敏</w>
走 廊</w>
所 在
多 普勒</w>
前 者</w>
军 团</w>
个 别</w>
L e
程序 员</w>
浴 室</w>
封 装</w>
付 费</w>
人 能</w>
两 侧</w>
ou n
题 材</w>
遗传 算法</w>
绝 缘</w>
成 都</w>
恐怖 主义</w>
共 识</w>
不 然</w>
雄 性</w>
起 点</w>
沉 淀</w>
无 聊</w>
拉 斯
建筑 师</w>
五 月</w>
一 新</w>
高 新
燃 油</w>
水 解</w>
工 序</w>
凯 特</w>
8 4</w>
陆 军</w>
江 省</w>
毫 不
服务 器
展 出</w>
夏 威
六 年</w>
胸 部</w>
放射 性</w>
s t</w>
阿拉 伯
途 中</w>
连 锁</w>
种 族
善 于</w>
发 病率</w>
乐 意</w>
M I</w>
静 电</w>
灌 溉</w>
区 域
不良 反应</w>
G F</w>
礼 品</w>
杰 夫</w>
四 处</w>
赞 同</w>
漫 画</w>
失 误</w>
伸 出</w>
经纪 人</w>
支 援</w>
网 路</w>
朝 着</w>
外 科
冷 却
Serv er</w>
悬 挂</w>
膝 盖</w>
汉 姆</w>
无论 如何</w>
放 进</w>
感 冒</w>
幼 儿
半 场</w>
F or
难以 置信</w>
山 谷</w>
外 出</w>
坚 强</w>
移 动
病 因</w>
接 待</w>
天 天</w>
哥伦 比亚</w>
发 行
199 1</w>
航 天</w>
膀 胱</w>
理 会</w>
野 外</w>
这 篇</w>
电 场</w>
扭 转</w>
卡 片</w>
M O
运营 商</w>
精 美</w>
植 株</w>
杭 州</w>
学 员</w>
唱 歌</w>
卫生 组织</w>
亏 损</w>
转 速</w>
苹果 公司</w>
并 购</w>
岛 上</w>
赞 美</w>
编辑 器</w>
喝 酒</w>
人力 资源</w>
景 色</w>
地 狱</w>
加利福 尼亚</w>
刀 具</w>
养 殖</w>
经济 学</w>
相 似
淹 没</w>
法 学</w>
心 血管</w>
阐 释</w>
红 细胞</w>
珍 珠</w>
征 服</w>
猴 子</w>
巧 妙</w>
备 受</w>
ec t</w>
锦 涛</w>
致 使</w>
箱 子</w>
星期 四</w>
屠 杀</w>
分 辨</w>
鲨 鱼</w>
试 试</w>
行 为
胡 锦涛</w>
数 年</w>
戒 指</w>
总 共</w>
8 3</w>
8 1</w>
阈 值</w>
时 性</w>
工 况</w>
以 期</w>
以 免</w>
艾 伦</w>
粗 糙</w>
活 化</w>
专 家
下 列</w>
这 本</w>
极 化</w>
巴 士</w>
古 怪</w>
铝 合金</w>
贫 困
甲 烷</w>
园 区</w>
口 服</w>
利 亚
饼 干</w>
世 人</w>
等 效</w>
克 拉
三角 洲</w>
争 夺</w>
不 开</w>
调 节
结核 病</w>
看 不到</w>
8 9</w>
路 里</w>
研 讨
爱德 华</w>
修 理</w>
习 俗</w>
G B</w>
选 出</w>
走 路</w>
当 成</w>
书 面</w>
订 阅</w>
正 常
极 具</w>
巩 固</w>
卡 路里</w>
勒 斯</w>
严 峻</w>
花 朵</w>
极 了</w>
时 钟</w>
德 斯</w>
导 师</w>
副 本</w>
留 给</w>
洁 净</w>
总 额</w>
嵌 入式</w>
四 十
发 言</w>
退 化</w>
精 细</w>
福 德</w>
有 序</w>
改 为</w>
提供 者</w>
变化 规律</w>
写 下</w>
先 知</w>
i es</w>
7 4</w>
磁 性</w>
底 下</w>
东南 亚</w>
美 分</w>
等 候</w>
珠 宝</w>
注 定</w>
中 风</w>
N ET</w>
西 省</w>
大 象</w>
避 开</w>
落 实</w>
核 心
天 生</w>
同 类</w>
人 造</w>
浙 江</w>
洞 穴</w>
功 能性</w>
租 赁</w>
现 已</w>
水 管</w>
峡 谷</w>
大 坝</w>
命 令
风 景
花 粉</w>
肾 脏</w>
兰 德</w>
u g
7 7</w>
笑 容</w>
山 羊</w>
增 添</w>
售 价</w>
卡 拉</w>
医 学院</w>
A A</w>
路易 斯</w>
物理 学</w>
有 意</w>
哪 怕</w>
T witter</w>
C ar
羽 毛</w>
石 墨</w>
密 集</w>
多 达</w>
人 力</w>
不 堪</w>
缓 冲</w>
这 款</w>
ation al</w>
颈 部</w>
环 绕</w>
流 入</w>
报 警</w>
意 象</w>
始 于</w>
al l</w>
文 艺
尼 西亚</w>
嘴 唇</w>
切 片</w>
9 4</w>
散 发</w>
坚 信</w>
信息 技术</w>
丑 闻</w>
麦 当
身 高</w>
游 离</w>
务 员</w>
前 途</w>
ic k</w>
7 3</w>
理论 依据</w>
新 一代</w>
布 里
偶 像</w>
不 当</w>
7 9</w>
韧 性</w>
配 器</w>
所 能</w>
当 初</w>
定 位
冠 状
陌 生人</w>
纤维 素</w>
电 图</w>
娃 娃</w>
最 低
两 类</w>
难 点</w>
脾 气</w>
简 历</w>
清 新</w>
最 少</w>
容 纳</w>
增 益</w>
反 向</w>
不 该</w>
PC R</w>
饰 品</w>
紧 缩</w>
史 上</w>
卵 巢</w>
化学 成分</w>
采取 行动</w>
不 能
革 命
降 水</w>
英 超</w>
美 观</w>
编 织</w>
当 下</w>
听 力</w>
上 演</w>
I E
9 3</w>
边 坡</w>
科 比</w>
吸 收
山 东</w>
六 月</w>
丹 尼尔</w>
奶 油</w>
喂 养</w>
下 方</w>
触 及</w>
收 敛</w>
传 来</w>
仲 裁</w>
香 料</w>
维 多
纹 理</w>
小 区</w>
白血 病</w>
电 解
承 包
半 个</w>
预 示</w>
索 马里</w>
电视 机</w>
旅游 业</w>
抗 菌</w>
天 上</w>
交 互
化学 物质</w>
重 用</w>
震 动</w>
难 民</w>
好 多</w>
为 重要</w>
转换 成</w>
流 场</w>
情 人</w>
史蒂 夫</w>
制 药</w>
长 的</w>
多 方面</w>
P T
N BA</w>
辈 子</w>
滑 坡</w>
昨 日</w>
处 方</w>
创 办</w>
附 属</w>
甲状 腺</w>
智能 手机</w>
智 利</w>
古 巴</w>
件 事</w>
中 华</w>
胡 子</w>
折 叠</w>
野生 动物</w>
F C</w>
降 落</w>
束 缚</w>
摩 尔</w>
式 化</w>
受 过</w>
冷 静</w>
八 年</w>
年 龄
学 金</w>
嘲 笑</w>
林 肯</w>
鲜 花</w>
礼 服</w>
病 毒
电 容</w>
就 让</w>
邮 政
过 敏
恐 慌</w>
利用 率</w>
不 论
6 9</w>
面 料</w>
转 录</w>
粉 碎</w>
每 股</w>
拉 登</w>
同 伴</w>
所 作</w>
战斗 机</w>
带 动</w>
宝 贝</w>
完 整
办 事
i re
D I</w>
高 出</w>
厌 恶</w>
加 重</w>
倾 听</w>
研讨 会</w>
意 识
关节 炎</w>
at a</w>
音乐 会</w>
蒙 古
稳 态</w>
手 表</w>
废 物</w>
金刚 石</w>
那 次</w>
玛 丽
替 代
尔 曼</w>
停 下来</w>
一 线</w>
表 皮</w>
戏 剧
包 装
免疫 系统</w>
之 道</w>
一 小</w>
足 球
运 气</w>
切 断</w>
海 拔</w>
9 7</w>
瀑 布</w>
卡 特</w>
血 栓</w>
方 形</w>
执 法</w>
带 上</w>
老 婆</w>
益 于</w>
皮 质</w>
润 滑</w>
广 西</w>
可 达</w>
轴 向</w>
政 客</w>
长 久</w>
肉 类</w>
简 述</w>
整 体
大 赛</w>
热 水</w>
小 板</w>
北 省</w>
世界 卫生组织</w>
虐 待</w>
磷 酸
好 事</w>
前 任</w>
G ro
A B
香 蕉</w>
紧 急
排 队</w>
大 人</w>
选 票</w>
肉 体</w>
阻 抗</w>
坚 固</w>
邻 近</w>
指 望</w>
奖 项</w>
大 片</w>
下 周</w>
裤 子</w>
薪 酬</w>
艺术 品</w>
特 网</w>
健 全</w>
二 是</w>
世 博会</w>
被 捕</w>
歌 唱</w>
实 测</w>
亚历 山
装 载</w>
经 销商</w>
星期 天</w>
提 倡</w>
平 衡
冻 结</w>
确 诊</w>
法 语</w>
截 止</w>
大 力
名 义</w>
没 错</w>
反对 派</w>
L O
金 矿</w>
草 坪</w>
理 事会</w>
堵 塞</w>
参 阅</w>
UR L</w>
阿 里</w>
细 致</w>
树 枝</w>
果 汁</w>
想 着</w>
半 球</w>
不 明</w>
透 社</w>
迎 来</w>
菲 尔</w>
心 病</w>
商业 银行</w>
览 会</w>
线 圈</w>
死 刑</w>
柔 和</w>
坚 决</w>
伊 利
主 场</w>
硫 酸</w>
思 议</w>
小 波</w>
行 使</w>
污 泥</w>
路 透社</w>
晶 体
固 有</w>
咳 嗽</w>
光 束</w>
赞 成</w>
脚 步</w>
纯 化</w>
紫 外线</w>
承 载</w>
必 将</w>
可视 化</w>
e f
G C</w>
看 似</w>
爱 人</w>
倡 导</w>
银 行业</w>
记 录
申请 人</w>
斯 加</w>
大 批</w>
侧 面</w>
e ar
影 子</w>
开 拓</w>
中 起</w>
HT TP</w>
谷 物</w>
笔记 本</w>
树 上</w>
教 程</w>
功 夫</w>
关 怀</w>
为 人
M C</w>
蛋白 酶</w>
自 治</w>
研究 院</w>
弗兰 克</w>
三 月</w>
糖 果</w>
抗 氧化</w>
好 消息</w>
单 身</w>
传染 病</w>
一 棵</w>
诺 贝尔
电视 剧</w>
把 手</w>
双 层</w>
厨 师</w>
内 膜</w>
一 千
首 位</w>
逃 避</w>
残 酷</w>
打 败</w>
针 对性</w>
硬 盘</w>
A m
肝 癌</w>
硬 币</w>
进 出口</w>
缓 冲
牛 仔
总 值</w>
动 力
s s
配 有</w>
列 入</w>
中 产阶级</w>
蝴 蝶</w>
犹 如</w>
折 扣</w>
传 媒</w>
不可 思议</w>
集 会</w>
用户 界面</w>
本 体</w>
朝 鲜
公 债</w>
全 是</w>
超 声波</w>
率 高</w>
狂 热</w>
意 味</w>
女 孩子</w>
前所 未有</w>
al l
A N</w>
药 性</w>
分 类
东 南</w>
世界 银行</w>
雕 像</w>
血 小板</w>
末 端</w>
侵 入</w>
重 叠</w>
赛 车</w>
罢 工</w>
经济 危机</w>
破 坏
热 处理</w>
油 脂</w>
女 友</w>
黄 酮</w>
生 殖</w>
占 用</w>
助 手</w>
lip se</w>
e m</w>
借 口</w>
伤 心</w>
c l
S D</w>
访 谈</w>
恩 斯</w>
女 朋友</w>
刊 登</w>
书 店</w>
上 空</w>
自 治
吉 尔</w>
口 语</w>
列 举</w>
C O</w>
经 由</w>
灿 烂</w>
滑 动</w>
施 加</w>
新 增</w>
举 例
C H
蜡 烛</w>
知 名
永 不</w>
房 产</w>
制 裁</w>
冗 余</w>
优 越</w>
上 传</w>
氯 化
敦 促</w>
排 斥</w>
裁 决</w>
花 板</w>
肾 上
MR I</w>
淋巴 结</w>
停 车</w>
我 家</w>
不 必要</w>
联邦 政府</w>
经 费</w>
夏威 夷</w>
相 比
服 从</w>
多 地</w>
叔 叔</w>
分 散
s erv
适 量</w>
花 岗
柔 性</w>
更 长</w>
见 解</w>
磁 共振</w>
浓 郁</w>
打 扮</w>
密 封
多 家</w>
温 泉</w>
武 汉</w>
模 态</w>
编 译
坐 落</w>
邮 报</w>
那 州</w>
过 量</w>
业 主</w>
t on</w>
a w
谎 言</w>
悬 浮</w>
冲 洗</w>
能 耗</w>
肠 癌</w>
毛 细
衍 生</w>
特 兰
比利 时</w>
必 然
违 约</w>
无 机</w>
开 玩笑</w>
孢 子</w>
波 形</w>
格 鲁
辣 椒</w>
语 境</w>
磷 酸</w>
救 济</w>
我 来</w>
冠状 动脉</w>
伸 展</w>
任 期</w>
or e</w>
纳 税
盎 司</w>
版 权</w>
分 发</w>
再 生
预 应力</w>
青 睐</w>
现 任</w>
条 纹</w>
患 上</w>
9 1</w>
0 9</w>
用 力</w>
吉 他</w>
十 二</w>
自 愿</w>
生 殖
抗 性</w>
征 收</w>
原 体</w>
众 议院</w>
k s</w>
E E</w>
香 烟</w>
一 丝</w>
N 1</w>
颜 料</w>
肯 尼
切 口</w>
生 病</w>
遥 感</w>
血 管
气 动</w>
惊 喜</w>
宴 会</w>
位 数</w>
高 管</w>
联 想</w>
手 续</w>
地 处</w>
分之 二</w>
9 00</w>
身 为</w>
瓦 斯</w>
潮 湿</w>
显 现</w>
充 当</w>
二 级</w>
0 8</w>
耐 药</w>
称 赞</w>
尔 文</w>
剧 烈</w>
芳 香</w>
线 条</w>
纽约 时报</w>
合 理性</w>
再 见</w>
现 年</w>
爆 炸
日 益
哈 佛
高 位</w>
注 视</w>
批 评
填 料</w>
基 亚</w>
土 豆</w>
其 后</w>
信 件</w>
何 种</w>
M ich
羟 基</w>
示 威
湖 南</w>
推 翻</w>
室 外</w>
发 掘</w>
内 阁</w>
麦 凯恩</w>
路 边</w>
潜 艇</w>
巴 克</w>
创 下</w>
中 午</w>
专 利
I T
看 电视</w>
奉 献</w>
本 科</w>
反 抗</w>
二十 世纪</w>
莎 士
莎士 比亚</w>
统治 者</w>
殖民 地</w>
出 名</w>
量 级</w>
强 壮</w>
长 远</w>
辩 护</w>
祝 贺</w>
剥 夺</w>
谈 谈</w>
科学 技术</w>
直 觉</w>
数 控</w>
快 速
字 典</w>
声 誉</w>
切 削</w>
院 子</w>
人 均</w>
进 度</w>
此 举</w>
杯 子</w>
开 辟</w>
外 套</w>
加 深</w>
加 工
一 分钟</w>
院 长</w>
闪 烁</w>
学 说</w>
做 过</w>
C M</w>
长 城</w>
纯 度</w>
矩 形</w>
番 茄</w>
尼 古
城市 化</w>
可 用性</w>
农 田</w>
公 开
蚂 蚁</w>
相 邻</w>
有 何</w>
录 音</w>
国有 企业</w>
人 间</w>
赞 助</w>
美 术</w>
梳 理</w>
掩 盖</w>
挑 战
追 逐</w>
实用 性</w>
多样 化</w>
咨 询
厉 害</w>
与 众
崭 新</w>
光 栅</w>
as e</w>
伦 斯</w>
临 近</w>
期 货</w>
宿 舍</w>
国 防</w>
一 身</w>
起 步</w>
编 号</w>
笔 记</w>
秋 季</w>
受 访者</w>
全球 性</w>
皮 瓣</w>
国际 化</w>
中 世纪</w>
o m</w>
iv e</w>
i r</w>
20 15</w>
高尔 夫
青 岛</w>
除 去</w>
科 研
特 权</w>
更 能</w>
与众 不同</w>
一 来</w>
近 几
订 购</w>
芬 兰</w>
前 方</w>
充 斥</w>
P E</w>
客 厅</w>
台 上</w>
业 界</w>
音 机</w>
要 说</w>
眼 球</w>
提 案</w>
柴 油机</w>
急 剧</w>
德 克萨
动 荡</w>
高 分子</w>
重 型</w>
育 种</w>
水 体</w>
树 叶</w>
增 高</w>
乌 克兰</w>
两 项</w>
as s
颁 发</w>
识 别
栓 塞</w>
期 内</w>
形 态
公 约</w>
这 门</w>
切 尔</w>
世界 大战</w>
in t</w>
四 月</w>
满意 度</w>
数 码</w>
宽 松</w>
仪 表</w>
与 否</w>
R T</w>
结构 设计</w>
清 晨</w>
斯 塔</w>
巨 型</w>
小 狗</w>
E c
高 等</w>
摩 根</w>
强 力</w>
印 刷
Joh n</w>
恶 魔</w>
孤 立</w>
加 权</w>
上海 市</w>
排 放
引人 注目</w>
风 力</w>
这 支</w>
没 法</w>
控 件</w>
意识 形态</w>
可 谓</w>
门 户</w>
胳 膊</w>
美 容</w>
恶 心</w>
太 空
冰 淇
阅 读
现 存</w>
温 格</w>
没 能</w>
星 级</w>
多 于</w>
发 音</w>
低 压</w>
人 才
B l
金融 机构</w>
吩 咐</w>
分 离
讯 息</w>
蜘 蛛</w>
看 不见</w>
用 法</w>
测 井</w>
四 川
章 节</w>
故 障
依 法</w>
ac k</w>
杂 质</w>
晚 会</w>
开发 商</w>
一 倍</w>
u m</w>
顶 端</w>
蜂 蜜</w>
花 钱</w>
洋 葱</w>
地 利</w>
预 备</w>
非 洲
青 年
妨 碍</w>
灰 尘</w>
服 装
电 动机</w>
猪 肉</w>
指 引</w>
应 激</w>
台 阶</w>
减 缓</w>
会 面</w>
高 强度</w>
雅 典</w>
长 长的</w>
天文 学家</w>
囊 肿</w>
传 导</w>
配 偶</w>
起 床</w>
蚀 性</w>
场 面</w>
光 泽</w>
青 春
立 法
巴 斯</w>
习 惯
ic k
数 百万</w>
抵 制</w>
工 商
大 众
呼 叫</w>
参 照</w>
北 极</w>
创 新
R T
DV D</w>
禁 令</w>
七 月</w>
L A</w>
I A</w>
配 置
膜 炎</w>
演 说</w>
日 记</w>
振 荡</w>
口 号</w>
卖 出</w>
代表 团</w>
一 贯</w>
排 出</w>
得 不到</w>
当 做</w>
巨 人</w>
填 补</w>
哺乳 动物</w>
高 盛</w>
赞 扬</w>
整 数</w>
学习 者</w>
出 台</w>
事 宜</w>
er n
简 易</w>
男 士</w>
热 带
光 灯</w>
假 日</w>
二 十年</w>
掌 控</w>
就 此</w>
修 补</w>
衍 生物</w>
月 底</w>
坏 死</w>
菲 利
综合 症</w>
纳税 人</w>
犹 太</w>
暴 雨</w>
光 芒</w>
自由 基</w>
系统 地</w>
第一 天</w>
稍 后</w>
必 不可
高 大</w>
集 装箱</w>
考 核</w>
小 孩子</w>
公 安
C F
身 心</w>
烟 雾</w>
妥 协</w>
外 来</w>
三 分之二</w>
s c
漏 洞</w>
春 季</w>
下 一代</w>
一 词</w>
羊 毛</w>
氏 度</w>
处 置</w>
p er
间 谍</w>
较 差</w>
虚 假</w>
简 短</w>
微 量</w>
学 历</w>
伴 有</w>
1 10</w>
随 便</w>
都 是</w>
车 子</w>
烧 伤</w>
油 漆</w>
布什 总统</w>
好 几个</w>
印度 尼西亚</w>
劳 工</w>
马 车</w>
议 者</w>
比 特</w>
时 分</w>
沙 拉</w>
显 而易
携 手</w>
回 避</w>
上 场</w>
魔 鬼</w>
外 语</w>
制 订</w>
中 小企业</w>
溯 到</w>
残 余</w>
显而易 见</w>
因 特网</w>
回 路</w>
利 息</w>
凹 陷</w>
写 出</w>
辐 射
身 穿</w>
色 调</w>
测定 方法</w>
杀 手</w>
忠 实</w>
波 浪</w>
万 物</w>
面 具</w>
适 度</w>
法 定</w>
水 源</w>
气 象</w>
十 六
刚 性</w>
农 民
代 数</w>
18 0</w>
自 觉</w>
对 冲</w>
油 画</w>
处 境</w>
喷 射</w>
不 管
降 雨</w>
越 过</w>
维多 利亚</w>
硕 士</w>
1 1.
花 生</w>
相比 之下</w>
益 处</w>
民 间
国 主义</w>
传 输
精神 病</w>
百 度</w>
N AS
黑 洞</w>
高 潮</w>
惟 一</w>
山 顶</w>
到 期</w>
公 交
终 身</w>
界 限</w>
抽 取</w>
径 向</w>
当地 人</w>
大 力</w>
试 样</w>
滑 雪</w>
提 琴</w>
威尔 士</w>
克 拉</w>
促 进
低 估</w>
交 替</w>
车 上</w>
胞 胎</w>
安 妮</w>
业 者</w>
蒙 特
柠 檬
培养 基</w>
剖 面</w>
再 现</w>
198 9</w>
1 30</w>
面 包
忙 碌</w>
宁 愿</w>
不 容
陌 生</w>
里 亚</w>
起 源于</w>
紊 乱</w>
眼 里</w>
废 弃</w>
区 内</w>
雌 性</w>
讲 座</w>
肢 体</w>
好 看</w>
an g
调 研</w>
平 滑</w>
信 誉</w>
东 北
被 称作</w>
北京 市</w>
会 长</w>
会 上</w>
乐 园</w>
嘴 里</w>
关 税</w>
依 次</w>
财政 部</w>
联合 会</w>
眼 光</w>
爷 爷</w>
支 气管</w>
增 进</w>
内 地</w>
船 员</w>
城 里</w>
发展 前景</w>
十 足</w>
万 亿美元</w>
R P</w>
高新 技术</w>
纸 张</w>
砂 岩</w>
洗 衣
刑 法</w>
ar e</w>
越 性</w>
起 飞</w>
脚 下</w>
目 睹</w>
收 回</w>
总 的
囚 犯</w>
命令 行</w>
B BC</w>
选 定</w>
适 配器</w>
脊 柱</w>
会 议
聚 物</w>
犹 豫</w>
地 中
国防 部</w>
le y</w>
观 者</w>
裙 子</w>
盘 子</w>
所 处</w>
ach e</w>
贪 婪</w>
编 码
嫌 疑
以 为
不 规则</w>
黑 客</w>
里 程
谐 波</w>
菲 特</w>
游 览</w>
法 治</w>
解 雇</w>
环境 保护</w>
特 纳</w>
比 重</w>
引 领</w>
孟 加
公共 汽车</w>
亚 特兰
在 外</w>
健康 状况</w>
罪 行</w>
毫 不</w>
有 钱</w>
必不可 少</w>
尤 文</w>
富 人</w>
天 地</w>
升 起</w>
势 头</w>
at h
右 侧</w>
分 娩</w>
人 际
进 口
微 粒</w>
双 眼</w>
克 莱</w>
党 派</w>
不 足以</w>
通 信
这 段</w>
衰 减</w>
紫 外</w>
管理 层</w>
屋 里</w>
奖 学金</w>
域 名</w>
r ing</w>
黄 金
华盛 顿
重 申</w>
升 值</w>
分 形</w>
事 儿</w>
一 下
相 干</w>
海 豚</w>
198 8</w>
视 线</w>
奇 妙</w>
养 老
CA D</w>
通 讯
格 里
叠 加</w>
南 北</w>
人 来</w>
镇 痛</w>
过 时</w>
起 伏</w>
脱 水</w>
用 地</w>
海 军
放 缓</w>
周 刊</w>
前 沿</w>
列 为</w>
P er
软件 开发</w>
语言 学</w>
男 生</w>
排 水</w>
完整 性</w>
后 悔</w>
洛 斯</w>
尔 多</w>
客 观
四 大</w>
严 格
D B</w>
预 估</w>
红 军</w>
理 想
物理 学家</w>
来 回</w>
开 创</w>
年 内</w>
办事 处</w>
亚 太
陷 阱</w>
重 复
规 范
服务 员</w>
接 入</w>
十 九
公 告</w>
代 人</w>
丧 生</w>
铸 铁</w>
本 能</w>
整 整</w>
开 端</w>
带 走</w>
多 项</w>
临床 表现</w>
下 调</w>
营 业</w>
广播 公司</w>
压 迫</w>
P M</w>
A D</w>
螺 栓</w>
恐怖 分子</w>
形态 学</w>
开 头</w>
寄 生
大 幅度</w>
呼吸 道</w>
冰淇 淋</w>
亚 伯
与 非</w>
观 赏</w>
西 安</w>
气 相</w>
播 出</w>
指挥 官</w>
幼儿 园</w>
亚历山 大</w>
丙 烯</w>
热 烈</w>
改革 开放</w>
屏 蔽</w>
子 公司</w>
今 天
断 面</w>
怪 物</w>
以 致</w>
享 用</w>
零 部件</w>
流 感
有 史
有史 以来</w>
微 妙</w>
室 内
大 笑</w>
上 诉</w>
0 4</w>
金 正
避 孕
普 京</w>
传 热</w>
透 镜</w>
论 点</w>
表 述</w>
良 性</w>
大 面积</w>
各 级</w>
分 校</w>
比 喻</w>
正 规</w>
嫁 给</w>
图 象</w>
传 承</w>
高 山</w>
欢 迎
日 起</w>
指 甲</w>
制 性</w>
i x</w>
鸟 儿</w>
遗 忘</w>
车 道</w>
氧化 剂</w>
月 初</w>
旋 律</w>
教 科
同 情</w>
高 效率</w>
赶 到</w>
示 威</w>
t r
L C</w>
疫 情</w>
木 头</w>
施 工
另 有</w>
亲 戚</w>
称 呼</w>
挽 救</w>
学 界</w>
复 活</w>
副 总裁</w>
低 廉</w>
罚 款</w>
广 东省</w>
左 侧</w>
奥 地利</w>
国 度</w>
压 制</w>
初始 化</w>
金融 市场</w>
负 面
精 确
汉 堡</w>
投 票
所 有者</w>
多 孔</w>
器 械</w>
压缩 机</w>
光 度
价 钱</w>
B O
隐 喻</w>
钱 包</w>
迄 今</w>
舌 头</w>
生物 学家</w>
极 管</w>
散 文</w>
健 身
i an</w>
药 材</w>
牵 引</w>
澄 清</w>
1 500</w>
错 误
玩 耍</w>
指 纹</w>
发 热</w>
百分 比</w>
气 质</w>
惠 普</w>
在 我
l er</w>
绳 子</w>
理 化</w>
奇 特</w>
三角 形</w>
n et</w>
间 距</w>
粘 膜</w>
环 形</w>
沉积 物</w>
射 频</w>
封 面</w>
分 手</w>
全 方位</w>
假 装</w>
黄 油</w>
技术 人员</w>
塔 尔</w>
古 典
初 级</w>
免 费
保 温</w>
伊斯兰 教</w>
东 南部</w>
行 者</w>
液 晶</w>
拉 罕</w>
夜 里</w>
In ter
祖 父</w>
漫 步</w>
学 费</w>
基 体</w>
俄 亥
一 年
肺 部</w>
无 知</w>
东 亚</w>
P l
诺 基亚</w>
警 察
短 语</w>
天 体</w>
塞 尔
淡 水</w>
对 外
难 过</w>
耕 地</w>
油 藏</w>
二 元</w>
u st
R NA</w>
齐 全</w>
逆 转</w>
演 唱</w>
勃 勃</w>
制 服</w>
车 型</w>
种 植
流 产</w>
泥 土</w>
对 话
农 作物</w>
聚 氨
慈 善
套 管</w>
十 五
业务 流程</w>
一无 二</w>
S T</w>
游 戏
天 花板</w>
发生 变化</w>
a z
石 英</w>
注 册
议 案</w>
聚 类</w>
看 成</w>
大 火</w>
基 底</w>
博 弈</w>
M B</w>
表 中</w>
繁 忙</w>
祖 母</w>
存 者</w>
面 孔</w>
时 髦</w>
阻 尼</w>
金 字
法 兰
格 拉
冠 军
一 书</w>
营 地</w>
肯尼 迪</w>
容 忍</w>
全 年</w>
光 盘</w>
高 高
陪 审
阳 性
钢 铁
示 范</w>
甲 酸</w>
性 能
尤 为</w>
天 主教</w>
可 惜</w>
不 远</w>
一 维</w>
这 套</w>
播 放
遍 布</w>
联 系
高 水平</w>
高 低</w>
金 斯</w>
深 圳
气 球</w>
明 治</w>
扰 动</w>
哭 泣</w>
发 给</w>
内 战</w>
G P
面 粉</w>
度 假
不 算</w>
降 临</w>
市场 份额</w>
共和 党人</w>
iP ad</w>
色 泽</w>
穿 刺</w>
滚 动</w>
撤 销</w>
凝 固</w>
幸 存者</w>
匿 名</w>
加利福 尼亚州</w>
这 部分</w>
营 企业</w>
皮 肤
癫 痫</w>
瓶 颈</w>
每 位</w>
报 复</w>
学术 界</w>
or g</w>
骨 架</w>
降 到</w>
绑 架</w>
献 给</w>
数据 源</w>
性 行为</w>
尼 特</w>
地 被</w>
加 仑</w>
击 中</w>
八 月</w>
I R</w>
驾驶 员</w>
银行 家</w>
独 一无二</w>
废 除</w>
原 先</w>
北 极
九 月</w>
裁 员</w>
沿 岸</w>
名 声</w>
亚伯 拉罕</w>
n er</w>
飞 往</w>
辨 识</w>
试 者</w>
瑟 琳</w>
M c
赌 博</w>
监 督
外 侧</w>
国 旗</w>
一 向</w>
阴 性</w>
腹 泻</w>
罪 恶</w>
刚 好</w>
人 节</w>
丽 丝</w>
as h
颁 布</w>
逻 辑
科 学院</w>
水 力</w>
嫉 妒</w>
太 大</w>
胜 地</w>
埃 尔</w>
哈 里</w>
停车 场</w>
上 部</w>
ro id</w>
转 身</w>
矿 山</w>
睡 着</w>
派 遣</w>
每 种</w>
提 问</w>
岩 体</w>
去 过</w>
之 情</w>
投 诉</w>
席 位</w>
葬 礼</w>
获 奖</w>
艰 苦</w>
侵 袭</w>
三 名</w>
重 返</w>
美联 社</w>
米 勒</w>
推 销</w>
投资 人</w>
各 界</w>
出 自</w>
体育 场</w>
一 共</w>
车 轮</w>
最大 化</w>
大 理
唐 代</w>
产 地</w>
三 位</w>
顺 便</w>
长 得</w>
详 尽</w>
苏 珊</w>
哈 佛</w>
o k
D T
逼 近</w>
运 河</w>
赞 赏</w>
解决 办法</w>
揭 露</w>
全 文</w>
主 人
表 层</w>
老 年
淘 汰</w>
哈佛 大学</w>
一 会</w>
高 斯</w>
阵 容</w>
贝 克</w>
解 答</w>
竞 技</w>
相 近</w>
春 节</w>
头 顶</w>
地中 海</w>
公 顷</w>
不 下</w>
Ec lipse</w>
违 背</w>
男 友</w>
摩 擦
成 矿</w>
好 象</w>
台 北</w>
保 养</w>
自然 界</w>
编译 器</w>
滞 后</w>
叫 声</w>
偿 还</w>
乐 团</w>
P M
P D</w>
肥 料</w>
女 神</w>
图 形
买 下</w>
0 7</w>
尼日 利亚</w>
好 转</w>
大 都</w>
备 用</w>
a el</w>
沃尔 玛</w>
偏 好</w>
不 高</w>
集 团
遏 制</w>
西 南部</w>
幸 福
好 评</w>
偏 离</w>
争 吵</w>
as h</w>
Th e</w>
聆 听</w>
粘 土</w>
玉 米
氏 体</w>
武 术</w>
施 行</w>
一 期</w>
0 2</w>
门 将</w>
追 溯到</w>
聚氨 酯</w>
比 分</w>
器 材</w>
向 导</w>
冶 金</w>
光 照</w>
7 5%</w>
礼 拜</w>
瑟 夫</w>
激 进</w>
合 剂</w>
十 五</w>
通用 汽车</w>
纽约 市</w>
笔记 本
海 边</w>
乳 液</w>
终 点</w>
氨 基</w>
方 人</w>
抗 议者</w>
受 到
仅 为</w>
选 中</w>
触 摸</w>
西 北部</w>
时 段</w>
评 判</w>
清 洁
构 想</w>
品 味</w>
努 力
兰 人</w>
公 务员</w>
一般 来说</w>
P h
O r
饮 酒</w>
重 现</w>
几 位</w>
腹 腔镜</w>
现实 生活</w>
最高 法院</w>
排放 量</w>
托 尼</w>
发 型</w>
会 晤</w>
一 性</w>
飞行 器</w>
生产 总值</w>
晚 些时候</w>
亮 度</w>
一 带</w>
麦当 劳</w>
达 尔</w>
笔记本 电脑</w>
男 朋友</w>
演 习</w>
指 针</w>
如 是说</w>
地 向</w>
阳 极</w>
货币 政策</w>
评 述</w>
皮 层</w>
瓶 子</w>
幼 虫</w>
商 学院</w>
同 位
十 月</w>
前列 腺</w>
冠 心病</w>
不论 是</w>
紧 凑</w>
现实 意义</w>
河 道</w>
无 意</w>
争 端</w>
三 十</w>
牛仔 裤</w>
微 机</w>
宣 言</w>
功 耗</w>
人 生
w or
画 廊</w>
潜 水</w>
加 勒
几 百
从 那
丝 毫</w>
曼 哈
抽 样</w>
变 质</w>
体 型</w>
驾 车</w>
漂 浮</w>
模 型
恶性 肿瘤</w>
微 弱</w>
马 拉</w>
配置 文件</w>
那 场</w>
警 报</w>
脱 落</w>
白 细胞</w>
款 式</w>
情 愿</w>
孙 子</w>
黄 河</w>
鸡 肉</w>
文 物</w>
攻 击
据 此</w>
心理 健康</w>
开放 式</w>
几 点</w>
科 罗
河 南</w>
师 范
小 屋</w>
不 得
雷 德</w>
还 给</w>
愉 悦</w>
写 入</w>
c om
首 个</w>
重 于</w>
花岗 岩</w>
继 续
甲 醛</w>
上 游</w>
静 脉
说 来</w>
营 业
珍 惜</w>
邮政 编码</w>
负 债</w>
海 峡</w>
o w</w>
太 过</w>
做 事</w>
二 进制</w>
饰 演</w>
节 性</w>
棒 球</w>
手 机
患 病</w>
农 产品</w>
迪 拜</w>
涡 轮</w>
活性 剂</w>
局 限</w>
导 电</w>
剪 辑</w>
4 000</w>
相 遇</w>
游 泳池</w>
托 管</w>
五 十</w>
逃 跑</w>
苦 难</w>
宿 主</w>
分 光</w>
全 美</w>
限 定</w>
系列 产品</w>
开 花</w>
差 分</w>
夸 张</w>
减 压</w>
保 密</w>
it e</w>
法 国人</w>
多 彩</w>
图 斯</w>
佛罗里 达</w>
u e</w>
面 貌</w>
粮 食
活 泼</w>
分 裂
机 能</w>
凯 瑟琳</w>
低 下</w>
3 50</w>
0 3</w>
耶 稣
绿 化</w>
有所 不同</w>
捐 款</w>
慷 慨</w>
律 法</w>
尤 文
一 页</w>
1 40</w>
第一 部</w>
牛 顿</w>
爱 心</w>
海 岸
暴 力
持续 性</w>
小 伙
两 边</w>
近 几年</w>
法 令</w>
斜 坡</w>
对 立</w>
大 米</w>
分 公司</w>
伙 人</w>
伍 德</w>
i g</w>
ab le</w>
食 谱</w>
食 管</w>
这 台</w>
西 西
螺 纹</w>
称 号</w>
态 性</w>
循 环
E L
A B</w>
阴 谋</w>
攀 升</w>
催 化
优 越性</w>
人 文
ur e</w>
G IS</w>
重 度</w>
身 处</w>
跨 国
移 除</w>
搭 建</w>
拍 照</w>
意 料</w>
对 系统</w>
同位 素</w>
低 收入</w>
198 6</w>
矫 正</w>
火 车站</w>
威 廉
便 携
以 南</w>
网 友</w>
标 赛</w>
岩 浆</w>
尊 严</w>
加 速度</w>
y st
or t</w>
in o</w>
an t
B ar
难 忘</w>
锦 标赛</w>
英 文
自由 度</w>
格 雷</w>
新 泽
并 联</w>
召 唤</w>
不 禁</w>
上 限</w>
F T</w>
试 剂</w>
立 大学</w>
电话 号码</w>
深 厚</w>
此 种</w>
促 成</w>
o d</w>
W TO</w>
非 营
雇 用</w>
跳 跃</w>
没 想到</w>
国务 卿</w>
约 束
秘 书
开发 利用</w>
关键 问题</w>
先 天性</w>
借 贷</w>
一 章</w>
il l</w>
矿 区</w>
林 业</w>
打 印机</w>
微 分
兄 弟
儒 家</w>
促 销</w>
不 应</w>
见 过</w>
甜 蜜</w>
柠 檬</w>
晚 饭</w>
年 里</w>
地 貌</w>
丽 莎</w>
f or</w>
各 大</w>
从 小</w>
电 路
电 化学</w>
幕 式</w>
宾 夕
单 元
一 节</w>
造 就</w>
草 案</w>
狐 狸</w>
椭 圆</w>
整 齐</w>
改 编</w>
宣 告</w>
US B</w>
20 13</w>
马 达</w>
闪 电</w>
胁 迫</w>
特 区</w>
此 处</w>
宫 殿</w>
起 始</w>
货 车</w>
行 事</w>
蒂 斯</w>
背 部</w>
而 后</w>
交 联</w>
门 徒</w>
报 名</w>
手 持</w>
宣 传
唤 醒</w>
二 醇</w>
一 侧</w>
轻 重</w>
超 级
知 觉</w>
眼 神</w>
特 人</w>
无 情</w>
探 针</w>
宽 容</w>
原 文</w>
佛罗里 达州</w>
上 皮</w>
频 谱</w>
金字 塔</w>
翻 译
纳 州</w>
寂 寞</w>
出 门</w>
20 20</w>
预 警</w>
评 审</w>
统计 分析</w>
海 滨</w>
工艺 流程</w>
个 案</w>
薄 层</w>
胃 癌</w>
普遍 存在</w>
姚 明</w>
哲 学
内 部
资 金
结 尾</w>
相 关联</w>
甲 醇</w>
数 码
兼 职</w>
仔 细
专 栏</w>
NAS A</w>
0 6</w>
赶 上</w>
至 上</w>
稀 释</w>
私 有</w>
数 月</w>
中 以</w>
p le</w>
石 化</w>
水 泵</w>
期 权</w>
品 位</w>
卫 队</w>
前 端</w>
优 选</w>
从 没</w>
V E
A X</w>
空间 站</w>
格 雷
推 移</w>
已 久</w>
届 时</w>
兰 州</w>
人 选</w>
饮 用水</w>
钓 鱼</w>
里 奥</w>
适 于</w>
赶 紧</w>
所在 地</w>
情 侣</w>
多 多</w>
出 演</w>
M y
防 范</w>
罢 了</w>
立 方
活 塞</w>
沐 浴</w>
歌 剧</w>
a f
荣 幸</w>
欧 美</w>
权 人</w>
抛 光</w>
免 受</w>
亲 切</w>
SO AP</w>
经 理
樱 桃</w>
所 得
充 填</w>
三 明治</w>
租 借</w>
水 肿</w>
外 汇
临床 意义</w>
矿 井</w>
畅 销</w>
地 震
通 向</w>
缩 减</w>
宾夕 法
同 等</w>
化学 品</w>
亚 当</w>
不 合理</w>
C or
纳 斯</w>
燃 料
次 世界大战</w>
巴 塞
天 才</w>
复 制
P A
示威 者</w>
护 照</w>
大 事</w>
不 肯</w>
袋 子</w>
结 肠</w>
科罗 拉
海 报</w>
描 述
存储 器</w>
决 定性</w>
公共 卫生</w>
克 劳
依赖 性</w>
二 极管</w>
买 方</w>
上 校</w>
Mich ael</w>
概 念
方 差</w>
情 境</w>
安德 鲁</w>
右 手</w>
艾滋 病毒</w>
数据 处理</w>
搜 集</w>
成本 低</w>
加 油</w>
分 隔</w>
住 宿</w>
不 佳</w>
i p</w>
黏 膜</w>
身 着</w>
文 本
据 悉</w>
手 下</w>
制 片
量 分析</w>
花 园
格 森</w>
村 子</w>
更 少</w>
抵 消</w>
布 里</w>
中华 民族</w>
上 层</w>
S I
P I</w>
配 制</w>
继 承
礼 仪</w>
理 智</w>
正确 性</w>
巴 尔
大大 提高</w>
主人 公</w>
ar d
证 人</w>
考 古
瞩 目</w>
电力 系统</w>
特 别
形 貌</w>
弱 点</w>
建 于</w>
巨 大
宏 观
回 头</w>
倒 塌</w>
不 顾</w>
门 前</w>
然 不同</w>
米 歇尔</w>
离 去</w>
环 保
弟 兄</w>
多 态性</w>
外交 部</w>
匆 匆</w>
何 处</w>
亲 吻</w>
非 政府</w>
阻 挡</w>
虫 剂</w>
信用 证</w>
亚 利
进 食</w>
观 光</w>
统计 数据</w>
电 泳</w>
混 淆</w>
拘 留</w>
尖 叫</w>
媒体 报道</w>
E d
198 7</w>
音乐 家</w>
浸 泡</w>
每 人</w>
斯科 特</w>
坚 实</w>
厂 房</w>
万 名</w>
F l
腺 炎</w>
生 理
模 块
接 管</w>
挫 折</w>
全 家</w>
代理 人</w>
轻 度</w>
平 面
周期 性</w>
呕 吐</w>
决策 者</w>
冲 击
一 圈</w>
19 70</w>
演 讲
流行 病学</w>
新 人</w>
处理 程序</w>
下 令</w>
辆 车</w>
甲 板</w>
感 官</w>
小伙 子</w>
固 态</w>
乳 腺</w>
198 4</w>
迫 切
硫 酸
气 泡</w>
成 功
废 墟</w>
射 流</w>
举例 来说</w>
间 盘</w>
警 官</w>
瞄 准</w>
激 起</w>
毁 坏</w>
德 勒</w>
尼 泊
尼 克
C B
请 参阅</w>
索 尼</w>
电 能</w>
温 馨</w>
双 胞胎</w>
阿 姆
缓 和</w>
矿 物质</w>
电 线</w>
民 事
布 满</w>
发 明
分 段</w>
会 为</w>
一 到</w>
N O
规 划
电子 书</w>
正 向</w>
想 不到</w>
弗 洛
著 称</w>
立 体
南 海</w>
全 自动</w>
首 领</w>
辅 导</w>
西 州</w>
尽 头</w>
压 力
制 冷</w>
几 十
元 法</w>
街 区</w>
矿 业</w>
燃 气</w>
最 小
好 运</w>
好 吃</w>
壮 观</w>
反 演</w>
冷 战</w>
一下 子</w>
9 5%</w>
过 高</w>
课 堂
能 为</w>
结 合
榜 样</w>
录 制</w>
凌 晨</w>
辛 格</w>
设计 者</w>
狗 狗</w>
源 头</w>
回 忆
合 伙人</w>
克 罗
优先 级</w>
三 人</w>
阻 断</w>
脱 硫</w>
缺 氧</w>
睾 丸</w>
标 定</w>
意大 利
关键 因素</w>
T R
爱 因
爱因 斯坦</w>
煤 灰</w>
池 塘</w>
水 池</w>
欺 诈</w>
本 性</w>
卡 斯</w>
午 饭</w>
万 个</w>
星 座</w>
推 断</w>
异 步</w>
干 扰
在我 看来</w>
一 号</w>
驱动 程序</w>
重 心</w>
监 禁</w>
泄 露</w>
本 章</w>
纺织 品</w>
当 今
门 外</w>
衣 物</w>
莱 特</w>
提供 商</w>
丝 绸</w>
上 周五</w>
R es
H D
198 5</w>
这 颗</w>
绝 不</w>
窗 外</w>
恶 意</w>
富 集</w>
咖啡 因</w>
一 整天</w>
r a</w>
黎 巴
签 约</w>
果 说</w>
承载 力</w>
想 象
大 连</w>
否 是</w>
储 量</w>
下 雨</w>
H A</w>
A F
重 症</w>
迪 克</w>
行 人</w>
环 氧
泪 水</w>
波 导</w>
曼哈 顿</w>
念 头</w>
往 来</w>
圣 灵</w>
参 赛</w>
革 新</w>
连 串</w>
禽 流感</w>
碳 水
碳水 化合物</w>
旅 途</w>
微分 方程</w>
如 果说</w>
发 挥
养 分</w>
人 造
互 相
马 德里</w>
霍 尔</w>
课 程
留 意</w>
极 性</w>
打 包</w>
一 夜</w>
草 莓</w>
是 否是</w>
卡 梅
十 几
举 起</w>
通 路</w>
抗 震</w>
以 人
交 叉
皱 纹</w>
病 患</w>
整 洁</w>
数 控
推 广
拇 指</w>
堆 积</w>
电 气
尘 埃</w>
学 生
内 衣</w>
er t</w>
马 路</w>
这 边</w>
资 企业</w>
犹 大</w>
死 者</w>
教 皇</w>
强 硬</w>
巴 巴</w>
壮 大</w>
中 型</w>
en n
1 60</w>
随 即</w>
这 辆</w>
莱 斯</w>
格 达</w>
星 云</w>
五 十
查 阅</w>
拉 夫</w>
坟 墓</w>
再 说</w>
一 瓶</w>
1. 0</w>
面向 对象</w>
装 满</w>
演 唱
洽 谈</w>
歌 声</w>
居 住
学 派</w>
战 后</w>
山 地</w>
发 表
主 演</w>
中 外</w>
高尔 夫</w>
镶 嵌</w>
萨 科
范 例</w>
歌 词</w>
放 心</w>
天 气
土地 利用</w>
和 谐
默 德</w>
适 用
脑 部</w>
牲 畜</w>
江 苏</w>
枢 纽</w>
故障 诊断</w>
工艺 品</w>
静 止</w>
陪 伴</w>
重 金属</w>
违 法</w>
舰 队</w>
自 发</w>
弗 朗
干 什么</w>
坚 果</w>
追 溯</w>
草 药</w>
波 罗</w>
图 中</w>
喷 发</w>
品 牌
卡 拉
y th
M on
耐 用</w>
离 心
海 面</w>
抵 御</w>
不 受</w>
s k
o st
J 2
浙 江省</w>
法 国
概 要</w>
巴 菲特</w>
小 时候</w>
发 票</w>
上 映</w>
通 量</w>
评论 家</w>
绝 缘
矿 工</w>
林 斯</w>
合 资</w>
匈 牙
加 沙</w>
三 层</w>
I F
酸 酯</w>
结 算</w>
第 七
派 出</w>
民 意
机 车</w>
投 标</w>
悉 尼</w>
同 胞</w>
个 世纪</w>
轻 轻
斑 点</w>
撤 离</w>
传 入</w>
197 9</w>
香 水</w>
誉 为</w>
科学 研究</w>
知识 分子</w>
王 星</w>
熟 练</w>
收 音机</w>
感 到
常 见
台 风</w>
体 操</w>
迪 斯
拆 除</w>
可 口
亚利 桑
in a</w>
e x</w>
我 院</w>
应 答</w>
发 誓</w>
串 联</w>
个 子</w>
顶 尖</w>
藉 由</w>
经 受</w>
对话 框</w>
农 村
P ID</w>
And roid</w>
神经 系统</w>
潜 能</w>
摄像 头</w>
小 鸟</w>
优 缺点</w>
邻 国</w>
结 实</w>
燃 烧
残 忍</w>
指导 意义</w>
扩 展
我 爱
od e</w>
钻 孔</w>
苏 州</w>
火 花</w>
本 品</w>
失 调</w>
保 证
黎 明</w>
警 惕</w>
美 德</w>
清 代</w>
油 气
庭 院</w>
反 恐</w>
人 道
自 尊</w>
者 之间</w>
相 等</w>
现 金
波 段</w>
少 于</w>
哈 拉</w>
伊利 诺
伊 德</w>
yp e</w>
有效 途径</w>
想象 力</w>
弥 尔顿</w>
山 市</w>
子 孙</w>
举 止</w>
er y</w>
b u
C L
身体 健康</w>
粒 体</w>
算 子</w>
彩 虹</w>
学 业</w>
以人 为本</w>
主 办</w>
世 纪
e e</w>
D F</w>
涨 幅</w>
挤 出</w>
弹 性
尿 管</w>
任 职</w>
交 响
H PLC</w>
颗 粒
里程 碑</w>
约 瑟夫</w>
病 害</w>
演 绎</w>
层 次
友 好
书 法</w>
A T</w>
鲍 勃</w>
第五 章</w>
省 份</w>
皇 后</w>
病 房</w>
留 学生</w>
服 役</w>
开 门</w>
带 回</w>
巴塞 罗
全 面
二 十</w>
丰 厚</w>
S E</w>
难 得</w>
资源 管理</w>
舞 会</w>
电 阻
欢 呼</w>
完 毕</w>
在 场</w>
卡 因</w>
协 调
低 迷</w>
负面 影响</w>
纪 录
灯 泡</w>
收 拾</w>
支 护</w>
接 地</w>
奥林匹 克</w>
告 别</w>
南 瓜</w>
转 而</w>
缘 故</w>
票 房</w>
座 椅</w>
利 性</w>
传 到</w>
阳 台</w>
蚊 子</w>
态 势</w>
取 样</w>
R F
虚 构</w>
累 计</w>
普 森</w>
指 着</w>
巴 布
屏 障</w>
外 资</w>
回 合</w>
四 季</w>
冰 岛</w>
R ob
雅 各</w>
肿 胀</w>
福 建</w>
猎 人</w>
抨 击</w>
总 有</w>
信 托</w>
腹 腔</w>
生 日
介 意</w>
高 铁</w>
长 寿</w>
细 小</w>
盟 友</w>
留 学</w>
海 马</w>
更 强</w>
抢 劫</w>
戴 尔</w>
恰 好</w>
威 斯
厌 倦</w>
乳 酸</w>
不太 可能</w>
一 辈子</w>
an g</w>
骚 扰</w>
时 装</w>
帕 特
和 解</w>
质 地</w>
蘑 菇</w>
母 细胞</w>
斯 塔
操作 性</w>
接 纳</w>
定 居</w>
大 使馆</w>
R ub
辛 苦</w>
有 待</w>
后 方</w>
典 范</w>
一点 儿</w>
饮 食
铅 笔</w>
田 野</w>
夺 得</w>
不 着</w>
海 鲜</w>
河 水</w>
武 装
检察 官</w>
杀 虫剂</w>
单 调</w>
专 题</w>
d e</w>
运动 会</w>
航 线</w>
第三 次</w>
珊 瑚</w>
浪 潮</w>
流 器</w>
小 小</w>
安东 尼</w>
克 里</w>
二 月</w>
下 属</w>
B e
阳 市</w>
输 出
调 味
第一 批</w>
甲 基
热 力学</w>
炸 药</w>
战 队</w>
密 歇
休 克</w>
P at
E J
租 金</w>
民 营</w>
奢 华</w>
发 器</w>
十字 架</w>
书 记</w>
一个 个</w>
一 事</w>
W il
灵 敏</w>
惯 例</w>
去 掉</w>
便 捷</w>
ic ation</w>
静 静
轧 制</w>
起 着</w>
萨 拉</w>
煤 气</w>
柬 埔
日 元</w>
或 缺</w>
平 坦</w>
国际 贸易</w>
一 连串</w>
H B
B o
餐 饮</w>
行 列</w>
而 生</w>
缺 席</w>
粉 红色</w>
着 陆</w>
构 造
支 柱</w>
定 量分析</w>
大 腿</w>
解 剖
被 告</w>
率 领</w>
灌 木</w>
椎 间盘</w>
放 射</w>
边 上</w>
西 雅
特 拉
水 泥
效 率高</w>
大理 石</w>
复 位</w>
增 值</w>
地 为</w>
受 试者</w>
发 电厂</w>
介 于</w>
中 文
萨 诸
社会 保障</w>
生长 因子</w>
流 速</w>
喜 好</w>
了 不起</w>
乃 是</w>
不 及
一 团</w>
附 加
问 问</w>
身份 验证</w>
趋 于</w>
直 播</w>
校 准</w>
数 额</w>
性 爱</w>
布 雷</w>
完 备</w>
可 信</w>
博 士
长 官</w>
身 子</w>
调 速</w>
该 类</w>
肤 色</w>
纠 缠</w>
全 职</w>
中 子</w>
下 肢</w>
l in
PV C</w>
马拉 松</w>
曼 城</w>
拉 图</w>
小 岛</w>
a x</w>
A b
边 形</w>
状 态
洗 涤</w>
开 幕</w>
升 至</w>
U S</w>
C I</w>
语 用</w>
相 片</w>
批 量</w>
手 势</w>
思 念</w>
1 3.
龙 头</w>
闪 光</w>
篇 小说</w>
真 空
武 士</w>
智能 化</w>
地理 位置</w>
卖 掉</w>
不 育</w>
一小 部分</w>
1 2.
这 幅</w>
西 北
行 道</w>
石 膏</w>
特殊 性</w>
位 点</w>
三 倍</w>
a st
M L
纪 律</w>
吸 血
. .</w>
纪录 片</w>
电 量</w>
状 体</w>
本 届</w>
卡 罗</w>
U ML</w>
高 密度</w>
站 立</w>
班 级</w>
正常 人</w>
女 演员</w>
复杂 度</w>
取得 成功</w>
需 求
笑 声</w>
承包 商</w>
尽 情</w>
T O
越 大</w>
绝 大部分</w>
瑞 克</w>
安 理会</w>
可 变</w>
克 利
Op en
Con t
躲 避</w>
路 口</w>
螺 钉</w>
虔 诚</w>
萨 克
膳 食</w>
探 险</w>
婚 姻
冥 想</w>
亮 相</w>
S V
防 火
贝 拉</w>
膨 胀
网 民</w>
田 间</w>
夏 日</w>
哈 根</w>
南 极</w>
刹 车</w>
产 能</w>
跌 幅</w>
空 心</w>
步 入</w>
度 高</w>
吉 尔
动 摇</w>
低 频</w>
跨 度</w>
跑 道</w>
认 出</w>
自 体</w>
腺 素</w>
熟 知</w>
援 引</w>
感 恩</w>
尼泊 尔</w>
多 岁</w>
以 求</w>
p ort
背 上</w>
绝 地</w>
棘 手</w>
时 才</w>
日 渐</w>
教学 模式</w>
尤文 图斯</w>
吸血 鬼</w>
农 夫</w>
共同 努力</w>
保 安</w>
we b</w>
DS P</w>
6 000</w>
越来 越
残 疾
序 列
同 比</w>
口 径</w>
千 万
前 人</w>
出 手</w>
使 者</w>
丛 林</w>
1 4.
迷 你</w>
聚 乙烯</w>
灾 区</w>
格 拉斯</w>
普 斯</w>
情 人节</w>
山 西</w>
尔 蒙</w>
儿 女</w>
人际 关系</w>
h t</w>
G e
高 职</w>
问 候</w>
谱 仪</w>
议 程</w>
毛 巾</w>
模块 化</w>
摆 在</w>
发挥 作用</w>
仇 恨</w>
yth on</w>
窒 息</w>
短 时间</w>
挑战 性</w>
小 心
宇 宙
只 用</w>
历史 学家</w>
剧 场</w>
A c
自然 资源</w>
瘫 痪</w>
激 酶</w>
江 苏
数 十年</w>
据 称</w>
便携 式</w>
他 命</w>
ri p
et t
欧 文</w>
招 募</w>
巨 额</w>
工作 效率</w>
各 向
传 真</w>
韧 带</w>
论 者</w>
荣 获</w>
税 率</w>
秘 鲁</w>
申 报</w>
照 亮</w>
气 压</w>
很 久
开 枪</w>
千 米</w>
入 学</w>
供 水</w>
以 内</w>
I M</w>
金正 日</w>
解 释
极 好</w>
手 术
同 性</w>
分裂 症</w>
事 后</w>
雌 激素</w>
红 酒</w>
社会 学</w>
电影 院</w>
害 虫</w>
压 电</w>
压 抑</w>
黑 莓</w>
方 程
方 向
持续 时间</w>
心 室</w>
地 方
二 世</w>
im e</w>
S F</w>
阁 下</w>
透明 度</w>
透 析</w>
近 乎</w>
起 重
规范 化</w>
纤维 化</w>
猎 物</w>
海 绵</w>
暴 风雨</w>
开发 区</w>
小 说
在 世界
在世界 上</w>
魔 术</w>
绵 羊</w>
消 防</w>
款 项</w>
木 星</w>
抽 烟</w>
屁 股</w>
天 晚上</w>
交 流
中 学生</w>
上 将</w>
足 迹</w>
月 光</w>
亲 人</w>
经验 丰富</w>
每 隔</w>
拿 下</w>
多 大</w>
地 去</w>
卖 方</w>
充 实</w>
鲜 艳</w>
自由 主义</w>
水 电站</w>
徘 徊</w>
同 盟</w>
人道 主义</w>
三 条</w>
一 幕</w>
M R</w>
输 入
理工 学院</w>
摄 取</w>
嘴 巴</w>
吉 亚</w>
化学 反应</w>
上 赛季</w>
转化 成</w>
跨 国</w>
肮 脏</w>
数 千</w>
哥伦 比亚
乐 于</w>
U V</w>
露 天</w>
附 着</w>
耳 机</w>
影 像
和谐 社会</w>
发 觉</w>
五 种</w>
不 动
上 司</w>
阿拉 斯加</w>
退 火</w>
衰 落</w>
组织 者</w>
照 相机</w>
正 直</w>
查 理</w>
杀 人</w>
明 代</w>
不 久
黎巴 嫩</w>
骨 质</w>
连 同</w>
象 征
耶稣 基督</w>
精 品</w>
率 为</w>
深 深
庄 园</w>
寺 庙</w>
功 于</w>
贫 血</w>
管理 工作</w>
特 曼</w>
搭 档</w>
市场 营销</w>
好 坏</w>
喷 涂</w>
卷 入</w>
侵 害</w>
首 发</w>
风 光</w>
迷 惑</w>
物 质
山 坡</w>
家 属</w>
养 成</w>
九 个</w>
一 朵</w>
198 2</w>
解 开</w>
蒸 馏</w>
细 化</w>
相似 性</w>
法 制</w>
水 手</w>
影像 学</w>
古 希腊</w>
光度 法</w>
两 张</w>
不可 或缺</w>
附 带</w>
西雅 图</w>
虫 病</w>
祝 愿</w>
感 谢
恰 恰</w>
归 功于</w>
尖 锐</w>
d b
鲁 棒
维 加斯</w>
曼 谷</w>
旅行 者</w>
摄 氏度</w>
戴 着</w>
店 里</w>
居 室</w>
好 玩</w>
勉 强</w>
出 租</w>
信 度</w>
保 健
黑 龙
薄 弱</w>
终 极</w>
炎 热</w>
最 新
城 乡</w>
危险 性</w>
其 间</w>
三 十年</w>
ex t</w>
CO 2</w>
走 势</w>
贬 值</w>
签 下</w>
烟 气</w>
柏 拉图</w>
数 个</w>
手 枪</w>
反 驳</w>
充分 发挥</w>
还 原
经 皮</w>
纳 粹</w>
精神 分裂症</w>
竞争 者</w>
硫 化</w>
我爱 你</w>
实 物</w>
傍 晚</w>
主 题
ar y</w>
an n
黄 瓜</w>
过 剩</w>
输 送
海 藻</w>
景 区</w>
断 言</w>
德 国人</w>
D R
青 蛙</w>
逃 脱</w>
背 叛</w>
而 言之</w>
直 流
欧洲 人</w>
日 后</w>
平 凡</w>
小 型
内 侧</w>
a h</w>
T S</w>
F DA</w>
菜 肴</w>
纯 洁</w>
留 下来</w>
点 钟</w>
拉 姆</w>
怀 特</w>
德 国
P ar
苍 白</w>
残 疾</w>
撕 裂</w>
手 提
作 曲
伤 亡</w>
中 旬</w>
飙 升</w>
项 链</w>
雨 林</w>
间 断</w>
胜 过</w>
现实 主义</w>
彼 得
商 家</w>
可 调</w>
原 位</w>
不 懈</w>
不 利于</w>
上 调</w>
P R
G S</w>
雄 厚</w>
降 温</w>
连接 器</w>
轻轻 地</w>
表 演
胡 萝卜</w>
置 换</w>
经济 性</w>
模 量</w>
森 林
所得 税</w>
布 兰
山 东省</w>
加 州
出版 商</w>
体 温</w>
不 妨</w>
u n</w>
这 时候</w>
荒 谬</w>
民 事</w>
得 起</w>
对 流</w>
便 会</w>
社 团</w>
球 星</w>
液 化</w>
栖 息
明 尼
新 工艺</w>
文 斯</w>
数 千
敞 开</w>
德 曼</w>
坚 硬</w>
主 帅</w>
S Y
送 往</w>
身 旁</w>
盐 水</w>
球 形</w>
海 里</w>
棵 树</w>
枪 手</w>
崇 高</w>
凝 聚</w>
兴 建</w>
兴 奋
传 播
ac t
问 及</w>
贮 存</w>
必 定</w>
卫生 部</w>
再生 能源</w>
Man ag
F O
B u
驱 逐</w>
迟 到</w>
车 厢</w>
赐 给</w>
袜 子</w>
落 于</w>
旗 帜</w>
控制 台</w>
快 餐</w>
弗 格森</w>
尼 龙</w>
客 车</w>
国 会
光 辉</w>
防 火</w>
迫 切</w>
该 区</w>
虚 弱</w>
萨 尔</w>
用 餐</w>
握 手</w>
拼 命</w>
打 断</w>
总的 来说</w>
奶 牛</w>
大 衣</w>
外 围</w>
图 谱</w>
吃 掉</w>
传 动
or y</w>
o p</w>
N O</w>
量 子
管 线</w>
病 症</w>
点 火</w>
成 功率</w>
孕 育</w>
大 夫</w>
住 所</w>
购 买
大 麻</w>
高 分辨率</w>
酸 奶</w>
详细 分析</w>
臀 部</w>
瑞 拉</w>
法 是</w>
反 击</w>
停 下</w>
专业 化</w>
不 曾</w>
一个 多</w>
食 者</w>
质 谱</w>
维 基</w>
索 赔</w>
皮 特</w>
猛 烈</w>
牛 仔</w>
渲 染</w>
星 际</w>
性 病</w>
开 裂</w>
尿 道</w>
吸 烟
十 八
会计 师</w>
也 门</w>
丙烯 酸</w>
for m
高 产</w>
香 草</w>
长 江
福 克斯</w>
标志 性</w>
控 股</w>
抬 头</w>
所 属</w>
平方 公里</w>
可 观</w>
关键 字</w>
B ro
这 首</w>
管理 模式</w>
活 率</w>
庆 典</w>
企 鹅</w>
不 在</w>
上 扬</w>
血 脂</w>
牢 固</w>
指 标
战 机</w>
连 结</w>
线 粒体</w>
盛 行</w>
母 语</w>
根 系</w>
强 烈
哥 本
单 向</w>
责 备</w>
经理 人</w>
电 镀</w>
柜 台</w>
教 士</w>
增 量</w>
升 温</w>
匈牙 利</w>
动 器</w>
倘 若</w>
作 风</w>
路 由
满 足
湿 润</w>
数据 类型</w>
巡 逻</w>
嫌疑 人</w>
复 用</w>
可 疑</w>
交 配</w>
d a
这 才</w>
跨国 公司</w>
译 文</w>
缴 纳</w>
极 少</w>
机 动</w>
更 进一步</w>
斯 堡</w>
推广 应用</w>
打 发</w>
总 能</w>
奔 跑</w>
土 星</w>
国民 经济</w>
动 员</w>
住 宅
T r
C V
这样 的话</w>
费 城</w>
江苏 省</w>
无 尽</w>
喇 叭</w>
伤 性</w>
人 格
B I</w>
巨 星</w>
四 肢</w>
命 题</w>
听 觉</w>
冰 冷</w>
九 年</w>
阳 离子</w>
转换 器</w>
赛 场</w>
耗 费</w>
税 务</w>
真 寺</w>
电子 产品</w>
牧 场</w>
清 水</w>
毛 发</w>
寄 生</w>
外 长</w>
圆 柱</w>
午 夜</w>
m ent</w>
管理 体系</w>
抗 肿瘤</w>
多 伦
乳 化</w>
两 岸</w>
一切 都是</w>
一 氧化
黄 土</w>
首 尔</w>
觉 醒</w>
获 益</w>
流 变</w>
机 动
更 糟</w>
操 控</w>
快 要</w>
作 文</w>
世 间</w>
不 准</w>
D M
A O
重 重</w>
贮 藏</w>
粉 煤灰</w>
涉 嫌</w>
浮 动</w>
栖息 地</w>
映 像</w>
希 伯
奶 粉</w>
均 值</w>
十 字</w>
侦 查</w>
T 恤</w>
金 子</w>
解剖 学</w>
荷 尔蒙</w>
生命 力</w>
摇 滚</w>
平 线</w>
市 政府</w>
封 锁</w>
参考 价值</w>
力 矩</w>
初 次</w>
克 利</w>
E M
D om
B r
高 炉</w>
随 著</w>
猜 想</w>
清 真寺</w>
水 处理</w>
权 重</w>
未 曾</w>
排 行
复 习</w>
克 雷
俄亥 俄
两 端</w>
焊 缝</w>
水 印</w>
杠 杆</w>
普通 人</w>
晓 得</w>
指 示
细 腻</w>
简 单
掩 饰</w>
急 需</w>
实践 证明</w>
伸 缩</w>
人民 法院</w>
车 手</w>
诱 人</w>
腐 蚀性</w>
枕 头</w>
排行 榜</w>
戈 尔</w>
当 日</w>
太阳 系</w>
外交 政策</w>
互 补</w>
乙 酸</w>
货 运</w>
螺 杆</w>
羡 慕</w>
穿 透</w>
射 手</w>
史 诗</w>
可 笑</w>
医疗 保险</w>
E C</w>
针 刺</w>
资 料
背 面</w>
磨 削</w>
爵 士
某 一</w>
末 期</w>
木 质</w>
换 成</w>
实验 性</w>
坐 落于</w>
动 画
凤 凰</w>
产品 类别</w>
维 拉</w>
甲 苯</w>
流 出</w>
星 人</w>
时 要</w>
摆 动</w>
蓬 勃
精 制</w>
电 报</w>
格 林
格 拉</w>
柬埔 寨</w>
时间 表</w>
成 熟
州 立大学</w>
小 学生</w>
夫 斯基</w>
多 德</w>
中 来</w>
业 余</w>
美术 馆</w>
科学 依据</w>
有 无</w>
敬 畏</w>
效 用</w>
力 气</w>
物 件</w>
海 中</w>
气 道</w>
树 种</w>
斯坦 福
外 汇</w>
交 织</w>
风 扇</w>
格鲁 吉亚</w>
巴 格达</w>
审 理</w>
体育 馆</w>
上 皮细胞</w>
on g</w>
除 外</w>
老 式</w>
第 六</w>
打 出</w>
戏剧 性</w>
家庭 成员</w>
高 阶</w>
马 铃
购物 中心</w>
致 病</w>
碳 纤维</w>
盲 目</w>
深 海</w>
流 浪
星期 日</w>
时 所</w>
宇航 局</w>
大 蒜</w>
可 溶性</w>
举 个</w>
197 8</w>
细 微</w>
特 许</w>
波 斯</w>
本 例</w>
折 射
安 定</w>
奴 隶
大 肠
召 回</w>
二 阶</w>
乒 乓
a il
预 料</w>
非 正式</w>
遗 迹</w>
蒸 气</w>
移 植
环 球</w>
玫 瑰
民主 党人</w>
倒 闭</w>
一 分</w>
EJ B</w>
00 1</w>
集 体
讲 解</w>
解 密</w>
脸 部</w>
开 出</w>
店 铺</w>
帆 船</w>
巴塞罗 那</w>
没 人</w>
无 奈</w>
孟 买</w>
动 人</w>
内 皮细胞</w>
伙 伴
个人 电脑</w>
三 星</w>
门 诊</w>
病 菌</w>
治 疗
变 体</w>
作曲 家</w>
lo c
里 奇</w>
采 矿</w>
软 化</w>
足 轻重</w>
珍 妮</w>
明 书</w>
思 潮</w>
型 肝炎</w>
坚 持
圣 节</w>
半 数</w>
再 用</w>
内 镜</w>
临床 试验</w>
一 口气</w>
N S</w>
领 先
非常 高兴</w>
非常 简单</w>
醋 酸</w>
谱 分析</w>
英 特尔</w>
流 向</w>
无 辜</w>
伤 病</w>
事 业
买 入</w>
阴 极</w>
邮 政</w>
每 秒</w>
拍 卖
强 势</w>
哥本 哈根</w>
同 步
制 止</w>
傲 慢</w>
亲 属</w>
3 60</w>
2 5
陆 战队</w>
说 起</w>
胶 原
聚 合
穿 孔</w>
破坏 性</w>
标 注</w>
最 先</w>
平均 值</w>
小 朋友</w>
人 有</w>
一 时间</w>
in t
饱 受</w>
集成 电路</w>
随 者</w>
纳米 管</w>
社会 化</w>
渔 业</w>
更 快</w>
剥 离</w>
人 中</w>
面 条</w>
这 起</w>
粘 贴</w>
注 明</w>
比 利</w>
款 人</w>
来 得</w>
喷 嘴</w>
合 一</w>
印第安 人</w>
连 锁
经 典
病 灶</w>
拖 延</w>
找 个</w>
域 网</w>
回 国</w>
哈 尔
交 错</w>
之 作</w>
不在 乎</w>
门 票</w>
账 单</w>
美 好
粪 便</w>
渊 源</w>
海 伦</w>
斯 克</w>
年 份</w>
失 常</w>
外 国
发 送到</w>
传 染</w>
令人 满意</w>
银 河</w>
自 称</w>
膝 关节</w>
答 复</w>
标 识
新 近</w>
播放 器</w>
喷 雾</w>
人 称</w>
T C</w>
祈 求</w>
深圳 市</w>
海岸 线</w>
最 强</w>
文 献
发生 器</w>
先 锋</w>
为人 知</w>
3 5%</w>
那 座</w>
永 久性</w>
机 电</w>
斯 勒</w>
密 集
宽 恕</w>
培 训
售 后
售后 服务</w>
合 器</w>
反 过来</w>
半 小时</w>
20 14</w>
银 河
踢 球</w>
经 文</w>
有 线
劳动 者</w>
偏 移</w>
风 情</w>
角 度
被 判</w>
罗 拉</w>
万 圣节</w>
输 尿管</w>
渗 流</w>
杀 菌</w>
无 穷</w>
导 游</w>
威 尼斯</w>
墓 地</w>
世 俗</w>
E R</w>
鸽 子</w>
酿 造</w>
达 尔文</w>
较 长</w>
踏 上</w>
精 心
瓦 尔</w>
特 拉</w>
涂 抹</w>
活 检</w>
段 落</w>
杰 拉德</w>
数据 结构</w>
往 常</w>
依 托</w>
万 吨</w>
闭 合</w>
身 影</w>
现代 主义</w>
格 外</w>
族 群</w>
断 裂
思想 家</w>
开 拓
宠 物
奢 侈
伺 服
中 西部</w>
ar t</w>
SD L</w>
项目 管理</w>
解 脱</w>
美 景</w>
组 合
生长 发育</w>
牛 排</w>
松 弛</w>
有 点
敬 拜</w>
打 扰</w>
上 衣</w>
三 相</w>
19 60</w>
犯 人</w>
新 世纪</w>
开 幕式</w>
对 称
图像 处理</w>
马 萨诸
那 一刻</w>
萨 克</w>
节 约
艺 人</w>
绝 对
短 期内</w>
测量 方法</w>
日 至</w>
插 值</w>
少 见</w>
合 同
公 爵</w>
值得 注意</w>
之 心</w>
o o</w>
j ect</w>
I R
镇 压</w>
那 年</w>
英 亩</w>
维 他命</w>
硕 士学位</w>
核 算</w>
最 佳
扫描 电镜</w>
外 伤</w>
分子 量</w>
几 家</w>
傻 瓜</w>
专 用
ap p
转 变成</w>
置 疑</w>
海 平面</w>
求 得</w>
橙 色</w>
折 射</w>
刺 激
传 给</w>
亮 点</w>
鲸 鱼</w>
退 役</w>
趋 向</w>
负 债
药 剂</w>
继 电器</w>
经营 者</w>
皇 马</w>
病 理学</w>
疲 惫</w>
界 线</w>
滑 稽</w>
溶 胶</w>
求 职
家 居</w>
堕 落</w>
可 不</w>
历 来</w>
R U
G re
进 一步
进一步 提高</w>
航天 飞机</w>
线 图</w>
浓 厚</w>
微 博</w>
微 分</w>
博 士学位</w>
制 冷
贝 尼特</w>
腰 椎</w>
现 阶段</w>
点 头</w>
水 器</w>
此 地</w>
地 壳</w>
响 起</w>
双 语</w>
亚特兰 大</w>
en ce</w>
绿 茶</w>
咖啡 馆</w>
分析 家</w>
修 剪</w>
马铃 薯</w>
稳 固</w>
皇 室</w>
生 机</w>
法 师</w>
欧 冠</w>
室 温</w>
声 器</w>
公 平
伪 造</w>
智 商</w>
政府 部门</w>
在 意</w>
切 实
乏 味</w>
首 饰</w>
通 气</w>
调查 结果</w>
诅 咒</w>
狩 猎</w>
殖 民</w>
本 地
文 人</w>
教学 方法</w>
推 进
差 点</w>
好 比</w>
大气 层</w>
前 行</w>
俄亥俄 州</w>
让 人</w>
水 土
招 呼</w>
悲 哀</w>
弗吉 尼亚</w>
季 节性</w>
借 用</w>
侮 辱</w>
佩 戴</w>
不 用
P et
项 式</w>
既 往</w>
微 结构</w>
布莱 克</w>
分 明</w>
一大 堆</w>
花园 里</w>
耐 药性</w>
留 言</w>
爱 上</w>
摆 放</w>
截 然不同</w>
帖 子</w>
休 息
产 妇</w>
亚 洲
c o</w>
I G
E S</w>
鳄 鱼</w>
高 点</w>
骗 子</w>
课堂 教学</w>
罗斯 福</w>
科 目</w>
办 学</w>
力 场</w>
信号 处理</w>
lo g</w>
ev el
4 50</w>
高 空</w>
连续 性</w>
被 誉为</w>
模 样</w>
心 率</w>
并 行
出 身</w>
优 惠
路 程</w>
有 种</w>
师 傅</w>
历 经</w>
刑 罚</w>
共 存</w>
交 道</w>
严 密</w>
不 休</w>
源 地</w>
润滑 油</w>
比 值</w>
打 死</w>
心 跳</w>
很 多年</w>
套 房</w>
国家 级</w>
原 始
E C
行 之
相 符</w>
无人 机</w>
播 种</w>
延 缓</w>
你 方</w>
采 纳</w>
遗传 学</w>
聘 请</w>
牛 津</w>
淋 巴</w>
危 及</w>
传 闻</w>
r e</w>
S I</w>
M V
顺 着</w>
致 死</w>
肉 瘤</w>
窗 帘</w>
流 水</w>
法 论</w>
摇 滚
尽 全力</w>
埃 尔
严 谨</w>
东 盟</w>
东 地区</w>
阿姆 斯特
铸 件</w>
营养 不良</w>
淋巴 瘤</w>
法 拉
油 墨</w>
橡 木</w>
存 器</w>
农民 工</w>
入 选</w>
侵 略</w>
休 假</w>
以 太
一 世</w>
g et</w>
G E</w>
C ol
递 交</w>
缠 绕</w>
组 和</w>
签 字</w>
灰 石</w>
浸 润</w>
开 挖</w>
封 建</w>
奢侈 品</w>
出 生
作 一</w>
以 防</w>
不 宜</w>
一 一</w>
10 1</w>
阿 密</w>
铁 路
邮 票</w>
紧 密
检 测
散 布</w>
拉丁 美洲</w>
幻 灯
客 机</w>
五 角
下 车</w>
震 撼</w>
重 塑</w>
近 年</w>
路由 器</w>
花 卉</w>
自 旋</w>
等 式</w>
布 料</w>
奢 侈</w>
头 盔</w>
历史 性</w>
凯 文</w>
保 卫</w>
传染 性</w>
专 门
D R</w>
颇 为</w>
超 重</w>
贿 赂</w>
补 丁</w>
自 私</w>
端 的</w>
推 向</w>
按 时</w>
拷 贝</w>
寄生 虫</w>
夸 大</w>
大 叫</w>
化 妆</w>
兑 换</w>
保 湿</w>
主 页</w>
黑 白</w>
骆 驼</w>
采取 措施</w>
透 视</w>
贵 方</w>
绘 图</w>
烧 烤</w>
点 心</w>
控制 策略</w>
守 护</w>
参 加
分 流</w>
光 亮</w>
倍 体</w>
中 年</w>
AS P</w>
防 护
起重 机</w>
相 变</w>
特 异</w>
左 手</w>
工作 量</w>
小 船</w>
哈 哈</w>
判 别</w>
关 上</w>
S R
高 尚</w>
解 码</w>
蕴 含</w>
聚 丙烯</w>
美 女</w>
深深 地</w>
方 法论</w>
多 点</w>
器 具</w>
售 出</w>
哈 特</w>
出 行</w>
内 蒙古</w>
中 应</w>
两 点</w>
世界 级</w>
一 栋</w>
n ame</w>
L ot
绅 士</w>
痉 挛</w>
残疾 人</w>
普 林
戴 维斯</w>
感 恩
开 着</w>
开 会</w>
家 用</w>
字 段</w>
关键 在于</w>
伙伴 关系</w>
井 下</w>
世 代</w>
E M</w>
降 至</w>
配 比</w>
这 事</w>
蒙 德</w>
股票 市场</w>
罗 德</w>
源 泉</w>
海 南</w>
洗 澡</w>
无 穷
双 边</w>
侵 权</w>
不 全</w>
1. 2</w>
1 2%</w>
镜 像</w>
银河 系</w>
迈 阿密</w>
软 组织</w>
软 弱</w>
火 鸡</w>
拉斯 维加斯</w>
执 照</w>
审 批</w>
口 中</w>
受 益
友 善</w>
从 头
一 队</w>
一 家人</w>
S C</w>
递 归</w>
质 子</w>
行 动
蝙 蝠</w>
点 球</w>
沉 浸</w>
日 程</w>
掀 起</w>
IS O</w>
癌 细胞</w>
疏 松</w>
晶 粒</w>
收 养</w>
性 别
半 决赛</w>
世界 纪录</w>
ou t</w>
d e
贝 克
豆 腐</w>
着 迷</w>
生 育
演唱 会</w>
死 后</w>
明显 提高</w>
卡 尔
入 睡</w>
PE G</w>
空 闲</w>
小 偷</w>
合 金
不 觉</w>
风 速</w>
研 磨</w>
洗 净</w>
次 于</w>
机 密</w>
服务 业</w>
数据 中心</w>
手 腕</w>
悬 崖</w>
切 开</w>
全 息</w>
交 货</w>
一 例</w>
O b
3. 5</w>
预防 措施</w>
钞 票</w>
视 觉
自 助</w>
纳 税</w>
掺 杂</w>
后 台</w>
可口 可乐</w>
全 过程</w>
不 通</w>
一 届</w>
g et
高尔夫 球</w>
金 黄色</w>
过 早</w>
评 为</w>
自然 保护区</w>
罪 名</w>
缺 口</w>
编 程
收 藏
抬 起</w>
忧 郁</w>
心 动
可 知</w>
M E</w>
H O
被 困</w>
芬 芳</w>
眼 下</w>
浪 漫
开 办</w>
宝 马</w>
信 封</w>
丢 弃</w>
电 容器</w>
狂 欢</w>
点 子</w>
液 态</w>
根本 上</w>
从 根本上</w>
下 巴</w>
T F</w>
飞 翔</w>
雷 曼</w>
赌 场</w>
谣 言</w>
电 解</w>
生产 率</w>
横 跨</w>
文 体</w>
多伦 多</w>
内 分泌</w>
做 饭</w>
风 筝</w>
西 红
天 主</w>
吞 噬</w>
参 赛
中 立</w>
下 班</w>
追 赶</w>
轻 型</w>
躯 体</w>
行之 有效</w>
脂 质</w>
篮 子</w>
秘书 长</w>
汇 报</w>
故 事
得 主</w>
小 肠</w>
大大 的</w>
克 拉克</w>
人 行道</w>
1. 1</w>
车 身</w>
笼 罩</w>
甜 美</w>
游 艇</w>
清 晰
构 思</w>
晶体 管</w>
旅行 社</w>
敏 锐</w>
岩 溶</w>
回 落</w>
不 便</w>
一 匹</w>
松 散</w>
有机 物</w>
故 乡</w>
才 华</w>
怪 异</w>
客 体</w>
动物 模型</w>
兽 医</w>
下 个月</w>
H D</w>
F re
野 蛮</w>
调 解</w>
肝 硬化</w>
禁 用</w>
施 肥</w>
接收 机</w>
得 出
归 来</w>
张 开</w>
就 象</w>
面 对面</w>
西红 柿</w>
萌 发</w>
方程 组</w>
惯 性</w>
得出 结论</w>
就 职</w>
四川 省</w>
e y
T CP</w>
CN N</w>
颤 抖</w>
颅 内</w>
经 常
知 情</w>
电 邮</w>
架 构
本 着</w>
投 射</w>
弟 子</w>
容 积</w>
实 地</w>
宏 伟</w>
前 线</w>
交 所</w>
t h</w>
集团 公司</w>
误 导</w>
规 矩</w>
粒 径</w>
水 溶性</w>
巴 萨</w>
大 方</w>
图 画</w>
全 书</w>
修 道
位 居</w>
U NI
P R</w>
H ar
轰 炸</w>
沈 阳</w>
曲 折</w>
家 禽</w>
哈 马斯</w>
内 陆</w>
不 相同</w>
Ch ri
范 式</w>
流感 病毒</w>
汉 族</w>
杏 仁</w>
抽 出</w>
幻灯 片</w>
对 准</w>
向 往</w>
华 德</w>
十 四
一 条
过 渡
触 摸
河 北省</w>
板 材</w>
新 书</w>
执行 长</w>
弗 里</w>
宋 代</w>
力 图</w>
入 住</w>
伺 服</w>
鲁棒 性</w>
顶 点</w>
车 祸</w>
角度 看</w>
穆 罕
瑞 斯</w>
梦 境</w>
无 声</w>
富 豪</w>
地下 室</w>
减 速</w>
R A
质 体</w>
百分 之</w>
无 形</w>
揭 开</w>
录 取</w>
一 则</w>
精 油</w>
火 箭
水 上</w>
两 层</w>
不 列
起 义</w>
该 市</w>
纯 净</w>
滋 味</w>
水 道</w>
换 热器</w>
大 雨</w>
历 时</w>
劳 伦斯</w>
lo g
as s</w>
N P</w>
黑 夜</w>
陪审 团</w>
美 元
缓冲 区</w>
细 分</w>
环境 污染</w>
文化 遗产</w>
候 选</w>
三 者</w>
P G</w>
16 .
防 卫</w>
邮 箱</w>
进 取</w>
这 天</w>
粗 糙
碎 石</w>
水 里</w>
本 法</w>
推 力</w>
声 学</w>
勤 奋</w>
加 里</w>
全 程</w>
主 管
防 腐</w>
计算机 辅助</w>
皮 带</w>
流 畅</w>
极 高</w>
夺 取</w>
召 集</w>
分 配
出 错</w>
中 为</w>
R D</w>
AI X</w>
高 手</w>
采 购
道 教</w>
迷 失</w>
迁 徙</w>
走 私</w>
蓬勃 发展</w>
箭 头</w>
生态 学</w>
状 及</w>
油 井</w>
楼 上</w>
校 园
最 受</w>
想 念</w>
弊 端</w>
天 文</w>
地球 化学</w>
入 境</w>
人 机
1 25</w>
绝 不会</w>
独 有</w>
溢 出</w>
涌 入</w>
景 气</w>
振 幅</w>
拦 截</w>
布 拉</w>
射 门</w>
委 内
先 是</w>
伊 斯</w>
两国 关系</w>
专业 人士</w>
不列 颠</w>
上 半年</w>
B an
19 50</w>
雷 特</w>
该 法</w>
试 点</w>
步 进</w>
就业 机会</w>
失 眠</w>
动 手</w>
低 点</w>
丰 富
鸡 尾
隐 患</w>
西 瓜</w>
画 像</w>
日 内
扩 充</w>
戴 维</w>
壁 垒</w>
周 血</w>
博 览会</w>
医 药
冷 漠</w>
8 000</w>
输 给</w>
英语 教学</w>
胜 任</w>
背 包</w>
检 出</w>
无 处
感恩 节</w>
恳 求</w>
微 量
开 通</w>
多 尔</w>
外 周血</w>
听 听</w>
卫生 保健</w>
老 朋友</w>
拆 卸</w>
抗 氧化剂</w>
打 入</w>
咎 于</w>
刻 画</w>
切 实</w>
分析 仪</w>
公交 车</w>
促进 作用</w>
乙 方</w>
Ap ache</w>
麻 省
越 高</w>
贵 州</w>
穆罕 默德</w>
热 闹</w>
模 式
斯 图
拿 破
心 思</w>
境 地</w>
之 王</w>
Y ou
这 话</w>
辨 别</w>
起 身</w>
肥 皂</w>
焚 烧</w>
沼 泽</w>
教科 书</w>
并不 需要</w>
威 力</w>
回 升</w>
凝 结</w>
代 之</w>
下 部</w>
1 5.
顶 峰</w>
诊 治</w>
胶 质</w>
考 生</w>
粘 性</w>
空 洞</w>
磁 带</w>
特 种</w>
特 律</w>
得 益于</w>
归 咎于</w>
工作 岗位</w>
小 提琴</w>
完 好</w>
周 边
共 生</w>
S R</w>
长 沙</w>
语 气</w>
秘 诀</w>
日 趋</w>
无 家
新 一轮</w>
导 线</w>
孔 径</w>
口 头</w>
十 七
内 障</w>
一 端</w>
k er</w>
i el
黄 昏</w>
颠 覆</w>
闻 名
里 昂</w>
达 斯</w>
结 节</w>
指标 体系</w>
拿 走</w>
应 是</w>
安 迪</w>
低 价</w>
P ort
造 价</w>
跨 文化</w>
萨 斯</w>
获得 成功</w>
胡 椒</w>
王 后</w>
熔 融</w>
煤 层</w>
热 衷
小 行星</w>
临 界
不管 怎样</w>
不久 前</w>
P ython</w>
198 1</w>
驱 使</w>
精 度高</w>
研 讨</w>
百 科</w>
波 音</w>
木 板</w>
普通 话</w>
无家 可
异 化</w>
境 外</w>
吉 利</w>
pl ication</w>
W SDL</w>
IS A</w>
E v
缺 省</w>
移 位</w>
滋 润</w>
所 罗
微量 元素</w>
底 特律</w>
屈 服</w>
安德 森</w>
充 沛</w>
侦 察</w>
体 力</w>
乔 治
之 久</w>
东 方
L P</w>
黑 猩猩</w>
麻 疹</w>
重 庆
该 书</w>
装 饰
结构 化</w>
社 区
热 心</w>
注意 事项</w>
接 枝</w>
勇 士</w>
制片 人</w>
全国 性</w>
人 队</w>
S W
青春 期</w>
难 性</w>
随 身
陕 西</w>
近 距离</w>
达 克</w>
质 教育</w>
素 质教育</w>
登 记
深 刻
封 建
壁 画</w>
另一 边</w>
卡 通</w>
出 国</w>
T V</w>
领 带</w>
领 取</w>
预 见</w>
非营 利</w>
费 时间</w>
虚拟 化</w>
纽约 州</w>
相 继</w>
球 赛</w>
渔 民</w>
小 子</w>
小 吃</w>
但 愿</w>
五 岁</w>
鹦 鹉</w>
野 兽</w>
通 话</w>
转 矩</w>
身 于</w>
裸 体</w>
耐 磨</w>
目 击者</w>
新 星</w>
彗 星</w>
威 士
双 边
光 学
今年 夏天</w>
之 初</w>
T e
198 3</w>
饱 和
防火 墙</w>
铜 矿</w>
金 星</w>
菲利 普</w>
紧 张
现 状及</w>
显 式</w>
改 动</w>
拿 来</w>
布鲁 斯</w>
市场 化</w>
天 鹅</w>
埃 塞
光 临</w>
偷 偷</w>
三 分</w>
调 和</w>
落 下</w>
组织 学</w>
等 离子</w>
疏 散</w>
炫 耀</w>
激 怒</w>
次 级</w>
施 用</w>
广 州市</w>
广 大
巴 西
司 令
减 排</w>
舆 论</w>
离 心</w>
疲 力
泥 沙</w>
河 南省</w>
斯托 克</w>
思 索</w>
受 精</w>
内 皮</w>
公 牛</w>
优 秀
G M</w>
C I
行 进</w>
航 母</w>
眼 部</w>
火 炬</w>
泉 水</w>
忙 于</w>
布莱 尔</w>
山 水</w>
壳 聚糖</w>
叶 绿
可 编程</w>
卫 星
加 纳</w>
到 位</w>
不 吃</w>
索 尔</w>
系统 性</w>
新闻 报道</w>
新 高</w>
教 义</w>
心 电图</w>
国会 议员</w>
喉 咙</w>
充满 活力</w>
仅 次于</w>
中国 人民
l d</w>
Rub y</w>
高 地</w>
考 古</w>
民族 主义</w>
废 料</w>
幸 存</w>
居 民
口 音</w>
历史 悠久</w>
十 六</w>
关 爱</w>
假 说</w>
仁 慈</w>
亿 万
之 物</w>
R o
P r
首 府</w>
餐 桌</w>
里 根</w>
解 析
肝 细胞</w>
而 代之</w>
盛 大</w>
甘 油</w>
巴 拉</w>
屋 子里</w>
君 主</w>
取 而代之</w>
人 物
乔 丹</w>
不 成</w>
ub e</w>
递 给</w>
等 价</w>
知 晓</w>
痴 呆</w>
用 心</w>
无 损</w>
扣 除</w>
医疗 保健</w>
体 性</w>
以太 网</w>
人力 资本</w>
世 行</w>
h e
难 者</w>
陶 瓷
闪 亮</w>
费 尔
译 注</w>
着 眼
白 内障</w>
毛 病</w>
排 气</w>
换 热</w>
层 楼</w>
大 宗</w>
复制 到</w>
互 利</w>
中 止</w>
高 昂</w>
阳 光
配 料</w>
详细 信息</w>
莎 拉</w>
湖 北</w>
栏 目</w>
明显 改善</w>
常 识</w>
巴 比
口 腔
又 称</w>
倡 议</w>
不 相
一 月份</w>
一 手</w>
at or</w>
D I
苷 酸</w>
股 骨</w>
耐 磨
罗 伯
管 子</w>
率 先</w>
深 部</w>
机 型</w>
时 尚
斯 洛
拉 尔</w>
外交 官</w>
南 美</w>
介 导</w>
高 雅</w>
粉 色</w>
沙 特</w>
斯 里
幼 苗</w>
年 长</w>
夹 克</w>
传 记</w>
d er</w>
里 德</w>
裁 定</w>
莉 亚</w>
系统 对</w>
安 菲尔德</w>
垂 体</w>
团 结
出 路</w>
ma il</w>
F P
过 得</w>
自 闭
海 浪</w>
河 边</w>
时 装
探 险
微 米</w>
带 入</w>
头 衔</w>
大肠 杆菌</w>
出 价</w>
写 成</w>
m e</w>
am es</w>
H 1
8 5%</w>
预 约</w>
硝 酸</w>
真实 性</w>
疲 倦</w>
本 科
控制 技术</w>
关 联
酒 体</w>
血 红
极 力</w>
感染 者</w>
咀 嚼</w>
呼 唤</w>
光 年</w>
伪 装</w>
中 度</w>
颇 具</w>
非常 适合</w>
长 途
破 损</w>
游 说</w>
测试 方法</w>
水 利
暴 发</w>
斯蒂 芬</w>
撒 谎</w>
师 生</w>
委内 瑞拉</w>
失 衡</w>
多 项式</w>
国民 党</w>
亲 近</w>
之 多</w>
骑 马</w>
这样 一来</w>
轨 道
走 到</w>
讨 论
自 家</w>
现代 性</w>
时 域</w>
新 手</w>
投 降</w>
意 志
并 存</w>
岸 边</w>
孟加 拉
外 星人</w>
堪 称</w>
在 实践
在 乎</w>
参 数
动 漫</w>
con f
追 随者</w>
西 方人</w>
激 动
残 骸</w>
托 盘</w>
戒 烟</w>
异 议</w>
市场 竞争</w>
对称 性</w>
威廉 姆斯</w>
光 荣</w>
res s</w>
餐 具</w>
隐 蔽</w>
路易 斯
营 运</w>
自闭 症</w>
绿 色
纳 斯
科 夫</w>
照 料</w>
沉 思</w>
抽 屉</w>
开 业</w>
套 件</w>
叛 军</w>
厦 门</w>
万 元</w>
解放 军</w>
血 液
缝 合</w>
终 生</w>
甲 方</w>
热衷 于</w>
消化 道</w>
果 树</w>
最 终
无 视</w>
原 创</w>
n e</w>
In t
高 浓度</w>
胰 腺</w>
男 女
演 进</w>
时 应</w>
密 西西
家 务</w>
分 型</w>
例 行</w>
肾 病</w>
深 夜</w>
流 逝</w>
极 小</w>
山 峰</w>
分 期</w>
凡 是</w>
体 质</w>
M B
陈 列</w>
致 电</w>
腐 烂</w>
脉 动</w>
畸 变</w>
民 俗</w>
橡 胶
普 拉</w>
明 确
拿破 仑</w>
抚 养</w>
投 入
往 返</w>
就 读</w>
天 津
PD F</w>
J2 EE</w>
I SO
顺 利
表现 形式</w>
缺 血性</w>
纬 度</w>
用 处</w>
浆 果</w>
核 能</w>
斯里 兰
宫 颈</w>
外 加</w>
处 处</w>
切 成</w>
分 法</w>
共 创</w>
倒 入</w>
体育 运动</w>
不 好
2 4
短 路</w>
死 于</w>
数 次</w>
开放 性</w>
尘 器</w>
宗教 信仰</w>
最 差</w>
整 套</w>
微 微</w>
古 城</w>
务 必</w>
停 滞</w>
二 手
骑 兵</w>
链 路</w>
菌 素</w>
精 通</w>
磷 脂</w>
环 氧</w>
抗 炎</w>
抑 或</w>
恒 定</w>
开 关
交通 工具</w>
不 经
i al</w>
D at
缩 写</w>
磋 商</w>
盗 版</w>
生物 量</w>
燃料 电池</w>
流 派</w>
有限 责任</w>
外科 手术</w>
基金 组织</w>
型 式</w>
国际 货币
史 学</w>
代理 商</w>
花 瓣</w>
脚 趾</w>
算 例</w>
监 测
漂 移</w>
温度 场</w>
收 录</w>
打 交道</w>
幕 后</w>
制 得</w>
a i</w>
防 线</w>
调 动</w>
突 发</w>
江 西</w>
核 酸</w>
晚 宴</w>
斯 托</w>
急 救</w>
大 奖</w>
准确 度</w>
三 岁</w>
苯 乙烯</w>
监 护</w>
用 电</w>
步 枪</w>
暖 和</w>
招 待</w>
得 上</w>
哈 利
司 令</w>
加 压</w>
克 森</w>
作 出
M at
纸 板</w>
游 击
河 北</w>
机 率</w>
无 意识</w>
城 墙</w>
听 从</w>
初 中</w>
公 义</w>
中央 银行</w>
要 条件</w>
西班牙 语</w>
臭 氧</w>
肾 功能</w>
畏 惧</w>
控制 权</w>
孩 儿</w>
商 会</w>
减 税</w>
之 力</w>
主导 地位</w>
不用 说</w>
麻 痹</w>
铁 矿石</w>
造 纸</w>
血 统</w>
维 也
粉 尘</w>
无 须</w>
支 承</w>
怜 悯</w>
巴 里</w>
尾 部</w>
多 巴
唯 有</w>
内 有</w>
侵 略
an ce</w>
N et
繁 华</w>
立 足
灰 度</w>
混 杂</w>
普 查</w>
悄 悄</w>
性 生活</w>
怎 样
废 弃
客 场</w>
基本 概念</w>
发 点</w>
剑 桥</w>
出 土</w>
an c
a b</w>
罐 头</w>
特 工</w>
每 桶</w>
形 术</w>
平 壤</w>
地 平线</w>
医 用</w>
出版 物</w>
配 对</w>
追 寻</w>
路 基</w>
起 动</w>
科 医生</w>
显示 屏</w>
掌 管</w>
小 球</w>
园 艺</w>
句 话</w>
力 求</w>
冲 压</w>
五 分钟</w>
高 龄</w>
阻 滞</w>
阵 营</w>
阅读 器</w>
谈 及</w>
摇 摇
彩 票</w>
弗吉 尼亚州</w>
远 方</w>
自 来
疑 虑</w>
毛细 管</w>
机 翼</w>
指 明</w>
想 过</w>
平 和</w>
外交 部长</w>
在此 之前</w>
印 花</w>
匹 林</w>
保 障
低 速</w>
银 色</w>
计 时</w>
硫 化
时 起</w>
技 艺</w>
打 扫</w>
怎样 才能</w>
大 为</w>
传 言</w>
L S</w>
D i
陀 螺</w>
钢 结构</w>
遍 历</w>
通 行</w>
电影 节</w>
未 必</w>
最小 化</w>
塞 州</w>
关键 词</w>
传 球</w>
于 世</w>
上 任</w>
m p
l y</w>
a k</w>
D D</w>
高 涨</w>
高 层
酗 酒</w>
温 州</w>
昔 日</w>
摇 摆</w>
括 号</w>
打 着</w>
悲 观</w>
全 民</w>
镀 层</w>
试 用</w>
若 干
自 在</w>
爱 情
捕 鱼</w>
拉 特</w>
小说 家</w>
小 事</w>
地 亚
变 频</w>
功 课</w>
冲 浪</w>
侦 探</w>
麻 醉
高 素质</w>
遵 从</w>
约 瑟</w>
第 一家</w>
离 不开</w>
洗 手
敏 感
拨 款</w>
基 石</w>
地 步</w>
可 选</w>
修 正
iv ers
需求 量</w>
起 草</w>
肿 块</w>
老 是</w>
活性 炭</w>
氯 化</w>
君 子</w>
中 所
一 阵
一 分
霍 华德</w>
退 休
转 为</w>
街 日报</w>
苏 格拉
苏格拉 底</w>
胎 盘</w>
罹 患</w>
纳 森</w>
繁 多</w>
海 龟</w>
拳 击</w>
可 口</w>
华尔 街日报</w>
别 忘
传 出</w>
人 性化</w>
高级 官员</w>
问 到</w>
美 化</w>
细胞 膜</w>
来 时</w>
推 崇</w>
抗 病毒</w>
投 机</w>
或 多
悲 惨</w>
怀 念</w>
形 体</w>
并不 知道</w>
失 落</w>
国防 部长</w>
卡罗 来
南 京
化 工
别忘 了</w>
健身 房</w>
食品 安全</w>
隐 形</w>
致 密</w>
维 克</w>
沸 腾</w>
有点 像</w>
暑 假</w>
文学 史</w>
忧 伤</w>
巴 尔</w>
定 时</w>
变 换
军 用</w>
僵 尸</w>
之 夜</w>
中 称</w>
货 架</w>
说 谎</w>
计 数
攀 登</w>
拼 写</w>
我 刚</w>
彰 显</w>
已 婚</w>
占 地</w>
伸 手</w>
主 要
不 大
上 年</w>
要 花</w>
脑 海</w>
洛 蒂</w>
比 拟</w>
服务器 端</w>
安 装
传 感</w>
一 再</w>
W M</w>
默 默
载 波</w>
车 库</w>
让 步</w>
生产 者</w>
片 中</w>
法 老</w>
沙 子</w>
更 深</w>
探 寻</w>
技术 支持</w>
家 兔</w>
士 们</w>
各个 方面</w>
克 隆
债 权人</w>
自治 区</w>
维也 纳</w>
疑 惑</w>
正 当
救 生
护 者</w>
或 少</w>
当 代
套 装</w>
多 维</w>
堕 胎</w>
嘉 宾</w>
一 笑</w>
G F
输 电</w>
肾上 腺</w>
竭 力</w>
离 体</w>
小 规模</w>
多 克</w>
吸 取</w>
丽 特</w>
主 办
两 者之间</w>
al e</w>
J o
D E</w>
1 200</w>
西 南
装 入</w>
美国 宇航局</w>
绒 毛</w>
神经 细胞</w>
石 灰</w>
激 进
津 巴布
案 子</w>
拉 美</w>
大 熊猫</w>
基因 型</w>
前列 腺癌</w>
两 场</w>
不 大</w>
一 旁</w>
un t
P N</w>
H S</w>
赫 尔
赞 助
行 了</w>
缓 缓</w>
波 里</w>
木 制</w>
心 爱</w>
局 限于</w>
就 行了</w>
多 为</w>
图 纸</w>
噪 比</w>
史蒂 芬</w>
充 气</w>
五 金</w>
S am
远 端</w>
日内 瓦</w>
德克萨 斯州</w>
园 林
含 水量</w>
后 裔</w>
助 剂</w>
光 合</w>
估 值</w>
b y</w>
苯 二
脸 颊</w>
烟 囱</w>
模拟 器</w>
有限 元法</w>
无 菌</w>
开 阔</w>
年 末</w>
市场 需求</w>
展 现出</w>
害 羞</w>
凸 显</w>
体 检</w>
食 用
障 碍
软件 设计</w>
结 晶
灾 难性</w>
海 豹</w>
气 化</w>
机 上</w>
时 器</w>
应用 软件</w>
年龄 段</w>
前 一天</w>
陈 代谢</w>
达 成
视 作</w>
肌 腱</w>
相 容性</w>
泛 滥</w>
新 陈代谢</w>
斯里兰 卡</w>
增 幅</w>
冰 冻</w>
乙 酯</w>
主 动脉</w>
不 平</w>
C CD</w>
静 下来</w>
精 选</w>
筛 查</w>
空 前</w>
白 酒</w>
无 缝</w>
二 年</w>
争 执</w>
之 用</w>
H1 N1</w>
马萨诸 塞州</w>
适用 范围</w>
裂 解</w>
河 口</w>
沙 特
某种 意义</w>
按 键</w>
担 当</w>
径 流</w>
实 话</w>
好 人</w>
壳 体</w>
墨 水</w>
填 满</w>
垃圾 邮件</w>
回 收率</w>
各 有</w>
关 掉</w>
丑 陋</w>
C R</w>
马 尔</w>
防 空</w>
解 体</w>
航天 局</w>
移动 电话</w>
片 刻</w>
津巴布 韦</w>
永 生</w>
杂 草</w>
昆 明</w>
扩 增</w>
彩 色
密集 型</w>
安 宁</w>
否 决</w>
各 州</w>
凉 爽</w>
k e</w>
G u
过 热</w>
诉 讼
耐 力</w>
第 一种</w>
立 学校</w>
电解 质</w>
特 兰</w>
淡 淡
斑 块</w>
平 息</w>
号 召</w>
右 翼</w>
一 时期</w>
ro s
I O
高度 重视</w>
高 危</w>
调查 局</w>
该 病</w>
节 省
肖 像</w>
耗 尽</w>
火 力</w>
源 码</w>
湍 流</w>
手 掌</w>
当今 世界</w>
幽 灵</w>
另一 半</w>
一九 九
E P</w>
1 7.
饥 荒</w>
闪 闪
过 往</w>
规 模
环氧 树脂</w>
浑 身</w>
十二 月</w>
两 部</w>
2 3
露 西</w>
里 尼奥</w>
迫切 需要</w>
轧 机</w>
西 装</w>
理 所
王 室</w>
招 标</w>
实用 价值</w>
孤 儿</w>
大 树</w>
商 用</w>
务 实</w>
准 备
余 年</w>
伊 尔</w>
万 亿</w>
A ct
雪 花</w>
遇 难</w>
规 避</w>
艰 巨</w>
盼 望</w>
浮 现</w>
架 子</w>
村 落</w>
招 待
抗 拒</w>
戏 曲</w>
总 统
亚利桑 那州</w>
H e
CS S</w>
陪 同</w>
跳 动</w>
认 真
补 助</w>
绝 佳</w>
粥 样</w>
管 炎</w>
政 务</w>
捍 卫</w>
怀 着</w>
尖 端</w>
坐 标
吸 毒</w>
N as
G UI</w>
C L</w>
魔 力</w>
武 力</w>
橄榄 油</w>
日 军</w>
恩 典</w>
少 许</w>
增 速</w>
四 次</w>
全 能</w>
不 怕</w>
M or
问 世</w>
软件 包</w>
离 合器</w>
相 爱</w>
欢 喜</w>
林 地</w>
来 访</w>
志 愿</w>
心 目</w>
复 仇</w>
双 侧</w>
些 许</w>
衔 接</w>
稀 有</w>
浪 费时间</w>
格 式化</w>
恋 人</w>
大 酒店</w>
复 原</w>
圆 柱
交换 机</w>
三 点</w>
万 年</w>
evel op
ear ch</w>
S e
18 .
锋 利</w>
钻 头</w>
近几 年来</w>
触摸 屏</w>
脑 子</w>
结构 性</w>
管 辖</w>
用户 名</w>
挥 舞</w>
帕 克</w>
学 问</w>
天 花</w>
哈 尔</w>
保 管</w>
2 6
鸭 子</w>
说 服
约 合</w>
用 语</w>
烹 调</w>
海军 陆战队</w>
根 基</w>
收 盘</w>
安 徽</w>
好 了</w>
女 郎</w>
单 层</w>
关键 性</w>
共 鸣</w>
信 噪比</w>
人 事
些 年来</w>
争 辩</w>
主 轴</w>
中 学
高 风险</w>
颁 奖
隐 性</w>
素 食</w>
服务 质量</w>
技术 创新</w>
惧 怕</w>
当 场</w>
多 级</w>
人 事</w>
s h</w>
Lot us</w>
过 大</w>
身 亡</w>
讲 究</w>
自 杀
编 排</w>
独立 性</w>
汇 集</w>
数据 传输</w>
接 受
悲 痛</w>
引 流</w>
呼 声</w>
先 驱</w>
低 位</w>
不 前</w>
U N
2 500</w>
蒙 特</w>
穿 梭</w>
磺 酸</w>
相 一致</w>
玻璃 纤维</w>
水 文</w>
档 案
可 可</w>
剧 中</w>
六 方
住 院
令人 兴奋</w>
人 以</w>
丢 掉</w>
三 项</w>
一 顶</w>
S k
1 70</w>
遥 控</w>
自然 环境</w>
玛 利亚</w>
烘 烤</w>
波 斯
有 罪</w>
得 克萨
基 线</w>
回 转</w>
向 外</w>
各向 异性</w>
五 金
4 5%</w>
里 森</w>
莱 德</w>
老 公</w>
美国 银行</w>
民 用</w>
数据 模型</w>
失 控</w>
变 色</w>
创 性</w>
凭 证</w>
共 聚物</w>
er t
c ess</w>
米 饭</w>
笼 子</w>
看 好</w>
灭 亡</w>
毗 邻</w>
抢 救</w>
岩 性</w>
埋 葬</w>
固 然</w>
友 情</w>
出 任</w>
不 合
B T</w>
靴 子</w>
静静 地</w>
霉 菌</w>
防 腐
达成 协议</w>
车 里</w>
质量 标准</w>
治 安</w>
栅 栏</w>
学 士学位</w>
孤 独
存 有</w>
地 里</w>
周 三</w>
向 着</w>
只 得</w>
分 泌
ber g</w>
S F
边界 条件</w>
转 运</w>
潜 意识</w>
流 动
气 孔</w>
扎 克</w>
惊 叹</w>
大 幅
厚 的</w>
厚 厚的</w>
印度 人</w>
卫生 间</w>
千 计</w>
出 发点</w>
修 辞</w>
不 朽</w>
骚 乱</w>
音 响</w>
那 段</w>
男 孩子</w>
泥 浆</w>
民意 调查</w>
柱 子</w>
有 意识</w>
废弃 物</w>
十 大</w>
农业 部</w>
产业 化</w>
l es</w>
P ow
里 士
遗 留</w>
积极 性</w>
省 级</w>
湖 南省</w>
替代 品</w>
方 便
新 社</w>
忍 不住</w>
延 误</w>
安 慰
大 纲</w>
卫 报</w>
利 尔</w>
其 为</w>
公 关</w>
In f
0. 5</w>
青 藏
隐 含</w>
镇 静</w>
纪念 碑</w>
灵 性</w>
法 兰</w>
本 田</w>
未 见</w>
明尼 苏
扰 乱</w>
打 进</w>
性 命</w>
寂 静</w>
堡 垒</w>
取 胜</w>
预 设</w>
长 久
平 方</w>
始 终
名 牌</w>
化 肥</w>
IP O</w>
D e
钢 材</w>
迈 出</w>
深 色</w>
江 南</w>
拉 圭</w>
找 寻</w>
尽 量
太 小</w>
在实践 中</w>
围 岩</w>
只 见</w>
六方 会谈</w>
三 峡
Dom ino</w>
香 肠</w>
零 食</w>
阵 地</w>
钢 琴
谐 振</w>
誓 言</w>
蓄 电池</w>
罗马 尼亚</w>
滋 养</w>
晚 间</w>
客户 服务</w>
国 立</w>
商业 化</w>
er g
陆 续</w>
逝 世</w>
贯 彻</w>
腰 带</w>
没 收</w>
恐怖 袭击</w>
宽 阔</w>
宣 扬</w>
婴 幼儿</w>
出 示</w>
内 心
R os
R ational</w>
进 军</w>
规 程</w>
洛 夫</w>
核 苷酸</w>
所 学</w>
孩 童</w>
威尔 逊</w>
多 变</w>
各 异</w>
可 见
匆 忙</w>
M T</w>
雄 心
迷 信</w>
翼 翼</w>
福 岛</w>
矿 产</w>
烷 基</w>
氧化 铝</w>
杰 作</w>
发 电
再 也
僵 局</w>
五角 大楼</w>
R A</w>
.. ..</w>
销售 量</w>
转 发</w>
筹 集</w>
百 货
瑞 德</w>
机动 车</w>
或多 或少</w>
奖 杯</w>
埃塞 俄
下 沉</w>
ak e</w>
A j
说服 力</w>
架构 师</w>
日 语</w>
彻 底
应用 领域</w>
工程 学</w>
地 段</w>
国 土</w>
同 于</w>
利 益
出 人
入 点</w>
光 彩</w>
产 区</w>
三 类</w>
M od
E l
马 尼
阻 燃</w>
重要 环节</w>
监 视
珊 瑚
教学 法</w>
德 利</w>
微 风</w>
引 出</w>
展 会</w>
告 诫</w>
养老 金</w>
偏 振</w>
交通 事故</w>
un d
m an
逐 年</w>
行 长</w>
福 建
激 增</w>
步 兵</w>
杂 货
放 疗</w>
搬 运</w>
捆 绑</w>
懒 惰</w>
对 数</w>
外科 医生</w>
围 着</w>
十 一月</w>
义 务
en c
S im
M M</w>
高 贵</w>
适 用性</w>
证 会</w>
藻 类</w>
碳 纳米管</w>
相 匹配</w>
监 察</w>
溶 解
淡 化</w>
次 序</w>
德 州</w>
变化 趋势</w>
加 油
万 一</w>
1 7%</w>
素 材</w>
灰 岩</w>
河 谷</w>
每 晚</w>
替 补</w>
明 清</w>
换 取</w>
振 奋</w>
小心 翼翼</w>
围 巾</w>
回 想</w>
中央 政府</w>
风 俗</w>
预 算
音 节</w>
遗 体</w>
而 定</w>
穆 里尼奥</w>
离 职</w>
爱 丽丝</w>
标识 符</w>
戴 上</w>
压 机</w>
凝 剂</w>
C E</w>
验 收</w>
雷 诺</w>
这 为</w>
评 选</w>
良 好
秉 承</w>
构 架</w>
无 毒</w>
小 路</w>
墙 体</w>
回 流</w>
低 调</w>
A t
A I</w>
饱 满</w>
过 失</w>
跟 鞋</w>
裂 隙</w>
画 作</w>
独 家</w>
摩 根
并 于</w>
定 为</w>
可 控</w>
不 怎么</w>
N ot
魔 术
见 图</w>
蔗 糖</w>
蓝 天</w>
票 据</w>
漂 白</w>
无处 不在</w>
数以 千计</w>
建设 性</w>
完 工</w>
口 处</w>
刷 新</w>
刀 片</w>
入 量</w>
主 编</w>
中 共</w>
不 带</w>
an a</w>
Un ivers
2 20</w>
落 入</w>
沙特 阿拉伯</w>
无 害</w>
挥 发
挑 剔</w>
快 递</w>
官 方
安慰 剂</w>
存 取</w>
在 生活
团 聚</w>
喜 剧
ib m</w>
诺贝尔 奖</w>
胆 囊</w>
相 识</w>
求职 者</w>
榜 首</w>
异 丙
宽 敞</w>
头 来</w>
兰 花</w>
is t</w>
鸡尾 酒</w>
行 业
薄 壁</w>
耀 眼</w>
盗 窃</w>
玛 格
熔 化</w>
毁 灭
扩展 性</w>
性 主义</w>
干 活</w>
寡 妇</w>
复 合物</w>
善 意</w>
韩 国
能 级</w>
社 交
生产 能力</w>
急 于</w>
大 类</w>
名 片</w>
倾 销</w>
主 力</w>
两 座</w>
S ec
J SP</w>
钢 丝</w>
野 心</w>
重 启</w>
褶 皱</w>
脑 梗死</w>
终 端
精 明</w>
照 相</w>
毛 衣</w>
格 里</w>
有机 质</w>
无 用</w>
拉 开</w>
必 备</w>
小 组
季 后
季后 赛</w>
去 年
伦 萨</w>
两 党</w>
一 扇</w>
ul t
Ma c</w>
197 6</w>
风险 投资</w>
金 刚</w>
重要 途径</w>
迪 士
走 近</w>
责任 感</w>
被 控</w>
纪念 品</w>
浸 出</w>
枪 支</w>
族 人</w>
总 和</w>
得 来</w>
影 院</w>
强 制性</w>
实验 组</w>
国际货币 基金组织</w>
国 籍</w>
回 波</w>
世纪 末</w>
首 批</w>
诺 夫</w>
营 救</w>
粘 结</w>
畅 销
犯 下</w>
期 盼</w>
有 制</w>
日 落</w>
拉 尼</w>
塑料 袋</w>
坠 毁</w>
卸 载</w>
人 用</w>
习惯 于</w>
乐 曲</w>
中 小型</w>
防 御
重新 启动</w>
轴 线</w>
轮 子</w>
贫 民
舒 缓</w>
股 份
美国 国会</w>
罐 子</w>
深 水</w>
欧洲 央行</w>
护 理
开 罗</w>
宾 客</w>
多 层次</w>
发 芽</w>
加勒 比
借 助于</w>
信 中</w>
佩 林</w>
IM F</w>
高 跟鞋</w>
遍 及</w>
跑 车</w>
诗 学</w>
虚拟 机</w>
类 化合物</w>
神 秘
生 成
甜 点</w>
消 耗
有线 电视</w>
尿 素</w>
寄 存器</w>
天 主
圣诞 老人</w>
含 水
制 导</w>
偏 远</w>
修 养</w>
便 士</w>
人类 学</w>
丹 尼</w>
7 000</w>
长久 以来</w>
赛 道</w>
警察 局</w>
西 门
茅 斯</w>
而 行</w>
罗 兰</w>
纪念 日</w>
空 袭</w>
着眼 于</w>
渔 船</w>
德 里
好 几
商务 部</w>
听 证会</w>
名 誉</w>
发 烧</w>
写 信</w>
丰 满</w>
不 饱和</w>
in i</w>
M A
H P
G r
苍 蝇</w>
立 面</w>
浴 缸</w>
构 筑</w>
摩 天
慕 尼
德 罗</w>
大 功率</w>
大 体</w>
地 面积</w>
后 退</w>
双 腿</w>
军事 行动</w>
作 响</w>
上 门</w>
聘 用</w>
网 上
此 人</w>
快速 增长</w>
失 真</w>
型 机</w>
均 匀
十九 世纪</w>
动 植物</w>
凯 利</w>
冲 刷</w>
内 尔</w>
价格 上涨</w>
迪士 尼</w>
花 旗
知名 度</w>
理 财</w>
梅 尔</w>
悄 悄
工 党</w>
委 托
公 交</w>
音 调</w>
邮 寄</w>
追 随</w>
疲 软</w>
球 面</w>
梦 幻</w>
我 司</w>
弹 药</w>
应 为</w>
尽 早</w>
宾夕法 尼亚州</w>
多巴 胺</w>
外 衣</w>
赶 快</w>
表 决</w>
着 色</w>
村 里</w>
权 威
新 鲜
救 灾</w>
富 兰
威斯 康
后 院</w>
历 代</w>
V A</w>
高 考</w>
阿 波罗</w>
铺 设</w>
逆 变
迷 宫</w>
著 名
联 接</w>
甲 酯</w>
牛 津
永 磁</w>
校 验</w>
旷 野</w>
大 通</w>
外 语
增 加
俄 勒
付 给</w>
阻 尼
锥 形</w>
走 来</w>
脚 踝</w>
法拉 利</w>
新 奇</w>
得 意</w>
声 响</w>
墨 尔
吸烟 者</w>
冰 块</w>
五 分之一</w>
一 排</w>
o u</w>
M ic
薄 荷</w>
脂 蛋白</w>
糖 浆</w>
看 做</w>
热 点
曲 率</w>
显 出</w>
时 而</w>
方 说</w>
忘 录</w>
心 力
干 燥
巷 道</w>
发 育
修道 院</w>
会 员
为 什</w>
不 尽
雾 化</w>
逐 步
路 德</w>
端 点</w>
物 价</w>
橄榄 球</w>
奉 行</w>
圣 地</w>
南 克</w>
动 量</w>
动 用</w>
乒乓 球</w>
之 手</w>
10 0
遗 弃</w>
道 琼斯</w>
莲 花</w>
色 散</w>
聚 酯</w>
篇 章</w>
童 话</w>
百 万美元</w>
意 向</w>
德 里克</w>
店 主</w>
场 馆</w>
停 顿</w>
偏 爱</w>
也 好</w>
主 宰</w>
不 至于</w>
走 开</w>
着 力</w>
概 率
平均 水平</w>
备 忘录</w>
圣 地亚
佛罗 伦萨</w>
产 后</w>
二 次
下 层</w>
镇 上</w>
耗 时</w>
硅 谷</w>
百万 富翁</w>
检 修</w>
机 身</w>
提 要</w>
拖 拉
延 期</w>
可 逆</w>
升 降</w>
做 个</w>
余 额</w>
中 枢</w>
专 心</w>
一 束</w>
it t
ir e</w>
M o
缺 乏
玛丽 亚</w>
本 厂</w>
支持 率</w>
抽 象
庇 护</w>
太 高</w>
增长 速度</w>
国 情</w>
参 量</w>
储 藏</w>
下 颌</w>
三 国</w>
P AR</w>
颈 椎</w>
节 制</w>
维 修
滑 肌</w>
淬 火</w>
扭 矩</w>
建 材</w>
平 滑肌</w>
奖 牌</w>
太 好了</w>
刻 意</w>
乙 烯
义 词</w>
举 足轻重</w>
M W</w>
197 5</w>
违 法
螺 丝</w>
肠 炎</w>
老 太太</w>
电 池
样 机</w>
插 图</w>
平 整</w>
凶 手</w>
u t</w>
a in</w>
通 过
落 叶</w>
营 收</w>
脉 冲
经 贸
等 同于</w>
神 学</w>
新 德里</w>
教 养</w>
承 担
奔 驰</w>
因 于</w>
唤 起</w>
刊 物</w>
伯 利亚</w>
会 令</w>
产品 开发</w>
一 滴</w>
m on
3 G</w>
隔 壁</w>
该 机</w>
聪 明
罗 西</w>
缩 性</w>
福 布斯</w>
瘢 痕</w>
特 制</w>
物 性</w>
沙 星</w>
摇 晃</w>
搭 乘</w>
慕尼 黑</w>
市 政</w>
导 航
复 活
化 身</w>
劣 势</w>
冷 水</w>
先 进
CO M</w>
C F</w>
腺 瘤</w>
策 略
砂 浆</w>
画 出</w>
拓 宽</w>
实 在
守 卫</w>
听 取</w>
去年 同期</w>
保守 派</w>
使 徒</w>
三 聚
2 2
香 槟</w>
阿 卜
突 破
研 制
清 澈</w>
来 电</w>
星 巴克</w>
太 快</w>
剔 除</w>
中 美</w>
s y
领 地</w>
让 你
葡萄 园</w>
网 关</w>
糊 涂</w>
积 雪</w>
短 片</w>
淡淡 的</w>
涌 现</w>
求 职</w>
察 觉</w>
圣地亚 哥</w>
哥 华</w>
m m</w>
197 2</w>
面 团</w>
重复 性</w>
突 尼斯</w>
用 手</w>
洛 特</w>
昏 迷</w>
成 形术</w>
对 接</w>
宝 座</w>
低 级</w>
ol d
in d</w>
ar a</w>
针 灸</w>
适 中</w>
蜂 窝</w>
考 虑
瞬 态</w>
特 勒</w>
热 泵</w>
热 情
温 哥华</w>
氢 气</w>
干 达</w>
布莱 恩</w>
巴 特</w>
差 异性</w>
埃塞俄 比亚</w>
产 率</w>
二 个</w>
之 日起</w>
逆 向</w>
迈 进</w>
第一 件</w>
欢迎 您</w>
弥 漫</w>
圈 子</w>
向 来</w>
十 三</w>
劫 持</w>
会议 室</w>
价 位</w>
为 数
丹 尼斯</w>
m s</w>
as t</w>
飞 速
辨 认</w>
贝克 汉姆</w>
英国 政府</w>
自然 灾害</w>
神 父</w>
痊 愈</w>
水 溶液</w>
普 鲁
料 到</w>
批 发</w>
并 非
工 地</w>
宫 廷</w>
亦 可</w>
X 光</w>
F ran
B us
说 是</w>
血 清
病毒 感染</w>
漫 游</w>
有 如</w>
最 坏</w>
投 掷</w>
意 想不到</w>
心 律
形 容
底 线</w>
帝 国主义</w>
墨西哥 湾</w>
加州 大学</w>
习 得</w>
中 欧</w>
不 敢
et c</w>
H T</w>
E A</w>
高 价</w>
重 写</w>
迪斯 尼</w>
远 期</w>
转 到</w>
赖 特</w>
说 明书</w>
皮 质
火山 岩</w>
有 利
无家可 归</w>
数 周</w>
总 局</w>
性能 指标</w>
奥 利
和 尚</w>
互 换</w>
T M</w>
St e
高 层次</w>
补 给</w>
胶 原</w>
粗 鲁</w>
电 信
渗 漏</w>
水 电</w>
梗 塞</w>
心 智</w>
律 性</w>
式 各样</w>
应 许</w>
各 式各样</w>
前 身</w>
几 内
亚太 地区</w>
三 周</w>
一 角</w>
高高 的</w>
远 远
路 过</w>
罗 宾
网络 化</w>
维 基
消息 人士</w>
有 线</w>
实 质性</w>
听 器</w>
各 组</w>
与 会
不 小</w>
隆 起</w>
这 有</w>
譬 如</w>
老 百姓</w>
由 此
特 朗
爱 国</w>
深 层次</w>
标 普</w>
垄 断
原 生</w>
保 姆</w>
一年 一度</w>
食 欲</w>
造 血</w>
迎 合</w>
航 海</w>
第 八
濒 危</w>
林 中</w>
朝 向</w>
批 发
度 计</w>
山 姆</w>
塑 胶</w>
埋 藏</w>
吉 林
合法 性</w>
N e
E D</w>
C o
9 11</w>
针 织</w>
轮 椅</w>
转 弯</w>
费 力</w>
航 运</w>
法 典</w>
沙 丘</w>
检 测器</w>
数据 挖掘</w>
救 赎</w>
政 策
投 放</w>
执 教</w>
德 育</w>
吉 斯</w>
反对 党</w>
低 密度</w>
云 南省</w>
一 如
W h
自 有</w>
脊 髓
网 址</w>
直 肠</w>
比 方说</w>
弗洛 伊德</w>
富兰 克林</w>
容 许</w>
减 低</w>
au l</w>
V i
靠 着</w>
肥 胖
环 流</w>
检 出
招 生</w>
报 率</w>
布鲁 克林</w>
实 时性</w>
办 事</w>
风险 管理</w>
输 卵
该 片</w>
西 蒙</w>
美 洲
网 状</w>
统 一
笨 拙</w>
托 雷斯</w>
心肌 梗死</w>
弗 雷</w>
庄 子</w>
左 翼</w>
城 镇
在生活 中</w>
冶 炼</w>
高 清</w>
误 诊</w>
记忆 力</w>
胶 带</w>
生物 体</w>
彻 斯特</w>
工作 站</w>
尔 夫</w>
间 歇</w>
过 期</w>
艾 米</w>
稀 少</w>
私 营</w>
文学 作品</w>
控 告</w>
市 政
局 域网</w>
占 有
北京 大学</w>
北 朝鲜</w>
出 产</w>
亲 眼
东 海</w>
不同 寻常</w>
R ich
键 入</w>
装 甲</w>
蜿 蜒</w>
看 望</w>
燃 煤</w>
杰 明</w>
摄 入量</w>
掌 声</w>
打 动</w>
所 见</w>
慈 爱</w>
噬 细胞</w>
咆 哮</w>
前 夕</w>
M et
Gro up</w>
E N
读 过</w>
菩 萨</w>
脂 质体</w>
约 旦</w>
类 产品</w>
水 平
橄 榄</w>
捕 食</w>
捕 捞</w>
式 表</w>
基 点</w>
冰 雪</w>
不 尽</w>
in st
c ol
FP GA</w>
近 视</w>
达 到
身份 证</w>
老 实</w>
短 短</w>
特朗 普</w>
毫 克</w>
样 式表</w>
戈 登</w>
当地 政府</w>
引 诱</w>
工程 设计</w>
奥尔 良</w>
反 叛</w>
决 不</w>
兑 现</w>
乌 干达</w>
1 4%</w>
紧 接着</w>
类 药物</w>
第二 种</w>
空 缺</w>
法 人</w>
前 列</w>
ph p</w>
ic a</w>
6 0
20 16</w>
18 %</w>
颈 动脉</w>
配 送</w>
炮 弹</w>
满 是</w>
渐 进</w>
核 磁共振</w>
延 时</w>
四 天</w>
喷 气</w>
口 岸</w>
以 供</w>
以 东</w>
书 本</w>
u re
p s</w>
L L</w>
A 型</w>
鲁 迅</w>
高 能</w>
这 所</w>
边 缘
足 联</w>
趣 味</w>
英 雄
维基 百科</w>
精 湛</w>
科 幻
根本 原因</w>
有 幸</w>
微 处理器</w>
如 意</w>
外 部
受 众</w>
养 老</w>
估 价</w>
今天 下午</w>
乘 法</w>
三 元</w>
P P
I N</w>
频 器</w>
诗 篇</w>
脚 踏
粒 细胞</w>
破 解</w>
瞻 性</w>
田 纳
涡 流</w>
海 地区</w>
校 区</w>
搅 拌
捐 助</w>
总 计</w>
吞 吐
十 多年</w>
创 面</w>
一 岁</w>
一 封信</w>
音 符</w>
震 荡</w>
遇 上</w>
转 移
超 临界</w>
赢 家</w>
舞 蹈
紧 迫</w>
点 缀</w>
深入 分析</w>
浮 选</w>
时 速</w>
提 炼</w>
市 值</w>
巫 师</w>
安全 感</w>
回 声</w>
加 速器</w>
免费 视频</w>
健 壮</w>
借 此</w>
中 枢
专 制</w>
下 台</w>
一 粒</w>
C ap
饮 水</w>
顽 固</w>
雨 量</w>
隔 绝</w>
迪 亚</w>
越 是</w>
美国 公司</w>
略 有</w>
次 要</w>
标 明</w>
教育 部</w>
放 映</w>
探 头</w>
批评 家</w>
扮 演
微 波
异 构</w>
平方 英尺</w>
帐 号</w>
家 电</w>
外 层</w>
前 瞻性</w>
典 雅</w>
免 于</w>
一如 既往</w>
1 3%</w>
飞速 发展</w>
配 电</w>
辐 照</w>
说 完</w>
生 理学</w>
犯 规</w>
架 上</w>
敢 于</w>
向 性</w>
口 服
双 臂</w>
化 床</w>
借 款</w>
人 气</w>
乔 纳森</w>
da q</w>
UNI X</w>
Ex p
降 低成本</w>
附 上</w>
酒 店
角 落
菌 剂</w>
硫 酸盐</w>
石 块</w>
看 得
瓷 器</w>
洗衣 机</w>
椎 体</w>
多 夫</w>
品 格</w>
几 何
伯 明
世 贸
Nas daq</w>
G A
16 %</w>
青 铜</w>
超 音
计算机 科学</w>
蜥 蜴</w>
腿 部</w>
红 十字
石 材</w>
椭 圆形</w>
松 树</w>
情 绪
夺 冠</w>
参加 者</w>
党 内</w>
做 梦</w>
他 家</w>
亚 特</w>
五 百</w>
三 是</w>
一 百</w>
oc k
S yst
H C
阳性 率</w>
见 于</w>
绿 洲</w>
绕 过</w>
相 间</w>
班 加
帕 尔
巴勒 斯坦
尿 液</w>
大 风</w>
多 长时间</w>
伯 爵</w>
产品 设计</w>
DB C</w>
饮 品</w>
长 短</w>
绳 索</w>
经济 体制</w>
电 感</w>
瑞 士
理所 当然</w>
烧 毁</w>
流 化床</w>
抉 择</w>
急 诊</w>
德 兰</w>
很久 以前</w>
形容 词</w>
因 果
喷 泉</w>
共 用</w>
乙 酰
M DA</w>
M BA</w>
顶 上</w>
里 叶</w>
资 产阶级</w>
竹 子</w>
空 军
流 水
洗 手</w>
时 有</w>
数据 分析</w>
干 脆</w>
圣 洁</w>
四 十</w>
叶 轮</w>
厌 烦</w>
单 宁</w>
准 时</w>
克莱 斯勒</w>
上 级</w>
层 层</w>
存 货</w>
团 伙</w>
回 味</w>
体 细胞</w>
人 质</w>
X P</w>
软 体</w>
超 细</w>
肩 上</w>
纽 带</w>
砍 伐</w>
看 守</w>
热 忱</w>
求 助</w>
有 源</w>
日 光</w>
敬 意</w>
抛 出</w>
投资 银行</w>
巴比 伦</w>
定 型</w>
原 则
十 四</w>
包 容</w>
前 走</w>
光 眼</w>
修正 案</w>
付 诸
不足 道</w>
s e
SY S</w>
PE T</w>
B ri
青 光眼</w>
较 少</w>
诺 斯</w>
视频 剪辑</w>
良 心</w>
肾上 腺素</w>
肺 结核</w>
结 为</w>
扔 掉</w>
底 座</w>
墙 面</w>
嗅 觉</w>
出 院</w>
减 去</w>
B R</w>
补 充
纱 线</w>
时 效</w>
征 税</w>
层 级</w>
室 友</w>
十 岁</w>
化 解</w>
准确 率</w>
偏 心</w>
低 音</w>
SA R</w>
1 1%</w>
+ +</w>
阿 肯
阿 尔</w>
超 人</w>
负 相关</w>
翻 转</w>
第二 季度</w>
流 利</w>
梦 中</w>
栖 息</w>
归 类</w>
弄 清楚</w>
安全 可靠</w>
孤 单</w>
夹 具</w>
哈 萨克
关系 密切</w>
供 选择</w>
人工 智能</w>
三 家</w>
j ar</w>
葡萄 球菌</w>
米 亚</w>
筹 备</w>
法 术</w>
多 媒体
回忆 起</w>
句 法</w>
博 格</w>
偏 向</w>
信 服</w>
他 州</w>
交互 式</w>
不 信</w>
1. 4</w>
远 程
翻译 成</w>
第二 次世界大战</w>
禁 忌</w>
白 云
极 端
干 事</w>
巴 德</w>
尔 多
导 率</w>
地 用</w>
南 美洲</w>
凯 尔
乡 下</w>
M D</w>
7 50</w>
麦克 风</w>
经济 社会</w>
知识 经济</w>
熄 灭</w>
热 潮</w>
火 腿</w>
津 贴</w>
毁灭 性</w>
正 值</w>
楼 层</w>
威士 忌</w>
多 发性</w>
医 治</w>
匮 乏</w>
凝 血</w>
书 面
之 美</w>
上 瘾</w>
R C</w>
M ac
19 .
豪 华
落 到</w>
自 律</w>
绽 放</w>
纳 姆</w>
级 数</w>
略 微</w>
消 融</w>
无 常</w>
控 器</w>
往 事</w>
变换 器</w>
加 氢</w>
分 担</w>
公 会</w>
一 对
b ean</w>
Ap plication</w>
1 1
麻 木</w>
车 程</w>
考古 学家</w>
罗 杰</w>
继承 人</w>
红 外线</w>
精 准</w>
电子 设备</w>
生 计</w>
瑕 疵</w>
爱 国
灭 火</w>
油 层</w>
毫 升</w>
新 药</w>
描 绘
急 速</w>
心力 衰竭</w>
家 族
好 奇
失 利</w>
外 光</w>
坏 消息</w>
卡 卡</w>
丝 网</w>
钻 进</w>
输卵 管</w>
该 死</w>
译 本</w>
萨科 齐</w>
航 道</w>
笔 下</w>
祭 祀</w>
爵士 乐</w>
水 星</w>
棕 榈
普遍 认为</w>
旺 盛</w>
收 割</w>
接 替</w>
振 兴</w>
慈善 机构</w>
官 僚</w>
固 件</w>
吉 米</w>
十 八</w>
副 产品</w>
下 个</w>
上 千</w>
le x</w>
O F
197 7</w>
轻 柔</w>
胫 骨</w>
相 差</w>
正 要</w>
摩 斯</w>
布 利</w>
已 故</w>
出 新</w>
兄弟 姐妹</w>
S G
风 能</w>
顽 强</w>
面 试
闪 耀</w>
边 际</w>
超 高</w>
西 伯利亚</w>
蒂 姆</w>
致 敬</w>
线 上</w>
粘 连</w>
报 刊</w>
抗 癌</w>
工作 组</w>
坏 事</w>
关 押</w>
侧 向</w>
两 相</w>
钻 井
貌 似</w>
经 纪</w>
电动 汽车</w>
牧 羊
灌 木
淋 浴</w>
汉 代</w>
氰 胺</w>
心 头</w>
德 森</w>
开 朗</w>
头 疼</w>
大 陆
喊 道</w>
啤 酒
华 州</w>
克 制</w>
以 至</w>
人 要</w>
不动 产</w>
鲁 大学</w>
阿 里
闭 环</w>
财政 部长</w>
表 扬</w>
薪 资</w>
苦 苦</w>
第 七</w>
科罗拉 多
着 火</w>
波 束</w>
毁 掉</w>
最 优化</w>
文 艺</w>
拜 登</w>
德 语</w>
家 用
发 送给</w>
兼 顾</w>
X X</w>
颌 骨</w>
阶 梯</w>
解 散</w>
稀 疏</w>
每 一</w>
搜 查</w>
弥 漫
尘 土</w>
安东 尼奥</w>
多 肽</w>
因 数</w>
分之 三</w>
内 毒素</w>
万 辆</w>
陈 旧</w>
闻 到</w>
起 码</w>
自来 水</w>
脑 卒
脑卒 中</w>
粘 剂</w>
福建 省</w>
电 波</w>
珍 珠
有 点儿</w>
斯 利</w>
录 像
多 见</w>
埃 里克</w>
在 职</w>
卡 斯
华 北</w>
十 一</w>
动态 变化</w>
俯 瞰</w>
体 积
低 碳</w>
一 想</w>
sh ell</w>
S L</w>
难 受</w>
阿 斯</w>
闯 入</w>
连锁 店</w>
负债 表</w>
百 合</w>
暗 杀</w>
排 水
打 球</w>
废 气</w>
布鲁 塞尔</w>
区域 性</w>
加油 站</w>
光 伏</w>
伯明 翰</w>
代表 大会</w>
上 星期</w>
r on
A BC</w>
适 性</w>
连 通</w>
这 艘</w>
西 欧</w>
美 人</w>
缝 隙</w>
第一 场</w>
瓦 特</w>
法 在</w>
橡 树</w>
格 子</w>
掠 夺</w>
挥 发</w>
指 派</w>
归 属</w>
富 于</w>
声 望</w>
地 道</w>
创 纪录</w>
从 未
之 声</w>
业 内</w>
ic h</w>
D D
Aj ax</w>
A ss
.. ....</w>
迪 斯</w>
辩 证
词 汇
访 客</w>
装 运</w>
细胞 核</w>
粘 附</w>
篮 板</w>
深 感</w>
梗 阻</w>
标 语</w>
末 日</w>
控制 算法</w>
挂 钩</w>
在 校</w>
反 正</w>
偏 低</w>
举 例</w>
丹 利</w>
中 途</w>
一 幢</w>
O R
Mar k</w>
长 老</w>
量 计</w>
诊 断
穆 巴拉克</w>
瞬 时</w>
相 色谱</w>
清 爽</w>
权 衡</w>
授 课</w>
拉 丁</w>
建 国</w>
寄 给</w>
安德 烈</w>
后 世</w>
发 酵
压 实</w>
初 学者</w>
使用 方便</w>
不 起
ht ml</w>
S al
间 质</w>
轮 流</w>
语 篇</w>
胶 片</w>
联 结</w>
空气 污染</w>
消费 品</w>
毯 子</w>
模型 试验</w>
星 体</w>
斑 马</w>
找 回</w>
宁 波</w>
勒 姆</w>
加 尔</w>
出 卖</w>
内 科</w>
人 员
为 生</w>
串 行</w>
中 日</w>
19 45</w>
鲁 尼</w>
进 化
过 氧化物</w>
蓝 图</w>
药 用</w>
红十字 会</w>
电阻 率</w>
甘 草</w>
牛津 大学</w>
片 子</w>
武 汉
数据 流</w>
扶 轮</w>
成 交
恋 者</w>
怎么 回事</w>
存 档</w>
十 分钟</w>
凸 轮</w>
内 斯</w>
之 战</w>
P aul</w>
P 2
D F
避孕 套</w>
自 如</w>
置 入</w>
洛 克
更 多地</w>
按 下</w>
帕 金
基本 特征</w>
四 分之三</w>
同 种</w>
制 取</w>
体积 小</w>
乡 镇</w>
一 代人</w>
默 认
骑 车</w>
馅 饼</w>
食 物
陷 入
轮 社</w>
老 客户</w>
第三 季度</w>
真 心</w>
相 传</w>
瓦 解</w>
法 学院</w>
明显 降低</w>
撤 出</w>
扶 轮社</w>
幸福 感</w>
另 一只</w>
反对 者</w>
蓝 牙</w>
营养 成分</w>
苯 胺</w>
素 养</w>
空 格</w>
短 裤</w>
相对 论</w>
玛格 丽特</w>
消 毒
梅 德
文件 名</w>
招 致</w>
库 克</w>
定 论</w>
右 键</w>
养 护</w>
人 大</w>
不 解</w>
p r
H C</w>
Ch ar
面试 官</w>
限 额</w>
逃 走</w>
赠 送</w>
观 光
自动 控制</w>
耶 鲁大学</w>
而 上</w>
编 剧</w>
紧 要</w>
突 起</w>
突 触</w>
碳 钢</w>
方 块</w>
挡 住</w>
抗 争</w>
快 照</w>
序列 化</w>
年 老</w>
尤 为重要</w>
商 贸</w>
动脉 瘤</w>
功能 障碍</w>
两 步</w>
下 半年</w>
一 两个</w>
E P
9 9%</w>
英 勇</w>
脑 缺血</w>
第一 夫人</w>
空 中
白 云</w>
病 原
番 茄
心 想</w>
微 不足道</w>
并 列</w>
好奇 心</w>
大 洋</w>
夜 空</w>
司令 部</w>
册 子</w>
丰富 多彩</w>
两 份</w>
A G</w>
196 8</w>
随 之
送 来</w>
达 姆</w>
走 动</w>
许 多年</w>
蠕 虫</w>
秸 秆</w>
生 境</w>
甘 肃</w>
灵 顿</w>
消 退</w>
易 斯</w>
捉 到</w>
愈 来
张 贴</w>
密切 关系</w>
唯 物
会 以</w>
中 小学</w>
不 来</w>
上 时</w>
in s</w>
a p</w>
In c</w>
D ata</w>
龙 虾</w>
骨 髓
跌 倒</w>
谚 语</w>
离 线</w>
监 管
病 性</w>
牙 医</w>
热 能</w>
文 凭</w>
扬 声器</w>
制 改革</w>
凯尔 特人</w>
保守 党</w>
体 制改革</w>
伦 比</w>
买 进</w>
or d
e h
1. 3</w>
超 微结构</w>
耐 受</w>
类 型
申请 表</w>
清 扫</w>
清 华
无 私</w>
文 书</w>
散 热</w>
放 牧</w>
撒 哈拉</w>
周 围
后 勤</w>
前 去</w>
其 一</w>
九 十年代</w>
丰 盛</w>
一 株</w>
ex t
con t
S a
高中 生</w>
路易斯 安
衬 衣</w>
节 水</w>
盛 名</w>
盘 旋</w>
洛 伊</w>
意 境</w>
女 士们</w>
大 王</w>
大 屠杀</w>
外 人</w>
复活 节</w>
土 体</w>
动 能</w>
利 润
公 益</w>
催 眠</w>
修 行</w>
中 所</w>
不 复
St ev
J ames</w>
绞 痛</w>
管 癌</w>
简 约</w>
私 人
根 除</w>
样 条</w>
旅游 者</w>
新泽 西州</w>
斯 汀</w>
攻 击者</w>
抗 力</w>
投 篮</w>
幻 觉</w>
大 家庭</w>
嘧 啶</w>
卢 比</w>
先 秦</w>
住 处</w>
会 堂</w>
人 脸</w>
em ent</w>
197 3</w>
预 备
零 零
阴 离子</w>
血 肿</w>
脑 子里</w>
直流 电</w>
数据 包</w>
打 工</w>
实 务</w>
定位 系统</w>
墨尔 本</w>
器 皿</w>
周 到</w>
内 脏</w>
亿 年</w>
一 列</w>
2 7
黎 波里</w>
页 岩</w>
阿 司
阿司 匹林</w>
补 偿
看 书</w>
的 黎波里</w>
湖 北省</w>
没 用</w>
时间 段</w>
斯坦福 大学</w>
斯 说</w>
敌 意</w>
恐 吓</w>
弹 道
弹 头</w>
巴 拿
小 白
封 闭
姊 妹</w>
土 层</w>
叛 乱</w>
受 限</w>
剧 情</w>
齐 奥</w>
还 好</w>
能 量
耕 作</w>
稳 健</w>
海 运</w>
最大 值</w>
晋 升</w>
教 师
埃 德
反 感</w>
劝 说</w>
关 切</w>
人民 政府</w>
云 层</w>
个 星期</w>
一 段
w h
V C</w>
ES T</w>
除 草
门 槛</w>
长 着</w>
选 拔</w>
脑 组织</w>
纤维 细胞</w>
种 质</w>
理工 大学</w>
现代 人</w>
物 业</w>
潜 水
教学 质量</w>
改 装</w>
支 气
席 卷</w>
工业 生产</w>
山 西省</w>
婚 纱</w>
基 团</w>
双 脚</w>
分 解
免疫 力</w>
亿万 富翁</w>
之 星</w>
中 山</w>
不知 不觉</w>
T E</w>
197 4</w>
黑 色
隐 瞒</w>
证 件</w>
记 号</w>
见 识</w>
艺术 作品</w>
碳 酸</w>
盆 栽</w>
点 数</w>
沃尔 特</w>
正 文</w>
本 杰明</w>
展 览会</w>
场 主</w>
同 性
兼 容性</w>
传 递
令 牌</w>
乌 鸦</w>
of t</w>
en s
SE M</w>
饱和 度</w>
阿 布
逆变 器</w>
芭 蕾
考 试
病 原体</w>
电 弧</w>
生 平</w>
灯 具</w>
已 然</w>
工业 区</w>
小 姑娘</w>
太 久</w>
堆 栈</w>
副 教授</w>
减 退</w>
修 女</w>
例 程</w>
远 距离</w>
蜘 蛛
绿 地</w>
组 化</w>
硝 基</w>
眉 毛</w>
放 出</w>
打 赌</w>
户 外
师范 大学</w>
外 貌</w>
半 夜</w>
万 分</w>
LD AP</w>
贝 壳</w>
芬 奇</w>
联 用</w>
结 识</w>
礼 拜
支 撑
拉 动</w>
录 音
开 火</w>
审 讯</w>
安 市</w>
地 主</w>
发展 史</w>
参 观者</w>
共 享
人才 培养</w>
SO D</w>
10 5</w>
运动 学</w>
西 尔</w>
继 而</w>
时 滞</w>
时 不时</w>
救 治</w>
帕特 里克</w>
审 议</w>
失 稳</w>
分 工</w>
公 子</w>
先 天</w>
休 斯顿</w>
不 难</w>
CD MA</w>
颖 而出</w>
警 示</w>
被 忽视</w>
莉 莉</w>
腹 膜</w>
脱 颖而出</w>
胶原 蛋白</w>
线 虫</w>
系统 分析</w>
精 炼</w>
熔 体</w>
法 分析</w>
民 调</w>
执 着</w>
心律 失常</w>
微 创</w>
形 式
当 晚</w>
希腊 人</w>
凯 西</w>
几 小时</w>
佣 金</w>
一 趟</w>
一 惊</w>
p ort</w>
os t</w>
G T
黄 素</w>
风 雪</w>
销 毁</w>
调查 者</w>
色 彩
职 场</w>
看 不
独 生
检出 率</w>
未 婚
普 罗
时 节</w>
文艺 复兴</w>
整 治</w>
拼 接</w>
形 变</w>
小 腿</w>
外 贸</w>
喝 水</w>
出 资</w>
养 育</w>
例 证</w>
之 争</w>
专 题
Serv ice</w>
3 3%</w>
197 1</w>
高 处</w>
道 格拉斯</w>
电动 车</w>
献 上</w>
湖 人队</w>
政 体</w>
按 揭</w>
手 柄</w>
干 酪</w>
对 齐</w>
呆 症</w>
前 置</w>
全 市</w>
主 妇</w>
专业 知识</w>
不 由
an t</w>
马 桶</w>
陡 峭</w>
野 餐</w>
配 体</w>
警 卫</w>
节 食</w>
生产 成本</w>
特 里
灌 输</w>
根 部</w>
最 深</w>
早 先</w>
无 助</w>
据 估计</w>
挥 发性</w>
拖拉 机</w>
打 下</w>
心 房</w>
弄 清</w>
尼克 松</w>
宫 颈
实 业</w>
安 徽
天 真</w>
塞尔 维亚</w>
坠 落</w>
原 油
农 户</w>
使用 权</w>
为 首</w>
Manag er</w>
贝 利</w>
血红 蛋白</w>
苦 恼</w>
花 瓶</w>
脊 椎
绕 组</w>
科 斯</w>
着 装</w>
核 桃</w>
引 爆</w>
君 王</w>
同性 恋者</w>
判 处</w>
切实 可行</w>
做 生意</w>
优 质
仅 限于</w>
ed ia</w>
G er
魔术 师</w>
预 测
阻 燃
酿 酒</w>
那 会</w>
赛 跑</w>
赖 斯</w>
证券 市场</w>
英 俊</w>
花 儿</w>
耶 鲁</w>
精 髓</w>
环 状</w>
渡 过</w>
月 经</w>
普 利</w>
忍 耐</w>
庄 稼</w>
密 码
区 系</w>
前 额</w>
内 向</w>
信 奉</w>
亚 太</w>
下 半场</w>
oo d</w>
DO M</w>
Com m
饺 子</w>
阿 姨</w>
直 立</w>
滑 移</w>
沉 没</w>
更 佳</w>
晶 片</w>
思 绪</w>
密 苏
吉 祥</w>
参赛 者</w>
十几 岁</w>
几内 亚</w>
体 上</w>
面 纱</w>
网络 安全</w>
筷 子</w>
登 场</w>
没 事</w>
树 干</w>
新 品种</w>
整 流</w>
庄 严</w>
居 家</w>
小 节</w>
孵 化</w>
同 名</w>
W al
Rob ert</w>
马 修</w>
项目 经理</w>
随之 而来</w>
象 是</w>
菌 性</w>
美国 市场</w>
石 流</w>
游 荡</w>
日 出</w>
文化 背景</w>
撤 退</w>
提取 液</w>
巨 噬细胞</w>
工 人
小 猫</w>
四 名</w>
合 力</w>
反 转</w>
医 务
加 以
切 入点</w>
几 分</w>
一 碗</w>
风 湿
这 组</w>
计划 生育</w>
角落 里</w>
莫 尔</w>
缩 水</w>
深 信</w>
泰 晤
有 益于</w>
新 奥尔良</w>
很 漂亮</w>
基 尔</w>
型 材</w>
圣 人</w>
命 中
吞吐 量</w>
除 尘</w>
试 件</w>
脸 色</w>
肝 病</w>
羽 毛
窗 子</w>
用 具</w>
梅德 韦</w>
核 实</w>
承 包</w>
安全 带</w>
大 白
外 商
增 压</w>
在此 期间</w>
喜 马拉
各 不相同</w>
另一 端</w>
刚 果</w>
全 体
光 环</w>
乙 型肝炎</w>
下 行</w>
一对 一</w>
一 站</w>
Univers ity</w>
2 40</w>
预 制</w>
钢 笔</w>
详 情</w>
羞 愧</w>
罗 恩</w>
空 隙</w>
盖 子</w>
百 计</w>
痴 呆症</w>
液 压
根 管</w>
控制 中心</w>
建筑 设计</w>
名 列</w>
华 为</w>
刘 易斯</w>
冠军 联赛</w>
亚 麻</w>
之 子</w>
G en
C H</w>
9 9.
7. 5</w>
门 上</w>
转 折
谈 起</w>
调 味</w>
计数 器</w>
解析 器</w>
艰 辛</w>
脑 海中</w>
盛 开</w>
沙 龙</w>
次 生</w>
松 鼠</w>
本 拉登</w>
德克萨 斯</w>
康 德</w>
密 性</w>
击 手</w>
公 益
om e</w>
2 8
飞 过</w>
雪 橇</w>
降 压</w>
长 发</w>
遮 蔽</w>
送 入</w>
该 校</w>
观 众
科 特</w>
禁 区</w>
电 离
照 看</w>
烯 烃</w>
测 序</w>
油 炸</w>
毫无 意义</w>
杂货 店</w>
扶 持</w>
憎 恨</w>
影 视
崇 尚</w>
对 人</w>
孤独 症</w>
天 内</w>
叹 息</w>
加 热
优 劣</w>
五 大</w>
is h</w>
S H
间 歇
转 过</w>
类 比</w>
第一 年</w>
税 务
盟 军</w>
球 蛋白</w>
珍 妮
环 路</w>
灾 民</w>
最 能</w>
放 慢</w>
握 住</w>
捕 捉到</w>
抖 动</w>
归 还</w>
工作 台</w>
天文 台</w>
剪 纸</w>
几 张</w>
倒 下</w>
乙 酰</w>
中 原</w>
丘 脑</w>
VE GF</w>
龄 化</w>
除草 剂</w>
里士 多德</w>
造 访</w>
读 完</w>
装 饰品</w>
移 交</w>
流 血</w>
新 车</w>
斯 通</w>
文献 资料</w>
整 形</w>
得 名</w>
影 视</w>
常 年</w>
工作 面</w>
孟加拉 国</w>
奴隶 制</w>
大大 降低</w>
塞 性</w>
吸 附
加勒比 海</w>
产业 结构</w>
亚 里士多德</w>
亚 伦</w>
三 维
链 条</w>
解 法</w>
薯 条</w>
考 量</w>
籽 粒</w>
睡 衣</w>
牧 业</w>
有 太多</w>
工 资
岩 层</w>
大 部份</w>
坐标 系</w>
回 报率</w>
办公 桌</w>
住 民</w>
伦 敦
伊 朗
任 务
五 天</w>
专家 系统</w>
不足 之处</w>
S ol
I F</w>
3. 0</w>
联系 人</w>
考虑 一下</w>
组 中</w>
来 往</w>
日本 政府</w>
无 功</w>
新 浪</w>
抛 售</w>
喷 雾
叶 派</w>
前 缀</w>
偷 走</w>
倾 角</w>
什 叶派</w>
习 性</w>
中 美
专 为</w>
ent s</w>
Qu ery</w>
C o</w>
轨道 交通</w>
赚 取</w>
统计 局</w>
精 矿</w>
散 发出</w>
插 座</w>
持 有人</w>
拳 头</w>
拨 打</w>
工程 项目</w>
大 山</w>
圣诞 树</w>
印 记</w>
傅 里叶</w>
位 列</w>
代 码
A g
胃 口</w>
美元 兑</w>
左 室</w>
小 溪</w>
宏 大</w>
国家 标准</w>
压 强</w>
印度 洋</w>
共同 体</w>
不同 之处</w>
our ce</w>
ic s</w>
F 1</w>
马里 兰州</w>
迷 恋</w>
赤 道</w>
裂 化</w>
虫 子</w>
航天 器</w>
舍 尔</w>
胸 腺</w>
胸 腔</w>
羊 群</w>
综合 利用</w>
粮 农
粮农 组织</w>
穿 戴</w>
灌 浆</w>
泥 石流</w>
新 式</w>
增 产</w>
圆 盘</w>
冷 藏</w>
传 授</w>
乙 二醇</w>
三聚 氰胺</w>
一 席
一 回</w>
S N
非 对称</w>
运 移</w>
试 管</w>
福 尔
生 代</w>
烘 干</w>
根 深
核 准</w>
服务 中心</w>
拉 齐奥</w>
抚 摸</w>
归 于</w>
年 生</w>
尼 罗
安 抚</w>
多种 多样</w>
同 仁</w>
借 着</w>
亚 州</w>
s et
SS L</w>
CA M</w>
酱 油</w>
较 弱</w>
胜 者</w>
监 护
电 性</w>
氧化 酶</w>
残 留
方 程式</w>
新 郎</w>
挫 败</w>
指 肠</w>
患 病率</w>
回 调</w>
即 刻</w>
动 向</w>
再 造</w>
伙 计</w>
京 都</w>
亚 胺</w>
两 块</w>
不 许</w>
一 万
196 9</w>
质 素</w>
豚 鼠</w>
荒 凉</w>
破 灭</w>
疗 程</w>
油 菜</w>
止 血</w>
榜 单</w>
施工 工艺</w>
数 位</w>
摸 索</w>
捐 献</w>
并 称</w>
层 状</w>
大 小
变 种</w>
下 垂</w>
oo l
E B</w>
霍 乱</w>
辽 宁
路 器</w>
越 发</w>
装 在</w>
稻 草</w>
看 重</w>
看 一看</w>
流 泪</w>
污 水处理</w>
棺 材</w>
果 然</w>
本 组</w>
无 条件</w>
描述 符</w>
并不 一定</w>
巴 赫</w>
导 数</w>
学 年</w>
写 给</w>
乘 以</w>
乌 龟</w>
不 景气</w>
oo k
默 多克</w>
风 化</w>
面 子</w>
金融 业</w>
通讯 社</w>
连 任</w>
远 古</w>
该 行</w>
落 在</w>
自 传</w>
筹 划</w>
皮 毛</w>
环境 影响</w>
玫瑰 花</w>
热点 问题</w>
灭 菌</w>
气 机</w>
收 据</w>
所 要</w>
感 应
弗 雷
建 议
士 丹利</w>
呵 呵</w>
告 终</w>
古 董</w>
受 理</w>
发行 版</w>
发 售</w>
劳 工
众 生</w>
t p
采购 商</w>
谢 谢
读 写</w>
血 腥</w>
血 吸
蒂 尔</w>
纸 币</w>
等 国</w>
第 九
盈 余</w>
皮 尔
消 极
杀 伤</w>
新 任</w>
抑 菌</w>
所罗 门</w>
很 感兴趣</w>
强 行</w>
多 位</w>
噩 梦</w>
喷 出</w>
售 货
可 为</w>
发 送
全 场</w>
产 卵</w>
业 余
不 快</w>
a j
19 49</w>
集 市</w>
远 比</w>
超 大</w>
该 软件</w>
衣 柜</w>
萨 姆</w>
系统 工程</w>
粉 红</w>
热 稳定性</w>
氯 乙烯</w>
民 营企业</w>
挤 满</w>
性 关系</w>
布 尔
契 机</w>
夹 杂</w>
大 麦</w>
吉 尼亚</w>
几 句</w>
中 西
两 支</w>
不断 扩大</w>
不 胜
is s
V O
CA N</w>
雷 尔</w>
重庆 市</w>
选 型</w>
让你 在</w>
硝 酸盐</w>
直 肠癌</w>
模拟 计算</w>
有 氧</w>
曲 子</w>
无线 网络</w>
改 正</w>
战 绩</w>
十二 指肠</w>
创 业
不 见
i er</w>
O O
C G
AN SYS</w>
项 卡</w>
露 面</w>
阿 曼</w>
选 项卡</w>
连 线</w>
过敏 性</w>
赛 后</w>
袋 鼠</w>
表 型</w>
职 人员</w>
私 有
神 情</w>
直 接
盲 人</w>
犯 错</w>
本科 生</w>
时 延</w>
搬 家</w>
挑 衅</w>
我 花</w>
情 结</w>
急 切</w>
外 来
国际 性</w>
叫 作</w>
发 泡</w>
中 非</w>
两 岁</w>
an s</w>
SL T</w>
钙 化</w>
透 射
这 周</w>
软 硬件</w>
谋 求</w>
许 诺</w>
衣 着</w>
结 婚
立 方</w>
秀 丽</w>
电 源
烘 焙</w>
涤 纶</w>
欣 慰</w>
无 序</w>
摩根 士丹利</w>
我 敢</w>
惊 恐</w>
店 员</w>
小 丑</w>
别 无
分 支
亲 节</w>
亚 当
事 例</w>
B ur
6 5%</w>
顺 应</w>
避 难
载 人</w>
葫 芦</w>
羊 肉</w>
维 特</w>
磷 酸盐</w>
激动 人心</w>
没 关系</w>
操作 符</w>
插 管</w>
急 性
富 士
即 兴</w>
卡罗来 纳州</w>
冒 犯</w>
保 住</w>
作 弊</w>
伊 特</w>
it al</w>
Sp ring</w>
Com p
麻省 理工学院</w>
讲 师</w>
苯 酚</w>
而 过</w>
羞 辱</w>
病 毒性</w>
炸 机</w>
灵 长
灯 笼</w>
水 剂</w>
无 罪</w>
摩托 罗拉</w>
搭 载</w>
所 指</w>
战 线</w>
应用 服务器</w>
尚 无</w>
外 墙</w>
商 界</w>
叶绿 素</w>
凯 蒂</w>
几 条</w>
余 地</w>
亚 地区</w>
了 个</w>
中 要</w>
东 欧</w>
一无 所知</w>
一 千</w>
SA P</w>
金 发</w>
递 增</w>
辅 导
赦 免</w>
褪 色</w>
老 妇人</w>
管 内</w>
神 庙</w>
破 旧</w>
狡 猾</w>
狠 狠</w>
搬 迁</w>
批评 者</w>
成 败</w>
感 觉
归 档</w>
弱 势</w>
布鲁 克</w>
大 有</w>
多 米
同 源</w>
写 字
令人 震惊</w>
买 来</w>
f ile</w>
钉 子</w>
酋 长</w>
达 拉斯</w>
豌 豆</w>
调 谐</w>
角 逐</w>
自 大</w>
肺 动脉</w>
编程 语言</w>
生 死</w>
澳大 利亚
漩 涡</w>
最 美</w>
成 交</w>
对 比
密西西 比
发 球</w>
卵 巢
全 力
产 于</w>
五 星级</w>
之 意</w>
y a</w>
L a
L D</w>
H O</w>
领先 地位</w>
青藏 高原</w>
重 生</w>
行 李
苜 蓿</w>
苛 刻</w>
洗 礼</w>
求 婚</w>
果 子</w>
李 先生</w>
救 护
成 岩</w>
忘 掉</w>
州 政府</w>
奥 秘</w>
壁 炉</w>
圣 保罗</w>
养 殖
入 路</w>
交 会</w>
lo w</w>
I E</w>
EL ISA</w>
金融 服务</w>
通 报</w>
过 身</w>
车 载</w>
豪 斯</w>
维 系</w>
第二 年</w>
田 地</w>
本 位</w>
承 接</w>
徒 刑</w>
度假 村</w>
卵 子</w>
占 地面积</w>
几 千年</w>
克里 斯蒂
产 科</w>
五 千</w>
丙烯 酰胺</w>
不及 待</w>
万 事
丁 香</w>
一 季</w>
l and</w>
H 5
C ++</w>
2 2%</w>
10 2</w>
鲜 血</w>
风 貌</w>
阴 暗</w>
长 相</w>
赞 誉</w>
虚 伪</w>
耐磨 性</w>
而易 举</w>
社会 效益</w>
磁 铁</w>
热 线</w>
检查 和</w>
成 瘾</w>
怨 恨</w>
底 板</w>
人 则</w>
上 周末</w>
d o
N ew
L CD</w>
音 量</w>
镀 锌</w>
转 入</w>
蠕 变</w>
维 护
纸 质</w>
相 适应</w>
牙 膏</w>
源 岩</w>
济 南</w>
流 体
检 疫</w>
朦 胧</w>
教育 家</w>
排 球</w>
捷 克</w>
振 荡
抵 押
幸 运
审 计
定 居
夹 层</w>
大 块</w>
地 铁
各 式</w>
双 赢</w>
共 计</w>
侏 罗
产 资源</w>
乞 丐</w>
丰 收</w>
三 只</w>
i f</w>
E D
顶 层</w>
重 回</w>
迫 害</w>
轻 而易举</w>
言 辞</w>
胆 管</w>
结构 特征</w>
磁 盘
研究 课题</w>
现 成</w>
海 洛
测 算</w>
月 饼</w>
断 路器</w>
掩 护</w>
想 得到</w>
归 因于</w>
土 著</w>
千 人</w>
医 保</w>
你 家</w>
低 声</w>
不 感兴趣</w>
一 块
s ch
ic es</w>
额 度</w>
颅 脑</w>
记 者
舒 张</w>
稻 田</w>
积极 参与</w>
病 态</w>
用 车</w>
珊瑚 礁</w>
热 性</w>
汽 轮机</w>
望 去</w>
明 朗</w>
抱 负</w>
塞 进</w>
哈利 波</w>
后 处理</w>
劳 拉</w>
八 十年代</w>
作 业
体 重
中枢 神经</w>
一 波</w>
4. 5</w>
黑 兰</w>
贩 卖</w>
证 交所</w>
莫 斯</w>
药 用
美国 国务院</w>
米 拉</w>
空 运</w>
石 榴</w>
橡 皮
末 尾</w>
易 行</w>
招待 会</w>
扩 建</w>
喀 布尔</w>
争 斗</w>
ran s
r am
高 技术</w>
驻 扎</w>
韦 尔</w>
软 管</w>
质 感</w>
财 物</w>
行 车</w>
联 军</w>
第一 季度</w>
生物 碱</w>
火 炮</w>
极 佳</w>
有效 期</w>
持 久性</w>
性 情</w>
宽 广</w>
害 性</w>
奇 怪
各 处</w>
台 词</w>
厚 重</w>
克莱 尔</w>
光 度</w>
伯 克</w>
事实 证明</w>
之 神</w>
专 项</w>
X SLT</w>
ES B</w>
A L</w>
青 年人</w>
避难 所</w>
进 出</w>
超 强</w>
花 花
胶 体</w>
电子 显微镜</w>
电 平</w>
注 水</w>
林 木</w>
更 新
感谢 您</w>
德 黑兰</w>
天 国</w>
古 人</w>
共 轭</w>
从那 时起</w>
li n</w>
L E</w>
飞 快</w>
造 林</w>
芒 果</w>
红 花</w>
矿 化</w>
珠 海</w>
烤 箱</w>
水 利</w>
机械 化</w>
未 成年人</w>
木 瓜</w>
有 钱
暴 跌</w>
斯 敦</w>
投 影
意 在</w>
幽 默
定 罪</w>
大 帝</w>
复 出</w>
商业 模式</w>
吗 啡</w>
印 有</w>
加 倍</w>
免 除</w>
保 佑</w>
供 热</w>
代 谢
r o</w>
lo b
马 州</w>
长 距离</w>
金 价</w>
邮 局</w>
选 活动</w>
调 制
观 赏
覆盖 率</w>
西 岸</w>
筹 资</w>
稀 土
票 价</w>
甲 壳
棕 榈</w>
处理 过程</w>
坦 白</w>
口服 液</w>
发 式</w>
协 同
化 为</w>
冲击 波</w>
公 民
做 点</w>
书 亚</w>
不好 意思</w>
o v</w>
H R
G B
C re
重 重
软件 系统</w>
诗 意</w>
社会 科学</w>
确 保
海 内外</w>
显 性</w>
扁 平</w>
悬 浮
微 球</w>
工艺 技术</w>
守 门
女 巫</w>
喜 乐</w>
启 蒙</w>
向 东</w>
入 狱</w>
之 音</w>
马 特</w>
隔 热</w>
随 处
随处 可见</w>
逆 行</w>
西门 子</w>
蒂 固</w>
落 地</w>
腰 部</w>
紧急 情况</w>
潮 汐</w>
流 浪</w>
无 能</w>
微 孔</w>
威 特</w>
哈 勃</w>
同 一时间</w>
分支 机构</w>
依 法
亲 和
不 介意</w>
N G</w>
20 .
饮食 习惯</w>
选 育</w>
轻 便</w>
象 牙</w>
联 手</w>
石 蜡</w>
特 意</w>
浮 游
汇 款</w>
楼 下</w>
曼 彻斯特</w>
新 英格兰</w>
四 岁</w>
卡罗 尔</w>
出口 商</w>
倾 倒</w>
低 功耗</w>
交易 商</w>
不 成
不 息</w>
高 额</w>
顿 时</w>
象 棋</w>
角 色
获得 者</w>
耐 久性</w>
红 素</w>
瘟 疫</w>
电力 公司</w>
演 奏
波 尔</w>
波 尔
比 赛
斯 巴
断裂 带</w>
学 过</w>
吸 气</w>
合 资企业</w>
另 一名</w>
事 事</w>
个 州</w>
R PC</w>
N C</w>
M AT
2. 4</w>
1. 6</w>
面 体</w>
除 以</w>
选 区</w>
适 时</w>
这 群</w>
老 龄化</w>
经济 损失</w>
玄 武
特 徵</w>
火 柴</w>
激进 分子</w>
滞 留</w>
毛 虫</w>
有效 成分</w>
敌 军</w>
掏 出</w>
必 要条件</w>
强 盗</w>
实 习
定 常</w>
坦 桑
嗓 音</w>
发电 机组</w>
北极 熊</w>
光 合
中 等
不 稳定性</w>
上 主</w>
越来越 少</w>
美 容
细 心</w>
相 伴</w>
消 亡</w>
河 床</w>
沉 淀
桁 架</w>
木 乃
手 稿</w>
定 子</w>
多 边</w>
四 条</w>
反 之</w>
募 集</w>
制 作
军 舰</w>
免疫 组化</w>
元 首</w>
体 面</w>
人 际</w>
上 台</w>
ion s</w>
K ar
马 力</w>
镇 定</w>
艾 尔
细 长</w>
畅销 书</w>
犹太 教</w>
深 切</w>
液 晶
架 飞机</w>
挥发 油</w>
恋 情</w>
少 年
对 非</w>
审 判
各种 因素</w>
剑 桥
减 慢</w>
内 特</w>
一 心</w>
一 律</w>
超 导</w>
诈 骗</w>
荒 野</w>
英 格兰
美 利
约 旦
科罗拉多 州</w>
生产 厂家</w>
理 事</w>
水 汽</w>
查 明</w>
朴 素</w>
木乃 伊</w>
晶 状体</w>
明 珠</w>
收 集
措 辞</w>
尊 贵</w>
后 现代</w>
合 格
功 率
创 建
伤 痛</w>
产 值</w>
conf ig</w>
Wil li
T ube</w>
R SS</w>
F ire
0. 5%</w>
频 域</w>
贡 献
计 量
芦 荟</w>
自 已</w>
竞争 性</w>
百 科
登 山</w>
演 化
民 歌</w>
氏 菌</w>
每 一件</w>
检 视</w>
景 观
挽 回</w>
拒 绝
折射 率</w>
愈 伤</w>
嵌 套</w>
山 庄</w>
头 皮</w>
坚 称</w>
十 分之一</w>
以 北</w>
为 一体</w>
中 空</w>
E T
隶 属于</w>
重 创</w>
这 要</w>
转化 率</w>
记 下</w>
老 兵</w>
第一 条</w>
稍 稍</w>
矿 体</w>
清 朝</w>
汲 取</w>
根深 蒂固</w>
搁 置</w>
战略 性</w>
情报 局</w>
快 点</w>
建设 项目</w>
底 盘</w>
在 线
印度 教</w>
动 式</w>
会 场</w>
丝 绸
d s</w>
阿 瑟</w>
金融 体系</w>
透 射</w>
迫 不及待</w>
轻 质</w>
西班牙 人</w>
等 奖</w>
猎 犬</w>
河 里</w>
气 囊</w>
松 动</w>
最高 点</w>
时 序</w>
斯 卡</w>
提 出
接 著</w>
所 为</w>
库 中</w>
同 居</w>
凝 视</w>
中 叶</w>
两国 人民</w>
世 博</w>
AI G</w>
3 20</w>
那 块</w>
詹 姆
织 机</w>
空 虚</w>
疤 痕</w>
熟 练
深 渊</w>
泰晤 士
法 制
星 光</w>
持 股</w>
拟 定</w>
抬 高</w>
巡 回
屈 曲</w>
奥 委会</w>
壮 丽</w>
哈 里斯</w>
加 索</w>
侦 测</w>
余 下</w>
二 百
中国 日报</w>
M er
K B</w>
非常 复杂</w>
降 级</w>
运 行
转 过身</w>
越 南
玩 游戏</w>
热 烈
正 统</w>
枪 击</w>
时 针</w>
扫描 仪</w>
希 德</w>
尼 斯
多 芬</w>
外汇 储备</w>
商 讨</w>
卵 石</w>
升 华</w>
分 部</w>
冰 山</w>
儿 科</w>
他 于</w>
亚 热带</w>
H S
附 有</w>
阿姆斯特 丹</w>
该 州</w>
视 察</w>
花 旗</w>
类 固醇</w>
海洛 因</w>
正 比</w>
明 媚</w>
戴 安娜</w>
悖 论</w>
师 父</w>
奥斯 汀</w>
埃 德</w>
埃 弗
坦桑 尼亚</w>
做 起</w>
人 意</w>
人 参</w>
额 头</w>
阿肯 色
阿卜 杜
连接 起来</w>
输 掉</w>
轮 船</w>
诽 谤</w>
老 汇</w>
签 发</w>
甘 地</w>
测试 用例</w>
汇 总</w>
根 州</w>
极 强</w>
无 误</w>
方 药</w>
扎 特</w>
尼罗 河</w>
奥林匹 克
夫 曼</w>
天 后</w>
分子 筛</w>
再 次
儒 学</w>
亚当 斯</w>
p er</w>
g er</w>
S u
鲑 鱼</w>
飞 跃</w>
难 怪</w>
除 率</w>
钱 财</w>
遗 失</w>
起 因</w>
赶 走</w>
西 湖</w>
萝 卜
英语 专业</w>
花 纹</w>
自 主
老 家</w>
第一 阶段</w>
积 水</w>
矿 产资源</w>
理 发
火山 灰</w>
潜 伏</w>
油 泵</w>
摇滚 乐</w>
弹 道</w>
媲 美</w>
合 唱
劳 斯</w>
公 用
中 小</w>
is h
3 5
黄 蜂</w>
配 额</w>
逗 留</w>
过 氧化
规 制</w>
考 证</w>
省 略</w>
特 斯</w>
片 状</w>
湖 水</w>
来 信</w>
新生 代</w>
搞 笑</w>
投 保</w>
彼 此
弗 雷德</w>
平 安
失 明</w>
名 言</w>
号 线</w>
受 灾</w>
加工 过程</w>
击 球</w>
准 许</w>
下 落</w>
oo l</w>
e k</w>
PC I</w>
P B
J VM</w>
高层 建筑</w>
酮 类</w>
迈 向</w>
车 票</w>
跟 前</w>
现 货</w>
消 逝</w>
海洋 生物</w>
感染 性</w>
急 忙</w>
怀 里</w>
弹道 导弹</w>
安 大
名 昭
动 作
加 拉</w>
公 安</w>
侧 重于</w>
他 用</w>
port let</w>
ing s</w>
髋 关节</w>
雪 地</w>
重 任</w>
都 市
过 错</w>
诺 言</w>
认 识
萨 尔
英 美</w>
竞 技
白 勺</w>
涉 足</w>
消 解</w>
法 新社</w>
殴 打</w>
橱 柜</w>
想 一想</w>
开 除</w>
帝 王</w>
安徽 省</w>
安全 部队</w>
卷 风</w>
分 行</w>
为 准</w>
中 亚</w>
li b
ac h</w>
N T</w>
C C
黑 板</w>
骨 细胞</w>
闪闪 发光</w>
输送 机</w>
舰 艇</w>
致 力</w>
肆 虐</w>
算 符</w>
百 老汇</w>
版 本
清 算</w>
泌 尿
极 其
本 合同</w>
普 顿</w>
执 导</w>
性 格
怀 抱</w>
床 垫</w>
干 涉
小 册子</w>
实用 程序</w>
处 女
受 不了</w>
南 北
免 得</w>
传 教士</w>
二 手</w>
T er
顺 从</w>
雪 茄</w>
重 点
议 长</w>
萌 芽</w>
胜 出</w>
背 心</w>
照 耀</w>
灌木 丛</w>
法 郎</w>
效 果
奖 赏</w>
分析 模型</w>
再 有</w>
付 钱</w>
人 身
am b
运 人</w>
装 甲
藏 族</w>
致 于</w>
管 家</w>
立 足</w>
窃 取</w>
移 居</w>
短 篇小说</w>
白 蛋白</w>
疯 子</w>
猫 咪</w>
狮 子
比 作</w>
格兰 特</w>
早 熟</w>
房 租</w>
多 边形</w>
发展 观</w>
原 告</w>
单 项</w>
从那 以后</w>
事 是</w>
两 面</w>
P WM</w>
O K</w>
In st
HB V</w>
Dat a
风 吹</w>
跟 进</w>
赔 偿
赎 回</w>
读 物</w>
裸 露</w>
花 生
船 体</w>
耳 环</w>
湿 法</w>
期 货
早 饭</w>
探 望</w>
拉 链</w>
成 虫</w>
恐 惧
总 有
心 底</w>
妇 女
基 板</w>
刺 绣</w>
19 30</w>
龙 卷风</w>
鼻 腔</w>
进 修</w>
这 比</w>
规 章</w>
自 助
碎 机</w>
白 领</w>
流 淌</w>
油 厂</w>
核 对</w>
施 压</w>
改 写</w>
息 肉</w>
息 息
开 水</w>
康 涅
床 单</w>
宜 人</w>
基因 突变</w>
合 伙</w>
发 出
单元 测试</w>
关 注
全 省</w>
入 门</w>
v e</w>
on y</w>
观察 者</w>
经 贸</w>
粉 体</w>
第 一名</w>
看 清</w>
现 场
涂 鸦</w>
标 示</w>
杀 人
无 污染</w>
断 定</w>
放 开</w>
把 戏</w>
扇 门</w>
成 名</w>
愿 景</w>
总有 一天</w>
年 华</w>
宙 斯</w>
合 作者</w>
中 式</w>
一席 之地</w>
You Tube</w>
输 血</w>
路 易</w>
跟 上</w>
赌 注</w>
课 本</w>
精 力
章 程</w>
突 袭</w>
监视 器</w>
潜 入</w>
油气 藏</w>
水 槽</w>
服务 公司</w>
普遍 性</w>
春 秋</w>
收 件
拖 车</w>
技 法</w>
小 巧</w>
寓 意</w>
城市 规划</w>
各 人</w>
史 料</w>
可见 光</w>
南 亚</w>
中间 体</w>
丁 堡</w>
UR I</w>
防腐 剂</w>
莫 扎特</w>
组织 化学</w>
练 习
纯 正</w>
空 地</w>
私 募</w>
神 灵</w>
硫 化物</w>
相似 之处</w>
相 撞</w>
测 评</w>
河 岸</w>
欺 负</w>
欢 快</w>
朱 莉</w>
心 意</w>
形 象
定 点</w>
可 供</w>
原 住民</w>
几 名</w>
何 况</w>
令人 吃惊</w>
主 营</w>
一 辆车</w>
一 脚</w>
um b
et s</w>
J AX</w>
F in
2 1%</w>
锻 造</w>
郊 外</w>
解 救</w>
自 学</w>
绰 号</w>
粘 合剂</w>
盛 会</w>
果 酱</w>
暗 淡</w>
拉 拉</w>
投 机
尿 酸</w>
基 坑</w>
双 击</w>
卡梅 隆</w>
千 克</w>
办公 楼</w>
体 液</w>
代 尔</w>
仓 储</w>
仇 敌</w>
e ed</w>
A E</w>
2 8%</w>
革命 性</w>
里 程</w>
轰 炸机</w>
起 居室</w>
观 测
罗 巴</w>
编码 器</w>
第二 季</w>
新 途径</w>
攻 势</w>
打 个</w>
慢 跑</w>
大学 毕业</w>
多 酚</w>
可 视</w>
卢 卡斯</w>
书 院</w>
专 员</w>
a ul
a il</w>
RU P</w>
B I
9 000</w>
霍 奇
采 摘</w>
逼 真</w>
超 标</w>
赛 前</w>
标 的</w>
日 程
斯特 拉</w>
敌 对</w>
提 振</w>
律 师
康涅 狄
婆 婆</w>
增 强
出人 意料</w>
共 性</w>
五 次</w>
上 用</w>
一大 批</w>
S H</w>
J MS</w>
C le
1. 8</w>
零售 业</w>
难 于</w>
载 入</w>
课 上</w>
维 吾
答 道</w>
硝 化</w>
理 工</w>
滑 行</w>
巧 合</w>
层次 结构</w>
安 放</w>
地 亚</w>
公 路
住宅 区</w>
一 棵树</w>
o l</w>
H5 N1</w>
颠 倒</w>
贬 低</w>
胡 须</w>
立足 于</w>
渗 入</w>
流 氓</w>
每 分钟</w>
明 胶</w>
放 着</w>
微波 炉</w>
引 物</w>
开 工</w>
建筑 材料</w>
并非 如此</w>
奖 者</w>
奏 曲</w>
地 面
合法 化</w>
十 九</w>
分子 生物学</w>
僵 硬</w>
作 证</w>
伯 里</w>
传 奇
人 去</w>
不 容</w>
一 具</w>
at es</w>
2. 1</w>
高 超</w>
马 斯
迟 钝</w>
质 炎</w>
芳 烃</w>
肯 塔
科学 性</w>
病 史</w>
熔 岩</w>
攻击 性</w>
成熟 度</w>
往 前</w>
坍 塌</w>
围 墙</w>
哀 悼</w>
出 入</w>
俘 虏</w>
任 意
临 到</w>
in ess</w>
饭 菜</w>
酒 精
跌 至</w>
质量 保证</w>
罪 人</w>
维 和</w>
系统 结构</w>
米 特</w>
着 急</w>
爪 子</w>
灰 质炎</w>
波 纹</w>
构 型</w>
无 限
推 论</w>
技术 指标</w>
我 校</w>
恢复 正常</w>
往 后</w>
弧 形</w>
就 诊</w>
失 败
多 路</w>
增 值
国际 标准</w>
发 泄</w>
原 虫</w>
刺激 性</w>
冗 长</w>
b ox</w>
M I
L AB</w>
AT M</w>
阿肯色 州</w>
这 批</w>
轰 动</w>
贴 近</w>
许 许
许许 多多</w>
苔 丝</w>
致 富</w>
而 不
泰 山</w>
托 邦</w>
弗 里
工 夫</w>
就 餐</w>
大 吃
处 死</w>
启 动
内 华
全 景</w>
佛 陀</w>
两 地</w>
一 职</w>
et a</w>
V al
Th om
5 5%</w>
18 00</w>
10 8</w>
高 压
靶 向</w>
阿 拉</w>
道 具</w>
较 量</w>
至 此</w>
老 大</w>
线 型</w>
约 书亚</w>
流 转</w>
汇 聚</w>
来 宾</w>
新泽 西</w>
折 断</w>
德 纳</w>
异 位</w>
带 子</w>
宁 可</w>
头 骨</w>
大 都市</w>
啮 合</w>
受害 人</w>
卷 烟</w>
保 鲜</w>
会 用</w>
亲 身</w>
乳 糖</w>
乳 制品</w>
丽 斯</w>
M C
2 3%</w>
非常 容易</w>
隔 开</w>
那 份</w>
辨 证</w>
辞 去</w>
调 配</w>
粗糙 度</w>
第 四个</w>
登 机</w>
电 车</w>
甘 油
瓷 砖</w>
牙 周
沃 斯</w>
救 出</w>
拉 力</w>
拉 克
战 时</w>
小 费</w>
古 埃及</w>
发表 声明</w>
冰 激
光 顾</w>
亵 渎</w>
书 签</w>
中间 件</w>
V L
P ol
N ew</w>
高 峰
韦 伯</w>
都 会</w>
贝 叶
节 课</w>
舞 者</w>
胃 肠</w>
罗 伊</w>
甘 蔗</w>
特 效</w>
点 点</w>
清华 大学</w>
油 管</w>
水 龙头</w>
水 箱</w>
有 色
日益 增长</w>
拥 有者</w>
报 告
广大 客户</w>
存 活率</w>
女 权
喷 洒</w>
初 选</w>
具 特色</w>
克里 斯
东 风</w>
一 击</w>
196 4</w>
食 堂</w>
长 途</w>
转折 点</w>
诚 挚</w>
议 论</w>
蓝 光</w>
菲 斯</w>
菊 花</w>
肝 素</w>
肋 骨</w>
联 剂</w>
第二 轮</w>
爬 行</w>
热 源</w>
浓 密</w>
法兰 克
教 派</w>
密 尔顿</w>
实 施
完全 相同</w>
奇怪 的是</w>
唾 液</w>
哈尔 滨</w>
另一 方</w>
古 罗马</w>
别 处</w>
任 一</w>
他 俩</w>
之 称</w>
不 言
196 2</w>
196 1</w>
10 4</w>
阿尔 卑
菌 体</w>
翻 新</w>
缓 释</w>
精神 病学</w>
皮 埃尔</w>
生物 医学</w>
热 液</w>
渴 求</w>
海 默</w>
本 病</w>
无 与
收 敛
感染 率</w>
异 体</w>
安 心</w>
喧 嚣</w>
单 相</w>
低 落</w>
产 儿</w>
an i</w>
E F
铃 声</w>
追 捕</w>
迟 缓</w>
脊髓 灰质炎</w>
缤 纷</w>
第 八</w>
社会 性</w>
示 范
架 结构</w>
无 味</w>
方 可</w>
数据 仓库</w>
投 向</w>
想 像
平均 年龄</w>
局 部
导 轨</w>
宣 誓</w>
定 书</w>
十二 个</w>
创新 能力</w>
切 斯特</w>
农 历</w>
内 政
具体 情况</w>
公共 服务</w>
便 秘</w>
交 融</w>
or s</w>
F L
D o
阿尔 及
这 么
过 夜</w>
繁 琐</w>
精 巧</w>
疲力 尽</w>
电 磁场</w>
特 种
牙 科</w>
晶 格</w>
显 露</w>
早 上
早上 好</w>
无与 伦比</w>
投入 使用</w>
手 头</w>
恶 意
怀 有</w>
小 径</w>
反 响</w>
双 面</w>
千 里</w>
出 众</w>
于 本周</w>
一 瞬间</w>
e in</w>
Sec ur
F T
黑龙 江省</w>
雄心 勃勃</w>
银 幕</w>
酸 化</w>
遗 嘱</w>
退 回</w>
读 数</w>
装 扮</w>
行 径</w>
螺旋 桨</w>
薄 板</w>
老 子</w>
生 根</w>
球 衣</w>
狭 小</w>
灵长 类</w>
水 晶
氢 氧化
民 兵</w>
暗 中</w>
昏 暗</w>
文 字
托 斯</w>
扔 进</w>
您 好</w>
恶 人</w>
小 脑</w>
大 豆
土壤 水分</w>
喂 食</w>
哥伦比亚 大学</w>
变 小</w>
下 场</w>
v al
f il
ER P</w>
Ban k</w>
1 28</w>
驱 车</w>
集 聚</w>
酯 化</w>
赐 予</w>
私 下</w>
省 钱</w>
滋 生</w>
流 过</w>
汤 匙</w>
毛 孔</w>
朝鲜 半岛</w>
暴力 事件</w>
晃 动</w>
工作 日</w>
小 车</w>
定 做</w>
学 报</w>
头 巾</w>
多 发</w>
图 为</w>
同 情
公 用</w>
八 十</w>
储 蓄
仅 如此</w>
g ht</w>
196 7</w>
高 强</w>
首 脑</w>
隶 属</w>
赫 尔</w>
谐 振
订 婚</w>
薄 片</w>
花 香</w>
约束 力</w>
管 路</w>
私 营
洗手 间</w>
民 法</w>
歌 迷</w>
欠 缺</w>
树 皮</w>
快 感</w>
忠 告</w>
征 兆</w>
好 些</w>
地 缘</w>
喝 咖啡</w>
命 中</w>
区 划</w>
加 热器</w>
低 头</w>
不 负
不 绝</w>
上 半场</w>
t a</w>
m a</w>
M Q</w>
骗 局</w>
阻 塞性</w>
门 窗</w>
运 费</w>
计算机 技术</w>
能 比</w>
胸 前</w>
纺 纱</w>
瞭 解</w>
真 是
琳 娜</w>
玄武 岩</w>
煽 动</w>
水土 流失</w>
排 泄</w>
挖 掘
招 牌</w>
小 巷</w>
始 建</w>
夜 总会</w>
基 准
地 块</w>
喇 嘛</w>
发 抖</w>
单 车</w>
停 机</w>
伯 恩</w>
与会 者</w>
不大 可能</w>
马尼 拉</w>
韵 律</w>
难 看</w>
配 以</w>
跳 水</w>
触 发器</w>
聚 力</w>
而 战</w>
精确 度</w>
第四 季度</w>
空气 质量</w>
硅 胶</w>
我 厂</w>
悄悄 地</w>
并 会</w>
尼古 拉斯</w>
字 形</w>
地 幔</w>
后 部</w>
各种 类型</w>
力 拓</w>
几 项</w>
信 条</w>
人 与
不经 意</w>
ad e</w>
SC A</w>
E B
防 洪</w>
这 一
讯 号</w>
自然 科学</w>
组 学</w>
级 联</w>
精 良</w>
窥 镜</w>
税 收
生殖 器</w>
牡 蛎</w>
烟 叶</w>
滑 板</w>
渗透 率</w>
浇 注</w>
检 定</w>
核 查</w>
校 友</w>
新 款</w>
接 吻</w>
拉 曼</w>
所 行</w>
年 会</w>
国 米</w>
吸收 光谱</w>
反 省</w>
印 件</w>
单 身
关 门</w>
休 闲
不 间断</w>
一氧化 氮</w>
h am</w>
Pet er</w>
2. 6</w>
销 员</w>
通 俗</w>
透 性</w>
符 号
电子 政务</w>
理 应</w>
班 上</w>
爱 荷
焕 发</w>
早 日</w>
无 关
感到 高兴</w>
息息 相关</w>
很 酷</w>
布 伦
射 程</w>
密歇 根</w>
家庭 作业</w>
家 畜</w>
化 酶</w>
交 战</w>
世界 观</w>
上 个世纪</w>
li st</w>
Mic ros
M G</w>
锚 杆</w>
过 氧化</w>
订 货</w>
菠 菜</w>
继续 下去</w>
溪 流</w>
模糊 控制</w>
普 拉
显 像</w>
旋 转
新 区</w>
成 就
总 杯</w>
年 限</w>
宏观 经济</w>
商 量</w>
包 覆</w>
制 定
僧 侣</w>
价 比</w>
个人 信息</w>
专 科</w>
不 乏</w>
万 能</w>
p ar
en d</w>
P K
M AC</w>
H E
2. 5%</w>
196 3</w>
雪 佛
这 能</w>
近几 个月</w>
踏 板</w>
购 置</w>
贝 多芬</w>
莫 过于</w>
福 利
目 标
玩 意</w>
牌 子</w>
汗 水</w>
氧 基</w>
母 乳</w>
死 因</w>
早 年</w>
常 有</w>
布拉 格</w>
山 水
嬉 戏</w>
奥 会</w>
克隆 人</w>
丙 酮</w>
不容 忽视</w>
st er</w>
N F</w>
D es
音乐 剧</w>
附 录</w>
足 总杯</w>
谦 虚</w>
谋 杀
耐 火
细胞 因子</w>
第二 位</w>
百科 全书</w>
生物 降解</w>
烟 花</w>
母 乳
母乳 喂养</w>
杰 米</w>
换 上</w>
年 时</w>
少 有</w>
基因 工程</w>
坚 定
固 执</w>
制 图</w>
出 境</w>
共同 点</w>
介 素</w>
亚 斯</w>
门 户
贫民 窟</w>
胡 同</w>
股 指</w>
祖 父母</w>
病 理
牙 龈</w>
火 炉</w>
漠 化</w>
极 易</w>
无 名</w>
摔 倒</w>
拖 动</w>
幼 稚</w>
宽 大</w>
女 主角</w>
基 文</w>
同 年</w>
佩 罗</w>
仰 望</w>
人 体
iP od</w>
I V
And re
默 克尔</w>
骨 盆</w>
钻 探</w>
钟 爱</w>
财 产
贝叶 斯</w>
衰 弱</w>
蓝 莓</w>
粉 末
疲 弱</w>
版 画</w>
深 陷</w>
沉 着</w>
欢 笑</w>
柑 橘</w>
板 凳</w>
服 药</w>
救护 车</w>
恶 作
很 久</w>
奋 力</w>
多 亏</w>
圣 殿</w>
吉 祥
合 肥</w>
受 人</w>
反应 时间</w>
剪 刀</w>
前 辈</w>
出 局</w>
出 具</w>
事 态</w>
东 道
上 天</w>
一 堂</w>
3 8%</w>
镜 片</w>
部 族</w>
行 销</w>
自 足</w>
肉 眼</w>
美 感</w>
维 数</w>
电路 板</w>
生 前</w>
玩 意
玩意 儿</w>
母 鸡</w>
无 能
斯坦 福</w>
推 车</w>
授 粉</w>
怪 兽</w>
常 务
层 析</w>
宫颈 癌</w>
天 鹅
大 意</w>
圆 满</w>
圆 弧</w>
含 水</w>
可 卡因</w>
乌 托邦</w>
一般 性</w>
1 15</w>
非 法
非 同
金 枪
足 球队</w>
账 号</w>
访 华</w>
芝 麻</w>
联邦 调查局</w>
直 到
直到 现在</w>
盐 岩</w>
病 原</w>
留 住</w>
海 港</w>
测 度</w>
流行 音乐</w>
棒 了</w>
杀 戮</w>
昨 天晚上</w>
明 威</w>
效 性</w>
摩 洛
扑 克</w>
强 国</w>
干 嘛</w>
安 然</w>
太 棒了</w>
增 至</w>
哪 种</w>
加 利亚</w>
别 名</w>
内 衬</w>
书 信</w>
一 试</w>
ik i</w>
ad er</w>
V er
D A
3 2
驱 散</w>
蹒 跚</w>
说 不定</w>
荒 唐</w>
胶 粘剂</w>
画 画</w>
用 过</w>
甘 肃
王 先生</w>
汇 票</w>
止 痛</w>
最 优
时 变</w>
无 礼</w>
打 字</w>
手 感</w>
惟 有</w>
总 督</w>
性 价比</w>
头 号</w>
外 地</w>
塞 浦
响 应
可 扩展性</w>
取 自</w>
升 降
前 台</w>
前 卫</w>
伴 奏</w>
亿 人</w>
丽 娜</w>
不 需</w>
不 一</w>
ail s</w>
P o
N G
H LA</w>
B R
辅 助
跳 过</w>
著 作
荷 兰
胰 腺炎</w>
肖 恩</w>
滨 海</w>
滑 雪
极 富</w>
晚 年</w>
早 早</w>
施 瓦
摩洛 哥</w>
排 卵</w>
抗 击</w>
应 力场</w>
小 城镇</w>
实在 在</w>
实 实在在</w>
守门 员</w>
奥 迪</w>
奥 氏体</w>
别 于</w>
兴 旺</w>
偏 头痛</w>
代表 作</w>
专 卖
e B
a g</w>
P F</w>
N ame</w>
难 免</w>
银 子</w>
钻井 液</w>
那 辆</w>
豆 类</w>
调节 器</w>
调 频</w>
菠 萝</w>
胆 汁</w>
胃 肠道</w>
粘 结
空军 基地</w>
病 患者</w>
深 沉</w>
涵 义</w>
活动 家</w>
治疗 师</w>
明 朝</w>
教 练
插 头</w>
应 得</w>
学 分</w>
塞浦 路
垂 直
四 十年</w>
名 气</w>
句 型</w>
参 展</w>
加 尔
农 场主</w>
内 含</w>
光 镜</w>
休 斯</w>
一 路上</w>
v i
oc k</w>
Rich ard</w>
O n
2 7%</w>
骨 干</w>
预 知</w>
预 留</w>
钝 化</w>
重 量
达 西</w>
辛 普森</w>
萨 达姆</w>
草 酸</w>
芝 士</w>
节 俭</w>
自 负</w>
筋 膜</w>
海 明威</w>
更 为重要</w>
技术 性</w>
扮演 着</w>
庸 置疑</w>
年 收入</w>
工 匠</w>
多 半</w>
多 一点</w>
基础 教育</w>
同 化</w>
吉林 省</w>
反 倾销</w>
切 割
六 十</w>
中 锋</w>
一 元</w>
一 串</w>
ro l
ers ion</w>
an e</w>
M D
预 热</w>
钦 佩</w>
质 粒</w>
蜗 牛</w>
蒸 汽
苗 条</w>
花旗 集团</w>
臭 名昭
脱 口
脉 搏</w>
胆 道</w>
约束 条件</w>
红 葡萄酒</w>
竞 选活动</w>
照 着</w>
潘 基文</w>
成 群</w>
意 甲</w>
孕 期</w>
子 集</w>
太 极
圆 锥</w>
回 归
出 差</w>
债 权</w>
伸 缩性</w>
亮 丽</w>
事 迹</w>
不 等式</w>
不 予</w>
三 峡</w>
七 天</w>
per t
m ar
运 到</w>
诺 德</w>
访问 控制</w>
蒙古 族</w>
而 然</w>
细胞 质</w>
竣 工</w>
窃 听</w>
穴 位</w>
磨 牙</w>
盔 甲</w>
牧 草</w>
洋 洋</w>
沿 海地区</w>
正 试图</w>
植 入
样 例</w>
旋 风</w>
心 愿</w>
弹 奏</w>
引 述</w>
居 于</w>
坚 韧</w>
四 位</w>
助 攻</w>
刚 开始</w>
刚 刚开始</w>
冷 淡</w>
兹 堡</w>
修 斯</w>
下 挫</w>
d is
b in</w>
Per l</w>
19 00</w>
雅 各
造 出</w>
过氧化 氢</w>
迅 猛
诉 求</w>
计算 器</w>
警 戒</w>
缺 水</w>
码 器</w>
汽车 公司</w>
暴 乱</w>
数码 相机</w>
散 落</w>
效 仿</w>
心动 图</w>
影 星</w>
弗 莱</w>
为数 不多</w>
中 级</w>
个 数</w>
一 国</w>
z ip</w>
v er
V is
6. 5</w>
2. 2</w>
香 糖</w>
露 营</w>
集中 营</w>
逆 转录</w>
运动 鞋</w>
贺 卡</w>
调 理</w>
节 律</w>
粘 接</w>
碰 巧</w>
疏 远</w>
生存 率</w>
满 怀</w>
消息 传递</w>
松 开</w>
星 形</w>
外 周</w>
哥伦 布</w>
关系 式</w>
克 劳</w>
偷 窃</w>
体 外
仪 表
严 酷</w>
不 仅如此</w>
一 如</w>
u al</w>
R AM</w>
195 3</w>
金枪 鱼</w>
重量 轻</w>
酒 杯</w>
遮 盖</w>
财 经</w>
解 调</w>
罗 纳
立 式</w>
稳 步</w>
痴 迷</w>
热 解</w>
此 法</w>
梯 子</w>
枯 竭</w>
时 能</w>
收敛 性</w>
房 地
惬 意</w>
小 额</w>
小 管</w>
好 似</w>
夫 兰</w>
士 气</w>
围 栏</w>
口 香糖</w>
发 起
助 者</w>
伊利诺 伊
互 助</w>
an o</w>
RO M</w>
O ff
8 9
陕 西省</w>
资 格
说 些</w>
血液 循环</w>
脱 位</w>
组 与</w>
简 报</w>
相 交</w>
沸 石</w>
晋 级</w>
放 学</w>
收 购
擦 拭</w>
技术 改造</w>
情 趣</w>
年 头</w>
奏 效</w>
外 籍</w>
品 系</w>
史 前</w>
可 持续性</w>
先 行</w>
保护 主义</w>
传 送
两 级</w>
p ri
c at</w>
K e
195 9</w>
要 地</w>
药 学</w>
系统 化</w>
竭 尽全力</w>
科 大学</w>
犹 豫
漆 黑</w>
游 玩</w>
渔 夫</w>
渐 近</w>
深 情</w>
测 距</w>
水 文
早 前</w>
数 学家</w>
接 手</w>
打 字
慈 济</w>
巴 林</w>
客 气</w>
学生 会</w>
反 常</w>
原则 上</w>
北 欧</w>
分 销</w>
几 秒钟</w>
伯 南克</w>
仿 生</w>
举 行
严 寒</w>
不 切
am a</w>
In d
IC S</w>
陷 于</w>
闭 塞</w>
超 时</w>
赞助 商</w>
规 律性</w>
背 着</w>
肥 沃</w>
职 权</w>
耐 热</w>
粘 合</w>
白 雪</w>
球 体</w>
热 力</w>
沿 线</w>
气 缸</w>
有 别于</w>
整 形
改 建</w>
才 行</w>
心 功能</w>
异 同</w>
展 品</w>
实 实</w>
发 炎</w>
中 均</w>
u k
i x
St r
降 价</w>
那 片</w>
逝 去</w>
赛 特</w>
赛 尔</w>
观察 家</w>
羔 羊</w>
绕 着</w>
税 款</w>
积 分
白 痴</w>
珠 宝
特 加</w>
毅 力</w>
核 细胞</w>
尼 尔森</w>
大 容量</w>
夕 阳</w>
增值 税</w>
坏 人</w>
在 历史
在历史 上</w>
国 营</w>
内 窥镜</w>
公 鸡</w>
体 式</w>
仿 真
书 上</w>
t t</w>
K h
飞 越</w>
错 综
错综 复杂</w>
送 达</w>
轮 回</w>
车 床</w>
跳 出</w>
血管 病</w>
螺 母</w>
英国 广播公司</w>
舰 船</w>
脑 出血</w>
脊椎 动物</w>
罗 夫</w>
第二 阶段</w>
第二 条</w>
穿 著</w>
眼 看</w>
电子 束</w>
片 断</w>
测 控</w>
流 星</w>
法兰克 福</w>
根 据
曙 光</w>
支 派</w>
投 产</w>
性 好</w>
必 行</w>
弹 力</w>
巴勒斯坦 人</w>
尤 指</w>
多 万</w>
外商 投资</w>
午 后</w>
制 度
出 炉</w>
保 温
仍 会</w>
亲 手</w>
交易 员</w>
交互 作用</w>
互 连</w>
之 急</w>
d a</w>
V B</w>
H er
H L</w>
F A</w>
19 %</w>
集中 精力</w>
长 袍</w>
退 缩</w>
贝 卢
谓 词</w>
语 调</w>
评 量</w>
解 说</w>
表 面积</w>
获 悉</w>
脊 椎</w>
管理 制度</w>
第一 轮</w>
研究 组</w>
矗 立</w>
疱 疹</w>
甲基 化</w>
生 物质</w>
玻 利
深入 探讨</w>
波 及</w>
本 植物</w>
曾 一度</w>
摇 篮</w>
探 索
执 法
强 制
弹 塑性</w>
广 为</w>
差 错</w>
大大 减少</w>
大 有
大 军</w>
可 取</w>
创 业者</w>
不 顾
不 决</w>
u b</w>
T im
T M
酸 度</w>
贝 蒂</w>
芦 苇</w>
群 众
素 瘤</w>
科 幻</w>
真 皮</w>
漂 流</w>
污 垢</w>
气 田</w>
每 天晚上</w>
摒 弃</w>
所 作
恶作 剧</w>
工程 建设</w>
尼古 丁</w>
地 站</w>
因果 关系</w>
加 班</w>
借 给</w>
亚 瑟</w>
两 件</w>
专 有</w>
一 模
一 曲</w>
E m
衣 草</w>
虫 害</w>
药 店</w>
肝 移植</w>
真 想</w>
电 离</w>
浪漫 主义</w>
水 坝</w>
水 产</w>
旺 达</w>
新 来</w>
效 度</w>
振 动
挣 钱</w>
工具 箱</w>
四 点</w>
哈 姆
半 天</w>
千 名</w>
兰 多</w>
佩 斯</w>
低 水平</w>
两 性</w>
不 合</w>
一模 一样</w>
id e</w>
Micros oft</w>
顿 饭</w>
过 载</w>
误 会</w>
胡 萝卜
耳 边</w>
溶 于</w>
机械 设备</w>
所作 所为</w>
悬 架</w>
总 干事</w>
布 森</w>
对外 开放</w>
如 其
夺 目</w>
基础 性</w>
唐 朝</w>
各个 领域</w>
区 块</w>
写 作
入 口处</w>
免 税</w>
主 耶稣</w>
O T</w>
首 页</w>
还 价</w>
迅 猛</w>
辅 料</w>
贾 德</w>
表示 感谢</w>
脑 血管</w>
聚 在一起</w>
积 聚</w>
盟 国</w>
瑞 典
杰 斯</w>
方 方
新 政府</w>
数十 亿美元</w>
接 过</w>
接 待
打 磨</w>
战 舰</w>
总 成</w>
徒 步</w>
大 利</w>
外 源</w>
囚 禁</w>
古 迹</w>
到 访</w>
凯 尔</w>
中 段</w>
中 东地区</w>
两 颗</w>
东 海岸</w>
196 6</w>
风景 区</w>
长 满</w>
长 出</w>
镀 金</w>
错 觉</w>
都 灵</w>
选 址</w>
退 还</w>
计算机 系统</w>
脑 中</w>
脆 性</w>
知识 库</w>
滚 滚</w>
某 事</w>
果 糖</w>
机 智</w>
有 害
晴 朗</w>
时 时</w>
换 言之</w>
小 鸡</w>
导 引</w>
哈萨克 斯坦</w>
合 理
可 使</w>
发 亮</w>
压 裂</w>
华 纳</w>
医 护
制定 者</w>
公共 场所</w>
全 套</w>
两 台</w>
195 8</w>
10 000</w>
重复 使用</w>
螃 蟹</w>
节 能
能 以</w>
稍 早</w>
正 以</w>
榴 弹</w>
核 反应堆</w>
板 球</w>
智 者</w>
怎 能</w>
平 等
安 息
如 是</w>
品 德</w>
另 一家</w>
华 裔</w>
北 方
决 不会</w>
倒 退</w>
例 经</w>
佳 肴</w>
低 等</w>
休 止</w>
为 时
一 并</w>
一 出</w>
v er</w>
Cor p</w>
青 霉素</w>
防 晒
进 行
观 主义</w>
自行 设计</w>
肿 瘤
维 德</w>
租 用</w>
石 英
甲 型</w>
瓦 伦
滑 冰</w>
涂 装</w>
流水 线</w>
治 国</w>
每 条</w>
死 率</w>
日 光
弗 拉
年 幼</w>
坚 守</w>
吉 奥</w>
切 削
克里 斯托
倒 霉</w>
主 体性</w>
世界 性</w>
不 移</w>
一大 群</w>
一 秒</w>
e z</w>
S y
MAT LAB</w>
Chri st
装 卸</w>
萨 德</w>
花 边</w>
自然 而然</w>
聚 类
聚类 分析</w>
老 头</w>
管 材</w>
极 致</w>
杰 森</w>
成 绩
年 青</w>
帕金 森
好 几年</w>
基本 一致</w>
后 人</w>
合 唱</w>
协 会
半 个世纪</w>
功 用</w>
冈 州</w>
克鲁 斯</w>
会 想</w>
乳 酪</w>
不切 实际</w>
li b</w>
g re
闹 钟</w>
金属 材料</w>
重 整</w>
酒 庄</w>
遮 住</w>
较 之</w>
裁 缝</w>
肥 皂
耕 种</w>
码 率</w>
牺 牲
热 水器</w>
满 脸</w>
派 生</w>
正 弦</w>
整 机</w>
指 头</w>
房 门</w>
寓 言</w>
孟加 拉</w>
孙 女</w>
如 此
套 餐</w>
固定 资产</w>
变 速器</w>
光合 作用</w>
假 冒</w>
代 号</w>
上 角</w>
鱼 雷</w>
除 掉</w>
轻 视</w>
转 播</w>
跟 踪
课 文</w>
絮 凝</w>
第二 代</w>
科罗拉 多</w>
皮肤 病</w>
甘肃 省</w>
然 大
没 有
极 有</w>
有钱 人</w>
斯图 尔特</w>
斯 加州</w>
政 变</w>
提 纯</w>
掠 过</w>
心 绞痛</w>
寿 命
导航 系统</w>
实际 意义</w>
安 哥
头 颅</w>
大 肆</w>
外 向</w>
固 结</w>
和 弦</w>
原 生
卡 通
剧 作家</w>
分 页</w>
其 所</w>
传 质</w>
以 西</w>
人 种</w>
一 年级</w>
s p</w>
频 频</w>
配 伍</w>
选 举
远 见</w>
臭名昭 著</w>
腰 椎间盘</w>
而 知</w>
老 挝</w>
每 件</w>
新 月</w>
成 语</w>
布 拉德</w>
子 民</w>
大 得多</w>
地铁 站</w>
各 家</w>
冠 脉</w>
内 燃
俄 罗斯
体 征</w>
专 长</w>
一 阶</w>
一 盘</w>
at t
Am er
黄 芪</w>
重 定向</w>
跌 落</w>
访问 者</w>
积 液</w>
点 亮</w>
清 香</w>
泡 泡</w>
水 母</w>
正 则</w>
格 纳</w>
机 架</w>
斯特 罗</w>
改 成</w>
收 缩
打 猎</w>
同情 心</w>
受 控</w>
克 什
人 心
上 周日</w>
一 整套</w>
ig ht</w>
Pat h</w>
P T</w>
Mar k
MP 3</w>
麦 芽</w>
钢 厂</w>
肌 肉
火 烧</w>
洗 衣</w>
梅 西</w>
果 园</w>
抗 抑郁</w>
慈 悲</w>
心 境</w>
实 惠</w>
因 果</w>
听 过</w>
发 货</w>
友 人</w>
作 法</w>
ri c</w>
et h
ad d
M e
0. 1</w>
顺 畅</w>
轻 盈</w>
表 象</w>
而 下</w>
科 索
电磁 波</w>
生 出</w>
演 变成</w>
武 器
格 言</w>
新 世界</w>
料 理</w>
数百 名</w>
开 场</w>
带 式</w>
夺 走</w>
声 调</w>
基 尼</w>
坡 度</w>
在 读</w>
圆 满
分 心</w>
公 立学校</w>
光 强</w>
保证 金</w>
ID E</w>
G l
2 4.
高峰 期</w>
需 品</w>
长 者</w>
钻 机</w>
那 不
请 求
表 观</w>
行政 区</w>
艾 哈
肥 大</w>
索 取</w>
离子 交换</w>
现 时</w>
水 族
楼 房</w>
检 验
某 处</w>
无 畏</w>
无 止
新闻 媒体</w>
文 明
搏 斗</w>
推 荐
承 办</w>
怀 旧</w>
家用 电器</w>
实践 经验</w>
字 幕</w>
圣 徒</w>
国 产
四 人</w>
吡 啶</w>
合作 社</w>
勋 章</w>
分类 器</w>
养 活</w>
公开 赛</w>
储 存
乌 拉圭</w>
不 惜</w>
w are</w>
unt u</w>
SO N</w>
SA RS</w>
G N
C al
非常 感谢</w>
阿 克</w>
酝 酿</w>
迷 路</w>
赞 比亚</w>
读 出</w>
说 不
讲 授</w>
蜜 月</w>
累 累</w>
粘 液</w>
粗 略</w>
稻 米</w>
盘 中</w>
现金 流</w>
环境 因素</w>
特 利</w>
河 畔</w>
柠檬 酸</w>
果 断</w>
析 出</w>
教学 改革</w>
撒 旦</w>
探 求</w>
振荡 器</w>
承载 能力</w>
寻 觅</w>
妥 善</w>
大幅 度
变 速</w>
南 韩</w>
单 晶</w>
动画 片</w>
剑桥 大学</w>
内心 深处</w>
亚 型</w>
之 于</w>
X RD</w>
S er
E r
16 00</w>
餐 桌上</w>
陷入 困境</w>
跋 涉</w>
肾 炎</w>
美国 空军</w>
缪 尔</w>
结 点</w>
纸 浆</w>
简 陋</w>
科 恩</w>
短 短
画 布</w>
王 妃</w>
消 遣</w>
海 尔</w>
毫 秒</w>
此 案</w>
棱 镜</w>
攻 读</w>
控 诉</w>
异 形</w>
奴 役</w>
奥 尼尔</w>
太 子
大 亨</w>
坎 贝尔</w>
均 衡
共 事</w>
何 等</w>
业 已</w>
一 战</w>
J os
驱 逐
阁 楼</w>
衣 裙</w>
莱 纳</w>
美 酒</w>
置 身于</w>
繁 衍</w>
笑 脸</w>
物 权</w>
照 明
满 满
汉 斯</w>
次 日</w>
格 伦</w>
手 脚</w>
成交 量</w>
微 血管</w>
形 图</w>
强 健</w>
工具 包</w>
奥 古
奥 利</w>
处理 工艺</w>
地 解决</w>
在 短期内</w>
博 文</w>
兼 具</w>
关键 作用</w>
伊 拉克
以 备</w>
人 身</w>
中国 队</w>
两 旁</w>
丘 陵</w>
St ud
马 歇尔</w>
零 点</w>
质 瘤</w>
象征 性</w>
调查 报告</w>
诸 如
诸如 此类</w>
花 样</w>
罗 宾</w>
粗 暴</w>
种族 主义</w>
盖 尔</w>
申请 者</w>
炉 子</w>
涡 轮机</w>
普 利
引 来</w>
小 孔</w>
对 模型</w>
头 条</w>
天 文学</w>
圣 者</w>
卢 克</w>
利润 率</w>
六 种</w>
信 片</w>
二 乘</w>
上 图</w>
iel d</w>
S co
R E</w>
J on
Inter net</w>
3 4
19 40</w>
默 默</w>
鲁 棒</w>
锚 固</w>
钟 声</w>
郑 州</w>
那 家</w>
那 双</w>
道 夫</w>
路 段</w>
调 器</w>
衷 心</w>
芭 芭
老 爸</w>
纸 条</w>
笑 了
监 理</w>
生 死
特 大</w>
烟 火</w>
没 见</w>
新华 网</w>
攀 岩</w>
捷 径</w>
拖 累</w>
帷 幕</w>
导 者</w>
塞 斯</w>
响 声</w>
发 声</w>
单 是</w>
出 血
信 箱</w>
使 劲</w>
众 议员</w>
事 件
世界 冠军</w>
oc i
im o</w>
b o
S w
M ob
Con n
3 7%</w>
鼻 炎</w>
鬼 魂</w>
高 得</w>
食 盐</w>
迅猛 发展</w>
谦 卑</w>
触 动</w>
莱 克</w>
胶 质瘤</w>
翡 翠</w>
置 评</w>
第三 代</w>
病原 菌</w>
爱情 故事</w>
滚 筒</w>
沉 睡</w>
格 莱
杂 交
本 区</w>
旨 意</w>
既 定</w>
放 纵</w>
搞 定</w>
思 科</w>
心肌 缺血</w>
形 势
委托 人</w>
好 地解决</w>
多 纳</w>
外 包</w>
增 厚</w>
医疗 机构</w>
分泌 物</w>
分 会</w>
产 生
二 烯</w>
之 源</w>
三 轴</w>
B B
随身 携带</w>
通 风
逆 境</w>
达 尔
药 效</w>
自 发性</w>
篱 笆</w>
稳定 剂</w>
硅 酸盐</w>
百万 计</w>
病 程</w>
湿 性</w>
治 性</w>
放射 性
收 入
接收 器</w>
手 边</w>
快 餐
得克萨 斯州</w>
开 张</w>
库 区</w>
失 重</w>
处 女</w>
城 邦</w>
四 方</w>
咒 语</w>
变 电站</w>
创新 性</w>
凭 着</w>
公共 交通</w>
公 尺</w>
临 时
x s
G ra
食 管癌</w>
镁 合金</w>
重 伤</w>
道 路
递 减</w>
西 卡</w>
结 成</w>
突 发
磁 体</w>
眼 科</w>
源 源
沉 闷</w>
氮 肥</w>
本 周一</w>
木 屋</w>
有 助</w>
断 开</w>
手 写</w>
实 体
哈 德</w>
发生 冲突</w>
十字 路口</w>
冷 酷</w>
冠军 杯</w>
兵 团</w>
先 例</w>
亚 人</w>
两 根</w>
不 说</w>
不 堪
三 月份</w>
一 经</w>
w eb
B er
麦 片</w>
阿尔 茨
那 件</w>
诱 因</w>
裁 剪</w>
聚合 酶</w>
美 貌</w>
管理 体制</w>
简 明</w>
电 流
瓣 膜</w>
球 场上</w>
爱 是</w>
洗 发
汇 编</w>
段 性</w>
极 地</w>
明显 增加</w>
抓 获</w>
愈 加</w>
总 而言之</w>
并不 认为</w>
寿 司</w>
学 士</w>
可 追溯</w>
口 罩</w>
医护 人员</w>
匹 兹堡</w>
别 致</w>
倍 受</w>
个人 资料</w>
U s
9 0
面 面</w>
阿 兰</w>
连 杆</w>
转 折</w>
货 品</w>
言 人</w>
芭芭 拉</w>
般 地</w>
脑 损伤</w>
缔 约
磨 机</w>
相互 影响</w>
盛 宴</w>
生态 旅游</w>
瑞 银</w>
火 锅</w>
海 姆</w>
母 牛</w>
打 折</w>
式 样</w>
广 受</w>
帕 德</w>
安 切
商品 价格</w>
发 了</w>
却 说</w>
创造 者</w>
出 水</w>
假 体</w>
低 端</w>
主管 部门</w>
t ion</w>
196 5</w>
首 届</w>
预 想</w>
静 力</w>
闻名 于世</w>
铭 记</w>
遗传 性</w>
透 气</w>
统 筹</w>
红 旗</w>
笨 蛋</w>
穆 迪</w>
碎 屑</w>
眼 睑</w>
漏 油</w>
波 利斯</w>
格 陵
本 领</w>
本 片</w>
木 偶</w>
暴 动</w>
攀 爬</w>
摄影 机</w>
扩 散
归 结为</w>
张 家
布 兰</w>
尔 克</w>
官 僚
合 板</w>
卷 曲</w>
冷 轧</w>
党 的
七 十</w>
一 盒</w>
n et
g ro
P art
高速 铁路</w>
附加 值</w>
踪 迹</w>
群 组</w>
美国 联邦</w>
编 纂</w>
维 吉尼亚</w>
盖 住</w>
电 讯
电 信号</w>
梅 森</w>
染 上</w>
整 夜</w>
接 口
才 智</w>
户 口</w>
成 藏</w>
微 细</w>
尖 瓣</w>
家 门</w>
大 餐</w>
吹 嘘</w>
占有 率</w>
内 疚</w>
兴奋 剂</w>
韦 斯</w>
集 结</w>
陶 器</w>
里 尼</w>
那 人</w>
追 究</w>
辽宁 省</w>
辩 解</w>
诗 歌
舒 适性</w>
缘 由</w>
石 器</w>
生 生</w>
玷 污</w>
牡 丹</w>
燕 麦</w>
照 样</w>
毛 皮</w>
欣 喜</w>
档 次</w>
极 值</w>
杯 赛</w>
放 宽</w>
招 聘
意大利 人</w>
忏 悔</w>
心 存</w>
幽默 感</w>
小 猪</w>
安全 套</w>
学 龄
史蒂 文</w>
只 想</w>
南 极
华盛顿 州</w>
借 钱</w>
保 加利亚</w>
以 致于</w>
人 脑</w>
二 年级</w>
中 山
上 以</w>
U b
O L
9 001</w>
4 2%</w>
3 6%</w>
麦 迪
高 楼</w>
那 张</w>
迎 战</w>
资 质</w>
请 勿</w>
营养 素</w>
科索 沃</w>
皮 下</w>
清 凉</w>
流 经</w>
朗 读</w>
收 治</w>
推 开</w>
当代 艺术</w>
弗朗 西斯</w>
字 样</w>
孔 雀</w>
大 地
块 状</w>
叶 酸</w>
区 位</w>
北 美洲</w>
俄勒 冈州</w>
体 裁</w>
伤 势</w>
代 言人</w>
交 代</w>
之 势</w>
丝绸 之路</w>
上 颌</w>
con f</w>
2 8.
195 7</w>
马 匹</w>
面 目</w>
阿里 巴巴</w>
酒 馆</w>
衬 底</w>
美 白</w>
睫 毛</w>
相关 系数</w>
皮 素</w>
瑞 尔</w>
牢 记</w>
清洁 剂</w>
水 井</w>
民 俗
栏 杆</w>
有机 溶剂</w>
普 里</w>
昵 称</w>
旅 店</w>
打 架</w>
寄 托</w>
安切 洛蒂</w>
大 型
多 用户</w>
外 贸
境 况</w>
基 调</w>
土 豆
固 相</w>
回 馈</w>
反 式</w>
利 安</w>
凶 猛</w>
一个 男孩</w>
一 百万</w>
N E
Ge or
黄 土
高尔夫 球场</w>
长 于</w>
醒 目</w>
解 毒</w>
观 望</w>
白 兰
琐 事</w>
玛 雅</w>
牙 刷</w>
游戏 机</w>
淀 粉
李 明
明尼苏 达州</w>
收 紧</w>
找 矿</w>
总 成本</w>
宝 藏</w>
安哥 拉</w>
奥 多</w>
大 黄</w>
吸 水</w>
司法 部</w>
变 学</w>
双 子
势 在
做 人</w>
am p
Cl ou
Ap ple</w>
2 60</w>
2 6%</w>
闲 逛</w>
问 答</w>
遇 难者</w>
载 有</w>
触 觉</w>
疾 病
生 子</w>
焙 烧</w>
游 记</w>
清 洗
流 变学</w>
本 机</w>
无 一
斯 拉夫</w>
斯 山</w>
山 寨</w>
地 雷</w>
喝 一杯</w>
后 背</w>
号 称</w>
克 罗</w>
二 零零
一 动</w>
ou r</w>
高 校
颤 动</w>
重 演</w>
醉 酒</w>
轻 量级</w>
讲 故事</w>
砂 轮</w>
猖 獗</w>
物 价
海 量</w>
沦 为</w>
气 藏</w>
模 具
梅 毒</w>
曲 轴</w>
明 明</w>
整体 性</w>
收 看</w>
技术 参数</w>
怒 气</w>
异 构
库 斯</w>
已 成</w>
尼 采</w>
密 闭</w>
处 分</w>
哥 尔
可 信度</w>
利 士</w>
份 子</w>
令人 担忧</w>
享 年</w>
上 尉</w>
6 50</w>
4 3%</w>
0. 1%</w>
鲁 斯</w>
阻尼 器</w>
那不 勒斯</w>
赶 来</w>
评 委</w>
莫 里斯</w>
罗马 帝国</w>
经 合
经合 组织</w>
纳 尔</w>
童 话
现 身</w>
游击 队</w>
港 元</w>
流 程
洞 察
每 场</w>
板 式</w>
李 子</w>
本 体
明 信片</w>
无 不</w>
打 碎</w>
小 康
好 得多</w>
天 平</w>
夏 令
地 平</w>
固定 化</w>
医 科大学</w>
勾 勒</w>
公 报</w>
伊斯 坦
两 分钟</w>
不负 责任</w>
一 脸</w>
一 环</w>
一 片
al a</w>
5 50</w>
马 戏
链 球菌</w>
那 间</w>
脉 络</w>
耐 高温</w>
红 宝石</w>
烤 肉</w>
温 带</w>
海 德
正 则
新闻 记者</w>
教 给</w>
所 长</w>
慢 性病</w>
异 型</w>
广播 电台</w>
对比 度</w>
夫 妻
太阳 光</w>
大 猩猩</w>
复 印件</w>
卡 洛斯</w>
加 之</w>
券 市场</w>
分 选</w>
兆 瓦</w>
债 券市场</w>
俄 克拉
专卖 店</w>
与 其
不 符</w>
D an
9 8%</w>
16 8</w>
1. 5%</w>
驱 动力</w>
隔 离
陨 石</w>
闭 上
锂 离子</w>
金 银</w>
这 道</w>
辣 椒
莱 尔</w>
致 癌</w>
脑 电图</w>
背 诵</w>
美 林</w>
网络 游戏</w>
管理 水平</w>
私有 化</w>
真是 太</w>
相 吻合</w>
甜 菜</w>
此 时
来 得
机 载</w>
是 如此</w>
抗 药性</w>
常 态</w>
小 剂量</w>
寄 主</w>
实 地
女 性主义</w>
复合 体</w>
参 选</w>
利 昂</w>
养 生</w>
体 贴</w>
位 子</w>
伊 利</w>
为 力</w>
P al
L i
高 岭
里 头</w>
逃 生</w>
这 架</w>
路易斯安 那州</w>
赫 兹</w>
责 怪</w>
芝加 哥
自 控</w>
自 信心</w>
缩 放</w>
绚 丽</w>
管理 信息系统</w>
突 出
眩 晕</w>
直升 飞机</w>
田纳 西州</w>
焦 油</w>
热 轧</w>
浓 缩
浆 料</w>
标志 物</w>
本体 论</w>
文 法</w>
提 早</w>
扣 押</w>
恤 衫</w>
影 迷</w>
层 序</w>
大 炮</w>
塔 克</w>
在 世</w>
卵巢 癌</w>
卡 恩</w>
减 免</w>
冻 土</w>
内 力</w>
兼 并</w>
东北 地区</w>
上 床</w>
en ter</w>
D W
餐 饮
预 览</w>
阿 纳
退 伍
赛 马</w>
谦 逊</w>
节 段</w>
能 干</w>
肾 小球</w>
积 蓄</w>
碳酸 盐岩</w>
燃 气
流 量计</w>
活 体</w>
洛 尔</w>
注册 表</w>
有 色</w>
散 热器</w>
改 变
提 示
扼 要</w>
得 体</w>
很 差</w>
发射 器</w>
分解 成</w>
出 没</w>
关 乎</w>
五 名</w>
丹 佛</w>
两 样</w>
Sh ar
I II</w>
首 创</w>
足球 比赛</w>
结 冰</w>
篇 幅</w>
简 要地</w>
简 而言之</w>
第三 条</w>
神 论</w>
皮 书</w>
男 子
理论 家</w>
牧 民</w>
满 月</w>
测 温</w>
汉 堡
水 份</w>
毛细 血管</w>
果 香</w>
权 势</w>
最 棒</w>
新 版</w>
当 务
客 运</w>
喧 闹</w>
卡 塔尔</w>
冰 层</w>
兴 盛</w>
互 联
书 目</w>
九 龙</w>
m od
l a</w>
T om
P O</w>
In form
H R</w>
C K</w>
A ut
谈 判
血管 瘤</w>
良 多</w>
胶 水</w>
细胞 株</w>
糊 口</w>
立方 体</w>
特 使</w>
炼 油厂</w>
渐 变</w>
浸 渍</w>
浅 层</w>
法 式</w>
水 瓶</w>
检 讨</w>
桂 林</w>
服务 提供者</w>
暴 躁</w>
早 点</w>
政治 学</w>
意 念</w>
总 决赛</w>
庆 幸</w>
层 间</w>
学 徒</w>
图 层</w>
化 学家</w>
化 器</w>
助 长</w>
余 人</w>
体 能</w>
伤 员</w>
京 剧</w>
中 层</w>
七 十年代</w>
I O</w>
F D
鼠 疫</w>
隐 式</w>
量 生产</w>
蕴 藏</w>
营养 价值</w>
荔 枝</w>
艾 米
脸 谱</w>
而 至</w>
绝 经</w>
经 期</w>
纵 横</w>
精神 疾病</w>
突 击
祸 首</w>
示 意</w>
盾 牌</w>
畜 牧业</w>
消防 员</w>
海 事</w>
注 解</w>
更 衣
曲 张</w>
斯科 尼</w>
斯 德
拮 抗</w>
抵 挡</w>
批 量生产</w>
当务 之急</w>
弱 化</w>
射 杀</w>
奥 运
头 像</w>
圣 母</w>
圆 圈</w>
四 倍</w>
商 机</w>
励 磁</w>
仙 女</w>
从头 到
举 重</w>
上 加
一 班</w>
d er
AT P</w>
骨 密度</w>
退休 金</w>
边界 层</w>
超 前</w>
起 舞</w>
贸易 协定</w>
质 问</w>
药 理
药理 作用</w>
脑 膜炎</w>
真 人</w>
甲 虫</w>
横 梁</w>
昼 夜</w>
控制 措施</w>
心 肺</w>
巅 峰</w>
尾 气</w>
多 用</w>
声 乐</w>
堆 肥</w>
呼 气</w>
听 闻</w>
几 百年</w>
冲 向</w>
六 岁</w>
不敢 相信</w>
st r
T G</w>
Mar t
马 赛</w>
阿拉伯 语</w>
阿 德</w>
阿 伦</w>
那 名</w>
辽 宁</w>
言 不
蕴 涵</w>
联 机</w>
称 谓</w>
相 册</w>
狭 隘</w>
残 暴</w>
殊 荣</w>
此 书</w>
无 耻</w>
方方 面面</w>
收 支</w>
拆 迁</w>
我 读</w>
成 正比</w>
总 冠军</w>
怀 疑
带 回家</w>
安 息</w>
喝 醉</w>
发 扬</w>
双 重
华 南</w>
区 段</w>
凡 事</w>
共 和</w>
入 院</w>
债 务
作 用力</w>
久 远</w>
两 套</w>
三 百</w>
M IM
面 膜</w>
闲 置</w>
道 家</w>
装 配
脑 筋</w>
胆 碱</w>
美 人
算 术</w>
班 机</w>
潜 伏
消 散</w>
测试 仪</w>
流 式
流式 细胞</w>
法律 法规</w>
汉 密尔顿</w>
树 下</w>
收 成</w>
摩天 大楼</w>
控制 电路</w>
排 名
打 招呼</w>
心肌 细胞</w>
开发 新</w>
小 贩</w>
完 后</w>
大 到</w>
另 类</w>
前 部</w>
制造 者</w>
具体 分析</w>
关 头</w>
伊 恩</w>
交通 运输</w>
不知 所
ac le</w>
F O</w>
高 音</w>
音 公司</w>
轧 辊</w>
身 躯</w>
计 时器</w>
联 络
维 克
终 将</w>
篮 球
社 群</w>
直 达</w>
留 着</w>
清晰 度</w>
波 音公司</w>
沙 地</w>
框 架结构</w>
枚 举</w>
杂 种</w>
杀 灭</w>
无关 紧要</w>
搬 进</w>
拉丁 语</w>
抗 干扰
成 百
德 尔
家 居
宁 夏</w>
口 水</w>
受 压</w>
卡斯 尔</w>
义 齿</w>
中 医药</w>
z on</w>
or a</w>
2 30</w>
1 35</w>
风 中</w>
面 容</w>
遮 挡</w>
退伍 军人</w>
运 而生</w>
请 教</w>
角 质</w>
自我 意识</w>
自 语</w>
脓 肿</w>
脏 器</w>
给 与</w>
细胞 系</w>
细胞 学</w>
第三 季</w>
短短 的</w>
生产 实践</w>
热 衷</w>
湖 边</w>
水平 井</w>
无能 为力</w>
斯洛 伐
持续 增长</w>
定 于</w>
太极 拳</w>
天气 预报</w>
塌 陷</w>
坦 诚</w>
地质 灾害</w>
变 速
反 复
友好 合作</w>
匹 马</w>
劝 告</w>
制造 厂</w>
分离 出来</w>
分子 结构</w>
信 任
万 英镑</w>
b e
霍 普
长 春</w>
锌 矿</w>
避 孕</w>
订 立</w>
行动 计划</w>
膀 胱
耗 资</w>
第一 代</w>
端 面</w>
竖 向</w>
球 状</w>
流 行性</w>
洁 白</w>
泡 沫
汤 普森</w>
氮 气</w>
气 愤</w>
比 萨</w>
李明 博</w>
期 末
期 徒刑</w>
晶 硅</w>
敲 打</w>
政府 军</w>
拉 诺</w>
抗 病</w>
打 仗</w>
恼 火</w>
弧 焊</w>
年 仅</w>
就 任</w>
大 雪</w>
多 拉</w>
受 性</w>
制 程</w>
内 在
公 立</w>
低 脂</w>
书 架</w>
主 动
专 职</w>
不 振</w>
七 八
一 桩</w>
u r</w>
t e</w>
m y
f ox</w>
A s
19 48</w>
10 6</w>
风 气</w>
顶 板</w>
青 海</w>
资料 库</w>
诚 然</w>
要 塞</w>
自由 化</w>
纳 多</w>
第 九</w>
空间 结构</w>
活 塞
汽 水</w>
氢 化</w>
每 台</w>
果 皮</w>
无 锡</w>
无 性
文化 交流</w>
放射 治疗</w>
对 峙</w>
害 人</w>
塔 拉</w>
喝 茶</w>
咨询 服务</w>
古 镇</w>
原子 弹</w>
卢 旺达</w>
医务 人员</w>
动 乱</w>
刘 翔</w>
中央 电视台</w>
K ind
G E
B 型</w>
记者 会</w>
脑 室</w>
缩 影</w>
独生 子女</w>
澳 元</w>
滑 落</w>
木 工</w>
整 顿</w>
教学 内容</w>
投 手</w>
把 头</w>
执 政党</w>
恩 赐</w>
思 维
山 丘</w>
尼亚 大学</w>
婚 前</w>
塞浦路 斯</w>
地 标</w>
共 处</w>
之 以
七 岁</w>
ro ot</w>
M MP</w>
黄 铜</w>
顾 虑</w>
阿拉伯 人</w>
闲 暇</w>
进化 论</w>
这 栋</w>
负 载
群 山</w>
第一 季</w>
称 重</w>
电 工</w>
犯罪 行为</w>
沃 伦</w>
每 盎司</w>
枝 条</w>
本 该</w>
有 的是</w>
最新 进展</w>
收 听</w>
控 股
拱 桥</w>
技术 上</w>
心 碎</w>
小 家伙</w>
妇 科</w>
多 线程</w>
发 怒</w>
卡梅 伦</w>
十分 必要</w>
划 船</w>
击 毙</w>
俄 语</w>
住 户</w>
丙 烷</w>
不 理</w>
u l</w>
ra m</w>
le x
ik e</w>
Wor ld</w>
3 3
19 0</w>
默认 值</w>
辽 阔</w>
超音 速</w>
调节 作用</w>
花花 公子</w>
自由 贸易</w>
自 尊
脱 色</w>
稠 油</w>
版 权
波 尔多</w>
母 舰</w>
本地 化</w>
本 篇</w>
有 素</w>
时 用</w>
方 舟</w>
教 员</w>
撤 回</w>
摄 像</w>
捕 猎</w>
持 平</w>
必 需品</w>
微 循环</w>
底 物</w>
展 馆</w>
小 牛</w>
寺 院</w>
安 吉
太 晚</w>
大力 发展</w>
大 哥</w>
国 脚</w>
命中 率</w>
含水 率</w>
吐 温</w>
同 工
只 读</w>
变 态</w>
取 暖</w>
印第 安</w>
单元 格</w>
剥 削</w>
保险 人</w>
乳 化剂</w>
上 班
一小 块</w>
一 谈</w>
Syst em</w>
M M
1 300</w>
驾 驭</w>
金融 时报</w>
金 黄</w>
赎 罪</w>
说 实话</w>
药 片</w>
羊 羔</w>
立法 者</w>
社会 各界</w>
登 山
火 器</w>
濒 临</w>
水 滴</w>
服务 提供商</w>
扼 杀</w>
房 屋
情 调</w>
安 保</w>
婴 儿
大 涨</w>
国 界</w>
双边 关系</w>
倍 数</w>
义 工</w>
l ine</w>
V S</w>
R B
2. 3</w>
阿 联
阿联 酋</w>
选 框</w>
负 压</w>
讲 讲</w>
视觉 效果</w>
蒙特 利尔</w>
艳 丽</w>
穿 行</w>
碳酸 钙</w>
波 特兰</w>
梅 花</w>
成百 上千</w>
悄 然</w>
恒 温</w>
弘 扬</w>
布 罗
多 月</w>
值得 一
云 彩</w>
严 禁</w>
不可 否认</w>
不 失
AM D</w>
A ma
陶 醉</w>
门 廊</w>
醒 过来</w>
逼 迫</w>
花 序</w>
胡萝卜 素</w>
背 景
紧 身</w>
策略 师</w>
突 击</w>
程序 设计</w>
留 有</w>
气 旋</w>
比 斯</w>
橱 窗</w>
模拟 实验</w>
无法 控制</w>
损 失
拆 分</w>
待 解决</w>
应 运而生</w>
应 从</w>
库 尔
居 高
富 足</w>
密歇 根州</w>
守 恒</w>
奶 制品</w>
声 名
友 谊
升 空</w>
以 上
今天 上午</w>
亟 待解决</w>
书 房</w>
上 线</w>
p y</w>
ol og
W i
J A
C G</w>
195 6</w>
预防 性</w>
重 奏</w>
邦 德</w>
读 于</w>
证 词</w>
议 定书</w>
被 子</w>
若 有</w>
监 听</w>
爵 夫人</w>
煤 炭
淤 积</w>
派 克</w>
波 罗
有 余</w>
星 空</w>
数以 百万计</w>
搜 救</w>
房 东</w>
带 状</w>
对外 贸易</w>
完 美
安息 日</w>
大 洲</w>
多 相</w>
多 出</w>
垃圾 桶</w>
坠 入</w>
四 分</w>
噪 声
呵 护</w>
击 打</w>
以 使</w>
乡 间</w>
乌 斯</w>
之 时</w>
主 机
不 失</w>
一个 半</w>
i k</w>
R S
D N</w>
CM OS</w>
C Y
AR M</w>
2 3.
魏 晋</w>
飞 去</w>
霍 夫</w>
限 制性</w>
重新 考虑</w>
通 告</w>
违 规</w>
财 报</w>
详细 描述</w>
虹 膜</w>
绩 效
监 会</w>
灯 塔</w>
注 塑</w>
水 蒸气</w>
水 温</w>
核心 内容</w>
极其 重要</w>
暴 行</w>
斯德 哥尔
搞 好</w>
招 收</w>
打 印
姓 氏</w>
外 延</w>
地 势</w>
固 性</w>
判 据</w>
公 然</w>
休 眠</w>
人工 神经网络</w>
之 光</w>
义务 教育</w>
m in
T I</w>
A BS</w>
输 液</w>
车 门</w>
越 长</w>
说 得
讨 价
讨价 还价</w>
表 态</w>
菌 种</w>
股票 价格</w>
耐 克</w>
美国 之音</w>
细 则</w>
纠 结</w>
等 位
等位 基因</w>
第六 章</w>
第一 份</w>
矮 小</w>
疏 忽</w>
特征 值</w>
爱 意</w>
润滑 剂</w>
海 岛</w>
洞察 力</w>
死 神</w>
核 电厂</w>
枯 燥</w>
本 质
新闻 网</w>
打 击
憎 恶</w>
干 线</w>
常 压</w>
就 读于</w>
多 处</w>
处 方药</w>
地 盘</w>
喷 嚏</w>
刻 苦</w>
共 分</w>
光学 系统</w>
伸 长</w>
估 量</w>
伊斯坦 布尔</w>
从 业
严重 性</w>
世界 贸易
不 均</w>
oo d
m in</w>
DS C</w>
鼻 孔</w>
高 估</w>
骨 质
阿 斯
闪 烁
裂 变</w>
罪 孽</w>
结构 调整</w>
电脑 游戏</w>
电 讯</w>
歌 舞</w>
梦 见</w>
极 点</w>
拖 欠</w>
承担 责任</w>
扶 手</w>
总 署</w>
总 公司</w>
德 军</w>
当 心</w>
异 物</w>
学 得</w>
多 条</w>
吉 普
卖 家</w>
力 量
全 会</w>
伍 兹</w>
二十 一</w>
H el
G lob
3 1%</w>
2 5.
2 4%</w>
10 3</w>
韦 德</w>
阿 布</w>
防 爆</w>
钢 丝
造 纸
运 载</w>
足 部</w>
贵 宾</w>
爱 丁堡</w>
最终 用户</w>
暴 风雪</w>
抄 袭</w>
愈来 愈</w>
当 有</w>
引 号</w>
宛 如</w>
天津 市</w>
大 分子</w>
国 内
可 言</w>
又 名</w>
印 章</w>
卡 利</w>
单 据</w>
出 乎
光 速</w>
保 暖</w>
人 手</w>
之 大</w>
为 的是</w>
不 耐
一 团
ol d</w>
J DBC</w>
F E</w>
震 源</w>
难 关</w>
降 水量</w>
避孕 药</w>
财 年</w>
计 价</w>
结 扎</w>
细胞 周期</w>
线 性化</w>
瓦 尔
理论 界</w>
涂 膜</w>
洗 涤
款 待</w>
杨 树</w>
曲 目</w>
新 兴
损 毁</w>
情 怀</w>
弹性 体</w>
尔 巴
密苏 里
官 司</w>
奥斯 卡
塔 里
受益 人</w>
受 苦</w>
取 值</w>
博 拉</w>
写 信
全 然</w>
克罗 地亚</w>
仙 人
乘 车</w>
U T</w>
M ag
4 1%</w>
领 悟</w>
雷 克</w>
聊 天
米 德</w>
竖 起</w>
班加 西</w>
火 热</w>
溶 血</w>
油 箱</w>
氮 素</w>
有 位</w>
日 产</w>
新 能源</w>
攻 入</w>
指 尖</w>
徽 章</w>
常 规
常 温</w>
布 线</w>
奖 品</w>
头 晕</w>
天 候</w>
图 片
回 购</w>
商 标
变 数</w>
停 火</w>
值 问题</w>
佩 里</w>
从 容</w>
个 体
万 年前</w>
一 丝
t s</w>
OF DM</w>
魁 祸首</w>
颅 骨</w>
震 中</w>
阻 挠</w>
追 求
这 些年来</w>
误 区</w>
西 海岸</w>
虽 说</w>
蒂 尼</w>
耶 夫</w>
罪 魁祸首</w>
燃烧 室</w>
沿 途</w>
朵 花</w>
无线 通信</w>
意 蕴</w>
尼 卡</w>
大 体上</w>
呼 应</w>
可 操作性</w>
卡 夫</w>
单 胞
全 长</w>
住 在一起</w>
亚 尔</w>
书 法
万 里</w>
Or acle</w>
G ri
7 0
高 程</w>
风 采</w>
难 堪</w>
门户 网站</w>
钟 表</w>
郁 闷</w>
近 红外</w>
近 十年</w>
诗 词</w>
茄 子</w>
耶 利
统 统</w>
繁 重</w>
管 辖
石 棉</w>
皇 宫</w>
痛 药</w>
热 身</w>
热 管</w>
民 居</w>
核 电</w>
枪 杀</w>
杂 乱</w>
文 摘</w>
敲 击</w>
微 晶</w>
山 洞</w>
宗 族</w>
基 材</w>
图 示</w>
咖啡 店</w>
动 静</w>
力 争</w>
前 不久</w>
冷 凝</w>
使用 量</w>
中 西</w>
ut e</w>
I G</w>
D is
马 赫</w>
选 为</w>
豪 宅</w>
训练 有素</w>
莱 恩</w>
胜 利
纺 丝</w>
私营 部门</w>
白 银</w>
甲 骨
焦 急</w>
注 浆</w>
油 污</w>
水 化</w>
母 体</w>
橘 子</w>
机 油</w>
更衣 室</w>
拖 鞋</w>
惊 吓</w>
安 卓</w>
委 婉</w>
去 处</w>
前 臂</w>
几 只</w>
冷 凝
储 备
产 权
与 会</w>
上 路</w>
a ut
T un
PC 机</w>
Cap ital</w>
6. 0</w>
2 80</w>
1 11</w>
饭 后</w>
面 罩</w>
阶 段性</w>
阴 阳</w>
金 银
都 柏林</w>
部 曲</w>
那 头</w>
选 购</w>
连 贯</w>
输 运</w>
诚 意</w>
获 准</w>
美 方</w>
紫 外光</w>
离 家</w>
犹 他州</w>
泰 坦
气 液</w>
机械 性能</w>
本 会</w>
数以 百计</w>
掉 下来</w>
战 车</w>
平 淡</w>
字 眼</w>
合唱 团</w>
印 制</w>
创 办
冰激 凌</w>
不足 为
不太 好</w>
Sp ace</w>
P L</w>
Bus iness</w>
3 00
雄 心</w>
除 尘器</w>
阿 隆
走 高</w>
赢 利</w>
课 外
诺 曼</w>
认识 论</w>
要 件</w>
荷 马</w>
自 给
毒 药</w>
每 逢</w>
步 长</w>
数据 库
戴 维
宫 内</w>
增 设</w>
地 理学</w>
吕 斯</w>
可 比</w>
勘 查</w>
出 战</w>
军 政府</w>
亚 裔</w>
五 分</w>
云 母</w>
举 世
一般 而言</w>
一 季度</w>
f s</w>
Wor ks</w>
Fire fox</w>
3 2%</w>
露 天
雄 伟</w>
运 往</w>
试验 机</w>
警 觉</w>
缝 制</w>
结 肠癌</w>
纽 卡斯尔</w>
筹 款</w>
港 币</w>
浦 东</w>
样 板</w>
有 近</w>
斯 曼</w>
推 销员</w>
拉 索</w>
德 比</w>
巴 拉
就 绪</w>
失败 者</w>
大 都会</w>
大 笔</w>
基 站</w>
吵 架</w>
叛 逆</w>
县 城</w>
单胞 菌</w>
共 聚</w>
serv er</w>
j ect
A G
2 9
齿 轮
马 吕斯</w>
阿尔及 利亚</w>
长 石</w>
较 佳</w>
调 试
西 奥</w>
药 剂
节 拍</w>
美国 股市</w>
纳斯 达克</w>
白 垩</w>
电路 设计</w>
电 控</w>
生 意
燕 子</w>
流程 图</w>
汹 涌</w>
无 色</w>
支 原体</w>
或 非</w>
性 激素</w>
忘 却</w>
座 落</w>
定居 点</w>
大 连
堪 萨
半 透明</w>
勤 劳</w>
势在 必行</w>
制 动器</w>
凡 人</w>
写 字</w>
六 十年代</w>
任 天堂</w>
一 味</w>
at h</w>
Te ch
D on
2 9%</w>
高 功率</w>
雨 天</w>
阿 凡</w>
远程 教育</w>
课 件</w>
诗 集</w>
衍 生
蝴 蝶
艾哈 迈
自 卫</w>
脂 酸</w>
股 沟</w>
职 称</w>
精力 充沛</w>
生命 科学</w>
流体 力学</w>
洗 脱</w>
条 文</w>
未 婚</w>
无 花
斯 本</w>
支 流</w>
携 带
推进 剂</w>
拉 法</w>
宪 政</w>
定 决心</w>
定 值</w>
处理 厂</w>
培 根</w>
坚持 不懈</w>
合 众
加 拉
到 时候</w>
出 品</w>
人与 自然</w>
人 时</w>
交 出</w>
之 谜</w>
下 定决心</w>
一 记</w>
RF ID</w>
N F
2 70</w>
风 度</w>
雅 克</w>
银 杏</w>
远 地区</w>
近 海</w>
过 长</w>
讨 好</w>
血 细胞</w>
自由 市场</w>
继 任
神经 节</w>
神经 病</w>
真 爱</w>
相 通</w>
片 剂</w>
炎 性</w>
活 在</w>
沉 迷
气 门</w>
民 航</w>
模 组</w>
效果 显著</w>
放 贷</w>
接 连</w>
指 称</w>
抛 物
幕 墙</w>
市 内</w>
尼 派</w>
小 幅</w>
契 合</w>
天 下
塞 特</w>
压 低</w>
势 必</w>
加热 炉</w>
公 差</w>
保持 联系</w>
二 酸</w>
中 秋
一 举
r on</w>
Off ice</w>
AC E</w>
8 50</w>
6 7%</w>
4 7%</w>
4 4%</w>
3 30</w>
20 50</w>
魁 北
高等 学校</w>
里 约
逐 一</w>
追 捧</w>
远 景</w>
转 炉</w>
训练 营</w>
营养 物质</w>
绿 叶</w>
红 茶</w>
管 状</w>
生 锈</w>
球 大战</w>
植物 油</w>
本 世纪</w>
星 球大战</w>
无 机
提 高
接 线
损 害
损害 赔偿</w>
抗 战</w>
承 运人</w>
所 受</w>
我 省</w>
得 救</w>
座 落在</w>
床 边</w>
常 量</w>
已 达</w>
好 于</w>
大 肠</w>
地 问</w>
在 座</w>
可 望</w>
县 级</w>
再 者</w>
全 息
做 工</w>
信 使</w>
使用 率</w>
主题 公园</w>
上 位</w>
s el
re g
ec k</w>
L o
3 4%</w>
2 9.
非 盈利</w>
非 传统</w>
雅各 布</w>
障碍 物</w>
这 人</w>
负 担
羽毛 球</w>
经常 出现</w>
系 膜</w>
碳 酸盐</w>
看 护</w>
相 较</w>
直 销</w>
痤 疮</w>
电子 表格</w>
申 诉</w>
深 邃</w>
流 通
果 蝇</w>
明 日</w>
无 水</w>
斗 士</w>
搬 到</w>
探 查</w>
我 试</w>
成 膜</w>
总 面积</w>
总 管</w>
急 诊
展 览
多 得多</w>
和平 奖</w>
双 亲</w>
去 向</w>
冒 险
假 发</w>
俯 冲</w>
以 示</w>
二 醛</w>
之 分</w>
中 继</w>
丙烯 酸酯</w>
一 化</w>
L u
B PE
3 80</w>
2 D</w>
2 7.
黄 疸</w>
驳 回</w>
额 定</w>
边 锋</w>
词 义</w>
西 林</w>
联 动</w>
终 究</w>
纳 特</w>
私 权</w>
生物 力学</w>
油 腻</w>
水 牛</w>
森 堡</w>
最 合适</w>
提 单</w>
抽 样
技 师</w>
应 性</w>
干 涸</w>
岩 石
委 派</w>
妄 想</w>
大众 化</w>
型 钢</w>
可 可
动 因</w>
到 场</w>
全 心
信息 处理</w>
供 养</w>
低 层</w>
价 廉</w>
亲 友</w>
中 外
下 水道</w>
上 行</w>
en g
S O</w>
M PEG</w>
Ama zon</w>
4 6%</w>
青 海
防 晒</w>
赋 值</w>
要 紧</w>
西 蒙
草 图</w>
聚 苯乙烯</w>
联合国 安理会</w>
结 盟</w>
纲 领</w>
米 奇</w>
炭 黑</w>
激 励
沃尔 沃</w>
污 秽</w>
气 式</w>
机 枪</w>
普 兰</w>
时 捷</w>
无 几</w>
新 约</w>
教学 效果</w>
扫 罗</w>
尿 布</w>
复 配</w>
商 城</w>
哈 拉
周 后</w>
即 便
即便 如此</w>
博 尔顿</w>
勘 察</w>
内 裤</w>
入 射</w>
克里斯托 弗</w>
保护 性</w>
il d</w>
b ur
N T
J D
A F</w>
9 9
高 明</w>
青 铜
里 尔</w>
资 讯
谅 解</w>
诺 贝尔</w>
设 备
言 论
视 听</w>
色 拉</w>
而 今</w>
绝 热</w>
热带 雨林</w>
灌 装</w>
梵 蒂
根本 性</w>
有所 提高</w>
普 敦</w>
昆 士
方向 盘</w>
新 思路</w>
斥 责</w>
按 着</w>
平 地</w>
峭 壁</w>
居 所</w>
小 叶</w>
定 义
好 感</w>
复 数</w>
印 证</w>
刺 耳</w>
分 枝</w>
公共 政策</w>
催 生</w>
保 时捷</w>
伤 感</w>
两 条
东 莞</w>
一 格</w>
ow n</w>
195 5</w>
该 是</w>
脱 脂</w>
美国 队</w>
线 形</w>
笔 画</w>
端 部</w>
爱 国主义</w>
流感 疫苗</w>
流 长</w>
法 定
格 鲁</w>
核 糖
枯 萎</w>
木 马</w>
施 加
新 年
护理 人员</w>
手 足</w>
我 军</w>
庙 宇</w>
常 说</w>
岸 上</w>
对 偶</w>
备 有</w>
圣 彼得
四 月份</w>
味 觉</w>
启 迪</w>
可 夫</w>
发 源地</w>
初 级
划 线</w>
出 汗</w>
元 代</w>
保 费</w>
人类 学家</w>
亚 运会</w>
二氧化 硅</w>
一阵 子</w>
一 文</w>
T re
1 12</w>
鱼 肉</w>
降 幅</w>
阻燃 剂</w>
采 油</w>
这 头</w>
较 为
详 述</w>
评论 员</w>
计算机 网络</w>
言论 自由</w>
觅 食</w>
股 息</w>
笔 直</w>
真 人
监督 管理</w>
牙 买
燃烧 器</w>
渤 海</w>
清 淡</w>
正 中</w>
旅游 胜地</w>
新加 坡
摔 跤</w>
手 帕</w>
我 市</w>
感 人</w>
弥 散</w>
平 移</w>
尘 暴</w>
家 具
女 星</w>
奈 特</w>
太 极</w>
大 队</w>
大 脑
大 法官</w>
圈 闭</w>
国 集团</w>
嗜 好</w>
响 亮</w>
哈 维</w>
咖啡 厅</w>
南极 洲</w>
助 教</w>
列 宁</w>
函 数
充分 体现</w>
余 震</w>
三 年级</w>
一 包</w>
s q
c re
b l
1 100</w>
鼓 掌</w>
飞 到</w>
阿隆 索</w>
防 务</w>
鄂 尔多
贝卢 斯科尼</w>
请 来</w>
袖 子</w>
表 彰</w>
胃 炎</w>
秦 岭</w>
眼 底</w>
省 会</w>
电子 游戏</w>
物 流
煮 熟</w>
焦 虑
淘 宝</w>
无 形
季 风</w>
女 童</w>
国 庆</w>
回忆 录</w>
吞 下</w>
后 现代主义</w>
厄 瓜
前 路</w>
全 家人</w>
作 王</w>
传 单</w>
买 单</w>
上 前</w>
r it
iz e</w>
SV G</w>
D el
首 要
颁奖 典礼</w>
钟 头</w>
重 量级</w>
里 人</w>
还 应</w>
课 后</w>
该 种</w>
节 流</w>
组 委会</w>
皮质 激素</w>
牙买 加</w>
热 内
热内 卢</w>
流 层</w>
汽 油
本 场</w>
暴 徒</w>
斯德哥尔 摩</w>
斑 斓</w>
教 区</w>
摩擦 力</w>
太平 洋
埃 拉</w>
商业 区</w>
向 南</w>
北 面</w>
加 达</w>
光 谱仪</w>
任 教</w>
亲 缘</w>
书 包</w>
中美 关系</w>
严格 控制</w>
一 集</w>
ic al</w>
G 20</w>
领导 层</w>
透射 电镜</w>
虚拟 现实</w>
腾 讯</w>
肉 桂</w>
联 队</w>
羧 酸</w>
绵 延</w>
第一 台</w>
空 白
皮 尔斯</w>
物 化</w>
火箭 队</w>
满足 感</w>
液 中</w>
沉 沉</w>
每 组</w>
模式 识别</w>
朱 丽
时 限</w>
新 词</w>
散 射
成 活率</w>
性 是</w>
必然 性</w>
心 肠</w>
年 薪</w>
平 底
师 资</w>
巴 顿</w>
尼 说</w>
基 化</w>
地 想</w>
单 克隆</w>
剩 余
刚 体</w>
八 卦</w>
侍 者</w>
他 称</w>
乳 剂</w>
世贸 组织</w>
不尽 相同</w>
上 个星期</w>
ro p
rip t</w>
a u</w>
4 8%</w>
高 耸</w>
骑 着</w>
驯 鹿</w>
降 雨量</w>
认 知
补 救</w>
色 法</w>
胰 腺癌</w>
立 马</w>
科幻 小说</w>
硝 酸
玻璃 杯</w>
汉 娜</w>
毫 米
毋 庸置疑</w>
条 件
斯坦 利</w>
按 摩
扩 张
执 业</w>
惊 醒</w>
小 河</w>
客 商</w>
失 事</w>
大 跌</w>
多 方</w>
嘌 呤</w>
各 有
博士 生</w>
前 例</w>
冷却 水</w>
低 氧</w>
us er</w>
Ub untu</w>
3 C</w>
19 47</w>
19 20</w>
领 事</w>
露 台</w>
闸 门</w>
跨 过</w>
蔑 视</w>
药 理</w>
腹 股沟</w>
脑 脊
羚 羊</w>
织 造</w>
纷 争</w>
白 葡萄酒</w>
琥 珀</w>
特 色
物 业
牢 牢</w>
焦 炭</w>
淤 泥</w>
海 鸥</w>
洪 灾</w>
洛 普</w>
治 病</w>
斯 诺</w>
挥 霍</w>
挥 手</w>
工具 栏</w>
就 会</w>
大 屏幕</w>
坦 率</w>
君 主
可 贵</w>
可 悲</w>
可 否</w>
卵 母细胞</w>
初 创</w>
凝 视
内 人士</w>
佐 治
亲 本</w>
不 光</w>
下 水</w>
一 晚</w>
m y</w>
iv e
at ch</w>
默默 地</w>
魔 兽</w>
门 静脉</w>
错 位</w>
避 难</w>
购买 者</w>
设计 模式</w>
藏 身</w>
脾 脏</w>
移植 术</w>
皇 冠</w>
电 导率</w>
热 刺</w>
炮 制</w>
流浪 汉</w>
此 款</w>
正则 表达式</w>
改 性
搞 清楚</w>
报 社</w>
情 局</w>
忠 于</w>
嫁 接</w>
国际 法</w>
固 体
喊 叫</w>
呼 喊</w>
吸附 剂</w>
含 油</w>
千 瓦</w>
劳 务</w>
加 密
关键 所在</w>
保护 环境</w>
之 苦</w>
不 远处</w>
下 达</w>
N et</w>
F il
里约 热内卢</w>
遗 漏</w>
通 用性</w>
费尔 南
豆 子</w>
调 料</w>
调 情</w>
讲 道</w>
蛋 黄</w>
羞 耻</w>
组 长</w>
礼 堂</w>
碰 上</w>
眨 眼</w>
留 心</w>
电讯 报</w>
用 该</w>
热 诚</w>
温 差</w>
浮 出</w>
比 克</w>
梯 形</w>
暗 示
接 通</w>
希 尔顿</w>
巡 逻
小 鱼</w>
富 有
密 不可
密不可 分</w>
天 敌</w>
复 查</w>
埃弗 顿</w>
坚定 不移</w>
国际 足联</w>
嗓 子</w>
同 义词</w>
压 倒
千万 别</w>
勋 爵</w>
剂 型</w>
公 钥</w>
克 朗</w>
倦 怠</w>
保持 一致</w>
会 因</w>
二 号</w>
乡 土</w>
乐 章</w>
之 行</w>
主 旨</w>
中国 银行</w>
下 手</w>
R ails</w>
P re
鱿 鱼</w>
顺 差</w>
酒 后</w>
调味 品</w>
获 奖者</w>
苯 甲酸</w>
肺 泡</w>
美国 农业部</w>
精 彩
竭 诚</w>
空 腹</w>
私 立</w>
硬 质</w>
硬 质
省 长</w>
相 见</w>
理论 体系</w>
玻璃 钢</w>
深 知</w>
活 儿</w>
水 壶</w>
检查 一下</w>
有所 增加</w>
扬 州</w>
性 疾病</w>
幸 好</w>
官 网</w>
太 远</w>
历史 背景</w>
化 成</w>
剖 宫
凝视 着</w>
兰 特</w>
公 车</w>
中 情局</w>
W in
T L</w>
默 斯</w>
领导 力</w>
阿 什</w>
闪 光灯</w>
钓 鱼
遵 照</w>
适应 能力</w>
记 述</w>
薄 薄
织 品</w>
纳米 材料</w>
红 灯</w>
管 弦
状 物</w>
焊 机</w>
水族 馆</w>
毛 毯</w>
比较 复杂</w>
材 料
本 构</w>
早 产儿</w>
斯洛伐 克</w>
敌 方</w>
支气 管炎</w>
接触 式</w>
所 欲</w>
战 争
待 人</w>
年 均</w>
巡 回</w>
实 相</w>
学术 研究</w>
奇 观</w>
售货 员</w>
含 着</w>
单 单</w>
卑 鄙</w>
副 词</w>
冷 冻
借 款人</w>
伤 者</w>
主 观
两 千
三 组</w>
am ple</w>
T om</w>
Inf o
3 7
黄 铁矿</w>
阵 阵</w>
铰 链</w>
逊 尼派</w>
身 分</w>
路 线图</w>
观众 们</w>
袭 击者</w>
表演 者</w>
蓄 水</w>
船 队</w>
腹 痛</w>
组 态</w>
絮 凝剂</w>
素 食者</w>
福尔 摩斯</w>
神 像</w>
白 雪
琳 达</w>
狂 犬
煤 气
濒 临
满 面</w>
测 出</w>
毫不 犹豫</w>
次 之</w>
术 式</w>
斗 篷</w>
文 坛</w>
数 百</w>
教科 文
拥 护</w>
打 来</w>
总 人口</w>
性 分析</w>
小 道</w>
头 孢
备 案</w>
备 件</w>
圆 顶</w>
商 议</w>
发 短信</w>
卡 斯特罗</w>
单 纯
剪 切
内 壁</w>
关注 点</w>
做 客</w>
偏 僻</w>
伴 着</w>
价值 链</w>
五 四</w>
下 图</w>
一 英里</w>
al s</w>
M ed
C li
0. 3%</w>
飞 速</w>
领 养</w>
静脉 注射</w>
难 说</w>
重 达</w>
远 高于</w>
论 断</w>
角色 扮演</w>
补 强</w>
英国 首相</w>
艾 尔</w>
耗 能</w>
置 换
素 体</w>
病 床</w>
热 切</w>
本 市</w>
木 盆地</w>
推 算</w>
接 线</w>
掉 落</w>
拥 护者</w>
成 龙</w>
微 博
布鲁 克斯</w>
山 体</w>
展 示
官 兵</w>
姨 妈</w>
她 家</w>
太 原</w>
基 座</w>
单 点</w>
北 卡罗来纳州</w>
动 不动</w>
准 入</w>
再也 不会</w>
内 贾德</w>
光 标</w>
体 形</w>
低 剂量</w>
乎 乎</w>
不良 影响</w>
不 舍</w>
不 孕</w>
bu g</w>
St re
Kind le</w>
F M</w>
颁 奖</w>
静脉 曲张</w>
重 合</w>
醛 树脂</w>
酪 氨酸</w>
递 质</w>
试 探</w>
西 汉姆</w>
裨 益</w>
脚 跟</w>
肝 功能</w>
考 查</w>
罚 金</w>
继任 者</w>
经常 性</w>
纵 观</w>
立 叶</w>
私 营企业</w>
眉 头</w>
番 话</w>
玻璃 体</w>
王 位</w>
爱 迪
湖 区</w>
测 绘</w>
浅 色</w>
模 范</w>
果 味</w>
本 校</w>
本 应</w>
有 朝
昂 山</w>
文学 创作</w>
弯 矩</w>
帕 特</w>
孟 子</w>
奥 兰多</w>
奈 尔</w>
外 星</w>
处 决</w>
地 名</w>
名 牌
名 录</w>
名 人
双 相</w>
厄 姆</w>
刷 牙</w>
利 克</w>
从业 人员</w>
东 西方</w>
不能 不</w>
上 风</w>
T L
Inter n
D evelop
马戏 团</w>
颠 簸</w>
雅 加达</w>
重 载</w>
连 衣裙</w>
过 世</w>
转 染</w>
超 新星</w>
记录 下来</w>
莉 娅</w>
突破 性</w>
珍 藏</w>
湖 面</w>
水 深</w>
水 合物</w>
氧化 锌</w>
民 党</w>
树 丛</w>
构 主义</w>
杀 掉</w>
木 匠</w>
有朝 一日</w>
暂 态</w>
文 集</w>
我 想</w>
心 痛</w>
开 往</w>
常 人</w>
已 于</w>
巫 术</w>
导 性</w>
实验 教学</w>
夺 回</w>
头 鹰</w>
大吃 一惊</w>
哈 斯</w>
合 乎</w>
功能 强大</w>
剖宫 产</w>
初 衷</w>
分 店</w>
凸 起</w>
关联 性</w>
保 全</w>
保 人</w>
丰 度</w>
三 世</w>
一 举</w>
e c</w>
P Y</w>
N E</w>
E le
B 1</w>
2 6.
领 事
长 跑</w>
酯 酶</w>
避 险</w>
送 上</w>
诡 异</w>
耻 辱</w>
素 描</w>
笨 重</w>
电 液</w>
电 击</w>
玻利 维亚</w>
父 子</w>
涂 上</w>
查 出</w>
构造 函数</w>
期 末</w>
无 可</w>
旅游 景点</w>
拘 捕</w>
披 萨</w>
扭 伤</w>
房 里</w>
戴 夫</w>
平 日</w>
将 领</w>
安 乐
学 科
头 人</w>
商 谈</w>
哲学 思想</w>
合众 国</w>
受 害</w>
取 悦</w>
压缩 空气</w>
北 宋</w>
功能 模块</w>
列 祖</w>
互 操作性</w>
一 等</w>
Not es</w>
J AR</w>
I L
DT D</w>
首 家</w>
镜 面</w>
配 准</w>
逗 号</w>
逃 亡</w>
躯 干</w>
足球 赛</w>
贵 州
西 边</w>
装 水</w>
被 盗</w>
虚 幻</w>
蓬 勃</w>
萨科 奇</w>
磷 灰石</w>
碳 化
短 波</w>
相 聚</w>
目 击</w>
火山 口</w>
油 酸</w>
数千 名</w>
改 制</w>
报 仇</w>
抗 日
抓 起</w>
打 乱</w>
感 叹</w>
形 而
归 根
展 厅</w>
告 人</w>
原 产</w>
南 岛</w>
华盛顿 大学</w>
分 给</w>
内 容
充分 考虑</w>
休息 室</w>
一 首歌</w>
serv let</w>
de v</w>
Fl ash</w>
3. 2</w>
零 星</w>
隔 膜</w>
隆 重</w>
门 店</w>
银 屑
银屑 病</w>
辅 以</w>
轻 声</w>
跻 身</w>
赋 存</w>
贪 污</w>
贝 特</w>
诉 说</w>
解 冻</w>
视 点</w>
莫 测</w>
膜 外</w>
网 点</w>
纳米 技术</w>
精 简</w>
章 鱼</w>
电话 会议</w>
流 式</w>
林 区</w>
机 舱</w>
最 难</w>
曼 德拉</w>
晚 报</w>
挑 起</w>
拼 搏</w>
惊 异</w>
形而 上学</w>
当 量</w>
引人 入
引人入 胜</w>
小 山</w>
实 时
塞 满</w>
可 图</w>
反射 率</w>
即 时
其 人</w>
不 如
n a</w>
a x
S IM
非 暴力</w>
酸 碱</w>
酒 厂</w>
道 琼</w>
透明 质</w>
转 向
谋 生</w>
英格兰 队</w>
色 剂</w>
绝 妙</w>
第一 张</w>
立方 米</w>
硬质 合金</w>
硬 盘
球 拍</w>
牢 骚</w>
熔 点</w>
源源 不断</w>
流 媒体</w>
更 斯</w>
早 晚</w>
新 课程</w>
接 合</w>
指导 方针</w>
抛 开</w>
愈 发</w>
惨 重</w>
德 福</w>
废 话</w>
容 错</w>
多 用途</w>
外 伤性</w>
喷 射
名 著</w>
前 门</w>
刺 杀</w>
初 步
再 三</w>
保险 费</w>
主 干</w>
两 大类</w>
下 山</w>
三 千</w>
一 夜
un g</w>
er a</w>
I V</w>
E X
这 回</w>
要 用</w>
薰 衣草</w>
背 离</w>
肯 尼</w>
美 式</w>
维 利</w>
纸 巾</w>
猫 头鹰</w>
独 特性</w>
特 技</w>
炼 厂</w>
流 放</w>
氢 原子</w>
此时 此刻</w>
月 刊</w>
旁 观者</w>
故事 情节</w>
总 要</w>
底 蕴</w>
幽 门</w>
尚 有</w>
处 以</w>
声 速</w>
十 天</w>
医疗 器械</w>
北 半球</w>
刺 痛</w>
内部 结构</w>
先 决
倍 感</w>
保护 措施</w>
供 货</w>
乳 酸
之 以</w>
主 修</w>
丘 吉尔</w>
下 拉
ul l</w>
T est
E L</w>
B 2
A U
1 400</w>
黯 淡</w>
鸦 片</w>
飞 扬</w>
降 低
里 斯本</w>
返 回
边 境
蕾 丝</w>
荆 棘</w>
自 一人</w>
精心 设计</w>
第一 届</w>
科 院</w>
皮 鞋</w>
珠 子</w>
独 自一人</w>
煤 层
煤层 气</w>
烟 尘</w>
火 药</w>
棉 布</w>
核 型</w>
条 带</w>
无 休止</w>
教科文 组织</w>
手 艺</w>
带 电</w>
岩 心</w>
夏 洛特</w>
士 顿</w>
城市 居民</w>
嘲 弄</w>
另一 面</w>
分离 器</w>
传 道</w>
亮 光</w>
书 里</w>
两 难</w>
不 衰</w>
万 美金</w>
一 书中</w>
com p
P H
鸿 沟</w>
首 都
辩 护
试 卷</w>
视 窗</w>
衣 橱</w>
芳 香
脑 细胞</w>
纯 真</w>
糖 类</w>
硬 膜外</w>
着 实</w>
甘 蓝</w>
烟 熏</w>
江 湖</w>
毒 害</w>
殖民 者</w>
殆 尽</w>
构 图</w>
有 多
无 源</w>
数控 系统</w>
技术 水平</w>
批 处理</w>
我 该</w>
地理 信息系统</w>
国 土
哈姆 雷特</w>
发展 潜力</w>
利 兹</w>
写信 给</w>
内 幕</w>
公安 机关</w>
克什 米尔</w>
先 导</w>
保 卫
乙 肝</w>
主 线</w>
中 人</w>
两 头</w>
两 位数</w>
不 齐</w>
t em
it le</w>
S il
N or
A AA</w>
6. 1</w>
高 粱</w>
马 利亚</w>
近 代
贯 通</w>
责任 心</w>
该 报</w>
论 据</w>
菌 丝</w>
苗 族</w>
腹 水</w>
绷 带</w>
箴 言</w>
神 殿</w>
磷酸 酶</w>
硫 磺</w>
睿 智</w>
眉 睫</w>
玩 具
狂 风</w>
犀 牛</w>
热 狗</w>
温 水</w>
泥 岩</w>
本 年度</w>
更 有
时 辰</w>
无 数次</w>
敲 响</w>
报 应</w>
手 镯</w>
战 国</w>
愚 昧</w>
愈 率</w>
恭 喜</w>
异 性恋</w>
店 面</w>
工业 园区</w>
定 会</w>
委 任</w>
大 程度</w>
启 发式</w>
参考 文献</w>
卡 西
单 侧</w>
加 工厂</w>
兼 有</w>
保 有</w>
优先 权</w>
优 良
亿 股</w>
人类 文明</w>
乳 胶</w>
不 计
三 百
p d
195 2</w>
雨 伞</w>
防 渗</w>
金 香</w>
跳 进</w>
赶 出</w>
财政 赤字</w>
财 长</w>
调味 料</w>
警 卫队</w>
蔬 菜
荷 兰人</w>
药 理学</w>
艺术 风格</w>
老年 痴呆症</w>
结 交</w>
管 束</w>
甚 么</w>
热 塑性</w>
浮 雕</w>
水 洗</w>
民事 诉讼</w>
正 像</w>
横 截面</w>
格 州</w>
更 正</w>
斯 皮
操作 员</w>
探险 家</w>
意 料
悔 改</w>
引 言</w>
开 局</w>
年龄 组</w>
干 草</w>
市场 前景</w>
左 旋</w>
尔 瓦</w>
寿命 长</w>
复合 型</w>
初 中
全 天</w>
例 中</w>
不失 为</w>
不复 存在</w>
上 车</w>
上 要</w>
or k</w>
d oc
d ata</w>
am s</w>
P2 P</w>
J SF</w>
H 2
10 7</w>
黑龙 江</w>
驯 化</w>
音 器</w>
防 水
败 坏</w>
装 成</w>
裁 判
莱 姆</w>
茫 茫</w>
线性 关系</w>
离 岸</w>
祭 坛</w>
社 论</w>
甚 少</w>
爸 爸
爸爸 妈妈</w>
灰 烬</w>
火 爆</w>
正 方形</w>
楼 梦</w>
杰 西卡</w>
明 晰</w>
新 城</w>
教育 学</w>
或 用</w>
开放 源码</w>
尾 矿</w>
寄 宿</w>
存 量</w>
夫 斯</w>
复 式</w>
型 态</w>
嘲 讽</w>
喷 水</w>
吓 人</w>
后 备</w>
双 倍</w>
原子 核</w>
别无 选择</w>
八 岁</w>
全 日
全 天候</w>
入 射
便 携</w>
伊利诺伊 州</w>
中 介
个 个</w>
t est</w>
s w
m er</w>
ar i</w>
高 声</w>
零 零</w>
通 知
返 还</w>
贫困 人口</w>
货 船</w>
脑脊 液</w>
肥 力</w>
置换 术</w>
红 楼梦</w>
第二 步</w>
程 式
百 货</w>
田 园</w>
母 公司</w>
显 眼</w>
支持 系统</w>
挨 着</w>
抒 情</w>
总统 大选</w>
干 得</w>
巴尔 的
尾 声</w>
客 运
大力 支持</w>
外 婆</w>
嘈 杂</w>
发 疯</w>
前 缘</w>
内燃 机</w>
保持 稳定</w>
亿 吨</w>
交 界</w>
乙 肝
上 周四</w>
f l
D oc
3 9%</w>
黑 白
驴 子</w>
馆 员</w>
配 音</w>
近 似
读 性</w>
范 德
英 军</w>
胆 囊
绿 灯</w>
经贸 合作</w>
籽 油</w>
章 制度</w>
税 法</w>
盐 度</w>
留 出</w>
烃 源岩</w>
深 思</w>
水 生</w>
有色 金属</w>
暴 露出</w>
文 具</w>
数控 机床</w>
批 判
居 们</w>
塔 楼</w>
圆 筒</w>
周 岁</w>
向 西</w>
吉祥 物</w>
台 面</w>
口 令</w>
反 垄断</w>
包 中</w>
利用 效率</w>
免疫 性</w>
保持 良好</w>
保 镖</w>
侵 者</w>
作 品
交 友</w>
互 联</w>
之 人</w>
一 盏</w>
il s</w>
N N</w>
5 3%</w>
难 民营</w>
闲 聊</w>
闭 锁</w>
速 度
送 回</w>
越 狱</w>
走 入</w>
贵 重</w>
诺 曼
该 剧</w>
觉 到</w>
茂 密</w>
芭蕾 舞</w>
至 今日</w>
美 誉</w>
牢 房</w>
渗透 性</w>
波 函数</w>
每 件事</w>
杉 木</w>
有机 体</w>
时 至今日</w>
打 压</w>
广 州
巴拿 马</w>
左 心室</w>
审 慎</w>
实习 生</w>
威 利</w>
女 主人</w>
夥 伴</w>
复 制品</w>
因 州</w>
叮 咬</w>
变 形
南 加州</w>
十 倍</w>
劣 质</w>
侧 重</w>
似 地</w>
人 马</w>
两 极</w>
ire ct
a c</w>
Stud io</w>
Res earch</w>
M ess
H M
Bro w
3 6
17 5</w>
麦 卡
韦 恩</w>
量子 力学</w>
邻 居们</w>
通用 电气</w>
贩 子</w>
诡 计</w>
葡萄 牙
聚 酯
缅 因州</w>
相 貌</w>
病 死率</w>
电 玩</w>
现代 汉语</w>
犹豫 不决</w>
民 生</w>
母 婴</w>
歌 星</w>
早 产</w>
手 可
房 者</w>
意 见
总体 设计</w>
总 算</w>
干 旱
学 系</w>
头 戴</w>
城 乡
向 北</w>
同工 酶</w>
同 一天</w>
口 碑</w>
净 水</w>
公共 关系</w>
偏 置</w>
举行 会谈</w>
个 儿</w>
en e</w>
ap p</w>
Ste ph
R F</w>
M il
IP 地址</w>
H K</w>
颗粒 物</w>
须 要</w>
非 裔</w>
酸 酐</w>
车 窗</w>
身 心
路 灯</w>
超 薄</w>
薄薄 的</w>
药 水</w>
腺 体</w>
脸 庞</w>
福 州</w>
电池 板</w>
现 为</w>
特 洛伊</w>
热烈 欢迎</w>
滚 子</w>
洲 际</w>
杰 出
暑 期</w>
我 见</w>
成 真</w>
形 式化</w>
开发 工具</w>
幅 值</w>
奥 拉</w>
大 便</w>
在 眉睫</w>
哪 些
同 轴</w>
十 几年</w>
动力 系统</w>
加 薪</w>
分 派</w>
入 侵者</w>
克 郡</w>
倡 导者</w>
信息 安全</w>
俗 称</w>
休 斯敦</w>
R I</w>
L T
马 丁
迭 戈</w>
贴 士</w>
谷 类</w>
谷 氨酸</w>
要 花费</w>
融 为一体</w>
落 叶
膨 润
老 旧</w>
经验 教训</w>
紧密 联系</w>
水 杨
框 图</w>
林 宫</w>
数 天</w>
敦 煌</w>
收藏 家</w>
掩 埋</w>
探 访</w>
护 送</w>
抚 慰</w>
截 断</w>
心 怀</w>
强 于</w>
序 幕</w>
左 派</w>
封 电子邮件</w>
字 面</w>
子 目录</w>
奥 克兰</w>
天 数</w>
售 卖</w>
咯 咯</w>
吸 食</w>
向 于</w>
合 体</w>
古典 音乐</w>
反 面</w>
内 生</w>
内 存
偷 偷
停 电</w>
保 单</w>
供 参考</w>
会 员国</w>
it ion</w>
d o</w>
a ir</w>
R ed
R EST</w>
O 2</w>
H F</w>
CS I</w>
5 5
19 44</w>
10 9</w>
鸟 巢</w>
鲜 明
马 氏体</w>
长 篇小说</w>
钛 合金</w>
赛 克</w>
贴 着</w>
致 癌
胸 口</w>
美术 学院</w>
细 菌性</w>
第一 次世界大战</w>
社会 关系</w>
生 来</w>
生 性</w>
烛 光</w>
滴 定
混合 型</w>
横 扫</w>
梵蒂 冈</w>
果 肉</w>
杀 菌剂</w>
有 形</w>
收集 器</w>
排 练</w>
拔 出</w>
拉 桥</w>
打 听</w>
我 愿</w>
成功 经验</w>
得 当</w>
平 庸</w>
定 期
安全 措施</w>
唐 纳德</w>
具体 措施</w>
兰 经</w>
修 整</w>
佩 克</w>
会 花</w>
交 接</w>
乔 木</w>
之 年</w>
ou se</w>
2 10</w>
0. 2%</w>
黏 度</w>
首 脑
韦 斯特</w>
霍 布斯</w>
隐 形
防 锈</w>
选 题</w>
诺 斯
说 不出</w>
詹姆 士</w>
蟾 蜍</w>
融 洽</w>
草 本</w>
腐 败
管 式</w>
种族 隔离</w>
真 主</w>
球 门</w>
滞 不前</w>
消 减</w>
浇 水</w>
沼 泽
楼 市</w>
木 质素</w>
新 罕
数 千年</w>
放 过</w>
技术 开发</w>
慎 重</w>
惊 慌</w>
广 度</w>
安大 略
塞 米
喜剧 演员</w>
史 无
反 光</w>
厄瓜 多尔</w>
努力 学习</w>
几 步</w>
其 内</w>
充 电器</w>
余 热</w>
令人 惊叹</w>
令人 信服</w>
仙 境</w>
介 电
之 家</w>
两 半</w>
on imo</w>
g an</w>
R M</w>
L og
DS L</w>
1 23</w>
鼓 吹</w>
馆 长</w>
风 向</w>
鞋 底</w>
辛 辣</w>
荒 漠</w>
舞 曲</w>
科 普</w>
禽 类</w>
真 挚</w>
疟 原虫</w>
特征 性</w>
案 设计</w>
格 朗</w>
最低 点</w>
显 现出</w>
所 称</w>
快餐 店</w>
心 地</w>
征 象</w>
庄 重</w>
市 郊</w>
崎 岖</w>
子 句</w>
夸 克</w>
大 同</w>
塑 胶
堆 积
唠 叨</w>
周围 环境</w>
史无 前例</w>
卡 佩罗</w>
分 叉</w>
停 滞不前</w>
伤 寒</w>
亿 英镑</w>
人民 共和国</w>
人 道</w>
二 楼</w>
丽 塔</w>
r c</w>
it or</w>
et h</w>
em a</w>
U C
Stev e</w>
题 为</w>
鞋 带</w>
锦 赛</w>
配 位</w>
造 山
迫 在眉睫</w>
辩 证</w>
践 踏</w>
裂 谷</w>
航空 母舰</w>
自杀 式</w>
膨润 土</w>
聘 者</w>
绝 非</w>
米 尔
生 姜</w>
现 如今</w>
沉迷 于</w>
来得 及</w>
摇 头</w>
拜 仁</w>
打 捞</w>
席 会议</w>
屈 服
密苏里 州</w>
存 入</w>
姆 林宫</w>
基础 理论</w>
含 糊</w>
后 天</w>
吃 晚饭</w>
双 双</w>
印度 政府</w>
刻 板</w>
判 断
写字 楼</w>
倾 诉</w>
会计 准则</w>
仔 猪</w>
仍 能</w>
互 惠</w>
东 区</w>
业 内人士</w>
不 善</w>
le n</w>
ill a</w>
c ep
领 会</w>
需 要
长 方形</w>
锯 齿</w>
通 行
远 东</w>
软件 工程</w>
货 量</w>
荒 诞</w>
肌 瘤</w>
经 久
细胞 壁</w>
繁 荣
皮 炎</w>
界 人士</w>
派 别</w>
气 势</w>
母 亲节</w>
武汉 市</w>
时 日</w>
早 起</w>
数 理
抗 压
悠 长</w>
德 基</w>
弗 莱
幼 年</w>
布 道</w>
屋 面</w>
孤 儿
娜 塔
头 孢</w>
基 的</w>
国有 资产</w>
后 门</w>
合金 钢</w>
叫 喊</w>
受 雇</w>
发 率</w>
发 散</w>
协 力</w>
几 近</w>
减 肥
今年 年底</w>
一夜 之间</w>
K n
Bo b</w>
19 37</w>
19 29</w>
频 带</w>
酿 制</w>
逃 出</w>
轴 对称</w>
计 费</w>
规划 设计</w>
蓝 宝石</w>
蒂 娜</w>
药 物
荡 荡</w>
花 期</w>
致 以</w>
腰 围</w>
脱 掉</w>
肱 骨</w>
碳 化</w>
理 解
班 子</w>
牌 照</w>
爱迪 生</w>
溶 出</w>
游 走</w>
涉 外</w>
测量 仪</w>
棍 子</w>
柯 林斯</w>
杨 洁
数 不清</w>
摇 动</w>
指示 器</w>
扎 伊</w>
总 收入</w>
徒 步
开 环</w>
建筑 业</w>
康涅狄 格州</w>
年 制</w>
帕 斯</w>
密西西比 河</w>
奇 尼</w>
塑 性
地方 性</w>
哥 斯
吉 娜</w>
可 伸缩性</w>
厌 氧</w>
劳 作</w>
元 器件</w>
催化 裂化</w>
五 月份</w>
乌 云</w>
不耐 烦</w>
不 道德</w>
一步 步</w>
os h
ig n</w>
er al</w>
R ec
B oo
2 2.
鱼 儿</w>
驶 过</w>
零 下</w>
铁 塔</w>
趋 向于</w>
课 时</w>
诊 疗</w>
蟑 螂</w>
草 场</w>
自给 自足</w>
能 器</w>
肩 部</w>
结 语</w>
精 打
类 群</w>
硅 烷</w>
督 促</w>
漏 水</w>
法 等</w>
江 西省</w>
歌 颂</w>
校 内</w>
标 人</w>
敏感 度</w>
拉 迪
扎 根</w>
恩 惠</w>
德 罗巴</w>
径 直</w>
建 立
山 下</w>
威 尔斯</w>
夺 去</w>
增 效</w>
回 旋</w>
吓 坏</w>
卡 门</w>
南 希</w>
凯 撒</w>
凝 聚力</w>
先决 条件</w>
佛 山</w>
买 到</w>
乙 基</w>
丝 带</w>
业 力</w>
ro l</w>
I n</w>
G P</w>
5 8%</w>
黄 酮类</w>
黄 斑</w>
马 来</w>
马 其
钟 情</w>
鄂尔多 斯</w>
那 颗</w>
邓 肯</w>
试 用
萨 利
航空 航天</w>
自尊 心</w>
科 威特</w>
碳 化物</w>
滑 块</w>
游 人</w>
混 蛋</w>
治 愈率</w>
沙 尘暴</w>
江 市</w>
本 院</w>
最高 峰</w>
日 用品</w>
无止 境</w>
无 上</w>
新 形势
新形势 下</w>
斜 拉桥</w>
悠 闲</w>
怒 火</w>
带 头</w>
好 笑</w>
大 喊</w>
多 台</w>
咖啡 豆</w>
化 验</w>
典 型
产业 链</w>
交易 日</w>
中 用</w>
不 知道</w>
o li
S K
O P</w>
J e
5 6%</w>
非 理性</w>
错 失</w>
锁 骨</w>
远 销</w>
贯 彻
视 神经</w>
西北 地区</w>
西 服</w>
荧 光
花 草</w>
航空 航天局</w>
美国 大学</w>
纽约 大学</w>
纹 身</w>
等 同</w>
第一 节</w>
稠 密</w>
石 家
省 市</w>
田 径</w>
献 血</w>
爱 着</w>
热 病</w>
灵 巧</w>
漏 斗</w>
正 视</w>
朝 阳</w>
新 旧</w>
整 定</w>
撇 子</w>
换 来</w>
扎 实</w>
戏 法</w>
慢 速</w>
广告 商</w>
布 丁</w>
尼 克斯</w>
导 热</w>
奥 特</w>
夫 特</w>
太子 港</w>
大 奖
原 地</w>
包 皮</w>
分布 式
减 振</w>
光 阴</w>
先 验</w>
佩 尔</w>
任意 球</w>
两 段</w>
三 菱</w>
三 亚</w>
一分 钱</w>
d i
G L</w>
Ad v
马 龙</w>
音乐 节</w>
霸 权</w>
重大 意义</w>
译 码</w>
菅 直</w>
莫 莉</w>
药 房</w>
苏 打</w>
纤维 蛋白</w>
纤 细</w>
端 子</w>
磨 料</w>
研制 开发</w>
畅 通</w>
炼 钢</w>
激 波</w>
活 血</w>
沉 默
氧 量</w>
歹 徒</w>
格 勒</w>
格 利
星 团</w>
时 差</w>
收 发</w>
抗 衰老</w>
扁 桃
房 顶</w>
我 必</w>
弱 小</w>
建 起</w>
广 为人知</w>
山 路</w>
夜 色</w>
多 得</w>
吉 林</w>
变 频器</w>
十二 条</w>
刑事 诉讼</w>
养老 保险</w>
全 人类</w>
体育 锻炼</w>
低 谷</w>
交换 器</w>
与 时
不在 意</w>
不 公</w>
I m
食 指</w>
食 性</w>
阿尔茨 海默</w>
销 往</w>
铁 道
选 秀</w>
远 流长</w>
试验 台</w>
词 组</w>
识别 系统</w>
证券 化</w>
装 潢</w>
致 意</w>
膨胀 率</w>
肥胖 症</w>
编 队</w>
续 集</w>
结构 紧凑</w>
纸 箱</w>
等 值</w>
牢 度</w>
灾 后</w>
消 磨</w>
涂 布</w>
此 行</w>
梅 斯</w>
杨洁 篪</w>
曲 棍
日 内</w>
操 作者</w>
报 警
打 了个</w>
手 部</w>
意 外
很 近</w>
小 花</w>
小 汽车</w>
密切 联系</w>
容 貌</w>
媳 妇</w>
多种 不同</w>
土 矿</w>
圆 环</w>
发 源</w>
北 非</w>
剧 集</w>
刀 子</w>
出乎 意料</w>
关键 环节</w>
儒 家
供应 量</w>
以 待</w>
今 夏</w>
人 情</w>
亚 美
三 日</w>
ud e</w>
ell o</w>
ation s</w>
al d</w>
S ub
Le e</w>
高 举</w>
风 洞</w>
预 警
顿 大学</w>
雪 莉</w>
隐 秘</w>
那 样
造 影
良 机</w>
致 病性</w>
终端 用户</w>
箱 体</w>
疑 似</w>
电 价</w>
琐 碎</w>
炸 毁</w>
灌 区</w>
渗 出</w>
洞 口</w>
歧 义</w>
橡 皮</w>
更 难</w>
方 图</w>
救 世
捷 克
据 信</w>
指导 思想</w>
报 业</w>
慈善 事业</w>
感 光</w>
弹性 模量</w>
希伯 来</w>
察 看</w>
存 在
奥 陶
失 灵</w>
太 湖</w>
复 古</w>
城 中</w>
困 苦</w>
受 限制</w>
取 适量</w>
别 说</w>
冥 王星</w>
保守 主义</w>
何 方</w>
何 塞</w>
他 妈
买 主</w>
一次 次</w>
ind ex</w>
X Path</w>
Intern ational</w>
顺利 进行</w>
雷 诺
雨 季</w>
闪 闪</w>
邀 请
过 重</w>
达 芬奇</w>
超 自然</w>
诺 尔</w>
螺 丝
自 此</w>
网络 结构</w>
绯 闻</w>
紧 迫
确保 您</w>
相 隔</w>
盐 分</w>
略 带</w>
甲骨 文</w>
游 乐
汉堡 包</w>
氢 酶</w>
气 量</w>
正确 率</w>
时 侯</w>
操 纵
拣 选</w>
忠 诚
必然 趋势</w>
微 薄</w>
往 下
强 弱</w>
年 度
巨 石</w>
工程 技术</w>
复 印</w>
圆 润</w>
吸 尘器</w>
叫 醒</w>
其 妙</w>
偏 高</w>
伏 特加</w>
仙人 掌</w>
乙 烷</w>
Thom as</w>
S un</w>
ISO 9001</w>
降 落
长 春
长 成</w>
铀 矿</w>
那 本</w>
转 导</w>
贫 瘠</w>
计 入</w>
花 掉</w>
艾 玛</w>
艺术 创作</w>
美国 陆军</w>
约 克</w>
稀土 元素</w>
神经 纤维</w>
石 灰石</w>
知名 品牌</w>
盆 腔</w>
由此 可见</w>
环 绕着</w>
独 资</w>
火山 爆发</w>
演讲 者</w>
演 算法</w>
民 办
查 韦斯</w>
方 案设计</w>
敲 门</w>
收 视
擅 自</w>
接 壤</w>
指导 作用</w>
抢 劫
忧 愁</w>
志 工</w>
归 入</w>
开拓 者</w>
开 学</w>
应 聘</w>
尿 路</w>
小 人</w>
对 华</w>
孔 洞</w>
好 意</w>
园 丁</w>
哈 马</w>
变 异性</w>
印 迹</w>
傅 立叶</w>
健康 人</w>
作 好</w>
住 房
他妈 的</w>
介 石</w>
买 房</w>
中国 移动</w>
专业 性</w>
丁 醇</w>
f er
P U</w>
I s
4 4
195 1</w>
齿 形</w>
马 利</w>
随 地</w>
边 值问题</w>
谈 会</w>
观察 员</w>
衷 心
苯 基</w>
良 性
给 人以</w>
管 网</w>
等 温</w>
第三 位</w>
租 房</w>
福 尔</w>
石油 化工</w>
着 想</w>
痕 量</w>
瑜 珈</w>
港 口
测 得</w>
泽 尔</w>
暗 物质</w>
教 书</w>
排 泄
持 有者</w>
承 租
才 干</w>
战 友</w>
成 套</w>
心 衰</w>
希伯 来
唯物 主义</w>
呼吸 困难</w>
周边 地区</w>
卡 里</w>
单 人</w>
制度 化</w>
冲 出</w>
共 度</w>
克 本</w>
倒 数</w>
保 育</w>
伟 大
仪 器
以 利</w>
亚 尼</w>
与 世
T 1</w>
C 语言</w>
5 1%</w>
19 46</w>
17 00</w>
鲜 活</w>
非洲 人</w>
钻 研</w>
重 置</w>
采 集
通 性</w>
逆 性</w>
近 端</w>
走 走</w>
诚 地</w>
米 花</w>
站 台</w>
父 母亲</w>
然 无
温 总理</w>
油 品</w>
污染 源</w>
正 为</w>
栏 作家</w>
显 赫</w>
日 照</w>
无 益</w>
掌 权</w>
拥 堵</w>
担 负</w>
打字 机</w>
心 灵
微 胶囊</w>
循环 系统</w>
异 于</w>
帆 布</w>
小 队</w>
将 来临</w>
客 服</w>
安装 程序</w>
复 选框</w>
塞 拉</w>
垫 子</w>
土 机</w>
四 项</w>
合格 率</w>
合 著</w>
反 腐败</w>
即 将来临</w>
危 害性</w>
勒 索</w>
出 奇</w>
内 酯</w>
全 明星</w>
兜 售</w>
免 遭</w>
值 班</w>
低 沉</w>
位 错</w>
从未 见过</w>
中 仅</w>
专 栏作家</w>
不知所 措</w>
下 丘脑</w>
W T</w>
H z</w>
Geor ge</w>
6 6
195 4</w>
黑 色素</w>
高 纯度</w>
高 官</w>
领事 馆</w>
非常 低</w>
雪 白</w>
闪烁 着</w>
这 般</w>
贝 里</w>
诺 丁
被 选为</w>
表达 方式</w>
脱 氢酶</w>
肥 厚</w>
翻 滚</w>
缔 造</w>
科 林</w>
直 方图</w>
瑞 安</w>
根据 地</w>
校 本</w>
树 突</w>
本 事</w>
新 秀</w>
探 测
据 点</w>
扎 尔</w>
我 心</w>
市政 厅</w>
屠 宰</w>
尼古 拉</w>
小康 社会</w>
小型 化</w>
小 城</w>
境 遇</w>
堵 住</w>
块 钱</w>
名 流</w>
原油 价格</w>
南 面</w>
其 上</w>
全力 以
全力以 赴</w>
光 谱法</w>
元 音</w>
儿 时</w>
储 能</w>
两 到</w>
专利 权</w>
三 部曲</w>
ri b
pert ies</w>
f re
M al
预备 队</w>
非常 明显</w>
问 句</w>
铁 素体</w>
道 菜</w>
财 力</w>
调 优</w>
规 章制度</w>
蒋 介石</w>
苏 黎
胸 膜</w>
育 苗</w>
篡 改</w>
直 线
溅 射</w>
沃尔 夫</w>
植物 园</w>
桃 子</w>
标 价</w>
柔 顺</w>
构 成
撤 军</w>
或 作</w>
心 上</w>
往 前走</w>
强 加</w>
引 以为
崩 塌</w>
尔 茨</w>
外 商</w>
基础 知识</w>
回 首</w>
喷 气式</w>
含 糊
发明 家</w>
卫 兵</w>
南 大学</w>
全 麦</w>
交 汇</w>
之 感</w>
中 长期</w>
中 日
专 案</w>
万 桶</w>
一 抹</w>
a in
M ot
J u
In v
8 8
3 500</w>
隔 振</w>
阿 巴斯</w>
追 问</w>
过 头</w>
辛 勤
走 访</w>
贵州 省</w>
荣 誉
苔 藓</w>
编 目</w>
续 费</w>
精神 分析</w>
社会 福利</w>
硬 件
看得 见</w>
看 不出</w>
电 筒</w>
电 器
满 载</w>
淋巴 管</w>
洗 钱</w>
油 门</w>
汇 编
水 污染</w>
栽 培
更 年期</w>
晚 清</w>
春 风</w>
摄 动</w>
推 到</w>
挠 度</w>
弗 斯</w>
废 水处理</w>
并 肩</w>
干 掉</w>
布莱 克本</w>
岩 土</w>
小 龙</w>
对 大</w>
女 孩儿</w>
塑 像</w>
喘 息</w>
加 装</w>
创 作
冲 程</w>
关系 数据库</w>
传动 系统</w>
伊利诺 斯州</w>
丹 参</w>
ur a</w>
sk i</w>
f ac
T B</w>
L U
J N
3 8.
阿 什
防晒 霜</w>
长 远
豁 免</w>
花 色</w>
舞 厅</w>
股份 制</w>
缝 纫</w>
线 材</w>
笔 钱</w>
磁 化</w>
电 灯</w>
用 人
甚 远</w>
猛 地</w>
犯 有</w>
点 半</w>
沿 用</w>
棋 盘</w>
梅 尔
日 晚</w>
无 量</w>
技术 手段</w>
打 篮球</w>
截 图</w>
应用 程式</w>
平 局</w>
就 医</w>
对 本</w>
女 装</w>
大奖 赛</w>
名 额</w>
变速 箱</w>
半 身</w>
千 万美元</w>
北 大</w>
加 速
兴 趣
充 裕</w>
充 血</w>
供 暖</w>
伽 利
人 为
一 站
L ar
C enter</w>
2 25</w>
麦迪 逊</w>
雷 电</w>
陛 下</w>
阿 基
进 气</w>
这 间</w>
贝 格</w>
蚀 刻</w>
结合 实际</w>
精确 性</w>
窃 贼</w>
离 奇</w>
烫 伤</w>
水 机</w>
民 国</w>
极 为重要</w>
杜 鹃</w>
木 地板</w>
曲 霉</w>
昨 天
无 从</w>
斯巴 达</w>
改 用</w>
拒绝 接受</w>
德 克</w>
微 软
很 多
建筑 群</w>
居住 区</w>
学习 型</w>
妥 善
好 心</w>
天 桥</w>
外部 环境</w>
变 分</w>
勇 于</w>
凯 莉</w>
净 利润</w>
停 泊</w>
五 位</w>
专 线</w>
一 八</w>
x t</w>
s s</w>
r y
d at
L V
6 3%</w>
麻 将</w>
麦 草</w>
高 高</w>
面 谈</w>
重 负</w>
酰 亚胺</w>
迷 茫</w>
迈 尔</w>
贯 注</w>
谢谢 您</w>
詹 妮
英语 口语</w>
舞 弊</w>
腾 出</w>
肯 德基</w>
而 起</w>
罪 过</w>
米 德尔</w>
种 子
眼 眶</w>
璀 璨</w>
版 面</w>
爱德 华
演 练</w>
渗透 到</w>
深 呼吸</w>
每 到</w>
欧洲 杯</w>
植 体</w>
杜 绝</w>
曲棍 球</w>
普林 斯
普林斯 顿大学</w>
放 手</w>
控 系统</w>
总体 规划</w>
康 复
应 由</w>
左 脚</w>
奥利 弗</w>
头 目</w>
太 平</w>
墨西哥 州</w>
地震 波</w>
四 面</w>
只 眼</w>
厄 尔</w>
分 摊</w>
全日 制</w>
俱 增</w>
供 体</w>
侄 子</w>
亨 特</w>
三 重</w>
一氧化 碳</w>
g l
M in
F ar
Cle ar
AT &
AT& T</w>
马 达
飞 舞</w>
金 币</w>
追 加</w>
较 慢</w>
质量 第一</w>
谢 尔
考古 学</w>
美 满</w>
粘结 剂</w>
第三 种</w>
私 密</w>
相 配</w>
百 事
病 历</w>
琢 磨</w>
独 具</w>
特 雷
物理 化学</w>
滚 动
溢 价</w>
沃 德</w>
每 一项</w>
歉 意</w>
杂 物</w>
普 罗</w>
无 非</w>
摩 托</w>
悬 臂</w>
录 得</w>
应 聘者</w>
存储 空间</w>
外 邦</w>
哺 乳</w>
咪 唑</w>
即 用</w>
协 奏曲</w>
刚 果
代 词</w>
人 流</w>
人 世</w>
中国 科学院</w>
七八 糟</w>
一站 式</w>
et t</w>
an ge</w>
T rans
Chri s</w>
B en
20 30</w>
19 11</w>
首要 任务</w>
醋 栗</w>
遍 地</w>
退 款</w>
车 架</w>
赖 于</w>
触 点</w>
要 约</w>
薪 金</w>
能 谱</w>
耐火 材料</w>
而 异</w>
美 奖</w>
终 身
组 人员</w>
突 变体</w>
种族 歧视</w>
礼 节</w>
煅 烧</w>
演 说
满满 的</w>
清 末</w>
浆 液</w>
波 利</w>
水 系</w>
每 张</w>
歪 曲</w>
机 组人员</w>
旁 路</w>
数据 量</w>
教 化</w>
搁 浅</w>
推 动力</w>
所 获</w>
想 方
布 罗</w>
差 值</w>
居高 不下</w>
大 专</w>
复 发率</w>
城 县</w>
坎 坷</w>
图 腾</w>
周 遭</w>
吉 特</w>
发 脾气</w>
发 来</w>
去 除率</w>
印 地
华盛顿 邮报</w>
创 伤性</w>
切 入</w>
其 二</w>
入 学
偏 转</w>
人 权
交 到</w>
五 十年</w>
二 月份</w>
专 属</w>
一 楼</w>
ri s</w>
Pow er
J SON</w>
B O</w>
Ap p
骼 肌</w>
骨 骼肌</w>
非 金属</w>
通 俗
贵 金属</w>
负 有</w>
谈 过</w>
语言 学家</w>
语 义
证 候</w>
蠕 动</w>
菱 形</w>
脱 除</w>
脑 干</w>
管理 机构</w>
眼 界</w>
相 流</w>
甜 味</w>
珠 江
爱 河</w>
煎 熬</w>
深刻 印象</w>
消耗 量</w>
流 露出</w>
流 言</w>
河 段</w>
民 用
毫米 波</w>
步 态</w>
核 素</w>
机 房</w>
更 是如此</w>
放 在
推进 器</w>
指 令
拉 格</w>
报 答</w>
抓 取</w>
想方 设法</w>
性别 差异</w>
急 流</w>
微软 公司</w>
建 交</w>
婚 后</w>
奥斯卡 奖</w>
失 去
多 数
呻 吟</w>
助 人</w>
利 奥</w>
军事 力量</w>
免疫 学</w>
保 留
企业 级</w>
人 次</w>
亚 群</w>
亚 伯</w>
事 发</w>
oun t</w>
of f</w>
k a</w>
en s</w>
d evelop
P e
L M</w>
1 13</w>
邮 件
轻 巧</w>
越 野</w>
识别 方法</w>
薄 荷
自 动机</w>
脚 印</w>
聚 氯乙烯</w>
箱 梁</w>
窦 炎</w>
皆 知</w>
环境 友好</w>
独 到</w>
爆 米花</w>
炒 作</w>
流行 病</w>
注 销</w>
有 空</w>
控股 公司</w>
按 计划</w>
抗 衡</w>
恶 棍</w>
心 事</w>
库 里</w>
婆 罗
大 孔</w>
多 一些</w>
壁 面</w>
埋 伏</w>
国际 奥委会</w>
可 控
取得 胜利</w>
十 七</w>
几 十个</w>
催 促</w>
俱 来</w>
侏 儒</w>
佛 像</w>
体 表</w>
乏 力</w>
之 名</w>
S 2</w>
F TP</w>
F A
随 其后</w>
钢丝 绳</w>
起 重</w>
起 泡</w>
走 低</w>
补充 剂</w>
自 带</w>
腺 苷</w>
胱 氨酸</w>
网络 连接</w>
维吾 尔
结 膜</w>
经济 区</w>
紧 随其后</w>
社会 学家</w>
爸 妈</w>
溶解 度</w>
湿 热</w>
温 斯顿</w>
活 动性</w>
油 量</w>
沃 克</w>
氰 酸酯</w>
民 意</w>
格 利</w>
枸 杞</w>
据 我
据我 所知</w>
很 难说</w>
宏观 调控</w>
墓 碑</w>
吝 啬</w>
可 不
劳 累</w>
出 头</w>
内 布拉
全 身心</w>
入 场</w>
伽利 略</w>
伺服 系统</w>
价格 低廉</w>
亦 然</w>
二 元
z a</w>
us r</w>
ec k
6 4
5. 5</w>
3 4.
3 3.
饭 馆</w>
风 水</w>
频 率
预 先
起 火</w>
费 德勒</w>
质量 体系</w>
贝 鲁
诱 饵</w>
获得 最佳</w>
莱 士</w>
育 出</w>
突发 事件</w>
睡 觉
登 革
男 主角</w>
电子 学</w>
牵 涉
源 远流长</w>
泥 泞</w>
气 概</w>
梦 想
某 型</w>
板 上</w>
本 是</w>
服务 商</w>
暴 雪</w>
日 趋
无 边</w>
无 所谓</w>
提 高效率</w>
打 水</w>
悚 然</w>
岛 国</w>
奈 德</w>
大大 增加</w>
大 哭</w>
大 写</w>
基 层
图 景</w>
回 转
受到 限制</w>
参 谋
华 美</w>
制 片</w>
几 千
修 辞
五 点</w>
SA T</w>
Port let</w>
L ist</w>
H ol
F BI</w>
E V
5 00
黑 帮</w>
麦 隆</w>
鲜 有</w>
骨 性</w>
频 段</w>
阿尔 伯特</w>
酵 母
那 本书</w>
迪 瓦</w>
连 胜</w>
达 科
该 地</w>
著作 权</w>
英 汉</w>
艾 森
船 厂</w>
细胞 培养</w>
糕 点</w>
窘 迫</w>
百 叶
用 不着</w>
班 车</w>
清 白</w>
求 学</w>
正 经</w>
有 著</w>
新罕 布什
新 墨西哥州</w>
数据 交换</w>
提 条件</w>
悼 念</w>
心 菜</w>
彩 画</w>
弗 利</w>
异 能</w>
建筑 风格</w>
常 驻</w>
封 堵</w>
导 电性</w>
安 检</w>
头 球</w>
唯 一性</w>
华 北
剥 落</w>
凯 伦</w>
公 社</w>
全 意</w>
僵 化</w>
修 课</w>
低 浓度</w>
之 歌</w>
之 士</w>
中 会</w>
不顾 一切</w>
不管 怎么</w>
不 懂</w>
不 入</w>
丁 基</w>
ro m</w>
a o</w>
S ar
M Q
A 1</w>
5 2%</w>
黄土 高原</w>
驳 斥</w>
顾 问
靶 点</w>
降 噪</w>
防 滑</w>
问 起</w>
长 率</w>
销售 商</w>
钩 子</w>
那样 的话</w>
输出 功率</w>
诚 恳</w>
船 用</w>
航 向</w>
臭 味</w>
紧 跟</w>
素 有</w>
磁 力</w>
生物 化学</w>
爱 护</w>
炽 热</w>
液 滴</w>
法 来</w>
服务 生</w>
有 生
整 车</w>
收视 率</w>
收 于</w>
投 行</w>
恰 恰
心 所欲</w>
开 机</w>
希腊 语</w>
宾 语</w>
家庭 主妇</w>
官方 网站</w>
多 药</w>
基 苯</w>
同 感</w>
医疗 卫生</w>
劲 儿</w>
别 克</w>
假 想</w>
伦敦 大学</w>
付 出
他 来</w>
五 彩
互 操作</w>
中 频</w>
两 款</w>
两 手</w>
一百 年</w>
一 派</w>
p o
W ar
T D</w>
9 7%</w>
高 标准</w>
预 料到</w>
长 子</w>
道路 交通</w>
造 物</w>
迪 亚
诱 变</w>
词汇 表</w>
论 调</w>
脚踏 车</w>
管理 学</w>
竞 标</w>
福 斯特</w>
疗 养
生 俱来</w>
狂 欢
油 轮</w>
民主 化</w>
毕 加索</w>
植 酸</w>
极 少数</w>
数字 电视</w>
捐 赠
德 意志
塞 内
城镇 化</w>
地 笑</w>
喷 头</w>
咽 癌</w>
含 蓄</w>
同 龄
合 用</w>
古 以来</w>
博士 后</w>
制作 方法</w>
凝 血
内 源性</w>
俱 进</w>
作出 反应</w>
人 想</w>
亲 密
交响 曲</w>
二 层</w>
争 相</w>
主机 名</w>
专门 从事</w>
与 生俱来</w>
our c
T T</w>
J SR</w>
G D</w>
2 1.
黏 土</w>
高 调</w>
驻 留</w>
限 值</w>
选 矿</w>
进 料</w>
达 拉</w>
超 载</w>
起 誓</w>
费 率</w>
货 物
解 构</w>
致 辞</w>
自动 检测</w>
脂肪 肝</w>
继 发</w>
磷酸 化</w>
矿 业
珍 宝</w>
环 球
消防 队员</w>
测试 数据</w>
浅 水</w>
曾 任</w>
明 月</w>
扮 成</w>
手术 室</w>
懈 努力</w>
康 唑</w>
地 热</w>
圣 路易斯</w>
圣 战</w>
吸 纳</w>
启动 子</w>
同龄 人</w>
前 妻</w>
偶 联</w>
信 函</w>
主 板</w>
中 线</w>
不足为 奇</w>
不 懈努力</w>
res s
lo y
i el</w>
d u
b a</w>
S 1</w>
Ph il
N FS</w>
Glob al</w>
鼓 动</w>
骨 科</w>
骄 傲
马里 奥</w>
释 放
超 额</w>
该 药</w>
诗 文</w>
诀 窍</w>
西 拉</w>
自 恋</w>
股 骨头</w>
肉 质</w>
翻 开</w>
罗 格</w>
维 持
窍 门</w>
科学 界</w>
社会 保险</w>
直 视</w>
热 压</w>
满 贯</w>
港 湾</w>
泰坦 尼克
泰坦尼克 号</w>
油 性</w>
气 溶胶</w>
欢 庆</w>
格 曼</w>
旋 涡</w>
新 月
攸 关</w>
换 个</w>
性 地</w>
必 有</w>
往 年</w>
孙 中山</w>
大 叔</w>
复 发性</w>
咽 喉</w>
后 座</w>
合 理化</w>
受 阻</w>
华 氏度</w>
冬 日</w>
关键 时刻</w>
光 波</w>
伏 安</w>
之 遥</w>
两 片</w>
三 场</w>
o ph
SA S</w>
O m
B as
高 脂</w>
马 刺</w>
风 琴</w>
风 湿</w>
青 草</w>
雅 致</w>
随 时
限 量</w>
跳 伞</w>
衬 里</w>
脱口 秀</w>
肿 大</w>
耗 散</w>
网络 系统</w>
纳 什</w>
粉 刺</w>
米 切尔</w>
石 板</w>
白 光</w>
毛 骨
比 不上</w>
梦 里</w>
来 不及</w>
机械 手</w>
时 刻
无 敌</w>
新闻 界</w>
政治 上</w>
捕 食者</w>
挖 出</w>
就 职
基 数</w>
基 州</w>
在 政治上</w>
四 国</w>
咨询 师</w>
受 累</w>
卵 泡</w>
元 组</w>
位 一体</w>
二 尖瓣</w>
九 岁</w>
举 报</w>
三 分钟</w>
一 缕</w>
u g</w>
j sp</w>
j o</w>
i um</w>
db 2
L IN
5 4%</w>
鲁 莽</w>
马 克斯</w>
长 处</w>
酷 刑</w>
遥 控器</w>
超 低</w>
赫 斯</w>
试 想</w>
讲 课</w>
衍生 品</w>
血 压
蓝 军</w>
蒸 煮</w>
营 销
联合国 教科文组织</w>
统计 数字</w>
篝 火</w>
租 户</w>
神经 功能</w>
砂 体</w>
石 坝</w>
电 偶</w>
源 文件</w>
沼 气</w>
汶 川</w>
机 会
木 兰</w>
教育 者</w>
挂 载</w>
抗日 战争</w>
抗 日</w>
打 斗</w>
房 贷</w>
惰 性</w>
恼 怒</w>
广播 电视</w>
干涉 仪</w>
布 洛
巴 克莱</w>
实 现
夹 紧</w>
大学 教授</w>
大 拇指</w>
喜马拉 雅
哎 呀</w>
吞 咽</w>
发展 壮大</w>
出 对</w>
净 值</w>
兵 器</w>
克劳 斯</w>
克利 夫兰</w>
克 斯坦</w>
侦 察
亲 王</w>
三 方</w>
P DA</w>
N ational</w>
K er
Joh n
AP D</w>
鲜 美</w>
驾驶 室</w>
雕 刻
载 机</w>
踢 足球</w>
超级 大国</w>
赛 因</w>
赖 恩</w>
财政 政策</w>
财 宝</w>
要 命</w>
表现 力</w>
蒸 发器</w>
芹 菜</w>
聚 醚</w>
联 储</w>
福 祉</w>
知 之
痛 恨</w>
珍 视</w>
煤 粉</w>
海 口</w>
法律 责任</w>
比 萨
残 渣</w>
柠檬 汁</w>
日光 浴</w>
文件 格式</w>
效 忠</w>
提 斯</w>
并 论</w>
平 米</w>
外 用</w>
口 译</w>
单 株</w>
前 提条件</w>
其 他
全心 全意</w>
债务 人</w>
保 龄
中国 画</w>
中 英文</w>
两 艘</w>
g u
e p</w>
S U
Q Q</w>
A K
19 33</w>
0. 4%</w>
马 士
风 靡</w>
风 雨
风 尚</w>
风 云</w>
过敏 反应</w>
行政 部门</w>
草 本植物</w>
脑 病</w>
肯塔 基州</w>
联合 政府</w>
而 不见</w>
罗伯 茨</w>
经 销</w>
类 中</w>
禅 宗</w>
短 时</w>
矫 治</w>
生理 功能</w>
潜伏 期</w>
温度 计</w>
楔 形</w>
桃 花</w>
房地 产业</w>
很 早</w>
张 扬</w>
市 镇</w>
巴西 人</w>
察 觉到</w>
女 作家</w>
四 级</w>
四 射</w>
唐 纳</w>
况 且</w>
侵 权
低 效</w>
亚特兰 蒂斯</w>
义 大利</w>
与时 俱进</w>
不 料</w>
下 旬</w>
一 球</w>
lin k</w>
E E
D T</w>
骚 动</w>
面 世</w>
阵 线</w>
重 获</w>
重 命名</w>
运 算符</w>
车 主</w>
身 手</w>
谷 胱
记 起</w>
警 员</w>
西 罗</w>
西 德</w>
装 进</w>
莱 昂</w>
草 稿</w>
草 根</w>
能源 部</w>
田 径
理 疗</w>
炼 油</w>
灌 肠</w>
流浪 者</w>
活 生生</w>
注射 器</w>
泡 菜</w>
江 河</w>
歌 剧院</w>
橙 汁</w>
森林 公园</w>
杰 西</w>
最低 工资</w>
旧 约</w>
改 名</w>
掺 入</w>
振 器</w>
微 电子</w>
异 国</w>
年 版</w>
就 行</w>
太 贵</w>
均匀 分布</w>
回 放</w>
四 年级</w>
友谊 赛</w>
及 早</w>
充满 信心</w>
供 奉</w>
令人 激动</w>
九 十</w>
一 筹</w>
us t</w>
un d</w>
SC L</w>
F P</w>
A x
3 9
马 太
静 静</w>
青 岛
降落 伞</w>
退 税</w>
进 水</w>
赫 敏</w>
装 药</w>
装 着</w>
芽 孢</w>
胜 负</w>
精 馏</w>
空 区</w>
睾 酮</w>
盘 式</w>
百叶 窗</w>
白 金</w>
生成 器</w>
瑞 秋</w>
爱荷 华州</w>
点 上</w>
灵 活
滴 定</w>
深 爱</w>
流 亡</w>
气 性</w>
椎 弓</w>
格 拉斯
某 项</w>
松 香</w>
条 码</w>
日 俱增</w>
打 量</w>
打 理</w>
得 住</w>
尽量 避免</w>
娠 期</w>
妊 娠期</w>
地 区
在 位</w>
圣彼得 堡</w>
可 塑性</w>
击 退</w>
中 尉</w>
严重 威胁</w>
不 慎</w>
三 到</w>
li e</w>
ap e</w>
Willi am</w>
U L</w>
F e
D ou
马达 加
随 从</w>
阿姆斯特 朗</w>
间歇 性</w>
辍 学</w>
负载 平衡</w>
负 重</w>
诙 谐</w>
诉讼 法</w>
藏 品</w>
苏 维
至 终</w>
给 水</w>
纳 尔
秘 书</w>
白 菜</w>
白 发</w>
独 奏</w>
特 地</w>
爱 滋
氮 化</w>
正 态
椰 子</w>
服 刑</w>
暂 时性</w>
晶 石</w>
普林 斯顿</w>
房 主</w>
异 常
建筑 工程</w>
平方 英里</w>
大 本
大 中型</w>
回 信</w>
告 诉
单 细胞</w>
十 万</w>
加 强
冲 着</w>
兵 力</w>
关键 点</w>
共享 内存</w>
公 河</w>
倍 增</w>
依 存</w>
世界贸易 组织</w>
不 惜
or d</w>
D V</w>
Andre w</w>
马达加 斯加</w>
领 略</w>
闭上 眼睛</w>
长 安</w>
金融 公司</w>
运动 场</w>
辱 骂</w>
费 解</w>
贝 尔斯</w>
语 音
西 洋
装 船</w>
自然 语言</w>
脑 膜</w>
胖 子</w>
编 造</w>
续 约</w>
粒 酶</w>
管辖 权</w>
端 粒酶</w>
硝 唑</w>
盎 然</w>
电 炉</w>
玩 弄</w>
溶 栓</w>
海 冰</w>
法 特</w>
松 软</w>
无法 忍受</w>
无 权</w>
施 展</w>
斯 宾
摄 于</w>
手 袋</w>
快 捷
引 信</w>
延 到</w>
屋 内</w>
定 性分析</w>
奖 章</w>
基本 功能</w>
告诉 您</w>
及 时
卑 微</w>
华 氏</w>
半 群</w>
冲 进</w>
充 质</w>
作 用
作 曲</w>
伺服 器</w>
人工 林</w>
中 草药</w>
个 头</w>
下 文</w>
一 袋</w>
t xt</w>
L uc
L PAR</w>
L G</w>
F ed
AM I</w>
AC S</w>
3 20
19 39</w>
鼓 舞
高 脂
驱 赶</w>
首脑 会议</w>
随 心所欲</w>
酒 会</w>
通过 观察</w>
近 现代</w>
财务 管理</w>
规模 化</w>
苏 醒</w>
自我 介绍</w>
罗纳 尔多</w>
红 利</w>
税 费</w>
礼 品
相 提
相提 并论</w>
电 费</w>
用 尽</w>
班 长</w>
班 人</w>
焦 化</w>
溃 疡
湄 公河</w>
淘 气</w>
洛 阳</w>
没 人能</w>
沉 寂</w>
池 中</w>
核 试验</w>
无 名
描绘 成</w>
拉 格朗</w>
抽 搐</w>
执行 器</w>
急 剧
急剧 下降</w>
广告 牌</w>
差 遣</w>
多 址</w>
土壤 侵蚀</w>
单 抗</w>
华 夏</w>
加 索尔</w>
再也 不能</w>
侵略 性</w>
侯 赛因</w>
习惯 性</w>
与 日俱增</w>
不断 创新</w>
下 雪</w>
一 去
B ill</w>
鸦 片
降 息</w>
邻 苯二
购买 力</w>
贝 卡</w>
血 流量</w>
联 通</w>
职业 道德</w>
耐 受性</w>
罗宾 逊</w>
索 尼
类 似
私 家
福 克</w>
矿 渣</w>
相 成</w>
皮 疹</w>
疾 患</w>
生物 膜</w>
生活 习惯</w>
现 象
玩 偶</w>
独 处</w>
独 厚</w>
独 一</w>
牺牲 品</w>
特征 提取</w>
特 罗</w>
消毒 剂</w>
毒 株</w>
根本 无法</w>
最 远</w>
曾 多次</w>
感 受
恰恰 相反</w>
征 求</w>
弧 线</w>
引 起
异 步
常 会</w>
巨 浪</w>
屹 立</w>
尼 诺</w>
定 下</w>
学 好</w>
姆 森</w>
天主 教徒</w>
土 著
哈 克</w>
半 自动</w>
创建 者</w>
划 定</w>
分 词</w>
冰 雹</w>
公共 场合</w>
伯 顿</w>
伊 始</w>
交 锋</w>
二 甲苯</w>
不 自
上 升
wor k</w>
ill er</w>
for m</w>
X HTML</w>
Ch ina</w>
B M</w>
黄 芩</w>
霍奇 森</w>
雪 人</w>
陵 墓</w>
阿尔 法</w>
阿 迪
里 夫</w>
采 煤</w>
转 角</w>
诗 经</w>
藉 此</w>
自 相
自 古以来</w>
美国 财政部</w>
综合 治理</w>
纸 牌</w>
第三 天</w>
稿 人</w>
瞳 孔</w>
盗 贼</w>
皇 家
电影 明星</w>
用人 单位</w>
烧 焦</w>
烙 印</w>
潇 洒</w>
湿 疹</w>
涨 价</w>
涌 出</w>
洗涤 剂</w>
水 是</w>
比 为</w>
格 斗</w>
曲 调</w>
易 懂</w>
旧 式</w>
方 差
斗 牛
教 诲</w>
描述 性</w>
抵 触</w>
所 起</w>
心 血</w>
彝 族</w>
弥漫 着</w>
广告 公司</w>
年 青
巴尔的 摩</w>
富士 康</w>
密 特</w>
宪 章</w>
客观 性</w>
天 际</w>
团 长</w>
喝 彩</w>
同 心
原 定</w>
压 榨</w>
北 爱尔兰</w>
写 过</w>
写 字母</w>
兰 斯</w>
公 害</w>
八 方</w>
储 集
保护 装置</w>
交易 量</w>
三 叉
一 寸</w>
一 家
t o
s et</w>
l y
a S</w>
S up
D NS</w>
2 56</w>
高 温
髓 内</w>
路 人</w>
讨论 会</w>
解 调器</w>
街 角</w>
药用 植物</w>
缩 合</w>
组织 培养</w>
纸 片</w>
红 外
类 动物</w>
窗 格</w>
窗 前</w>
神 仙</w>
用 词</w>
甘 露</w>
狂犬 病</w>
烧 成</w>
浓 烈</w>
洋 溢</w>
注 塑
毛骨 悚然</w>
比 色法</w>
森 特</w>
桥 面</w>
桂 冠</w>
板 坯</w>
杂 波</w>
抗压 强度</w>
感应 器</w>
感 情
彼此 之间</w>
录像 带</w>
小 块</w>
孤儿 院</w>
大 英
地 马拉</w>
回 弹</w>
回 响</w>
四 面
取 缔</w>
刻 度</w>
击 穿</w>
冲击 力</w>
军事 基地</w>
关 卡</w>
党 和
交 朋友</w>
之 风</w>
专家 组</w>
专 著</w>
不可 分割</w>
一块 儿</w>
k ey</w>
i er
P RO
I MS</w>
CO R
高 薪</w>
链 反应</w>
铣 削</w>
造 船</w>
递 推</w>
踝 关节</w>
空 客</w>
疏 水</w>
玻璃 窗</w>
泵 浦</w>
每 吨</w>
有 条
普 拉斯</w>
斯 潘</w>
斯 卡
斜 率</w>
整 晚</w>
收 银
指 甲
护 卫</w>
平 易</w>
工商 管理</w>
对 白</w>
富 尔</w>
多 哈</w>
增 重</w>
坎 普</w>
呐 喊</w>
县 域</w>
卷 发</w>
动 感</w>
人口 普查</w>
亚历 克斯</w>
亚 军</w>
书 名</w>
之 交</w>
为 难</w>
不及 格</w>
一 桶</w>
re ad</w>
g o</w>
P ri
P V</w>
N BC</w>
5 7%</w>
3 7.
1. 4
黑色 素瘤</w>
黏 附</w>
马 哈</w>
风 趣</w>
隔 板</w>
阿纳 金</w>
阿 米</w>
闪 存</w>
错 乱</w>
铁道 部</w>
重 担</w>
采 暖</w>
解释 一下</w>
裁 减</w>
腾 腾</w>
糖 分</w>
简 略</w>
禁 食</w>
硬 脂酸</w>
着 头</w>
留 存</w>
甘 肽</w>
燃 起</w>
熟 人</w>
淹 死</w>
洋 基</w>
比 例
本 港</w>
日程 表</w>
斑 岩</w>
拍卖 行</w>
扩 大
忠 心</w>
当今 社会</w>
平均 寿命</w>
市场 占有率</w>
市 面上</w>
巢 穴</w>
小 梁</w>
小 国</w>
对 决</w>
嫌 犯</w>
如 画</w>
太 尼</w>
大 肠癌</w>
合 影</w>
包 埋</w>
六 色</w>
六 月份</w>
六 周</w>
修 筑</w>
俚 语</w>
余 生</w>
令人 不安</w>
产品 线</w>
云 中</w>
举 手</w>
不 凡</w>
上 而下</w>
s ub
T 恤衫</w>
F ri
音乐 学院</w>
长 辈</w>
酸 乙酯</w>
蚀 剂</w>
素 季</w>
种植 体</w>
矮 星</w>
短 文</w>
盛 产</w>
电视 广告</w>
爆炸 事件</w>
煮 沸</w>
热 门
滴 水</w>
游乐 场</w>
测试 人员</w>
泰 尔</w>
沃 尔</w>
水 口</w>
残留 量</w>
正态 分布</w>
最 适</w>
时 宜</w>
排 版</w>
拨 号</w>
恶意 软件</w>
恐怖 组织</w>
忠诚 度</w>
心 扉</w>
帮 手</w>
层 中</w>
尝 尝</w>
小白 鼠</w>
小 鬼</w>
宝 库</w>
嫌疑 犯</w>
奈 米</w>
地质 学</w>
图 上</w>
可 恶</w>
古 代
参数 估计</w>
印刷 机</w>
分散 性</w>
凤 凰
体 位</w>
任 性</w>
仅 能</w>
亲 情</w>
于 众</w>
乱 七八糟</w>
不 值</w>
下 腔</w>
it z</w>
h a</w>
aul t</w>
M F</w>
CA P</w>
B ern
AR C</w>
A Q
鼻 咽癌</w>
风 口</w>
预算 赤字</w>
雕 塑
阶 级
银 牌</w>
连续 剧</w>
进 城</w>
车 速</w>
走 强</w>
谷 仓</w>
证券 公司</w>
解 压缩</w>
脱 发</w>
耐 热性</w>
竞技 场</w>
离 世</w>
盈 率</w>
玛 莎</w>
献 身</w>
物质 基础</w>
牛 皮</w>
游 动</w>
涨 势</w>
派 系</w>
民 警</w>
毒 蛇</w>
母 线</w>
柳 树</w>
机械 加工</w>
断 点</w>
文本 文件</w>
政 界</w>
捕 鲸</w>
拜 纳姆</w>
打 过</w>
很 深</w>
强 迫
帕 拉</w>
市 盈率</w>
巴 尼</w>
山水 画</w>
尼日 尔</w>
富 饶</w>
密 西
宽 泛</w>
客 栈</w>
复杂 化</w>
塞内 加尔</w>
名 胜
卸 下</w>
剽 窃</w>
利 基</w>
冷却 系统</w>
全 额</w>
侵 染</w>
人 街</w>
人 大
中 年
东道 主</w>
丛 生</w>
不断 完善</w>
st ein</w>
il le</w>
a ir
Vi ew</w>
I B</w>
G ar
A 2</w>
19 41</w>
0. 2</w>
鳞 片</w>
香 菇</w>
静 压</w>
门 氏菌</w>
长 矛</w>
金 鱼</w>
郁 金香</w>
遗 症</w>
这 就是说</w>
还 款</w>
运输 机</w>
边 框</w>
超 高压</w>
记忆 体</w>
脆 弱
罗 姆
经济 上</w>
约翰 尼</w>
米 长</w>
第 一项</w>
移 植物</w>
真人 秀</w>
白兰 地</w>
玩 得</w>
沃 森</w>
毒 症</w>
杀 虫</w>
智 库</w>
是 指</w>
无 际</w>
拉 着</w>
拉 尔夫</w>
扫 除</w>
悉 尼
思 考
得 天
得天 独厚</w>
归 一化</w>
弗 拉</w>
年 出</w>
尼亚 胡</w>
就 是指</w>
封闭 式</w>
天 王星</w>
在 经济上</w>
喷 管</w>
咬 伤</w>
后 遗症</w>
后 腿</w>
名 城</w>
同 心</w>
卡 内
南 德</w>
剧 团</w>
内 塔
公 有制</w>
公 投</w>
光 缆</w>
光 是</w>
上 身</w>
万 计</w>
丁 酯</w>
ic t
6 2%</w>
5. 1</w>
1 A</w>
高 血糖</w>
随机 性</w>
连 铸</w>
连 环</w>
近 些年来</w>
赐 福</w>
谷胱 甘肽</w>
诗 句</w>
蒿 素</w>
胶 电泳</w>
竟 是</w>
租 车</w>
碾 压</w>
眼 镜
眼 花
盎 格鲁</w>
皮肤 癌</w>
白雪 公主</w>
王 冠</w>
激励 机制</w>
滴定 法</w>
温度 控制</w>
波 动性</w>
沼泽 地</w>
没 人会</w>
沙 门氏菌</w>
水 解
毒 者</w>
日 葵</w>
数据库 系统</w>
攻 打</w>
排 在</w>
挨 饿</w>
手提 包</w>
所 选</w>
户 晓</w>
憧 憬</w>
德 鲁
建 有</w>
年青 人</w>
差 额</w>
左 右
局 域</w>
寄 来</w>
好 听</w>
大 盘</w>
处 所</w>
堆 满</w>
商 定</w>
前 兆</w>
制 浆</w>
创 新型</w>
凝 胶电泳</w>
军 营</w>
内 斯堡</w>
其 余
其余 部分</w>
伟 人</w>
举例 说明</w>
主 动性</w>
中 生代</w>
上 岸</w>
一 票</w>
n ey</w>
CO PD</w>
CO D</w>
Ar ch
驯 服</w>
非同 寻常</w>
青 蒿素</w>
闪 现</w>
远远 不够</w>
远 足</w>
转 载</w>
诺贝尔 和平奖</w>
诺 亚</w>
警 局</w>
被 试</w>
英 式</w>
自 言
肉 制品</w>
罗 琳</w>
织 成</w>
约翰 内斯堡</w>
管 柱</w>
算 出</w>
科 特
福 田</w>
社区 卫生</w>
着 重于</w>
眼 压</w>
真 谛</w>
真 情</w>
爱滋 病</w>
混 血
浸 提</w>
海 湾
法 子</w>
杰 里</w>
杯 酒</w>
机 电
未 决</w>
有 礼</w>
智 力
断 电</w>
所 写</w>
感 想</w>
恶 毒</w>
恩 说</w>
总 分</w>
性 功能</w>
异 味</w>
建设 工程</w>
建议 您</w>
常 在</w>
宇宙 飞船</w>
多 通道</w>
夏令 营</w>
塞 缪尔</w>
固 有
吵 闹</w>
合 术</w>
口 吻</w>
卷 起</w>
出 其</w>
凯 斯</w>
冲 破</w>
兮 兮</w>
信息 量</w>
事 关</w>
争 议
了 当</w>
一 空</w>
ph one</w>
is e</w>
Gro up
B ra
1. 7</w>
非 晶</w>
霍 克</w>
集 权</w>
门 人</w>
鉴 别
造 福</w>
超 群</w>
调查 表</w>
讲 台</w>
西 门</w>
艺术 节</w>
臭 氧
胶 结</w>
聚 体</w>
网络 服务</w>
约 简</w>
离 别</w>
硅 橡胶</w>
石油 价格</w>
着 眼</w>
略 高于</w>
生日 快乐</w>
甜 食</w>
牵 连</w>
片 面</w>
熔 炼</w>
热 电</w>
活 下去</w>
沥 青
无 刷</w>
新 进展</w>
摩 纳
排 行</w>
捕 杀</w>
情 势</w>
彭 博</w>
布 达
实践 性</w>
天鹅 绒</w>
塔 纳</w>
国 外
器 时代</w>
名 列
司 长</w>
受到 重视</w>
受 访</w>
发明 者</w>
冲 刺</w>
公共 利益</w>
供 职</w>
交 界
井 眼</w>
了 婚</w>
九 月份</w>
丫 头</w>
下 载
下 会</w>
一 定量</w>
ub li
R R</w>
For ms</w>
CA T</w>
3 8
19 38</w>
领 到</w>
阿卜杜 拉</w>
鄙 视</w>
轴 心</w>
车 体</w>
购物 者</w>
财务 状况</w>
论 题</w>
西南 地区</w>
西 非</w>
蕴 含着</w>
茫 然</w>
花 销</w>
芝加哥 大学</w>
自 民党</w>
胰 岛</w>
而 出名</w>
纵 然</w>
粗糙 集</w>
算 不上</w>
砂 糖</w>
矿 物
甜 甜</w>
理想 化</w>
牵涉 到</w>
牧羊 人</w>
清洁 工</w>
涂 覆</w>
沧 桑</w>
汽车 业</w>
春 秋
放 假</w>
支 座</w>
排 成</w>
挥 动</w>
拍 打</w>
抢 夺</w>
批判 性</w>
成 骨细胞</w>
恰 到
恰到 好处</w>
微 调</w>
开 盘</w>
延 展</w>
巴 斯
家 喻
太 长</w>
大 巴</w>
图 用</w>
哈 里
向 日葵</w>
可 读性</w>
原 性</w>
原 件</w>
北 海</w>
勺 子</w>
公 分</w>
克雷 格</w>
伯 德</w>
会 费</w>
仿 制</w>
付出 代价</w>
乔 伊</w>
中 后期</w>
不 败</w>
一丝 不
一 课</w>
一 见</w>
p re
ou s</w>
ob e</w>
d b</w>
S DS</w>
3 9.
饲 养
随 手</w>
阀 体</w>
铝 业</w>
超 长</w>
视 而不见</w>
血 型</w>
蒙 大
莫 里</w>
自言 自语</w>
耐 腐蚀</w>
绪 论</w>
终 点
累 及</w>
突 显</w>
移 到</w>
科研 人员</w>
相 控
环境 质量</w>
特殊 要求</w>
炮 火</w>
演 艺</w>
法 中</w>
施加 压力</w>
新 开</w>
斯 菲尔德</w>
效 显著</w>
擦 洗</w>
摘 除</w>
摆 设</w>
排名 第</w>
扶 贫</w>
心 声</w>
徒步 旅行</w>
并不 比</w>
工人 阶级</w>
密 欧</w>
密 布</w>
室内 设计</w>
好 战</w>
图形 化</w>
午 餐
十 一
加拿 大人</w>
刷 子</w>
创 世纪</w>
减 速
兰 帕德</w>
低 空</w>
伯 纳德</w>
些 年</w>
s ec
n o</w>
i Tun
c ess
F i</w>
飞 来</w>
非营 利性</w>
银行 贷款</w>
送 货</w>
迦 南</w>
达尔 富尔</w>
轻 松
越 小</w>
赛 亚</w>
谜 团</w>
解 压</w>
西 式</w>
莫 名
莫名 其妙</w>
苏 门
芬 太尼</w>
舍 弃</w>
福 特
确 有</w>
疙 瘩</w>
申请 书</w>
瑞 郎</w>
波斯 尼亚</w>
泄 密</w>
格 罗</w>
某 位</w>
最 短</w>
景观 设计</w>
普 雷
无所 事事</w>
料 库</w>
摩擦 系数</w>
所 言</w>
成就 感</w>
平衡 点</w>
工 商</w>
妖 怪</w>
外交 关系</w>
壳 牌</w>
喷 漆</w>
受 邀</w>
印 染</w>
南 边</w>
华 人</w>
内塔 尼亚胡</w>
侵 占</w>
伤 痕</w>
伊 万</w>
二 线</w>
二 期</w>
u le</w>
for d</w>
Pow er</w>
P H</w>
J im</w>
3 5.
麝 香</w>
马尔 可夫</w>
饿 死</w>
食品 工业</w>
风 量</w>
鞠 躬</w>
青 素</w>
隐 私权</w>
铁 轨</w>
重新 分配</w>
资 历</w>
语 料库</w>
试 题</w>
角 化</w>
血 瘀</w>
艾 琳</w>
纽 扣</w>
纪 元</w>
类 股</w>
移 开</w>
相 容</w>
申 办</w>
田 间
生 菜</w>
理论 意义</w>
率 地</w>
狼 疮</w>
烦 躁</w>
消费 量</w>
梦 寐
梦寐 以求</w>
果 岭</w>
松 症</w>
杰 瑞</w>
有所 改善</w>
晶 界</w>
推 高</w>
拱 形</w>
手 榴弹</w>
左 后卫</w>
尾 盘</w>
家喻 户晓</w>
块 体</w>
嗡 嗡
喋 喋
喋喋 不休</w>
压 降</w>
单 曲</w>
单 子</w>
北 边</w>
全息 图</w>
僧 人</w>
倒 置</w>
便 利
佛 法</w>
体重 增加</w>
从 头</w>
介 面</w>
两 用</w>
东 边</w>
三 星
一团 糟</w>
T H
Re g
BPE L</w>
鹅 卵石</w>
骨质 疏
骨质疏 松症</w>
马 尾
雷 纳</w>
防 潮</w>
钱 币</w>
郁 郁
超级 计算机</w>
诗歌 创作</w>
试 飞</w>
血管 性</w>
药 敏</w>
花 样
组 网</w>
系统 软件</w>
策 划
现象 学</w>
猎 杀</w>
煤 机</w>
深 造</w>
水 压</w>
毕 生</w>
此 机会</w>
正 轨</w>
查 理
朗 诵</w>
有 赖于</w>
曝 气</w>
明 智
无 趣</w>
新 世</w>
数据 管理</w>
撤 消</w>
手 提</w>
建筑 面积</w>
实际 操作</w>
奠 基
大 能</w>
因 其</w>
回 荡</w>
启 程</w>
后 缀</w>
合 性</w>
取 笑</w>
发 芽
单 方面</w>
动脉 硬化</w>
创办 人</w>
光 明
值 为</w>
从 性</w>
乌 兹
为 食</w>
中秋 节</w>
不 计</w>
一 刻
o y
T im</w>
K at
B PM</w>
19 18</w>
1 18</w>
首 轮</w>
顺 序
雷 霆</w>
钥 匙
酱 汁</w>
达 利</w>
较为 理想</w>
身 材
触 角</w>
解 码器</w>
菊 酯</w>
罗 密欧</w>
约旦 河</w>
紧 邻</w>
类 推</w>
管 壁</w>
第二 名</w>
空 时</w>
神经 递质</w>
眼 皮</w>
热 流</w>
灌 溉
椎 病</w>
木 素</w>
暗示 着</w>
无 创</w>
新 型
文化 差异</w>
整 流器</w>
数百 万美元</w>
截 肢</w>
意味 著</w>
德意志 银行</w>
得 失</w>
形 码</w>
尔 州</w>
对 角</w>
客 家</w>
娴 熟</w>
天 窗</w>
多 姆</w>
地球 表面</w>
句 号</w>
分散 剂</w>
分 块</w>
击 倒</w>
人 到</w>
交界 处</w>
主 语</w>
一 日
re ad
U PS</w>
6 8%</w>
音 响
零售 店</w>
雪 山</w>
闭 上</w>
门 市</w>
金 森</w>
释放 出来</w>
酒 类</w>
越 少</w>
该 党</w>
试 图用</w>
获 取
肾 移植</w>
紧张 局势</w>
米 粉</w>
端 粒</w>
窘 境</w>
秋 千</w>
相控 阵</w>
相 思</w>
瓦 拉</w>
环境 温度</w>
独 木
滴 滴</w>
活 得</w>
汤 森</w>
校 核</w>
柱 状</w>
最 让人</w>
新 婚</w>
斯坦福 桥</w>
擦 伤</w>
捡 起</w>
拉 斐
抗 干扰</w>
愈 烈</w>
总 在</w>
干 式</w>
布里 奇</w>
山 中</w>
尼斯 世界纪录</w>
实 心</w>
子 军</w>
大 局</w>
外语 教学</w>
壁 纸</w>
喜 庆</w>
吉 尼斯世界纪录</w>
卫 浴</w>
南 宋</w>
动力 车</w>
功率 因数</w>
剪 裁</w>
公 吨</w>
先 兆</w>
依 附</w>
伊 莎
享 誉</w>
交易 者</w>
亚洲 地区</w>
不起 作用</w>
不 谈</w>
一 说</w>
ot e</w>
com m
W HO</w>
Serv ices</w>
S and
1. 9</w>
0. 6%</w>
麻 雀</w>
高 分</w>
骑 手</w>
食物 链</w>
飘 扬</w>
阿 萨德</w>
铜 牌</w>
钢 制</w>
醒 来时</w>
选 修</w>
这 则</w>
路 旁</w>
贫 乏</w>
读 写
讨 人
衣 裳</w>
行政 长官</w>
膀胱 癌</w>
缭 乱</w>
细胞 分裂</w>
紧 身
矸 石</w>
燕 山</w>
烤 烟</w>
深 蓝色</w>
流 中</w>
洗 衣服</w>
水 泡</w>
格拉斯 哥</w>
权威 性</w>
本 站</w>
方差 分析</w>
断 口</w>
接 字</w>
护 肤
抗 剪</w>
投票 权</w>
快 讯</w>
广 东
小 店</w>
威斯康 星
大 河</w>
埋 场</w>
唇 膏</w>
可不 可以</w>
卫 视</w>
出口 国</w>
冬 眠</w>
光 敏</w>
储 罐</w>
保持 平衡</w>
体 例</w>
今 夜</w>
事 前</w>
乡 镇
一 动不动</w>
sk y</w>
ig ht
ic an</w>
en a</w>
d on</w>
T C
7 8%</w>
1 14</w>
黏 液</w>
麻 油</w>
鳗 鱼</w>
高 脂肪</w>
霍 金</w>
阿 克
采 样
轻 蔑</w>
越 冬</w>
赫 伯特</w>
要 死</w>
血吸 虫病</w>
蓄 意</w>
菜 园</w>
苦 涩</w>
艾 利斯</w>
自主 性</w>
肤 浅</w>
聪明 人</w>
罗 杰斯</w>
结晶 器</w>
第四 季</w>
端 正</w>
神 论者</w>
电 针</w>
狄 更斯</w>
特 写</w>
激 发
海 员</w>
[...]
