#version: 0.2
t h
i n
a n
th e</w>
e r
t i
r e
e n
o n
o f</w>
a r
e d</w>
in g</w>
an d</w>
o n</w>
o r
o u
s t
e r</w>
t o</w>
a l
i t
r o
i s</w>
i n</w>
e s</w>
a t
i c
a c
e c
a l</w>
ti on</w>
e s
e l
o r</w>
o m
a t</w>
i l
a s
a s</w>
a n</w>
T h
i s
u r
o l
p l
v e</w>
e n</w>
u s
en t</w>
i g
p ro
l y</w>
a tion</w>
d i
t s</w>
Th e</w>
l o
c h
s i
w h
d e
r a
h a
u l
f or</w>
th at</w>
c on
r i
e m
u n
a b
u c
a m
a g
it h</w>
l e
l i
n o
w ith</w>
re s
c om
e x
ar e</w>
c e</w>
i t</w>
l e</w>
s h
e t
a d
a p
v er
o p
th e
o s
o u</w>
ti on
t er
i r
er e</w>
f f
it y</w>
a y</w>
n e
b e</w>
p er
f or
' s</w>
q u
ou n
b e
t r
i m
w as</w>
s e
er s</w>
i d
y ou</w>
a r</w>
b y</w>
s u
s p
at e</w>
o o
o w
m e
ig h
b u
a k
l d</w>
m o
w or
ur e</w>
ro m</w>
d s</w>
ou r</w>
t er</w>
` `</w>
ou t</w>
e ar
ha ve</w>
f rom</w>
al l</w>
st r
on e</w>
m ent</w>
s a
th er</w>
t h</w>
t ed</w>
th is</w>
c an</w>
es s</w>
c i
d uc
i c</w>
m e</w>
s o</w>
e v
C h
c l
e t</w>
h as</w>
ou ld</w>
il l</w>
i d</w>
tion s</w>
in g
p ar
u d
an g
c o
m an
no t</w>
i r</w>
ti c
ti ve</w>
or e</w>
u m
pl e</w>
p e
t o
w e
p o
at ed</w>
en ts</w>
h e</w>
al ly</w>
p or
t e
in e</w>
p h
en t
w ill</w>
ag e</w>
a in
con t
an t</w>
om e</w>
st e
d is
d ing</w>
a y
ic h</w>
' '</w>
ou g
v el
b o
s y
s e</w>
u t
es t</w>
it s</w>
v i
re c
igh t</w>
com p
h is</w>
v er</w>
w ere</w>
o g
i z
wh ich</w>
ab le</w>
on g</w>
en ce</w>
t ing</w>
us e</w>
bu t</w>
I n</w>
w e</w>
m ore</w>
ou r
l a
es e</w>
Ch in
h e
ic al</w>
re d</w>
h i
c re
a d</w>
o c
f ac
p re
the ir</w>
ec t</w>
o w</w>
a in</w>
s t</w>
f e
p res
ti c</w>
p r
the y</w>
d er</w>
f i
u s</w>
ou s</w>
an ce</w>
y our</w>
u p</w>
ic e</w>
ak e</w>
k s</w>
c h</w>
u t</w>
s er
k e</w>
as t</w>
d e</w>
g r
as e</w>
I t</w>
d er
es s
v e
s o
g o
ar y</w>
o d</w>
for m
us t</w>
e ff
ti me</w>
m in
t w
g e</w>
i es</w>
al so</w>
oun d</w>
os t</w>
Th is</w>
d es
o ther</w>
sa id</w>
re n
b l
t ra
k ing</w>
s el
oug h</w>
f in
am e</w>
ar d</w>
in ter
b r
g i
p a
an d
t en
or y</w>
al l
oo d</w>
d o</w>
m ar
tion al</w>
ec h
f l
f ir
ab out</w>
be en</w>
uc h</w>
ver y</w>
ha d</w>
m on
ne w</w>
d ay</w>
o ple</w>
m y</w>
ac c
el l</w>
ste m</w>
u e</w>
ol og
g ra
it e</w>
lo w
in to</w>
b as
ol d</w>
b ec
e p
n i
t u
pro duc
de vel
pro v
re s</w>
W h
a v
a f
ow n</w>
o b
an y</w>
e y</w>
pe ople</w>
h er</w>
em ent</w>
A n
or s</w>
a tions</w>
sy stem</w>
si on</w>
me th
ac k</w>
no w</w>
en c
us ed</w>
il e</w>
wh o</w>
di ff
th an</w>
d o
e st
li ke</w>
s ome</w>
0 0
el l
wh en</w>
g re
t ure</w>
ti es</w>
il l
b et
p os
sp ec
devel op
s c
a st
at ing</w>
t ur
str uc
al y
ing s</w>
l l</w>
I n
a u
' t</w>
e d
n 't</w>
u m</w>
at er</w>
st ud
com m
m at
al s</w>
on s</w>
f u
Chin a</w>
p ol
c ol
s ec
g en
w ay</w>
th ere</w>
a m</w>
i on</w>
ac h
i st
t re
t y</w>
in d
wor k</w>
n ing</w>
el y</w>
ac h</w>
pro c
ac e</w>
tw o</w>
en ti
i al</w>
e -
e l</w>
w ould</w>
j ec
m ost</w>
ap er</w>
on ly</w>
ay s</w>
ear s</w>
i l</w>
s ur
at es</w>
b er</w>
a use</w>
tr an
an aly
r u
s ti
the m</w>
e ar</w>
lo w</w>
c oun
v es</w>
b le</w>
c ar
i th
f ic
o f
an c
d ed</w>
on g
k ed</w>
as s
ap pl
f e</w>
t ri
il ity</w>
ch ar
c or
os e</w>
lo c
v ing</w>
ig n</w>
diff er
p aper</w>
fir st</w>
H e</w>
t ech
re e</w>
d ec
i f</w>
s m
an s</w>
th ing</w>
ti m
t ro
a re
T o</w>
p p
W e</w>
af ter</w>
v ed</w>
wh at</w>
p s</w>
b i
o ff
id e</w>
meth od</w>
ch ang
y ing</w>
s ol
n o</w>
g et</w>
c ul
en d</w>
B ut</w>
in v
lo o
c ould</w>
y p
n ed</w>
o ver</w>
th r
is h
sh ould</w>
ad e</w>
man y</w>
is h</w>
sh i
res ul
m a
h el
is e</w>
cont ro
ar i
u st
th er
an g</w>
fu l</w>
ig h</w>
v al
y ears</w>
ro w
f un
c ur
g l
a il
j ust</w>
y s</w>
si m
s uch</w>
su b
al ity</w>
we en</w>
t e</w>
g u
su p
h igh
m ay</w>
olog y</w>
em s</w>
h ow</w>
for e</w>
m ake</w>
c er
bet ween</w>
is t</w>
cl ud
f t</w>
a tional</w>
c ri
com pl
qu i
o re
m er
r y</w>
ex per
g ood</w>
w ater</w>
h igh</w>
An d</w>
l ar
d at
th en</w>
oug h
op er
en g
ou s
sh e</w>
p ec
t ly</w>
por t
Chin ese</w>
m an</w>
l in
1 9
tic al</w>
th ese</w>
p ri
g e
thr ough</w>
I f</w>
po in
ev er</w>
t or</w>
e i
S t
p ow
s ed</w>
y ear</w>
s ch
bas ed</w>
wor ld</w>
v is
so ci
j o
ser v
en d
hi m</w>
develop ment</w>
k e
om e
r e</w>
ic ation</w>
ec on
re l
in clud
t yp
tech n
in d</w>
Y ou</w>
2 00
p u
us ing</w>
bec ause</w>
at ure</w>
as s</w>
s is</w>
w ell</w>
li fe</w>
e w</w>
for m</w>
ou t
stud y</w>
c ap
el ec
st s</w>
oo l</w>
t le</w>
por t</w>
m ade</w>
ab ility</w>
C on
c r
ic i
s ig
O b
is m</w>
ti v
w ith
a tive</w>
si de</w>
f er
gen er
form ation</w>
no w
res ear
ur ing</w>
i a</w>
st ar
th in
ak ing</w>
differ ent</w>
h y
c lo
f r
bu il
b el
il y</w>
d re
d y</w>
tr y</w>
ac t</w>
in ce</w>
e g
m s</w>
s on</w>
t em
b ack</w>
ev en</w>
f ul
se e</w>
f a
ac k
p i
t en</w>
re ad
wh ere</w>
v ir
s en
e as
s k
ec tion</w>
l it
in cre
ve l</w>
m il
un der
char ac
tic s</w>
oo k</w>
S h
econ om
mar k
w r
po si
m em
d el
n ess</w>
eff ec
o ver
de l</w>
pl an
n um
contro l</w>
it ed</w>
com e</w>
dat a</w>
tran s
gr ou
b us
ti s
c en
proc ess</w>
u p
di rec
e p</w>
s ome
di st
ul ar</w>
u res</w>
re la
ter s</w>
l ine</w>
on -
d own</w>
fac e</w>
m ain
f am
v en</w>
p on
m et
f ol
ag es</w>
l ess</w>
Th ey</w>
u al</w>
t ake</w>
iz ed</w>
o m</w>
an ti
ch il
iz ation</w>
in ess</w>
p ut</w>
l es</w>
g o</w>
mo del</w>
ex am
k now</w>
w ays</w>
m uch</w>
v en
su m
o t</w>
shi p</w>
se t</w>
l ong</w>
E n
e ach</w>
A s</w>
f il
m ul
sh ow
si d
k now
be fore</w>
s ha
j ect</w>
jec tive</w>
man ag
ex t</w>
enc y</w>
Th ere</w>
fun c
b re
er g
sa ys</w>
ne ed</w>
st u
un i
v ari
des ign</w>
s ure</w>
wh ile</w>
s es</w>
go ver
ti g
th ree</w>
c all
im port
pl o
m is
th ose</w>
pro b
sel f</w>
sti ll</w>
Wh en</w>
tro duc
l ed</w>
re g
w ar
s ame</w>
fl u
al e</w>
di d</w>
h ar
ic es</w>
par t</w>
resul ts</w>
eff ect</w>
ad v
si st
res s</w>
d ro
c le
d ra
el d</w>
be ing</w>
gover n
A l
sp e
w a
ver s
of f</w>
t a
t ain
c us
ough t</w>
0 0</w>
F or</w>
l ast</w>
y n
r is
P ro
d ic
in troduc
h u
A mer
h ear
me as
t al
Amer ic
m ents</w>
t ain</w>
s w
or g
c a
et y</w>
un der</w>
f ound</w>
on al</w>
n ational</w>
pow er</w>
m ust</w>
or der</w>
Ob jective</w>
O n
n er</w>
o t
i de
u str
vel y</w>
bo th</w>
chang e</w>
r ight</w>
n s</w>
spec i
n or
bo dy</w>
l and</w>
comp any</w>
o ds</w>
ak es</w>
me di
or t</w>
ac tion</w>
g g
e w
w ant</w>
resear ch</w>
C om
as ed</w>
s ing</w>
z e</w>
y -
- -</w>
pr in
qu ality</w>
res pon
f ri
c as
it al</w>
w om
h ol
mat er
l ing</w>
thin k</w>
si ve</w>
on d</w>
dis cus
we e
p en
pa ti
s ci
m ain</w>
d uring</w>
L i
b ro
U n
techn ology</w>
en ted</w>
struc ture</w>
ent al</w>
ic k
li m
gre at</w>
ro s
stu di
d r
u tion</w>
S o</w>
g row
ul ation</w>
c our
d ri
in formation</w>
n ec
p at
import ant</w>
cur ren
c ent</w>
c es</w>
appl ication</w>
p e</w>
hi st
analy sis</w>
c al
to o</w>
ar ound</w>
a ir
mark et</w>
hel p</w>
pl ay
sm all</w>
t ors</w>
a ff
o p</w>
h um
re qu
grou p</w>
ish ed</w>
an ts</w>
ex c
ou se</w>
con di
tim es</w>
e ver
b er
s ay</w>
t -
fi ed</w>
b an
ha pp
le ar
pl ace</w>
le vel</w>
mul ti
re as
il i
a k</w>
ic s</w>
per i
re gi
num ber</w>
s uc
t est</w>
pro f
1 0</w>
prov id
v ol
cont in
he al
ri bu
p ur
lit tle</w>
con struc
al i
bus iness</w>
in s</w>
do es</w>
vir on
e very</w>
c u
A r
ent ly</w>
s it
p er</w>
coun try</w>
pr ac
org an
are a</w>
h ome</w>
li c</w>
charac ter
w ard</w>
e y
an t
m or
li on</w>
ic k</w>
i e
govern ment</w>
qu e</w>
ow ever</w>
h ere</w>
er ing</w>
R e
typ e</w>
pro gra
an ds</w>
l ight</w>
poin t</w>
le t</w>
call ed</w>
tre at
ic ul
2 0
sh ow</w>
tic le</w>
fi eld</w>
de t
re duc
bet ter</w>
A f
es tig
it ing</w>
ap pro
col l
d -
R es
d en
n on-
n et
r ate</w>
with out</w>
b in
M ar
si ble</w>
fin d</w>
z ed</w>
a ut
be g
en viron
go ing</w>
ti vely</w>
dre n</w>
s ing
ou th</w>
ur al</w>
bec ome</w>
n al</w>
tr ac
M e
le ad
us ion</w>
in f
ne w
suc c
inv estig
ut e</w>
v o
lo ve</w>
b ed</w>
S he</w>
b est</w>
vers ity</w>
m i
se ver
ex pl
pl y</w>
u ally</w>
w at
c ity</w>
le m</w>
l ong
b ri
en ter
ech an
or d
val ue</w>
di v
ni fic
al ways</w>
th ough</w>
lar ge</w>
e duc
olog ical</w>
' re</w>
h er
an n
au th
iz e</w>
d ge</w>
ain st</w>
A t</w>
ab l
s al
t on</w>
p op
A c
f ore
vi ew</w>
for man
k ind</w>
at t
exper i
pro per
comm un
g h
e ase</w>
b en
chil dren</w>
prob lem</w>
m us
an other</w>
loo k</w>
ag ainst</w>
de p
an ci
at or</w>
u ro
he ad</w>
des ig
con si
p ed</w>
m echan
k ey</w>
er y</w>
produc tion</w>
a ve</w>
c ir
re qui
b ur
fe w</w>
exam ple</w>
c at
de ter
manag ement</w>
ar ly</w>
le g
ec ted</w>
pl ay</w>
Wh at</w>
character is
a ir</w>
p ing</w>
treat ment</w>
f ic</w>
serv ice</w>
ep t</w>
f ur
P ar
h o
per forman
produc ts</w>
sig nific
of ten</w>
m ic
fol low
f -
st ate</w>
n ext</w>
m en
par t
Th at</w>
enc es</w>
des cri
W ith</w>
includ ing</w>
in st
m ag
d oc
pro t
st and
th s</w>
re por
hum an</w>
er ed</w>
en s</w>
b lic</w>
pati ents</w>
tiv ity</w>
oper ation</w>
at h</w>
st ra
d om
gi ve</w>
read y</w>
posi tion</w>
r .</w>
m ight</w>
func tion</w>
re al
en ing</w>
stud ents</w>
E x
us es</w>
ustr y</w>
th ers</w>
pro bl
a ti
En gl
00 0</w>
ti ce</w>
d en</w>
ne ver</w>
as h
U ni
o -
in c
in flu
th ings</w>
m ach
proc ess
sch ool</w>
ir e</w>
ever y
pl ac
the ory</w>
h al
en erg
b lo
cen tr
wh e
o il</w>
e f
i ed</w>
an y
ve st
ous ly</w>
per cent</w>
u ation</w>
ell s</w>
di tional</w>
pos ed</w>
per s
re ally</w>
Af ter</w>
ro w</w>
est abl
a way</w>
probl ems</w>
ch o
is su
y s
in i
ol e</w>
tur n</w>
st re
y m
r ang
in e
c ust
st at
tri es</w>
exper im
a red</w>
eff ici
im prov
c ase</w>
ma j
compl et
sy st
em ents</w>
s ince</w>
a tic</w>
under st
bi g</w>
or i
d am
performan ce</w>
tem per
resul t</w>
h and
p ul
ang u
op e</w>
f ree</w>
in ing</w>
or ding</w>
m en</w>
On e</w>
ro om</w>
te ach
fic ation</w>
ind ustry</w>
m aking</w>
sec ond</w>
m id
c y
fam ily</w>
f ood</w>
con c
co ver
re sid
d ays</w>
our ce</w>
n ame</w>
O n</w>
pres ent</w>
ch em
g et
J ap
wor k
m al</w>
o x
p an
pro ve</w>
gr ound</w>
se e
div id
N ew</w>
e qui
t al</w>
oun t</w>
ur y</w>
me ans</w>
lo t</w>
or d</w>
de m
b or
r an
lar g
t able</w>
th em
ar ticle</w>
con f
qu es
ch ing</w>
n at
te st
is ion</w>
r un
ti al</w>
know n</w>
a i
el s</w>
on es</w>
h ouse</w>
o d
plo y
mon ey</w>
y oun
sh all</w>
tur al</w>
prin ci
energ y</w>
s il
ag ain</w>
S .</w>
p tion</w>
b ra
b ers</w>
meth ods</w>
econom ic</w>
in es</w>
e qu
go t</w>
to p</w>
at ten
im pl
prov ide</w>
per son</w>
re le
t ow
te am</w>
pu blic</w>
sup port</w>
s l
o ve</w>
ear ly</w>
f o
h and</w>
b oo
b il
ac tu
wor king</w>
re ad</w>
acc ording</w>
wom en</w>
rel ated</w>
n am
a z
f ra
In ter
to ge
sy n
le ft</w>
mo der
la w</w>
studi ed</w>
G u
pl es</w>
at s</w>
low er</w>
comp u
toge ther</w>
elec tr
tech ni
ex pres
ar ds</w>
i ous</w>
en ds</w>
ch ed</w>
coun tries</w>
dist ribu
in al</w>
c am
high -
lo b
' ll</w>
de f
cour se</w>
b ility</w>
ac y</w>
b ook</w>
sp ace</w>
or ies</w>
ros s</w>
hist ory</w>
construc tion</w>
c ame</w>
' m</w>
st y
r ul
rec ei
n ight</w>
ful ly</w>
l angu
f our</w>
sel f-
curren t</w>
some thing</w>
educ ation</w>
ar m
high er</w>
igh ts</w>
com bin
ic ations</w>
b ar
de v
ab ly</w>
r ing</w>
a o</w>
s ul
cas es</w>
in vest
p ass
mo d
on ic</w>
u es</w>
pro ject</w>
i an</w>
f oc
pr is
cl ass</w>
so f
sever al</w>
hear t</w>
t ar
u g
l ay
mic ro
f ut
cust om
cont ent</w>
rela tion
at ures</w>
L e
oun d
our ces</w>
c ent
vi ew
str at
am ong</w>
e ds</w>
D i
gi ven</w>
H owever</w>
soci al</w>
an ding</w>
et ing</w>
wee k</w>
loc al</w>
effec ts</w>
su gg
ex ist
e fore</w>
introduc ed</w>
en ed</w>
Th ese</w>
heal th</w>
2 0</w>
res t</w>
ren g
pol i
wor ks</w>
a w
ac hi
s ite</w>
Americ an</w>
t ation</w>
c ou
grow th</w>
develop ed</w>
produc t</w>
M r.</w>
in te
ur ity</w>
E uro
st er
s or
cul ture</w>
or ig
w i
comp an
h ard</w>
net work</w>
di tion</w>
ne t</w>
ap pe
comm on</w>
at ely</w>
Uni versity</w>
N or
w al
h or
b it</w>
temper ature</w>
ph o
pol ic
f y</w>
t old</w>
ent ation</w>
th es
im prove</w>
' ve</w>
op en</w>
st reng
ol s</w>
re co
W or
environ ment</w>
pres sure</w>
mater ial</w>
ir d</w>
f oo
pos sible</w>
m akes</w>
cl usion</w>
th ought</w>
Z h
j ing</w>
w id
ar t</w>
contro l
ap p
id enti
buil ding</w>
u re
ev al
w ent</w>
p ic
show s</w>
si ons</w>
pa ren
with in</w>
ic ally</w>
spec ial</w>
re al</w>
wh ole</w>
Engl ish</w>
sur face</w>
ke ep</w>
ful l</w>
fut ure</w>
u r</w>
am et
d ou
for ward</w>
li k
s et
ch es</w>
al g
jec ts</w>
A ll</w>
f ar</w>
W e
f low</w>
as k</w>
characteris tics</w>
wr it
an k</w>
cont ain
J o
al ready</w>
c ra
B y</w>
c op
ti l</w>
cl in
experi ence</w>
maj or</w>
our s</w>
S ome</w>
re mo
t ory</w>
syst ems</w>
econom y</w>
to day</w>
str ong</w>
t ook</w>
i ons</w>
de fin
str ic
19 9
ast er</w>
gra d
f lo
pec i
fr on
l at
inte gr
diff icul
fe el</w>
in ten
N o</w>
er al</w>
p ast</w>
z h
ra di
con sum
c le</w>
Th en</w>
youn g</w>
peri od</w>
ter m</w>
anc es</w>
h un
s ou
b ack
em ploy
Un ited</w>
fer ence</w>
ri ed</w>
m y
th y</w>
tra ditional</w>
th re
in ation</w>
ex pec
ag o</w>
incre ase</w>
ind ic
show ed</w>
deter min
ar ch
ow n
chang es</w>
b al
D e
D o</w>
yn am
cal cul
l ab
on ce</w>
op tim
star t</w>
t om
form ed</w>
effec tive</w>
tu res</w>
tw are</w>
p ain
ig g
en ough</w>
B ei
w in
m er</w>
su per
par ti
5 0</w>
A d
langu age</w>
enti al</w>
im age</w>
st a
sim ple</w>
s cre
strat eg
0 .
Me th
po st
sing le</w>
ru n</w>
bel ie
ex ten
g ir
C o
an im
aut om
N ow</w>
c li
pres ented</w>
M y</w>
di ag
con cer
o thers</w>
S u
er -
consi der
incre as
al low
wor ds</w>
ill ed</w>
i als</w>
ro ad</w>
G od</w>
c ost</w>
un til</w>
k in
A n</w>
m un
g as</w>
ust ri
al ong</w>
m ental</w>
m ing</w>
wh y</w>
pl as
t ak
blo od</w>
par tic
pe ti
si onal</w>
wor d</w>
d le</w>
u fac
ne l</w>
he ad
H u
co de</w>
tic ally</w>
st ri
l ater</w>
fi ve</w>
t or
H e
sci enti
nat ural</w>
re li
ph ys
ro le</w>
in t
t es</w>
c an
g lob
pp ed</w>
o k
vari ous</w>
discus sed</w>
pu bl
bas ic</w>
as si
c ells</w>
f requ
id s</w>
ab ove</w>
relation ship</w>
or ith
spe ed</w>
sof tware</w>
og ra
analy zed</w>
cre ate</w>
peci ally</w>
G re
p ect</w>
ris k</w>
inter national</w>
f er</w>
c ar</w>
B o
sy m
hal f</w>
compu ter</w>
s ource</w>
adv ant
ul ts</w>
ri c</w>
es pecially</w>
ro c
ha i</w>
le ast</w>
main ly</w>
condi tions</w>
Bei jing</w>
wh ite</w>
me d
mach ine</w>
fac tors</w>
on d
le -
ch ec
in ed</w>
ud e</w>
sty le</w>
pro mo
alg orith
mil lion</w>
g ar
ill ing</w>
en g</w>
poin ts</w>
fac t</w>
g ame</w>
b all</w>
U .
3 0</w>
comp on
H ow</w>
d ig
anc ed</w>
e e</w>
se en</w>
M o
U S</w>
f re
dep end
sec urity</w>
st or
o s</w>
p t</w>
are as</w>
nec ess
man ufac
id ence</w>
e ts</w>
p ment</w>
u ti
moder n</w>
ci p
si a</w>
com es</w>
progra m</w>
a im
et c</w>
in de
fur ther</w>
f ail
li ve</w>
rec ent</w>
t op
av ail
inv ol
au gh
compan ies</w>
ar ti
re sist
h old</w>
lo s
jo b</w>
influ ence</w>
sim il
ser ies</w>
he av
m a</w>
fe atures</w>
gener al</w>
est s</w>
d ru
mater ials</w>
1 .
ch e
for ce</w>
t un
d one</w>
s am
ul t</w>
whe ther</w>
us h
mechan ism</w>
l s</w>
mon th</w>
im p
su ff
desig ned</w>
s le
an e</w>
loc k</w>
par amet
r ou
vel s</w>
se par
in k</w>
J i
g ed</w>
ist s</w>
ha ving</w>
pr ice</w>
c are
pro posed</w>
po ten
as h</w>
li st
H is</w>
y l
loo king</w>
lo g
bas is</w>
a th
mon ths</w>
al -
ke ts</w>
N o
dis ease</w>
c ause</w>
C ol
contin u
cer tain</w>
teach ing</w>
anci al</w>
m ess
P e
i ve</w>
M on
u red</w>
m om
mo ther</w>
e x</w>
oun ds</w>
ne eds</w>
c a</w>
be ha
min d</w>
mem ber</w>
a x
os p
s qu
el e
tr act</w>
hy dro
or ts</w>
serv ices</w>
i str
c are</w>
prac tice</w>
a ver
c all</w>
sti tu
au ti
si ze</w>
par ts</w>
Ac cor
se as
i ble</w>
stand ard</w>
c ed</w>
rang e</w>
d ynam
ide a</w>
In di
con duc
ill s</w>
anti -
pat ter
ac tive</w>
s em
c ell</w>
f ile</w>
ob ser
wom an</w>
am es</w>
lik ely</w>
oc k</w>
to tal</w>
ut es</w>
includ e</w>
tain ed</w>
an tly</w>
fri ends</w>
g n
gra ph
eas y</w>
se qu
P er
M an
Con clusion</w>
c anc
f low
in divid
l u
G er
b ir
fore ign</w>
n ature</w>
ben ef
le dge</w>
re -
beha vi
pi ec
a ther</w>
in j
clo se</w>
cl ass
techni que</w>
u an</w>
d ue</w>
m oun
tak en</w>
sel ves</w>
follow ing</w>
tur ned</w>
y ear
sa f
A p
sit uation</w>
do or</w>
me an
a -
t aking</w>
b it
Accor ding</w>
p ay</w>
p rec
com peti
ac ross</w>
m ine</w>
est er
is ed</w>
ing ly</w>
al most</w>
us h</w>
provid es</w>
succ ess
per f
pri v
d ly</w>
lit er
st age</w>
1 1</w>
om et
cle ar</w>
s -
a i</w>
w ide</w>
or ity</w>
re port</w>
r it
princi ple</w>
F in
speci fic</w>
de gre
pl ant</w>
n ers</w>
in -
1 2</w>
la w
C ha
equi pment</w>
nor mal</w>
b ac
iz ing</w>
C ar
se a</w>
it ary</w>
diag no
en e</w>
pr ise</w>
cl es</w>
regi on</w>
tran sp
appl ied</w>
a tion
ey es</w>
bo t
ind ustri
sa w</w>
St ates</w>
fron t</w>
off ic
thes is</w>
ac tivity</w>
ste el</w>
glob al</w>
avail able</w>
li ving</w>
f ru
do m</w>
M r</w>
op h
ad d
tra ining</w>
pl an</w>
Sh ang
l er</w>
distribu tion</w>
multi -
re fl
soci ety</w>
se ar
1 8
mo del
g s</w>
sol ution</w>
eng ine
fin ancial</w>
1 0
b s</w>
reg ul
x ed</w>
vi de
fil m</w>
belie ve</w>
he at</w>
algorith m</w>
ed ed</w>
X i
ra p
typ es</w>
w an
d ate</w>
ad min
vi ous</w>
fa ther</w>
ther ap
appro ach</w>
medi a</w>
ish ing</w>
n er
condi tion</w>
i or</w>
del i
de ath</w>
pho to
B ec
m it
as ked</w>
chil d</w>
ogra ph
sk in</w>
fr ic
am s</w>
com ing</w>
av o
sh ort</w>
ad op
pro g
ph one</w>
process ing</w>
res ources</w>
car b
n on
clin ical</w>
me et</w>
sh or
ne ar</w>
w o</w>
bl ack</w>
Americ a</w>
le t
do ing</w>
Jap an</w>
l ist</w>
prof es
t ell</w>
bo ard</w>
m ed</w>
Q u
M ic
U. S.</w>
as soci
w el
con ven
w ind
in t</w>
b ase</w>
be auti
ra y</w>
y et</w>
at ors</w>
us ually</w>
B ased</w>
reas on</w>
f el
requi re
cover ed</w>
polic y</w>
mus ic</w>
col le
S outh</w>
form s</w>
qu ar
pro te
Meth ods</w>
col or</w>
b ul
pre v
le ad</w>
ig ure</w>
sup por
atten tion</w>
B ri
beg an</w>
c ut</w>
, 000</w>
pos e</w>
1 5</w>
bec om
O ur</w>
part ment</w>
dra w
ad dition</w>
fri end</w>
ver sion</w>
difficul t</w>
l igh
signific ant</w>
us er</w>
mo ve</w>
I s
d ar
ag re
underst and</w>
ag ing</w>
en jo
sc ale</w>
b at
z ing</w>
e ful</w>
year -
y st
v al</w>
ab les</w>
n it
know ledge</w>
Wor ld</w>
g en</w>
poli tical</w>
a p</w>
l ate</w>
gre en</w>
th ird</w>
id ed</w>
w ell
chem ical</w>
tra de</w>
h on
lo ad</w>
f le
ag ed</w>
out side</w>
we ight</w>
ste p</w>
buil d</w>
ro l
F or
actu ally</w>
ex ec
vis ion</w>
m ol
ac ti
it able</w>
ili ties</w>
av es</w>
con nec
studi es</w>
proper ties</w>
star ted</w>
r ich</w>
ad ded</w>
f ast</w>
- based</w>
sp i
S er
s we
ast e</w>
d ol
differ ence</w>
ti t
pre sid
eval u
C en
appl ications</w>
re main
ec h</w>
h ind</w>
repor ted</w>
acc ur
lin es</w>
impl em
ec ts</w>
simil ar</w>
fir e</w>
establ ished</w>
l and
sen se</w>
resid ent</w>
h ours</w>
grou ps</w>
ach ed</w>
to -
proper ty</w>
j ud
new s</w>
A s
est ed</w>
kin ds</w>
st ory</w>
beauti ful</w>
b and</w>
R us
ther n</w>
h om
bec ame</w>
saf ety</w>
S e
R i
h ope</w>
g es</w>
t ou
up on</w>
am ount</w>
ar ing</w>
k et</w>
T o
cor rec
lear n</w>
re pres
mat ter</w>
Shang hai</w>
li qu
os ph
b an</w>
incre ased</w>
a h</w>
effici ency</w>
buil t</w>
br ing</w>
achi ev
f av
am a</w>
le vels</w>
reduc e</w>
an sw
par ty</w>
pl at
qu ick
or ing</w>
x im
ver s</w>
ac id</w>
fe el
ro r</w>
aver age</w>
develop ing</w>
e th
ca used</w>
k er</w>
ci al</w>
uc le
d ers</w>
s li
K ore
di t</w>
investig ate</w>
id es</w>
2 .
le y</w>
streng th</w>
en h
necess ary</w>
it ation</w>
lear ning</w>
ec ting</w>
S o
v ic
elec tro
at ory</w>
oun ded</w>
p ay
m ary</w>
O r
poten tial</w>
pre dic
Bec ause</w>
cen ter</w>
ex plo
no v
di es</w>
form er</w>
all s</w>
ord in
devel op</w>
S ch
sec tion</w>
tri c</w>
R o
sci ence</w>
Res ults</w>
pol y
bu y</w>
Jo h
off ice</w>
comp ared</w>
sti t
b ad</w>
run ning</w>
hel d</w>
de ep</w>
en ding</w>
so il</w>
meas ures</w>
sh e
dev ice</w>
so on</w>
w ar</w>
complet e</w>
ph ase</w>
acc ess</w>
F rom</w>
de b
1 00</w>
ig n
F ir
be hind</w>
long -
s un
res er
cap ital</w>
Th er
d own
ste ad</w>
tr ue</w>
re turn</w>
us ers</w>
o l</w>
vi ties</w>
is tic</w>
h ot</w>
ta il</w>
ing -
re f
f em
f ish</w>
compl ex</w>
o es</w>
th ous
B e
cap ac
er c
M any</w>
um p</w>
C ity</w>
s us
in side</w>
sh own</w>
no thing</w>
ar s</w>
st ro
inter est</w>
de al</w>
in duc
u n</w>
ar ri
an ese</w>
ver se</w>
me dic
ques tion</w>
bil lion</w>
h im
w all</w>
g ing</w>
al ized</w>
ast y</w>
E l
mo di
P resident</w>
v ill
P l
c old</w>
ch ers</w>
ge ts</w>
e ve</w>
b igg
t akes</w>
cent ury</w>
h owever</w>
te l</w>
b ly</w>
get ting</w>
mo de</w>
sh are</w>
tr u
so ft</w>
c lim
h osp
mon it
j i
sy ch
g oo
G en
H ar
c ros
d es</w>
pers on
mem bers</w>
al ization</w>
h ic
lay er</w>
ei ther</w>
F e
ex tr
ut ting</w>
comp os
st -
z z
lo st</w>
lo ad
M a
st o
ul e</w>
long er</w>
descri bed</w>
expec ted</w>
A fric
b es</w>
v ement</w>
ain ed</w>
provid ed</w>
sal es</w>
s ent</w>
tran sm
vide o</w>
mor ning</w>
' d</w>
t own</w>
boo ks</w>
in a</w>
st op</w>
al low</w>
sc ri
int ell
fam ous</w>
st ress</w>
si an</w>
bu t
paren ts</w>
ch all
year- old</w>
on y</w>
ex p
pop ular</w>
f f</w>
Wh ile</w>
ev ol
seas on</w>
d u
g ave</w>
Nor th</w>
happ y</w>
p ack
em erg
qu ite</w>
de mon
zh ou</w>
sur ve
g old</w>
sup pl
issu e</w>
sup ply</w>
cre ated</w>
ti s</w>
mil itary</w>
it self</w>
p ain</w>
read ing</w>
F r
leg al</w>
dynam ic</w>
auth or</w>
t ren
op port
i ev
se ts</w>
posi tive</w>
ph en
i er</w>
canc er</w>
gre at
los s</w>
is sion</w>
respon se</w>
P h
er a</w>
res pec
d ings</w>
phys ical</w>
them selves</w>
w ind</w>
pa red</w>
co ver</w>
e ding</w>
i um</w>
him self</w>
com par
imp act</w>
elec tric</w>
c ore</w>
f all</w>
acti vities</w>
charac ter</w>
det ail
off er</w>
e m</w>
tal k</w>
ban k</w>
si x</w>
r ic
low -
t ext</w>
l or
tre e</w>
u ment</w>
el ev
ne y</w>
D es
char ge</w>
comm er
ac tions</w>
med ical</w>
tu al</w>
f la
U S
bo x</w>
commun ity</w>
C oun
ob tained</w>
quick ly</w>
T V</w>
bra in</w>
e tic</w>
includ es</w>
anci ent</w>
m al
sa tis
di men
well -
st ly</w>
T i
a o
wr iting</w>
mem ory</w>
s ity</w>
P ol
hu man
ist er</w>
some one</w>
foc us</w>
direc tly</w>
produc e</w>
k y</w>
ou d</w>
ve hic
ne eded</w>
n ucle
centr al</w>
cul tural</w>
sp ir
me an</w>
in ning</w>
orig inal</w>
prot ection</w>
every thing</w>
conc ept</w>
experim ent</w>
me eting</w>
H ong</w>
resist ance</w>
degre e</w>
ad j
ch r
i -
min utes</w>
4 0</w>
y ed</w>
Th e
invest ment</w>
con centr
ar m</w>
si bility</w>
gener ation</w>
stric t</w>
m el
po or</w>
off ici
l y
b ab
un it</w>
d on
P r
Pe ople</w>
st ation</w>
pers onal</w>
dem and</w>
cr is
direc t</w>
wi fe</w>
cl assi
el ds</w>
e f</w>
bor n</w>
el ement</w>
te e</w>
mid dle</w>
es sion</w>
vi ol
improv ed</w>
sum mer</w>
p age</w>
rel ation</w>
e at</w>
cont ribu
w ood</w>
tw o-
commun ication</w>
st ore</w>
la un
id ent</w>
Jap anese</w>
ie f</w>
mom ent</w>
dou b
Y or
introduc es</w>
r icul
l ym
succ ess</w>
h op
S ince</w>
es tim
19 8
pr ices</w>
on line</w>
shi ps</w>
ob ject</w>
pol ice</w>
sear ch</w>
w est</w>
progra m
ic ity</w>
gi ves</w>
ad d</w>
l ess
om a</w>
y our
play ed</w>
it er
arch it
en ess</w>
pl ate</w>
car ried</w>
C O
contin ue</w>
M L</w>
work ers</w>
chang ed</w>
sch em
loo ked</w>
test ing</w>
techn ical</w>
ri t</w>
N ational</w>
om s</w>
ra ti
enter prise</w>
al ing</w>
fac tor</w>
br ought</w>
tar get</w>
strateg y</w>
um ents</w>
C or
paramet ers</w>
st one</w>
thin king</w>
I s</w>
res ol
func tions</w>
ou l
ac ks</w>
Euro pe</w>
on e-
dat ab
ter ms</w>
B ar
loc ated</w>
con ver
- year-old</w>
p sych
h ous
tr ying</w>
effici ent</w>
proc ed
in ner</w>
se ems</w>
op s</w>
ke ep
E ven</w>
A b
s ound</w>
parti cip
re ve
pp ing</w>
dam age</w>
spec ies</w>
z es</w>
M ost</w>
depend ent</w>
prob ably</w>
tur ing</w>
Euro pe
G e
uni que</w>
un g</w>
bre ak
Ther efore</w>
har d
r ound</w>
li er</w>
eas ily</w>
expres sion</w>
frequ ency</w>
cre te</w>
cl us
bel iev
enc ed</w>
sch o
as es</w>
profes sional</w>
mo vi
wan ted</w>
pa ir</w>
qu anti
li ves</w>
ter ed</w>
r ise</w>
wee ks</w>
any thing</w>
re ly</w>
l ack</w>
stat us</w>
wid ely</w>
lead ing</w>
pp er</w>
fa ult</w>
cor por
j our
issu es</w>
x i
ha ir</w>
em o
A S
og en
con n
in nov
sim ul
grow ing</w>
larg est</w>
T ra
comm it
lin ear</w>
fin al</w>
loc ation</w>
el ements</w>
model s</w>
o ts</w>
acc oun
inde x</w>
requi red</w>
gir l</w>
vol u
f res
st ability</w>
form ing</w>
qu es</w>
e u
ad ap
ail y</w>
sim ply</w>
engine ering</w>
Pro v
h ands</w>
met al</w>
presid ent</w>
2 5</w>
hist or
wh ose</w>
g er</w>
ex tre
custom ers</w>
tis h</w>
pl ease</w>
therap y</w>
capac ity</w>
wr ite</w>
behavi or</w>
i tion</w>
A m
sa ying</w>
M in
h en
ta x</w>
yn asty</w>
carb on</w>
rec ord</w>
ac her</w>
m ak
pris es</w>
tion ed</w>
di ed</w>
ain s</w>
produc ed</w>
K ong</w>
em ber</w>
consider ed</w>
plan ts</w>
uc k</w>
prov ed</w>
pre par
6 0</w>
rec ently</w>
mis sion</w>
Ob ama</w>
L i</w>
p ra
it es</w>
S te
priv ate</w>
l ation</w>
b ing</w>
Yor k</w>
patter n</w>
li z
w in</w>
w on
w il
st anding</w>
row n</w>
exist ing</w>
vis it</w>
s mo
im mun
em p
it ch</w>
ear th</w>
E ar
p al
partic ular</w>
expl ore</w>
ser ver</w>
ur ation</w>
co t
piec e</w>
ound ation</w>
pre -
go al</w>
av ing</w>
h it</w>
re t
your self</w>
r ough</w>
or ation</w>
inst all
en ded</w>
con st
al th</w>
l eng
sub ject</w>
ow s</w>
n ation</w>
ess es</w>
ne g
fir m</w>
c ard</w>
S ha
ha ps</w>
f as
e ous</w>
we b
recei ved</w>
ent ing</w>
avo id</w>
ec tive</w>
t ex
demon str
f ine</w>
Indi a</w>
w are</w>
cir cu
ra ther</w>
w on</w>
sur g
i m</w>
un d
20 10</w>
meas ure</w>
os is</w>
individ ual</w>
Fir st</w>
r ights</w>
gl ass</w>
heav y</w>
y i
pop ulation</w>
t age</w>
im medi
v it
li es</w>
sig nal</w>
Al though</w>
200 8</w>
bre ak</w>
g ri
ann oun
pres s</w>
require ments</w>
cl aim
vi ously</w>
dom es
ti l
trans fer</w>
sha pe</w>
st er</w>
sen si
pri mary</w>
acc ep
sur vi
hear d</w>
al lo
sm all
t um
prac tical</w>
p il
f our
n e</w>
wa ve</w>
play ing</w>
A I
ph il
P le
writ ten</w>
ev ent</w>
rul es</w>
un ity</w>
mess age</w>
ap e</w>
cont act</w>
Europe an</w>
dig ital</w>
et er
prev ent</w>
fe ature</w>
mag ne
direc tion</w>
ne arly</w>
E m
sim ulation</w>
ess or</w>
1 5
L et</w>
ast er
ec ture</w>
to m</w>
af ter
ai m</w>
il li
me t</w>
pol l
fre e
dec re
ser ious</w>
go es</w>
C an
w ise</w>
L a
f arm
um n</w>
ex erc
sp ring</w>
multi ple</w>
some times</w>
meas ure
stit ute</w>
nam ed</w>
in ated</w>
industri al</w>
pa th
offici als</w>
adv anced</w>
chec k</w>
en se</w>
compon ents</w>
perf ect</w>
dri ve</w>
ini ti
D uring</w>
ag ent</w>
af f</w>
S ci
P o
p h</w>
oc cur
colle ge</w>
ex pen
d on</w>
pow er
n ar
3 .
dru g</w>
t an
gra de</w>
D is
resear chers</w>
val ues</w>
a il</w>
m ut
r an</w>
enter prises</w>
et h</w>
bel ow</w>
sa fe</w>
al one</w>
hu ge</w>
jec tion</w>
u ary</w>
st ay</w>
e an</w>
x es</w>
ch an
anc y</w>
tu red</w>
Fin ally</w>
out put</w>
prog ress</w>
ach es</w>
l am
im ag
Inter national</w>
datab ase</w>
Joh n</w>
Bri tish</w>
cho ice</w>
k -
fri end
ang le</w>
t in
acc ount</w>
br an
bl ue</w>
exc ell
m ass</w>
conf ig
scre en</w>
every one</w>
r ates</w>
un c
S y
d ry</w>
plac ed</w>
characteris tic</w>
investig ated</w>
st and</w>
increas ing</w>
C A
t ool</w>
stud ent</w>
mar k</w>
pro jects</w>
st ock</w>
ar ies</w>
underst anding</w>
al ism</w>
the ore
com for
C l
num er
h our</w>
th -
tain s</w>
bo y</w>
ri es</w>
ri ver</w>
prote in</w>
h ur
re action</w>
f ying</w>
m ent
te sts</w>
rati o</w>
su itable</w>
i e</w>
est ing</w>
t our
re form</w>
combin ed</w>
st ar</w>
loo ks</w>
mean ing</w>
pur ch
organ ization</w>
ell ing</w>
determin ed</w>
U .</w>
st ing</w>
O f</w>
istr ation</w>
c y</w>
diagno sis</w>
I m
st ed</w>
domes tic</w>
2 -
1 6</w>
m ig
F ren
dec ision</w>
fil es</w>
ques tions</w>
te acher</w>
sol u
mar kets</w>
Wh y</w>
form ul
bal ance</w>
app ear
al ed</w>
200 9</w>
tra ff
Ri ver</w>
fi elds</w>
J u
partic ul
anc ing</w>
ab sor
ang e</w>
ag ue</w>
bri dge</w>
x i</w>
co al</w>
flo or</w>
fel t</w>
0 s</w>
roc k</w>
advant ages</w>
we ar</w>
S un
re comm
cris is</w>
at tem
b ol
cle an
re ach</w>
ti n</w>
charac ters</w>
ch ap
offic ial</w>
b ar</w>
success ful</w>
di um</w>
P re
p ass</w>
evalu ate</w>
pre ci
ra in</w>
z one</w>
s pl
cl u
er t</w>
ci ties</w>
b a
s n
ide as</w>
con crete</w>
1 6
di e</w>
N e
feel ing</w>
G oo
ti z
bi o
fac tory</w>
ey e</w>
mo ving</w>
sol ve</w>
L ond
spi rit</w>
su n</w>
en sure</w>
W ang</w>
B u
Y our</w>
We b</w>
view s</w>
gu ar
plan ning</w>
high ly</w>
ch i
fin ally</w>
Ple ase</w>
P ri
n a</w>
cle an</w>
to ols</w>
F ri
co -
1 8</w>
im ages</w>
ay be</w>
b ile</w>
ev idence</w>
ep tion</w>
Inter net</w>
tre ated</w>
pres sion</w>
cho ose</w>
sk y</w>
V i
adj ust
pl ays</w>
ear lier</w>
rele ase</w>
mo vement</w>
O c
techni ques</w>
reco gn
d h
scienti fic</w>
comp re
fail ure</w>
er r
F i
pl eas
G rou
in s
B r
W ell</w>
invol ved</w>
car ry</w>
s end</w>
t l
R ec
ur ban</w>
B i
te a</w>
reas on
min im
sc en
plac es</w>
1 4</w>
rec or
el low</w>
l as
hy per
rela tions</w>
con sist
H ere</w>
I ts</w>
dar k</w>
fe et</w>
ob s</w>
for ces</w>
becom es</w>
ti ves</w>
s or</w>
1 3</w>
A sia</w>
advant age</w>
b on
appe ar</w>
the tic</w>
su e</w>
ou ra
liqu id</w>
st aff</w>
is ing</w>
ter y</w>
in fl
plas tic</w>
re ference</w>
mol ec
no vel</w>
S O
ven tion</w>
cri min
a ther
r o</w>
cre dit</w>
d ang
ad s</w>
ach ing</w>
M ay</w>
lim ited</w>
experim ental</w>
associ ated</w>
ex ter
lo se</w>
rul e</w>
tr ou
b y
appro pri
pl ans</w>
k en</w>
we ster
au di
oper ating</w>
combin ation</w>
iz es</w>
d augh
sur ance</w>
der i
ve get
bu s</w>
w ine</w>
T u
ev ents</w>
Res ear
li br
a u</w>
s tic
medic ine</w>
dec ided</w>
pl i
ph as
str ong
wor ked</w>
repor ts</w>
is on</w>
beg inning</w>
om en
vi l</w>
thre e-
inter nal</w>
br and</w>
M us
re member</w>
in come</w>
tri bu
liter ature</w>
ex change</w>
H ol
eng ine</w>
pa id</w>
Gu ang
der ed</w>
compon ent</w>
Is ra
grad u
pre pared</w>
cr yst
c in
eff orts</w>
th ro
r ice</w>
A T
ne igh
environ mental</w>
Lond on</w>
competi tion</w>
hosp ital</w>
ag ricul
T wo</w>
gi ving</w>
fem ale</w>
att ack</w>
coun ter
p ac
re fer
ca uses</w>
val u
us eful</w>
igh t
E C
s ign</w>
S ec
ograph y</w>
deter mine</w>
Fren ch</w>
bac ter
bigg est</w>
dou ble</w>
A ustr
ve -
augh t</w>
neg ative</w>
achi eve</w>
wal k</w>
plan e</w>
pec ts</w>
p ool</w>
stor age</w>
enti re</w>
tre es</w>
pat h</w>
sit es</w>
il ing</w>
at ur
in str
l -
leng th</w>
res sed</w>
an a</w>
intell ig
vari ety</w>
le ts</w>
rele v
th us</w>
contain s</w>
co sts</w>
T im
qu ali
fru it</w>
er ror</w>
t ask</w>
wind ow</w>
f ell</w>
fac es</w>
st ain
wr ong</w>
es day</w>
ch am
M ed
g ni
To day</w>
dist ance</w>
g le</w>
as tic</w>
in stead</w>
ad y</w>
allow s</w>
D ev
teach ers</w>
por ts</w>
dis play</w>
con tract</w>
cer tain
w it
signific antly</w>
wor th</w>
ing ton</w>
b one</w>
pic ture</w>
Com p
reas ons</w>
air s</w>
compre hen
ut ri
tr al</w>
g ain</w>
traff ic</w>
manag er</w>
il s</w>
E ast</w>
phil os
f oundation</w>
answ er</w>
N A</w>
in stitu
to x
1 7
tran si
al ter
complet ely</w>
excell ent</w>
ch ief</w>
c ro
mat ch</w>
co operation</w>
el se</w>
0 -
ir on</w>
c ele
prov ince</w>
cri tical</w>
sa ve</w>
ad es</w>
il ed</w>
heal thy</w>
power ful</w>
vi a</w>
appe ared</w>
nucle ar</w>
ar ity</w>
benef it</w>
c ast
pro m
St ate</w>
eval uation</w>
enjo y</w>
st able</w>
goo ds</w>
de ad</w>
discus s</w>
anim als</w>
mi x
ac qu
direc tor</w>
sle ep</w>
B ra
I tal
bro ad
le ave</w>
ri st
ch ance</w>
ban ks</w>
aut y</w>
ad ver
le aves</w>
plat form</w>
tow ard</w>
sh ar
mo bile</w>
conven i
cra ft</w>
W est</w>
publ ished</w>
cor respon
at trac
p ite</w>
ong s</w>
control led</w>
and -
c um
wester n</w>
g ames</w>
Grou p</w>
he ar</w>
sp ent</w>
b loc
ex pan
f ab
phen omen
particul arly</w>
ver si
ass em
h us
tra in</w>
M c
magne tic</w>
gre ater</w>
tren d</w>
poin ted</w>
T e
P al
i di
tra vel</w>
scho ols</w>
man i
N ew
circu it</w>
vo ice</w>
ing u
O R
r ac
k new</w>
establ ish</w>
c ement</w>
w ants</w>
tit ude</w>
su d
jo int</w>
do g</w>
tur ns</w>
Kore a</w>
mig r
con tr
ar gu
cir cul
play ers</w>
ear th
y uan</w>
oo th</w>
E S
volu me</w>
tow ards</w>
y er</w>
back ground</w>
al ist</w>
Afric a</w>
I N
signific ance</w>
d aily</w>
sub st
inter face</w>
D ynasty</w>
g row</w>
t a</w>
cou ple</w>
effec tively</w>
con sci
n y</w>
Prov ince</w>
thr ough
S im
ma xim
dis eas
A R
f illed</w>
on ed</w>
ste ps</w>
fol low</w>
J ust</w>
gr an
promo te</w>
view ed</w>
organ ic</w>
dre am</w>
add ress</w>
pre vious</w>
h em
v il
reg ar
ci es</w>
en s
commer cial</w>
s low
M il
vill age</w>
y l</w>
a di
S econ
E ach</w>
n ur
D ec
pres ents</w>
hol e</w>
Th rough</w>
m ic</w>
B er
lym p
fic ial</w>
ist an</w>
J an
op ening</w>
prot ect</w>
wat ch</w>
typ ical</w>
k illed</w>
19 7
3 -
surve y</w>
m it</w>
k ers</w>
see m</w>
ac a
ed ge</w>
fres h</w>
e es</w>
um in
foo t
st ates</w>
includ ed</w>
enc oura
D S</w>
measure ment</w>
m as
gen e</w>
s .</w>
ic ate</w>
sp ok
sp end</w>
r and
A N
o v
wor l
an ks</w>
C an</w>
b lock</w>
op ened</w>
clo sed</w>
cat eg
ho tel</w>
appl y</w>
custom er</w>
L u
tri ed</w>
m ist
ri age</w>
ish ment</w>
opport unity</w>
li fe
sp read</w>
chang ing</w>
as pects</w>
t ent</w>
sol id</w>
flow ers</w>
se x</w>
olog ies</w>
real ize</w>
oc cu
ec tor</w>
4 .
pop ul
re pe
sk ills</w>
g one</w>
br ation</w>
A P
se em
r ats</w>
Y es</w>
On ce</w>
n utri
p es</w>
war m</w>
sel y</w>
f ly</w>
U sing</w>
r ig
1 2
an -
fi ber</w>
j u
struc tures</w>
long- term</w>
8 0</w>
sp ac
follow ed</w>
rel ig
consi der</w>
f all
reg ular</w>
pass ed</w>
stre am</w>
uni versity</w>
m ir
mo ved</w>
implem entation</w>
s la
J un
5 00</w>
war ds</w>
ar rang
over all</w>
200 7</w>
cour t</w>
s in
obser ve</w>
play er</w>
det ection</w>
relev ant</w>
oun ding</w>
oper ations</w>
num bers</w>
lead ers</w>
process es</w>
fr ac
et er</w>
ul es</w>
ch ro
bot tom</w>
gu id
co ol
a e</w>
ru b
f igure</w>
sh op</w>
fu el</w>
M i
pati ent</w>
fas hi
uni ties</w>
scienti sts</w>
L ist
discus ses</w>
no ise</w>
r ural</w>
high est</w>
anim al</w>
pos es</w>
at a</w>
har mon
ren t</w>
import ance</w>
benef its</w>
ro te</w>
res ource</w>
e k</w>
al though</w>
ther mal</w>
immedi ately</w>
sta tis
L t
T ech
ou se
P C
be auty</w>
z er
sel l</w>
c oo
m aster</w>
in struc
fav or
t on
fra me</w>
lat est</w>
analy ze</w>
for ced</w>
en z
b its</w>
v ac
l ic
manufac turing</w>
divid ed</w>
ab or
u tive</w>
re ached</w>
appropri ate</w>
f igh
P L
p ir
off ers</w>
histor ical</w>
tion ary</w>
w ish</w>
respec tively</w>
stre et</w>
c row
s ex
ni a</w>
n ative</w>
inj ury</w>
f ing
movi e</w>
set ting</w>
fam il
O lymp
sh ot</w>
c ast</w>
pro to
inf ection</w>
W ester
ob jects</w>
c utting</w>
D av
cy cle</w>
w rote</w>
th ir
id ity</w>
se ven</w>
dev ices</w>
pl ing</w>
ri er</w>
chan nel</w>
ic ated</w>
O ff
lin k</w>
it or</w>
electr onic</w>
defin ed</w>
gener ally</w>
w aste</w>
sid es</w>
bab y</w>
ear ing</w>
1 7</w>
consum ption</w>
n ation
Al so</w>
con fir
ra tive</w>
s outh</w>
rela tive</w>
philos oph
f at</w>
S i
is es</w>
de pen
d ance</w>
extre m
e ast</w>
de partment</w>
chap ter</w>
m ale</w>
foo t</w>
g ol
v ent
as sist
sec re
ex hi
L ord</w>
t ol
eff ort</w>
ch ain</w>
st op
sch ed
lead er</w>
mechan ical</w>
ati ves</w>
De partment</w>
squ are</w>
f it</w>
sp orts</w>
C am
th ough
clim ate</w>
em phas
ac ts</w>
organ iz
Ear th</w>
ess ential</w>
os s</w>
remain s</w>
prac tic
diseas es</w>
transm ission</w>
k ept</w>
f ig
stand ards</w>
pro mis
W ash
er ship</w>
reduc ed</w>
reco very</w>
p un
tra vel
care er</w>
ro se</w>
sta ur
i ties</w>
re staur
win ter</w>
dro p</w>
N ot</w>
sig n
r ying</w>
su it</w>
p et
th es</w>
B ank</w>
nor th</w>
moun tain</w>
B l
Ch ar
in dependent</w>
tr ack</w>
dem ic</w>
cam pa
medi um</w>
I I</w>
dr in
on om
sh oo
el ess</w>
str y</w>
dec is
de tail</w>
per formed</w>
de mo
- up</w>
schem e</w>
be y
p ost</w>
j obs</w>
re view</w>
fl ic
let ter</w>
it ems</w>
ac tiv
ori ented</w>
it ting</w>
induc ed</w>
L in
star ting</w>
las er</w>
is ol
admin istration</w>
B ud
A C
sec on
law s</w>
actu al</w>
ro ot</w>
2 4</w>
thous ands</w>
tion ing</w>
conn ection</w>
larg er</w>
f ight</w>
bus in
guar an
calcul ation</w>
at tribu
sum mar
a head</w>
chall eng
tre at</w>
s er</w>
th in</w>
tig h
k il
curren tly</w>
adop ted</w>
differ ences</w>
A no
meas ured</w>
a tically</w>
cont ents</w>
ro t
pe ace</w>
en tion</w>
S tre
yi eld</w>
I S
por ary</w>
ther efore</w>
de stro
n an
ser ve</w>
spec tive</w>
fo rest</w>
spe ech</w>
concentr ation</w>
spe ak</w>
detail s</w>
bey ond</w>
Goo gle</w>
bl ed</w>
sam ple</w>
ar ms</w>
Rus sia</w>
rap id</w>
an k
pre t
vir us</w>
respon sible</w>
sti mul
br ight</w>
bi tion</w>
in hi
t y
ass ess
pu ts</w>
re main</w>
fe ar</w>
as ks</w>
daugh ter</w>
pro p
my self</w>
allow ed</w>
ow ned</w>
per haps</w>
ti le</w>
al le
investig ation</w>
T I
Sch ool</w>
autom atic</w>
obser ved</w>
Ger many</w>
inst ance</w>
or al</w>
f ts</w>
ch lor
car s</w>
progra ms</w>
c ell
m outh</w>
sp ot</w>
der ing</w>
ous ness</w>
di d
proced ure</w>
S ome
el im
m osph
Co .</w>
m ac
monit oring</w>
dom in
syst em
beg in</w>
ide al</w>
k es</w>
den sity</w>
correc t</w>
ord ers</w>
is ms</w>
dr ink</w>
T ur
tu be</w>
vehic le</w>
ut y</w>
mil k</w>
s ent
H er</w>
4 -
ter ing</w>
est er</w>
ci l</w>
app ears</w>
Fr ance</w>
r ace</w>
f ill</w>
cli ent</w>
aster n</w>
comm and</w>
sel ection</w>
V al
call s</w>
sur r
p as
al ia</w>
coll ection</w>
op en
tru th</w>
ra ise</w>
exerc ise</w>
dis covered</w>
ru p
dru gs</w>
Wash ington</w>
it ch
Ano ther</w>
aff ected</w>
Cen ter</w>
it ors</w>
ab ilities</w>
mark eting</w>
sym p
si on
S p
co ff
aff ect</w>
appear ance</w>
in surance</w>
P C</w>
qu ake</w>
conduc ted</w>
ji ang</w>
ob vious</w>
ma them
200 6</w>
improv ement</w>
On ly</w>
den ly</w>
J es
ad ding</w>
great ly</w>
s ort</w>
wa it</w>
a f</w>
es tiv
ti an</w>
ann ual</w>
con flic
0. 0
cre ating</w>
hus band</w>
recei ve</w>
inf ra
M ore</w>
ris ing</w>
pos s
rela tively</w>
rele ased</w>
cer ti
stat ement</w>
F ac
lear ned</w>
h ost</w>
ag g
Par ty</w>
B rit
st atic</w>
pow der</w>
mat es</w>
test ed</w>
ox y
l un
Tech n
dis ci
s ources</w>
archit ecture</w>
al og
ori ties</w>
inter esting</w>
Ch r
re ality</w>
Americ ans</w>
cul tiv
t ab
res sion</w>
new sp
M S</w>
elev ision</w>
bu d
Mon day</w>
quar ter</w>
at mosph
de ep
deb t</w>
S C
k ids</w>
1 -
sugg ested</w>
sol di
en ter</w>
al es</w>
St ud
Bo th</w>
we ap
cat aly
tal king</w>
experim ents</w>
fi xed</w>
ex pect</w>
dri ving</w>
clu b</w>
tur ning</w>
wee k
requ est</w>
ad ditional</w>
T ran
all -
hel ps</w>
ini tial</w>
m es</w>
Engl and</w>
ma tic</w>
o ke</w>
op tical</w>
s old</w>
c os
H ouse</w>
ra d
e ight</w>
determin ation</w>
en em
igh tly</w>
C ap
famil ies</w>
R ep
nam es</w>
dimen sional</w>
vol tage</w>
per s</w>
comp ut
wat er
w oo
produc ing</w>
post -
we ather</w>
Wester n</w>
th or
M id
t ac
improv ing</w>
exter nal</w>
el er
ra ised</w>
y ellow</w>
b le
Ch rist
small er</w>
ph y
res pect</w>
happ ened</w>
clo thes</w>
D r.</w>
h ouse
prepar ation</w>
9 0</w>
gu ide</w>
princi ples</w>
5 .
on to</w>
7 0</w>
li ver</w>
con sul
accur acy</w>
through out</w>
h es
X ML</w>
v ice</w>
g ent
un its</w>
ordin ary</w>
d y
invest ors</w>
comprehen sive</w>
ad a</w>
M at
ar di
li ved</w>
fl ight</w>
ha m</w>
C ali
R ob
sc ope</w>
transp or
ester day</w>
any one</w>
mo tion</w>
integr ated</w>
sel ected</w>
F igure</w>
fla v
sub -
en ge</w>
web site</w>
e ating</w>
E R
H I
class es</w>
sh an</w>
dra w</w>
Gen eral</w>
in put</w>
announ ced</w>
a er
S en
5 -
pain ting</w>
regi onal</w>
ex ac
gu n</w>
requi res</w>
we b</w>
li ons</w>
f ro
doc ument</w>
ra w</w>
D em
a es
Mic ro
el op
g on</w>
E ver
libr ary</w>
Zh ang</w>
s y</w>
2 1</w>
h ot
cl ust
wa iting</w>
Resear ch</w>
1 3
inv ention</w>
gr and
fil ter</w>
p el
con trac
requ ire</w>
E very</w>
sever e</w>
bo dies</w>
6 .
200 5</w>
regi ons</w>
innov ation</w>
com man
hel ped</w>
connec ted</w>
mor t
Fri day</w>
ish es</w>
s ong</w>
k er
descri bes</w>
inter pre
H er
s lo
ter min
cir cum
u gh
. .</w>
in spec
dist inc
w is
ir s</w>
C re
ex ist</w>
ur g
tri p</w>
S a
ent ary</w>
K ing</w>
land sc
The ir</w>
serv ation</w>
g ar</w>
p al</w>
sel ling</w>
plac ement</w>
integr ation</w>
hu a</w>
t aste</w>
Comp any</w>
we ak
v oc
sal t</w>
seem ed</w>
becom ing</w>
et ry</w>
patter ns</w>
ev ent
adver tis
separ ate</w>
B C</w>
pre gn
in o</w>
istr y</w>
bl ing</w>
Me an
r are</w>
ma p</w>
mi xed</w>
ox id
an ch
fe as
c el
F ur
ag s</w>
tiv eness</w>
ma il</w>
ab road</w>
li p
chr on
de man
es ti
p ap
m as</w>
mar riage</w>
bir th</w>
bro ther</w>
mil es</w>
theore tical</w>
be aring</w>
clus ions</w>
n av
e en</w>
Jun e</w>
evol ution</w>
s per
cros s-
gir ls</w>
u pper</w>
re turned</w>
in sul
S ou
me at</w>
Man ag
gen etic</w>
l ands</w>
continu ous</w>
cle arly</w>
k et
employ ees</w>
sequ ence</w>
ass es</w>
poll ution</w>
tis sue</w>
fo rec
p ump</w>
p ut
mo tor</w>
ti me
solu tions</w>
i on
s at
Ge or
tion ally</w>
oc c
W ar</w>
prec ision</w>
hard ware</w>
ti ci
Pro f
st oc
ed -
j us
in jection</w>
1 9</w>
2 00</w>
photo graph
r in
us ual</w>
jo in</w>
Sun day</w>
l ar</w>
de -
fin ished</w>
pur pose</w>
fun dam
pret ty</w>
al co
g ment</w>
F u
S ep
Dav id</w>
per c
config uration</w>
estiv al</w>
hol ding</w>
S T
Ger man</w>
G i
ow er</w>
agre ement</w>
no on</w>
no te</w>
ten ance</w>
pro per</w>
prof it</w>
n or</w>
s co
2 2</w>
u als</w>
pi pe</w>
ent y</w>
grad ually</w>
Un der</w>
main tain</w>
reason able</w>
O p
I C
hol ds</w>
ev ening</w>
P or
doc uments</w>
d red</w>
increas es</w>
surg ery</w>
Jes us</w>
dep th</w>
cre ation</w>
tr ust</w>
id ly</w>
piec es</w>
exper ts</w>
for tun
dri ven</w>
sen ior</w>
stud ying</w>
min ute</w>
fra me
em br
ar t
lar s</w>
com position</w>
ap ping</w>
am ing</w>
f lower</w>
exam ination</w>
ti ll</w>
Th ree</w>
thous and</w>
fi f
comp ens
ap preci
go als</w>
hun dred</w>
ch ur
Tu esday</w>
o red</w>
ri x</w>
ten d</w>
stra ight</w>
O h</w>
com b
extrem ely</w>
p ure</w>
S m
ush ed</w>
techn ologies</w>
t elevision</w>
we ak</w>
t ings</w>
au l</w>
s ac
l ying</w>
l ity</w>
ac i
B efore</w>
respon sibility</w>
S ing
bro ken</w>
ur s
analy zes</w>
pres er
M al
lim it</w>
D ay</w>
sc ene</w>
de st
Mar ch</w>
Dev elop
oper ative</w>
radi ation</w>
ir ing</w>
en cies</w>
b ound
por tion</w>
mo stly</w>
Isra el</w>
prin t</w>
indic ated</w>
bl es</w>
contain ing</w>
es cap
sp ending</w>
met ers</w>
s and</w>
Rep u
sensi tive</w>
g yp
I ra
s low</w>
ic a</w>
ox ide</w>
G over
flu id</w>
employ ment</w>
be am</w>
though ts</w>
know s</w>
buil dings</w>
Mean while</w>
achiev ed</w>
pl us</w>
lab or</w>
sch ol
ex trac
In stitute</w>
gni tion</w>
concer ned</w>
meas uring</w>
y ang</w>
g ate</w>
List ing</w>
exist ence</w>
indic ate</w>
a h
acc eler
enh ance</w>
Ap ple</w>
Th ose</w>
func tional</w>
f ting</w>
ed ly</w>
sh op
P u
1 4
fe ed</w>
reser vo
m u
Cha p
Gre at</w>
er e
ci tiz
ar g
sam ples</w>
repres ent
gg ing</w>
ab ol
. ..</w>
ar -
ac ute</w>
z y</w>
go ti
doc tor</w>
ar my</w>
off ered</w>
hy po
keep ing</w>
admin ist
mo on</w>
Sy stem</w>
B en
sha ped</w>
conc ep
ci vil</w>
Ju ly</w>
A P</w>
re stric
ul ti
appl ic
swe et</w>
tou ch</w>
mor ph
per form</w>
chall enge</w>
re pl
paramet er</w>
H T
Cali for
mar ried</w>
Brit ain</w>
pro of</w>
Par k</w>
B as
ro oms</w>
ic h
star s</w>
men tioned</w>
b om
val ve</w>
sec ond
ap s</w>
suff ici
cont ain</w>
co m</w>
is land</w>
friend ly</w>
c ab
is c
A ug
sur pris
n ice</w>
Ch ris
s mar
M E
re ven
cop y</w>
L ast</w>
re in
con stitu
de fic
success fully</w>
provid ing</w>
z o
f al
Wh ite</w>
Ch en</w>
cas h</w>
ver i
w ing</w>
ha m
K e
spec tr
p ts</w>
expl ain</w>
es ides</w>
maxim um</w>
b un
C D
expen sive</w>
ra m
El ec
fin ite</w>
f ast
reduc tion</w>
writ er</w>
am ent</w>
C ong
analy ses</w>
happ en</w>
d og
An g
fa ir
ess ed</w>
Stre et</w>
e ing</w>
complet ed</w>
acc ept</w>
al ty</w>
res ses</w>
jec ted</w>
a wa
C P
re r</w>
ba g</w>
S P
7 .
dol lars</w>
cele br
Min ister</w>
p ig
gar den</w>
fu n</w>
ul l</w>
H un
er ous</w>
si x
const ant</w>
cul ar</w>
r out
b ought</w>
mathem a
identi fied</w>
fi x
continu ed</w>
cl oud</w>
S ol
struc tural</w>
tum or</w>
ar ily</w>
free dom</w>
y al</w>
200 0</w>
th ick
on ing</w>
par k</w>
coun t</w>
S tr
the ast</w>
tom s</w>
happ iness</w>
con clud
val ent</w>
be d
fam ili
a id</w>
extr a</w>
ne goti
main tenance</w>
accur ate</w>
Bud dh
op tion</w>
Rus sian</w>
Jan uary</w>
hand le</w>
sugg est</w>
O ther</w>
campa ign</w>
Sh en
ash ed</w>
ac king</w>
dol lar</w>
Li u</w>
sugg ests</w>
discus sion</w>
Y ang</w>
exac tly</w>
sh oul
S atur
fun ds</w>
m aybe</w>
liz ation</w>
ing ing</w>
As soci
qu ick</w>
fle x
T r
b ound</w>
ne ur
dom ain</w>
c ross</w>
equ al</w>
stra in</w>
phenomen on</w>
comp ound</w>
pack age</w>
sa ving</w>
real ized</w>
agre ed</w>
m os
om ic</w>
gra ph</w>
D u
p -
A g
ra id</w>
D NA</w>
col umn</w>
v an
H en
equ ation</w>
Austr alia</w>
see ing</w>
believ ed</w>
Ap pl
A u
C ur
bri ef
car di
conf idence</w>
modi fied</w>
li e</w>
In d
p y
id ing</w>
exam ples</w>
con ference</w>
ag ency</w>
le aving</w>
I T</w>
inter ested</w>
speci fic
nor m
remo te</w>
- time</w>
hous ing</w>
v acc
e um</w>
lin ed</w>
l ights</w>
he ight</w>
sugg es
inter view</w>
mit ted</w>
draw ing</w>
Th urs
sud denly</w>
in ts</w>
fun d</w>
dre ds</w>
a c</w>
Califor nia</w>
t ele
Ch ang
com mon
ear n</w>
ben e
ten sion</w>
clo sely</w>
is s
T ai
lab or
posi tions</w>
sing le-
wil d</w>
gra in</w>
coff ee</w>
h ood</w>
Ar ticle</w>
S uch</w>
fin ding</w>
pe ak</w>
spe aking</w>
Chap ter</w>
200 4</w>
s now</w>
contr ast</w>
trans formation</w>
neigh b
fashi on</w>
at ever</w>
air craft</w>
compl icated</w>
res c
w illing</w>
vol un
c ool</w>
P ak
sou thern</w>
in her
9 .
3 5</w>
tri al</w>
ac tor</w>
Li ke</w>
hor iz
Th us</w>
R u
philosoph y</w>
lo ts</w>
igh t-
Thurs day</w>
reduc ing</w>
eas ier</w>
cri me</w>
aca demic</w>
A sian</w>
su peri
d ress</w>
mod ule</w>
transp ort</w>
acc um
am m
tain ing</w>
t led</w>
ol der</w>
E gyp
R om
re viewed</w>
sw itch</w>
ac ting</w>
corpor ate</w>
C E
paren t</w>
m ice</w>
al k
vir tual</w>
cl aim</w>
no tes</w>
Y u
exc ept</w>
mid -
ph osph
foc used</w>
ha el</w>
st ories</w>
min ing</w>
I B
8 .
struc tion</w>
2 3</w>
certain ly</w>
19 6
hous es</w>
tal ks</w>
H ave</w>
analy zing</w>
earth quake</w>
y ers</w>
R O
formul a</w>
su gar</w>
disci pl
mat rix</w>
oc cas
fa ir</w>
es is</w>
conveni ent</w>
comp et
arri ved</w>
tra ding</w>
ill ustr
sol ar</w>
wh om</w>
fl at</w>
deri ved</w>
pres ence</w>
d ust</w>
ash ing</w>
consum ers</w>
k ill</w>
confir med</w>
correspon ding</w>
compar ison</w>
ro bo
remo ve</w>
Af gh
p us</w>
A ra
reli able</w>
vis ual</w>
ob tain</w>
gener ated</w>
e ed</w>
S hi
p ick</w>
ur ies</w>
landsc ape</w>
spok es
s ale</w>
pri l</w>
in ate</w>
polic ies</w>
H an</w>
mar ks</w>
si t</w>
w ire</w>
introduc e</w>
He alth</w>
an o</w>
H y
sec tor</w>
oc y
der al</w>
A pril</w>
require ment</w>
li ber
B ro
i o</w>
T -
par ties</w>
str ing</w>
y esterday</w>
An aly
hol id
G r
consum er</w>
ther e
be ar</w>
slow ly</w>
Kore an</w>
S E
ra il
F ore
20 11</w>
electr ical</w>
exper t</w>
consi sts</w>
Ever y
P i
calcul ated</w>
as ing</w>
2 8</w>
concer n</w>
mor al</w>
resol ution</w>
ab sol
f ted</w>
per spective</w>
um s</w>
sha res</w>
part ner</w>
he ating</w>
sh el
z en</w>
stre t
sou l</w>
E d
cont em
sel ect</w>
d il
atmosph ere</w>
uti lity</w>
ther wise</w>
ay ed</w>
trou ble</w>
identi fy</w>
net works</w>
M r
of -
Col le
reve aled</w>
j um
sist er</w>
pres sed</w>
b ow
Mic hael</w>
r on</w>
G ol
ser i
as sets</w>
D el
suppor ted</w>
M or
wel come</w>
ro b
S am
event ually</w>
show ing</w>
ick en</w>
experi enced</w>
Sep tem
log ic</w>
g ather
H o
ro ll</w>
ne uro
re d
Y et</w>
ec tions</w>
U K</w>
sl ightly</w>
sil ver</w>
ob viously</w>
k a</w>
symp toms</w>
R ed</w>
X -
Pro duc
P S</w>
S up
1 ,
uti li
A re</w>
S -
am ed</w>
H igh</w>
conven tional</w>
after noon</w>
defin ition</w>
inter ests</w>
frame work</w>
r a</w>
Septem ber</w>
cam era</w>
O r</w>
b order</w>
trans lation</w>
tim ate</w>
impl ement</w>
distribu ted</w>
compos ed</w>
es h</w>
n ations</w>
car rying</w>
expl ained</w>
ep ing</w>
W ith
oc ity</w>
ug gl
4 5</w>
spe ak
be at</w>
decre ase</w>
descri be</w>
ag ree</w>
di strict</w>
C T</w>
P E
ti red</w>
second ary</w>
B us
sit ting</w>
ful l-
bir ds</w>
tre ating</w>
po t
co ordin
Bra z
top ic</w>
fail ed</w>
stat e-
compos ite</w>
mess ages</w>
- to-
or row</w>
or ial</w>
Di rec
met er</w>
autom atically</w>
optim ization</w>
I O
relation ships</w>
prof essor</w>
ig ned</w>
B ur
ac compl
we d
ch er</w>
L E
J er
maj ority</w>
di ab
Wh ere</w>
y a</w>
sh oes</w>
f aster</w>
dri ver</w>
se as</w>
P aul</w>
ul tr
ric h
deli very</w>
id den</w>
U se</w>
Coun ty</w>
vehic les</w>
l uc
S A
famili ar</w>
v ul
I D</w>
ak ed</w>
enc ing</w>
sto red</w>
o de</w>
ad vis
no c
deli ver
cer e
G ar
fac ing</w>
Wh o</w>
wal king</w>
sm ooth</w>
aw are</w>
fir st-
f ans</w>
sig ns</w>
bat tle</w>
f uc
su stain
inter action</w>
g as
f at
d inner</w>
te ams</w>
wat ching</w>
fil ms</w>
N i
ex ic
run s</w>
Indi an</w>
c ut
ici ous</w>
hor se</w>
adv ice</w>
ex tra
as sum
for get</w>
auth ors</w>
No v
fin ish</w>
experi ences</w>
w alls</w>
cont ext</w>
optim al</w>
ic on</w>
sc op
organiz ations</w>
ph arm
2 6</w>
B el
st ood</w>
sp on
G ra
T H
g al
cur ve</w>
pic tures</w>
ex pos
co c
bo at</w>
Colle ge</w>
oper ate</w>
lin ked</w>
sig ned</w>
l es
on e
e ply</w>
br ings</w>
l ay</w>
vari able</w>
mach ines</w>
ho l</w>
recor ds</w>
transpor tation</w>
pre vention</w>
S il
um -
ic acy</w>
chr onic</w>
tour ism</w>
detail ed</w>
cli ents</w>
b a</w>
rap idly</w>
le af</w>
hun dreds</w>
A C</w>
elec tion</w>
y o</w>
four th</w>
fi es</w>
leg is
c e
N E
tro p
crimin al</w>
agricul tural</w>
M exic
I S</w>
sha red</w>
occu r</w>
fundam ental</w>
c aught</w>
occur red</w>
ac ted</w>
S al
de fault</w>
N an
vel ocity</w>
pass eng
molec ular</w>
nor thern</w>
fac ilities</w>
T ang</w>
ari an</w>
sat ell
list ed</w>
gi ant</w>
figh ting</w>
reli ability</w>
tic ism</w>
se ed</w>
i red</w>
no t
ang er</w>
m ur
introduc tion</w>
b oss</w>
sus pen
no tice</w>
se at</w>
soldi ers</w>
un k</w>
th west</w>
mag az
g ro
ac he</w>
exec utive</w>
man age</w>
La w</w>
shi ft</w>
s ight</w>
pul se</w>
af raid</w>
1 00
i bility</w>
dec ades</w>
C C
ne u
acc ord
se l</w>
L oc
ser ved</w>
prof ile</w>
si vely</w>
control ling</w>
un to</w>
reco gnition</w>
t asks</w>
human s</w>
zz y</w>
increas ingly</w>
cl ou
ap h
tol er
sit u
Olymp ic</w>
p um
ob jective</w>
C up</w>
Gover n
comfor table</w>
quanti ty</w>
fer red</w>
di a</w>
wor ry</w>
sm ile</w>
emerg ency</w>
sto res</w>
A D
In stead</w>
al ists</w>
p are</w>
gg ed</w>
A ir
row s</w>
vi bration</w>
t ech</w>
2 7</w>
bi ological</w>
dis h</w>
cor ro
pho to</w>
Techn ology</w>
cer em
M ag
stop ped</w>
co l</w>
s and
see k</w>
ail s</w>
Secon d</w>
th ick</w>
instr ument</w>
feel ings</w>
cor relation</w>
cor ner</w>
ac ked</w>
min ister</w>
en tr
emp ty</w>
op pos
load ing</w>
expres sed</w>
v as
no tic
l a</w>
Am ong</w>
appro xim
she et</w>
rol ling</w>
pro pos
ex port</w>
alle l</w>
des pite</w>
ag ues</w>
in tr
extr action</w>
enter ed</w>
ad ing</w>
cr iter
a str
3 00</w>
restaur ant</w>
favor ite</w>
am ic</w>
r at
n ine</w>
fi er</w>
d .</w>
purch ase</w>
Sci ence</w>
de eply</w>
dra ul
coll ap
radi o</w>
inten sity</w>
w earing</w>
g an
cre ative</w>
D an
est ate</w>
l in</w>
pos si
happ ens</w>
ab il
att acks</w>
we alth</w>
sh ir
curren cy</w>
C L
te dly</w>
laun ched</w>
decre ased</w>
L o
Cen tral</w>
bel t</w>
M ore
compl ex
be an</w>
great est</w>
comp are</w>
et ary</w>
q ing</w>
individ uals</w>
cop per</w>
manag ed</w>
at titude</w>
sub jects</w>
k id
ush ing</w>
expan sion</w>
won der
G ood</w>
t ant</w>
s ad
g er
d a</w>
di et</w>
R em
W u
newsp aper</w>
oxy gen</w>
car ds</w>
lead s</w>
cryst al</w>
E con
str ation</w>
reg ulation</w>
allo y</w>
foot ball</w>
p ages</w>
al o
Satur day</w>
doub le-
dro me</w>
at eral</w>
arti cles</w>
Dem oc
ci vil
auth orities</w>
cap ability</w>
ell ed</w>
M ing</w>
M ad
ag ents</w>
fin dings</w>
200 3</w>
resist ant</w>
3 2</w>
sh ell</w>
om as</w>
c ing</w>
busin esses</w>
v ation</w>
op tions</w>
Y ear</w>
H am
sha d
assess ment</w>
h an</w>
I P</w>
cover ing</w>
W al
bran ch</w>
electr icity</w>
t ells</w>
sem i-
os en</w>
shor t-
Aug ust</w>
p ush</w>
estim ated</w>
sa v
prin ting</w>
intellig ence</w>
an tic</w>
W at
w aves</w>
in ion</w>
bus y</w>
C lin
circum st
def ense</w>
us i
d in
com mod
claim s</w>
Christ mas</w>
Se a</w>
valu able</w>
poli tics</w>
off ering</w>
fir ms</w>
R E
ar ray</w>
jour n
Can ada</w>
ver tical</w>
for d</w>
streng then</w>
mem br
b la
tro ops</w>
thre at
fur n
lo ved</w>
control ler</w>
br al</w>
Ex per
bacter ia</w>
de ploy
An y</w>
fig ures</w>
ber g</w>
program ming</w>
doc um
sol ved</w>
gre w</w>
Q i
mus cle</w>
institu tions</w>
p utting</w>
ti tle</w>
Coun cil</w>
ough ly</w>
educ ational</w>
re vol
moun tains</w>
numer ical</w>
indic ates</w>
adv ance</w>
c able</w>
as pect</w>
A ut
expres s</w>
bigg er</w>
A M
M os
b o</w>
f ounded</w>
enem y</w>
pl ed</w>
sen sor</w>
3 0
ri d</w>
V er
resid ents</w>
f it
n ings</w>
T ake</w>
sw it
fe ed
er o
attem pt</w>
opport unities</w>
care fully</w>
S pr
b loo
farm ers</w>
M et
ec ological</w>
dang erous</w>
en try</w>
cot ton</w>
gener ate</w>
Ji ang
ta x
con v
Oc to
uc k
re place</w>
des er
Su n</w>
draul ic</w>
list en</w>
gu ard</w>
par allel</w>
fin ance</w>
Develop ment</w>
stic k</w>
alco hol</w>
con clusion</w>
low ing</w>
form at</w>
N et
ris ks</w>
D ar
mat ure</w>
ti ous</w>
differ enti
acc ident</w>
ex tent</w>
v es
re pair</w>
cat ch</w>
s at</w>
ow ner</w>
k ne
cont ra
ph ones</w>
mo ist
la ugh
S an</w>
ph ot
guaran tee</w>
reservo ir</w>
ali an</w>
H igh
at -
Q ing
mil lions</w>
challeng es</w>
hy bri
D B
prom ise</w>
P aci
plan et</w>
foo ds</w>
5 0
M oun
Octo ber</w>
l em
V ir
ed y</w>
r h
u gg
as is</w>
P a
R el
s ession</w>
conflic t</w>
M er
Y ang
sp ar
ra ge</w>
believ es</w>
smo ke</w>
jo ined</w>
install ation</w>
bro ad</w>
L -
mar g
l ers</w>
administ rative</w>
ul tra
head s</w>
m entation</w>
tin y</w>
cool ing</w>
Li fe</w>
liter ary</w>
b ird</w>
Le ague</w>
posi t</w>
B a
laun ch</w>
employ ed</w>
eff icacy</w>
ro man
tom orrow</w>
Micro soft</w>
wal ked</w>
time -
hy dr
y outh</w>
per man
V E</w>
whe el</w>
sp ect</w>
se di
drin king</w>
claim ed</w>
L OR
star ts</w>
shop ping</w>
sh aring</w>
orig in
r or
te eth</w>
parti cles</w>
a tively</w>
t ons</w>
J in
t y-
exten ded</w>
Cha m
co ating</w>
Paci fic</w>
fa ith</w>
W il
pr ic
tra dition</w>
wid th</w>
frequ ently</w>
su s</w>
g ast
st om
stu ff</w>
a vi
for th</w>
Geor ge</w>
equi valent</w>
gu y</w>
in tra
om atic</w>
A N</w>
flex ible</w>
t ance</w>
grow n</w>
cl ick</w>
Ital y</w>
F ran
Con fuc
st ations</w>
D r</w>
h ang
person nel</w>
cre d
S el
sign als</w>
B e</w>
H um
res sive</w>
colle agues</w>
pre pare</w>
gr ass</w>
zer o</w>
wor se</w>
issu ed</w>
More over</w>
strateg ic</w>
monit or</w>
w ra
pa st
sp ort</w>
bud get</w>
rub ber</w>
po etry</w>
f an</w>
W illi
Prof essor</w>
Associ ation</w>
membr ane</w>
doub t</w>
K en
19 5
accep ted</w>
op inion</w>
depen ds</w>
immun e</w>
re mark
orig in</w>
lin ks</w>
ab und
ali ties</w>
ro gen</w>
pharm ac
construc ted</w>
vers al</w>
syn thesis</w>
c at</w>
tw ice</w>
minim um</w>
install ed</w>
dro pped</w>
audi ence</w>
concer ns</w>
f are</w>
dec or
de pos
cast ing</w>
man ner</w>
am in</w>
cap it
hu an</w>
is tics</w>
bu ying</w>
P ho
ast s</w>
suffici ent</w>
stre ets</w>
O ver</w>
person ality</w>
mas sive</w>
tis tic</w>
por ted</w>
v ast</w>
direc tory</w>
whe at</w>
industri es</w>
assem bly</w>
Lt d.</w>
pul l</w>
pos sibility</w>
pl e
l ake</w>
transi tion</w>
P en
tis m</w>
scri pt</w>
reg im
Ro ad</w>
bo ys</w>
a us
M ac
es c
nec k</w>
jo y</w>
the ories</w>
we igh
chur ch</w>
cr uc
frac ture</w>
Uni on</w>
worl d
o id</w>
tr igg
dec ide</w>
des ire</w>
We b
th ly</w>
de fe
te en
T er
New s</w>
coll ected</w>
S tu
remo ved</w>
refl ect</w>
fl ying</w>
di pl
Re u
ra b
wh atever</w>
me al</w>
identi ty</w>
win ning</w>
tr ic
mo tiv
wel ding</w>
hosp it
it ely</w>
B ush</w>
them e</w>
t i</w>
t ank</w>
spectr um</w>
pay ment</w>
th anks</w>
2 9</w>
versi ties</w>
Le e</w>
Th ough</w>
govern ments</w>
draw n</w>
form al</w>
W all</w>
larg e-
O S</w>
tion -
follow s</w>
nav ig
mem ber
l y-
hal f-
Some times</w>
D C</w>
sh o
degre es</w>
competi tive</w>
strateg ies</w>
relig ious</w>
moder n
exist s</w>
si zed</w>
c lock</w>
auth or
depend ence</w>
clean ing</w>
dis aster</w>
Su b
LOR D</w>
Cong ress</w>
ev il</w>
volun te
s ile</w>
3 1</w>
ultr as
oc ean</w>
X in
i ther</w>
dog s</w>
sen s
di vision</w>
con sol
cor ru
F o
cap able</w>
gen es</w>
ess ing</w>
C -
ke y
do ors</w>
control s</w>
n an</w>
wonder ful</w>
ob jec
arti ficial</w>
T a
O B
hel ping</w>
fall ing</w>
on a</w>
over -
re tro
lu x
d uty</w>
coun ty</w>
c up</w>
it em</w>
micro -
hy draulic</w>
Ira q</w>
g ap</w>
col ors</w>
L ake</w>
plas ma</w>
brief ly</w>
S ong</w>
I M
chi p</w>
ath le
mar ked</w>
ac t
desig ning</w>
Q ing</w>
re present</w>
a de
Par t</w>
al umin
gradu ate</w>
dist ingu
auth ority</w>
res sing</w>
bir th
qui et</w>
de pression</w>
as king</w>
U N
suppor ting</w>
dec ade</w>
g la
cir cle</w>
hop es</w>
exten sion</w>
ari a</w>
up d
Ti an
po t</w>
ig er
syn drome</w>
typ ically</w>
spir it
M ini
En g
Con clusions</w>
see king</w>
ad ly</w>
speci fied</w>
Ch il
langu ages</w>
pain t</w>
gra v
c ru
appl ying</w>
separ ation</w>
enc oun
c av
C al
wat er-
vo te</w>
ent -
def ine</w>
con ve
an ning</w>
loo p</w>
hom es</w>
e ties</w>
C S
Con tro
inspec tion</w>
D ra
ter -
consci ousness</w>
tu ally</w>
J ames</w>
no ted</w>
de posit</w>
f loo
or -
T ri
B A</w>
de als</w>
clo thing</w>
wa vel
rand om</w>
B esides</w>
ra m</w>
o bl
f illing</w>
y e</w>
streng th
D A</w>
o therwise</w>
po c
l ung</w>
mis sing</w>
A L
ob ile</w>
Or gan
k itch
In de
olog ist</w>
et es</w>
ter ror
ess ence</w>
certi fic
at e
fer ti
expos ure</w>
kil omet
ap prov
Fe br
bound ary</w>
det ected</w>
S ar
Li ver
H el
accoun ting</w>
weap ons</w>
pe ac
ar ts</w>
four -
E duc
ne ar
prov in
proper ly</w>
pri me</w>
is s</w>
in ery</w>
re ver
r at</w>
d um
d ay
7 5</w>
t ears</w>
gi ft</w>
so -
r ation</w>
fac ed</w>
ra tional</w>
det ect</w>
descri ption</w>
W H
wed ding</w>
st ages</w>
implem ented</w>
el ed</w>
te en</w>
rou te</w>
fu zzy</w>
A le
sex ual</w>
regul ations</w>
b ill</w>
superi or</w>
proced ures</w>
R eg
Com mun
bi a</w>
re ci
un less</w>
sc ore</w>
electr on</w>
dis k</w>
C i
analy sed</w>
D P</w>
repres ents</w>
n om
call ing</w>
read s</w>
practic es</w>
id a</w>
l ap
di amet
ch osen</w>
cam pus</w>
non linear</w>
ati n</w>
po ver
le g</w>
S um
plan ned</w>
vac u
ast ing</w>
s ongs</w>
rel ates</w>
common ly</w>
s on
per cent
hur t</w>
lay ers</w>
thre at</w>
vic tory</w>
del ay</w>
dis p
photo s</w>
concep ts</w>
R ic
zh en</w>
vari ation</w>
pre viously</w>
no se</w>
con stra
Febr uary</w>
week end</w>
der ly</w>
ha o</w>
cover s</w>
g ear</w>
dec line</w>
Govern ment</w>
P at
Afric an</w>
il er</w>
Bus iness</w>
contin ues</w>
classi c</w>
mechan isms</w>
establ ishment</w>
bro ke</w>
No te</w>
recor ded</w>
Com mit
uc e</w>
sp ati
mak ers</w>
ch ol
ter ri
sh ock</w>
le d
hel p
C er
ner ve</w>
car cin
t ations</w>
al ize</w>
intell ec
Fore ign</w>
p ace</w>
ar re
ex tract</w>
A t
compu ters</w>
de my</w>
v ent</w>
re put
sched ul
nit ure</w>
pass ing</w>
nat ur
ad ed</w>
A ca
fac ts</w>
syn thes
sw im
olog ic</w>
o di
bre aking</w>
no de</w>
identi fication</w>
ser um</w>
in ser
and ed</w>
C N
ul ated</w>
inter net</w>
T E
cust om</w>
6 -
t all</w>
chem istry</w>
j e
T om</w>
expl oration</w>
or ph
syn chron
ch icken</w>
and a</w>
compens ation</w>
2 5
met abol
i ang</w>
secon ds</w>
co efficient</w>
strong er</w>
Reu ters</w>
the -
bu b
te ach</w>
dist ur
D o
or dered</w>
agricul ture</w>
F re
ther more</w>
survi val</w>
sim pl
re fin
h oo
leg s</w>
P eter</w>
im aging</w>
cerem ony</w>
org an</w>
. com</w>
lead ership</w>
st ands</w>
s ounds</w>
f oun
dre ams</w>
C our
prop ag
her self</w>
ret ary</w>
en th
our selves</w>
de formation</w>
C u
develop ers</w>
on tal</w>
g un
decis ions</w>
di r
or th
beg ins</w>
sequ ences</w>
per or</w>
me ant</w>
holid ay</w>
ha bit
Ser vice</w>
model ing</w>
occur s</w>
lo sing</w>
S ur
w er</w>
so dium</w>
shar p</w>
uni versities</w>
su me</w>
occ up
s u</w>
x ing</w>
U R
Pak istan</w>
L in</w>
labor atory</w>
ri de</w>
un t</w>
ste ady</w>
t ories</w>
effec tiveness</w>
W om
gra m
fal se</w>
guid ance</w>
migr ation</w>
mar ine</w>
re di
f et
consist ent</w>
sol ving</w>
psych ological</w>
Y un
T re
res in</w>
n ic</w>
jud ge</w>
ten d
class ical</w>
thin ks</w>
in y</w>
tru ly</w>
Nov ember</w>
char ged</w>
suppor ts</w>
T C
T S</w>
u k
bl ic
Par is</w>
L ove</w>
B et
tre as
g am
ca using</w>
Dec ember</w>
seri ously</w>
real -time</w>
pol ym
se is
eg gs</w>
Mid dle</w>
em ail</w>
sec ure</w>
f arm</w>
in ary</w>
out standing</w>
classi fication</w>
dre w</w>
allow ing</w>
cour ses</w>
be i</w>
a uc
M y
200 1</w>
a qu
W he
g ained</w>
ap proved</w>
ain ing</w>
su res</w>
ill er</w>
b ic
Mini stry</w>
fac tion</w>
cal ci
G o
ou red</w>
M aybe</w>
reli ef</w>
r ics</w>
co ding</w>
mid d
larg ely</w>
c ess</w>
Manag ement</w>
suff ering</w>
el eg
citiz ens</w>
or ous</w>
b es
auth en
ti de</w>
att ached</w>
pan el</w>
desig ns</w>
advertis ing</w>
D S
qu o
over seas</w>
P -
200 2</w>
sp oke</w>
therap eu
centr e</w>
us age</w>
oppos ite</w>
Chr ist</w>
doc tors</w>
ar tistic</w>
on ate</w>
im possible</w>
qu e
bri ef</w>
ro of</w>
P op
Ang el
tu m</w>
sc at
jus tice</w>
ing redi
accoun ts</w>
la id</w>
gl y
0.0 5</w>
L ook</w>
Liver pool</w>
log ical</w>
ag er</w>
S ic
al t</w>
estim ate</w>
ol ate</w>
vis itors</w>
co very</w>
lo an</w>
ch ann
S we
So ci
e di
Afgh an
ast ers</w>
t ally</w>
infra structure</w>
su m</w>
offic er</w>
resul ting</w>
am ine</w>
W ater</w>
load ed</w>
al li
p et</w>
ke ys</w>
ex ha
Commit tee</w>
sustain able</w>
S cot
D on
roc ks</w>
it y-
comp ati
satell ite</w>
part ners</w>
el i
wor st</w>
str ange</w>
cre am</w>
b rown</w>
o il
ris es</w>
construc t</w>
3 6</w>
os c
c and
blo g</w>
I sl
viol ence</w>
arti st</w>
re fr
trans form</w>
ren ess</w>
contem porary</w>
acqu is
v a</w>
phy si
car rier</w>
et ed</w>
bo l</w>
V ol
t el
remain ed</w>
J ack
mix ture</w>
Is land</w>
str uggl
wh ere
sk ill</w>
help ful</w>
character ized</w>
t aught</w>
represent ative</w>
w et</w>
thick ness</w>
b ond</w>
Mexic o</w>
ri d
wat ers</w>
lo g</w>
Meth od</w>
veget ables</w>
spokes man</w>
r hy
r ings</w>
M R
deman ds</w>
manufac ture</w>
stoc ks</w>
but ton</w>
rel ess</w>
pro sper
kitch en</w>
H P</w>
near by</w>
fol k</w>
A ir</w>
quar ters</w>
k ni
bur n</w>
mak er</w>
in k
e .</w>
bu ff
n es
comm ents</w>
sim pli
ch air</w>
Afghan istan</w>
ugg le</w>
statis tics</w>
reven ue</w>
foc uses</w>
ap art
D E
st am
dis per
youn ger</w>
inv as
M s.</w>
ph y</w>
e astern</w>
Ital ian</w>
mi x</w>
escap e</w>
bas in</w>
id -
A S</w>
mac ro
argu ment</w>
Pro ject</w>
10 -
ha z
exp and</w>
s —
f alls</w>
mis s</w>
ur o</w>
demonstr ated</w>
C ul
tal ent</w>
jour ney</w>
Repu blic
am bo
conduc t</w>
let ters</w>
gol den</w>
ex posed</w>
Des pite</w>
fore ver</w>
I ran</w>
olog ists</w>
err ors</w>
h idden</w>
ge omet
regar ded</w>
imag ine</w>
ra ising</w>
A -
intellig ent</w>
world wide</w>
mathema tical</w>
inde ed</w>
ex plan
poten ti
go t
bre ast</w>
m ouse</w>
b in</w>
pay ing</w>
en der</w>
b al</w>
N ext</w>
v ar
tow er</w>
sugges tions</w>
ra tions</w>
ak s</w>
W ill</w>
alumin um</w>
S ever
influ enced</w>
fe eding</w>
3 3</w>
sensi tivity</w>
wis dom</w>
re l</w>
ter rit
clust er</w>
wind ows</w>
ob servation</w>
g lo
am oun
difficul ty</w>
k o
re min
tion ality</w>
fab ric</w>
an i</w>
shor t
z a</w>
ing er</w>
regi st
produc es</w>
ari o</w>
ref ers</w>
et te</w>
row ing</w>
se es</w>
on ics</w>
Com pared</w>
percent age</w>
d os
ad hes
al d</w>
inc idence</w>
rail way</w>
T ex
k noc
bur ning</w>
p ile</w>
hol ders</w>
ak ers</w>
t elling</w>
aff airs</w>
W ind
Bu il
prot ective</w>
om y</w>
comp ounds</w>
el ing</w>
proto col</w>
uti lization</w>
techn ological</w>
ne ed
4 00</w>
co ast</w>
hol es</w>
clou ds</w>
alter native</w>
pl ug
comfor t</w>
ap pointed</w>
absor ption</w>
es sive</w>
diamet er</w>
rec ep
pri or</w>
air port</w>
cre ates</w>
recogn ized</w>
Sing ap
pl ates</w>
M S
Fur thermore</w>
categ ory</w>
movi es</w>
S pec
Di strict</w>
new ly</w>
Guang zhou</w>
s in</w>
Per haps</w>
ing dom</w>
ra tic</w>
ot es</w>
W u</w>
E ff
f ate</w>
F ol
ro ots</w>
numer ous</w>
n -
expl ains</w>
bo w</w>
S pan
F estival</w>
Braz il</w>
reput ation</w>
en able</w>
Off ice</w>
suff ered</w>
tar gets</w>
bl ack
aes thetic</w>
re tri
spati al</w>
sym bol</w>
d ose</w>
rec ur
em ul
ar d
s ons</w>
list ening</w>
feed back</w>
ell o</w>
war ning</w>
it ate</w>
ph r
smar t</w>
clo th</w>
manag ers</w>
t ough</w>
ap poin
P S
own ers</w>
h es</w>
conn ect</w>
mut ual</w>
magaz ine</w>
hand ling</w>
st abil
sent ence</w>
is ation</w>
de dic
M A</w>
Ab out</w>
yl ene</w>
op ol
air e</w>
hear ing</w>
emo tional</w>
pur i
k in</w>
cor n</w>
slo pe</w>
speci ally</w>
fur niture</w>
C .</w>
co at</w>
t our</w>
m ood</w>
en -
Spr ing</w>
Egyp t</w>
er ies</w>
val id
therapeu tic</w>
L ong
produc tive</w>
sa d</w>
k illing</w>
set tl
ch air
aim s</w>
A B
vis ible</w>
G ames</w>
equ ations</w>
adv oc
ac et
IB M</w>
pres cri
ax is</w>
ar c
Z e
particip ants</w>
r ical</w>
mo v
trac king</w>
W el
pro li
care ful</w>
accord ance</w>
pic ked</w>
pl ain</w>
tele phone</w>
in ev
j i</w>
ch oc
transp a
pl enty</w>
ac le</w>
Y uan</w>
corro sion</w>
tain ment</w>
enh anced</w>
Ad min
neigh bor
Y e
so- called</w>
read ers</w>
re turns</w>
d ong</w>
associ ation</w>
acc id
Tim e</w>
S in
circul ation</w>
deli ver</w>
appro aches</w>
I C</w>
uni form</w>
T em
Educ ation</w>
m ass
ti e</w>
spirit ual</w>
C r
m ate</w>
li ft</w>
fi re
con version</w>
pro spec
eg g</w>
am bi
surr ounding</w>
ligh ting</w>
b id</w>
4 8</w>
los ses</w>
e able</w>
str uggle</w>
pul led</w>
ab and
M an</w>
EC TI
sub si
pen et
see ds</w>
k i
ti ps</w>
ab led</w>
D ong
recomm ended</w>
plan tation</w>
ograph ic</w>
mis sed</w>
circumst ances</w>
co ach</w>
Ph ili
mo ves</w>
c ep
bat tery</w>
ic -
wh ol
stro ke</w>
S to
pet ro
is sions</w>
bloc ks</w>
be l</w>
lik es</w>
S pain</w>
S S
comput ing</w>
bot tle</w>
exten sive</w>
col our</w>
Sec urity</w>
com ment</w>
PL C</w>
ut ely</w>
br on
an xi
won der</w>
par ticle</w>
ot a</w>
p ted</w>
demo cr
ambo o</w>
keep s</w>
sec tions</w>
under ground</w>
cu ts</w>
M ake</w>
summar ized</w>
influ ences</w>
D O
trans l
ici an</w>
at us</w>
th ri
ou ts</w>
j et</w>
bre a
recei ving</w>
D en
vis ited</w>
tem porary</w>
t ang
a ud
suppl ies</w>
d am</w>
commit ted</w>
h all</w>
crow d</w>
J ud
gr at
B al
stor m</w>
const antly</w>
nar row</w>
v ector</w>
sh ore</w>
ill a</w>
vacu um</w>
ap art</w>
m es
norm ally</w>
an ter
got ten</w>
f s</w>
approv al</w>
clo ser</w>
W i
n in
hydro gen</w>
dec reas
di versity</w>
ou ter</w>
J ack</w>
fra g
l ad
ain t</w>
secon d-
char ges</w>
categ ories</w>
OB J
dec om
em ia</w>
gri d</w>
th row</w>
em bed
co w</w>
R os
I P
Ar t</w>
differ ential</w>
erg y</w>
T ok
mat ters</w>
I r
M ulti
rad ar</w>
z ation</w>
6 5</w>
spec tro
cri ticism</w>
ad di
sur prise</w>
E -
invol ves</w>
di am
J our
wat ched</w>
ur ities</w>
trans action</w>
possi bly</w>
reg ard</w>
inten ded</w>
exten d</w>
enti rely</w>
bel ongs</w>
OBJ ECTI
H or
pris on</w>
n as
n one</w>
bas ically</w>
tend ency</w>
et -
am az
alog ue</w>
perman ent</w>
princi pal</w>
belie f</w>
y an</w>
pi pel
y me</w>
b ags</w>
H a
K u
tun nel</w>
em entary</w>
contain ed</w>
z er</w>
nur sing</w>
ligh t
enth usi
ay ing</w>
dr illing</w>
S ee</w>
c ig
Lt d</w>
resc ue</w>
fa il</w>
St and
e ously</w>
flo od</w>
et e</w>
horiz ontal</w>
F -
Ar my</w>
gu ess</w>
f ant
ser ving</w>
ade qu
w an</w>
O ld</w>
in spi
sh ine</w>
par tial</w>
g -
t ables</w>
calcul ate</w>
Zh ou</w>
lo t
en ever</w>
tem ple</w>
cho os
sing ing</w>
coo king</w>
P an
th i
in test
ig u
um b
rol led</w>
Re gi
C D</w>
tic ket</w>
n u
mat ching</w>
exhi bition</w>
Sic huan</w>
pover ty</w>
extre me</w>
OBJECTI VE</w>
ac compan
eng aged</w>
che ap</w>
tur ers</w>
v in
encoura ge</w>
b ilities</w>
remain ing</w>
smo king</w>
ic als</w>
hybri d</w>
b row
ro ads</w>
cruc ial</w>
acc o</w>
min eral</w>
ab str
H ist
8 -
or r
fru its</w>
ste am</w>
awa reness</w>
diab etes</w>
t one</w>
ash es</w>
b and
fe wer</w>
defic i
re placed</w>
adjust ment</w>
p in
notic ed</w>
exam ined</w>
t ative</w>
f ishing</w>
birth day</w>
au to
Vi et
or m
air -
P ower</w>
simul tan
pri ority</w>
consider ing</w>
Mar k</w>
situ ations</w>
Gre en</w>
graph ic</w>
ec e</w>
tre m
Rob ert</w>
con vers
deb ate</w>
nit rogen</w>
iz h
fe els</w>
dic tion</w>
ne ither</w>
mi er</w>
inst all</w>
3 4</w>
achiev ements</w>
robo t</w>
tar get
sp or
cr ack</w>
chann els</w>
bl ind</w>
Wh ich</w>
sac ri
sil k</w>
bin ding</w>
all ed</w>
til ity</w>
promo ting</w>
house hold</w>
v ig
O ver
ang ry</w>
AI DS</w>
sm ell</w>
hy s
3 8</w>
tem por
ag e-
se al</w>
fe deral</w>
alo g</w>
y cl
j ump</w>
m on</w>
k m</w>
organ ized</w>
al izing</w>
Fr anc
obl ig
al bu
G lob
rec ru
H osp
pre fer</w>
dimen sion</w>
L earn</w>
P R
H u</w>
surg ical</w>
isol ated</w>
pro portion</w>
et ings</w>
destro yed</w>
L ar
Chris tian</w>
tu rer</w>
sha ft</w>
1 1
s tic</w>
n is</w>
sor ry</w>
gu ests</w>
con serv
a ur
ch -
om er
infl ation</w>
ent re
b ited</w>
every where</w>
defin itely</w>
Exper im
mani fe
dis covery</w>
br inging</w>
ast ed</w>
Aca demy</w>
th ank</w>
j in</w>
M ong
underst ood</w>
fe at
aut umn</w>
ali ve</w>
Confuc i
pers ons</w>
domin ant</w>
tal ked</w>
sa ved</w>
dis charge</w>
col on
a ths</w>
ad ds</w>
de vo
d or
gu il
D ata</w>
speci alized</w>
ri sts</w>
ell a</w>
R en
low s</w>
em bar
Ho tel</w>
h ome
g al</w>
Singap ore</w>
y ard</w>
J ew
ation -
ar tery</w>
W ed
gre g
ap ped</w>
4 0
subst anti
conclud ed</w>
Des ign</w>
I T
le ather</w>
be ach</w>
separ ated</w>
part ments</w>
def ects</w>
col or
B ay</w>
tigh t</w>
ch er
arm ed</w>
fel low</w>
A tl
emerg ing</w>
br illi
ar bit
D oc
B re
bran ches</w>
S till</w>
ju ice</w>
Tim es</w>
Sever al</w>
inc ident</w>
furn ace</w>
th ou</w>
mat ely</w>
lun ch</w>
dang er</w>
bre ad</w>
1 st</w>
work er</w>
m ly</w>
t ong
o ven</w>
g all
de duc
ust ed</w>
ves sel</w>
el astic</w>
Wom en</w>
difficul ties</w>
promo tion</w>
d est</w>
M ary</w>
4 2</w>
it tle</w>
fin ds</w>
fi ve-
f ed</w>
pap ers</w>
ow ns</w>
fi x</w>
feas ibility</w>
cont am
adop t</w>
ques tion
l on
commit tee</w>
Hum an</w>
vi v
mi um</w>
cl am
tr ace</w>
E r
re new
forec ast</w>
In formation</w>
i on-
th read</w>
ic e-
reve al</w>
per sist
f usion</w>
contribu tion</w>
w s</w>
pe p
m ar</w>
ill ary</w>
An ti
ro les</w>
proli fer
k ind
Sci enti
B lack</w>
tur b
arrang ed</w>
L ou
ed itor</w>
attrac tive</w>
convers ation</w>
9 5</w>
stri ke</w>
well- known</w>
o tic</w>
V en
deliver ed</w>
per me
C H
heav en</w>
am i</w>
mir ror</w>
boo k
every body</w>
calci um</w>
We i</w>
lo ans</w>
un known</w>
strong ly</w>
q i</w>
pleas ure</w>
S an
P res
Elec tr
N O
amoun ts</w>
3 7</w>
up date</w>
bl u
un ion</w>
St ar
d ness</w>
D .</w>
sc al
f old</w>
ec k</w>
D ef
B or
pro spect</w>
sh ops</w>
p y</w>
friend ship</w>
se g
enti ally</w>
ten ed</w>
flow s</w>
multi pl
le gen
a e
inf ected</w>
contain er</w>
war ded</w>
har m</w>
3 D</w>
p en</w>
vic tim
coun tr
combin ing</w>
over come</w>
um es</w>
im port</w>
comp ression</w>
de aling</w>
seis mic</w>
large- scale</w>
Whe ther</w>
O per
Med ical</w>
eth nic</w>
ren al</w>
process or</w>
ac qui
cap ture</w>
ili an</w>
for cement</w>
democr acy</w>
remark able</w>
F l
pro min
tom y</w>
P O
ci v
revol ution</w>
is o
c ry</w>
st ones</w>
analy sts</w>
inj ured</w>
col um
al leg
prof its</w>
el -
K ar
termin al</w>
fu r</w>
surpris ed</w>
sc ra
psych ology</w>
comm unities</w>
n t</w>
mach inery</w>
cal i
Shen zhen</w>
t les</w>
sched ule</w>
y cle</w>
P A</w>
refl ects</w>
bo ost</w>
WH O</w>
can di
an ni
T or
lin der</w>
scho ol
hon or</w>
om ing</w>
commun ications</w>
un able</w>
promis ed</w>
pl u
load s</w>
em plo
chair man</w>
ti er</w>
sty les</w>
u ps</w>
in si
dam aged</w>
Pri me</w>
prepar ing</w>
es sions</w>
atten d</w>
aff ects</w>
ren ce</w>
M O
ri ers</w>
So vi
mort g
O ut
hand ed</w>
Joh n
acquis ition</w>
complex ity</w>
ack now
Gen er
inv ited</w>
cap abilities</w>
recogn ize</w>
cere bral</w>
are t
at en</w>
B ill</w>
7 -
b att
offic ers</w>
moist ure</w>
tig ue</w>
pur su
l en</w>
fe e</w>
consci ous</w>
w ash</w>
vacc ine</w>
ex clus
civil ization</w>
gr in
rout ine</w>
j unc
c o</w>
satis fied</w>
o ste
Z hu
f ish
S ud
dec la
min er
ici ans</w>
feas ible</w>
algorith ms</w>
Contro l</w>
u ted</w>
sli de</w>
Li by
G M</w>
h eter
achiev ement</w>
ti fication</w>
vit ro</w>
s ick</w>
shir t</w>
b ath
fair ly</w>
C ust
b amboo</w>
ti p</w>
resear ches</w>
li min
CO N
fi br
equi pped</w>
arti sts</w>
S he
ul i
n ic
ch est</w>
cam p</w>
schol ars</w>
less on</w>
fle xi
elim inate</w>
cou pling</w>
L ev
evalu ated</w>
iz er</w>
inter ference</w>
h i</w>
L ab
lay out</w>
shoul der</w>
P y
sou p</w>
wi reless</w>
ner v
fac il
a res</w>
Gre ek</w>
ud es</w>
Ch ic
bre ath</w>
vol can
r ating</w>
dh ood</w>
it ted</w>
wh it
po em</w>
l l
carcin oma</w>
ic it</w>
T P</w>
por tra
an xi</w>
ne gl
y es</w>
Ch el
6 00</w>
har m
- in</w>
optim um</w>
dedic ated</w>
on es
stom ach</w>
Stud y</w>
pri mar
pow ers</w>
qu ery</w>
D -
Ar sen
temper atures</w>
sh ut
ax ial</w>
pro be</w>
fil tr
cy linder</w>
aim ed</w>
g a
ag ers</w>
th res
profes sion
x y</w>
W en</w>
cataly st</w>
fif th</w>
sup posed</w>
n on</w>
lin ing</w>
paren tly</w>
T yp
V -
t ment</w>
il legal</w>
gre en
sen ding</w>
D aily</w>
p es
shad ow</w>
remo val</w>
U N</w>
Ch eng
F A</w>
v ital</w>
satis faction</w>
natur ally</w>
m m</w>
ang i
suff er</w>
p ack</w>
p o</w>
it -
an ol</w>
E U</w>
K o
tra ined</w>
ro g
m ation</w>
l ac
gi a</w>
ori entation</w>
Eng ine
manag ing</w>
s now
manufac turers</w>
O K</w>
A R</w>
calcul ating</w>
she ep</w>
k o</w>
M s</w>
struc k</w>
bre eding</w>
am pli
h ill</w>
Med ic
vari ables</w>
rec ession</w>
Isra el
F our</w>
to tally</w>
lat eral</w>
bon ds</w>
With out</w>
discipl ine</w>
C R
Span ish</w>
cham ber</w>
ber ry</w>
re presented</w>
V is
simul ated</w>
refl ection</w>
low est</w>
w ashing</w>
s h</w>
re verse</w>
n ick
exam ine</w>
pro found</w>
gu ys</w>
lat ter</w>
mon ary</w>
9 9</w>
regi stration</w>
br ands</w>
vul ner
ver sions</w>
po ems</w>
ne ural</w>
gl uc
m apping</w>
M el
tox ic</w>
high- speed</w>
pur poses</w>
fa tigue</w>
W ould</w>
M em
met ric</w>
ent ally</w>
Hosp ital</w>
t ail
predic tion</w>
polym er</w>
op position</w>
mag ic</w>
cap sul
entre pre
col leg
st on</w>
to b
d ynasty</w>
requ ests</w>
particip ate</w>
nutri tion</w>
p tions</w>
ess els</w>
z i</w>
p ments</w>
omet er</w>
pil ot</w>
mist ake</w>
legis lation</w>
ac r
M P
D id</w>
oper ator</w>
inter ior</w>
ad just</w>
Mong ol
ign ment</w>
candi date</w>
lim its</w>
pre cip
contribu te</w>
prote ins</w>
H an
midd le-
demonstr ate</w>
prot ected</w>
break s</w>
phys ics</w>
produc tivity</w>
commer ce</w>
g y
su red</w>
peri ods</w>
exec ution</w>
W ar
writ ers</w>
super vision</w>
kni fe</w>
fall en</w>
p ounds</w>
be t</w>
rhy th
regist ered</w>
pregn ancy</w>
pr oud</w>
l uck</w>
sc ar
refl ected</w>
Mr s.</w>
intellec tual</w>
ul ate</w>
pro poses</w>
perf ec
mis sile</w>
b ath</w>
cro ps</w>
uni versal</w>
A M</w>
relig ion</w>
di al
resear ched</w>
pe o
coll ect</w>
l ady</w>
ex t
el derly</w>
bal anced</w>
Willi am</w>
G o</w>
re pa
predic t</w>
fac ial</w>
Tok yo</w>
oxid ation</w>
de aths</w>
au to</w>
attribu te</w>
sh oc
an ium</w>
os si
inter medi
Y an
poli tici
im pres
ic ide</w>
S pe
tren ds</w>
de grad
8 5</w>
commit ment</w>
se ven
spl it</w>
plan ted</w>
des k</w>
arrang ement</w>
victim s</w>
res on
ad m
sm oo
uni verse</w>
sp ra
en orm
coun ter</w>
vari eties</w>
ob st
connec tions</w>
authen tic
g in
co ast
respon d</w>
Th ank</w>
out come</w>
ban k
tob acco</w>
ogen ic</w>
bur ied</w>
Chel sea</w>
v essels</w>
instr uments</w>
di es
4 4</w>
gra m</w>
apart ment</w>
is ions</w>
hol der</w>
chil dhood</w>
En ter
bri d
luc ky</w>
choc olate</w>
Di ff
dar k
bo xes</w>
shoo ting</w>
quali fied</w>
Secon dly</w>
L os</w>
lam p</w>
gra y</w>
interpre tation</w>
tra g
ill ness</w>
embed ded</w>
dis order</w>
D ue</w>
se -
know ing</w>
head ed</w>
kilomet ers</w>
d ad</w>
F il
G al
F er
F ood</w>
har dly</w>
entr ance</w>
cover age</w>
per forming</w>
flu or
ol ic</w>
n esses</w>
M aster</w>
L uc
re aching</w>
hear ts</w>
h a</w>
cig aret
S Q
Moun tain</w>
mix ing</w>
w age</w>
pack aging</w>
em issions</w>
dra ma</w>
z i
fing er</w>
syn thetic</w>
ad ays</w>
m ers</w>
con den
s en</w>
alter n
w ake</w>
vent ure</w>
sam pling</w>
cou rage</w>
cen ters</w>
prin ted</w>
de partments</w>
chem icals</w>
ad ults</w>
T O
u x</w>
part ner
concer ning</w>
US A</w>
l um
fic ations</w>
ferti liz
B ure
gr as
C le
Austr alian</w>
ser vers</w>
ne um
attem pts</w>
employ ee</w>
lux ury</w>
do es
L ong</w>
tra um
ap ple</w>
al i</w>
ti ed</w>
swim ming</w>
e- based</w>
Be ing</w>
origin ally</w>
ic y</w>
div or
in i</w>
applic able</w>
Guang dong</w>
C C</w>
bus tion</w>
P D
re construction</w>
os ity</w>
off -
e book</w>
ra ft</w>
en ni
did n</w>
HT ML</w>
es ia</w>
at er
ban king</w>
quanti tative</w>
W en
h at
ug h</w>
inten se</w>
h ate</w>
fi red</w>
be ings</w>
less ons</w>
heav ily</w>
cur ricul
abund ant</w>
fac ility</w>
assist ance</w>
L O
sh ear</w>
sh u
B S</w>
I D
ar ter
immedi ate</w>
St ar</w>
Appl ication</w>
st ers</w>
ut ch</w>
y i</w>
un usual</w>
li sts</w>
R ev
Mus li
H aving</w>
Bi g</w>
a x</w>
Har ry</w>
in fer
el f</w>
fres h
foun der</w>
be dro
an eous</w>
ket ball</w>
dynam ics</w>
answ ered</w>
stri p</w>
Clin ton</w>
u d</w>
dis played</w>
exc iting</w>
deri v
In don
esti mates</w>
flav or</w>
bro thers</w>
flo ating</w>
wa ste
l ens</w>
as y</w>
war ned</w>
pregn ant</w>
C M
199 9</w>
infra red</w>
emphas is</w>
te x</w>
regim e</w>
el der</w>
sh ut</w>
propos al</w>
sear ching</w>
exc ited</w>
bur den</w>
dis crimin
c ake</w>
bi om
survi ve</w>
Mil an</w>
S D
3 9</w>
2 6
r ated</w>
performan ces</w>
nam ely</w>
comb at</w>
Res er
ow ed</w>
4 6</w>
process ed</w>
adap tive</w>
po is
wor ried</w>
regar ding</w>
ti ble</w>
en do
down load</w>
scre w</w>
ag encies</w>
eleg ant</w>
bil ateral</w>
b uc
M a</w>
K im</w>
sym bol
br ush</w>
inv ent
flow ing</w>
enter tainment</w>
su st
P ur
F un
criter ia</w>
cr ude</w>
correc tly</w>
re ti
corru ption</w>
ch ose</w>
can did
anxi ety</w>
e uro</w>
certific ate</w>
Y u</w>
f estival</w>
explan ation</w>
archit ec
e ze</w>
be er</w>
subst ance</w>
pres sing</w>
chlor ide</w>
tr action</w>
in c</w>
dis cover</w>
ar ization</w>
M ach
Glob al</w>
Cham pi
4 7</w>
ca p</w>
preci ous</w>
hu i</w>
ell er</w>
co gni
C la
dr ying</w>
vas cular</w>
tr il
ge o
ten ing</w>
199 8</w>
tour ist</w>
custom s</w>
attribu tes</w>
ul timate</w>
primar ily</w>
ref used</w>
mo tor
5 5</w>
shoo t</w>
mer ely</w>
gl asses</w>
prob ability</w>
program me</w>
exist ed</w>
Chic ago</w>
A F
r um
it ations</w>
i ance</w>
estim ation</w>
men u</w>
depen ding</w>
certain ty</w>
ic ial</w>
Sp ace</w>
N AS
HI V</w>
par ad
ti fied</w>
amaz ing</w>
4 9</w>
peri ph
ker nel</w>
im per
ha bit</w>
cre w</w>
woo den</w>
del eg
class room</w>
J e
bu re
D oes</w>
c ure</w>
real istic</w>
bor ne</w>
Ch ong
ili bri
J os
y ou
d u</w>
Hu ang</w>
ta xes</w>
sp an</w>
life -
char t</w>
loc ked</w>
el abor
ra il</w>
n esday</w>
ar ch</w>
R M
Pr ince</w>
D om
B rown</w>
atten ded</w>
M ay
ingredi ents</w>
consider ation</w>
it ude</w>
L im
ass ess</w>
no des</w>
Wed nesday</w>
Sovi et</w>
I E
A .</w>
zz le</w>
manufac turer</w>
U l
sp ots</w>
open -
absol utely</w>
Op en</w>
sud den</w>
high way</w>
histor ic</w>
oc curren
sco res</w>
sc ul
cav ity</w>
Y oun
top -
resul ted</w>
mist akes</w>
sub scri
spok en</w>
st ated</w>
D et
o therapy</w>
id al</w>
gather ed</w>
4 1</w>
ord ination</w>
d ancing</w>
secre t</w>
p a</w>
ab o
R et
I A</w>
n am</w>
depos its</w>
ut ing</w>
s oph
resid ential</w>
an ten
ad ult</w>
P ress</w>
H ong
v est</w>
fe es</w>
Jack son</w>
appe al</w>
R adi
innov ative</w>
X- ray</w>
z e
comb ine</w>
be gun</w>
fav or</w>
f u</w>
pre fer
c ad
or ange</w>
le f
as ide</w>
A ma
b ones</w>
Man ch
bar s</w>
T O</w>
ic ks</w>
desig ner</w>
In troduc
B -
re gre
in qu
tra di
prec ise</w>
mod es</w>
enz yme</w>
Cor por
r he
dis plays</w>
S S</w>
as set</w>
Ind ustri
Ar ch
wor thy</w>
regul arly</w>
g el</w>
aff ecting</w>
ph ere</w>
hon est</w>
v als</w>
collap se</w>
compl ications</w>
Bure au</w>
dri vers</w>
in ations</w>
cro p</w>
Chin a-
ac tors</w>
jour nal</w>
distinc t</w>
met ry</w>
S qu
resol ve</w>
reduc es</w>
invol ving</w>
y u</w>
guaran te
enter ing</w>
the e</w>
dis placement</w>
Soci ety</w>
dep end</w>
sha re
pr on
colleg es</w>
bur st</w>
pas sion</w>
on er</w>
equ ity</w>
integr al</w>
bel ong</w>
Ob jec
no vels</w>
busin ess
w as
r as
pre limin
flexi bility</w>
cal m</w>
in spir
ast ro
d a
ste in</w>
pipel ine</w>
ic op
fing ers</w>
vol ati
commun icate</w>
1 50</w>
her o</w>
b all
Arsen al</w>
g ains</w>
in ch</w>
ri vers</w>
gar den
b y-
l i</w>
ad mitted</w>
T reas
8 0
- like</w>
refer red</w>
re fer</w>
ess ay</w>
des i
d less</w>
v y</w>
h ang</w>
ap ers</w>
R a
2 ,
en sive</w>
d ur
at omic</w>
S k
le gi
ap par
re tail</w>
fun ding</w>
E M
se ud
loc ations</w>
bl ade</w>
aff ord</w>
Tra de</w>
ver age</w>
oper ated</w>
vis iting</w>
pe l</w>
decla red</w>
analy st</w>
grav ity</w>
P V
fric tion</w>
ex act</w>
CE O</w>
rand om
pres entation</w>
T om
bel ong
some what</w>
ro d</w>
ar c</w>
ab dom
dec lined</w>
4 3</w>
spac es</w>
pre ad</w>
v enti
direc ted</w>
tr uck</w>
sp o
restaur ants</w>
dies el</w>
J in</w>
l ig
ak er</w>
se gment</w>
ir rig
enjo yed</w>
def ect</w>
Th ird</w>
O k
res pir
inspi red</w>
harmon ious</w>
su es</w>
har der</w>
super vis
ic ked</w>
equ ilibri
T w
So cial</w>
own ership</w>
bur g</w>
Tran s
inten sive</w>
flu o
e tion</w>
hi er
Sh u
re volu
Pop ulation</w>
st ayed</w>
ad sor
acc ess
ob serv
ge ological</w>
an tum</w>
N at
p it
ec t
IO N</w>
system atic</w>
p neum
in et</w>
continu ously</w>
c k</w>
Fac ebook</w>
mic row
frequ ent</w>
B ab
me etings</w>
ic king</w>
sequ ently</w>
p ick
de ad
R ight</w>
M u
th y
stain less</w>
m uc
P M
speci fication</w>
repor ters</w>
at e-
D ep
min or</w>
ep ide
Angel es</w>
dis clo
S A</w>
L ater</w>
G ul
n ity</w>
expec tations</w>
Pre mier</w>
s word</w>
e- mail</w>
cap tured</w>
hop ing</w>
ex ports</w>
Cour t</w>
every day</w>
Ex c
oc ardi
la sting</w>
h ide</w>
Z he
pe d
mu d</w>
a ward</w>
Rem ember</w>
ra ys</w>
diagno stic</w>
St ation</w>
navig ation</w>
C ri
se y</w>
ones elf</w>
hang ing</w>
bacter ial</w>
sp ot
N on-
org ans</w>
e eded</w>
r i</w>
environ ments</w>
ei ved</w>
accur ately</w>
bene ficial</w>
P et
specific ally</w>
Olymp ics</w>
refr iger
pol e</w>
B lo
ten s</w>
g ence</w>
Stand ard</w>
V ic
pur suit</w>
recomm end
sh ed</w>
t s
Mo der
Jour nal</w>
tong ue</w>
man ual</w>
an der</w>
t z</w>
p ushed</w>
B M
post ed</w>
in ity</w>
govern ance</w>
aw n</w>
plac ing</w>
i x</w>
gu est</w>
gener ator</w>
des ert</w>
arri ve</w>
in sec
settl ement</w>
bo ards</w>
demo cra
f ever</w>
Pu blic</w>
cl er
break fast</w>
Wind ows</w>
ac ids</w>
N av
S of
A T</w>
our ing</w>
classi fied</w>
val id</w>
sk i
fra gr
ant a</w>
lo ose</w>
la b</w>
ful ness</w>
Net work</w>
reser ve</w>
inhi bit
bac ks</w>
DB 2</w>
tr e</w>
ser ves</w>
fla g</w>
b low</w>
ra rely</w>
harmon y</w>
eng ines</w>
F am
sk ir
o be
col ored</w>
Y i
x y
wh is
statis tical</w>
no -
recomm end</w>
oper ational</w>
passeng ers</w>
p itch</w>
inj uries</w>
acqui red</w>
war ming</w>
sc anning</w>
roman tic</w>
Mus eum</w>
p ine</w>
m -
N ic
v an</w>
brilli ant</w>
CL US
A re
state- owned</w>
pac king</w>
Rom an</w>
ti se</w>
p ting</w>
im ported</w>
h at</w>
Ad d</w>
integr ity</w>
attrac ted</w>
Y an</w>
real ization</w>
cul tures</w>
countr y
satis fy</w>
ab s
j ew
institu tion</w>
Con si
Chil dren</w>
trop ical</w>
bo y
ag u
pul monary</w>
inter vention</w>
G A</w>
repe at
incre di
approxim ately</w>
Hen ry</w>
ec tors</w>
inter -
cer amic</w>
om er</w>
ha bits</w>
d n</w>
Bri dge</w>
st airs</w>
chec king</w>
perfec tly</w>
G l
prev enting</w>
predic ted</w>
or a</w>
off ices</w>
circul ar</w>
and ong</w>
T aking</w>
es tion</w>
- and-
promis ing</w>
per su
k i</w>
curricul um</w>
ac commod
T R
optim ized</w>
is tic
appreci ate</w>
I R
ac tively</w>
P .</w>
C F
Val ley</w>
An y
20 th</w>
reser ves</w>
dis hes</w>
re placement</w>
r ite</w>
kid ney</w>
cogni tive</w>
an ism</w>
U p
CON CLUS
sup er</w>
Ric hard</w>
N a
ogen esis</w>
grin ding</w>
emerg ed</w>
A ri
top ics</w>
men tion</w>
it er</w>
Mar tin</w>
Direc tor</w>
gradu ates</w>
pow ered</w>
conf ident</w>
F lor
s enti
mus ical</w>
Econ omic</w>
st ressed</w>
emo tion</w>
publ ic
T al
veget able</w>
sp ray</w>
op pon
acc used</w>
sur faces</w>
b age</w>
assist ant</w>
jud gment</w>
deploy ment</w>
candid ates</w>
gener ating</w>
e a</w>
Qu een</w>
meth od
g au
as m</w>
fro zen</w>
ap parently</w>
U L
ven ess</w>
fa ults</w>
does n</w>
molec ules</w>
re actor</w>
h u</w>
ear nings</w>
ack et</w>
absol ute</w>
G DP</w>
d ressed</w>
bas ketball</w>
M ur
M other</w>
w ound</w>
destro y</w>
li ps</w>
sle eping</w>
dest ination</w>
nerv ous</w>
R am
quali ties</w>
territ ory</w>
necess arily</w>
gener ations</w>
equilibri um</w>
L D
elec ted</w>
writ es</w>
w ings</w>
re actions</w>
promin ent</w>
en ables</w>
En viron
r oughly</w>
M un
Fir stly</w>
m ill</w>
out -
car ries</w>
any where</w>
ster e
li ked</w>
Viet nam</w>
squ e
ul a</w>
tou rists</w>
ex am</w>
bu m
Y i</w>
ab normal</w>
8 00</w>
appl ies</w>
answ ers</w>
F E
Z hao</w>
occurren ce</w>
Ji ang</w>
sil icon</w>
repor ting</w>
cho ices</w>
behavi ors</w>
ta g</w>
det ecting</w>
toler ance</w>
po p</w>
pac ked</w>
dist or
instruc tions</w>
diag ram</w>
so y
expan ding</w>
chro mat
Ind ustry</w>
view ing</w>
C ould</w>
ini ons</w>
my ster
hospit als</w>
con g
adequ ate</w>
l ec
cy cl
A D</w>
p se</w>
potenti ally</w>
199 7</w>
ynam ic</w>
pre ven
st uck</w>
ment -
mani pul
synthes ized</w>
r yp
Lin ux</w>
Admin istration</w>
sp r
sli p</w>
p ha
har d-
go d</w>
L oo
short- term</w>
question n
exp anded</w>
t ar</w>
speci fy</w>
pain tings</w>
gr and</w>
20 12</w>
fl u</w>
f ar
enorm ous</w>
conv inc
a tivity</w>
D a
res em
Th anks</w>
repe ated</w>
Xi ao
L ittle</w>
m l</w>
J ones</w>
tal ents</w>
econom ies</w>
tun e</w>
adv ent
5 1</w>
foc using</w>
Zhe jiang</w>
we i</w>
volunte ers</w>
repres entation</w>
mom ent
dis pos
anti cip
anc ement</w>
F ather</w>
v ard</w>
sco red</w>
Su per
b ell</w>
b bed</w>
A ff
tu bes</w>
modi fication</w>
le um</w>
weap on</w>
retri ev
rein forced</w>
hier arch
Tex as</w>
re aches</w>
compar ing</w>
Com mer
t ape</w>
re fu
ev en
C y
u me</w>
read er</w>
em er
d ual</w>
reve als</w>
ear ned</w>
clo sing</w>
tex ture</w>
plan ting</w>
et ting</w>
com bustion</w>
ass igned</w>
Ste ve</w>
s anc
in dependence</w>
fic i
c us</w>
mod ul
li th
explo sion</w>
dep ic
b on</w>
S peci
al um
to il
In c
fl ame</w>
Sec retary</w>
Gre ece</w>
1 /
set tled</w>
le is
ear ning</w>
passeng er</w>
Com mission</w>
high- quality</w>
Sou thern</w>
cl ay</w>
pi g</w>
ly wood</w>
wid es
sk i</w>
mov ements</w>
am mon
shi pping</w>
improv es</w>
Diff er
pl ot</w>
D M</w>
stat ements</w>
et ly</w>
appar atus</w>
vi ation</w>
la ugh</w>
direc tions</w>
T A</w>
aut onom
il es</w>
prolifer ation</w>
defe at</w>
clin ic</w>
M en</w>
z inc</w>
rec ycl
n d</w>
audi o</w>
par ag
life time</w>
gen der</w>
dis ser
C lu
ur a</w>
pass es</w>
mem ories</w>
i el</w>
activ ated</w>
th al
di str
al arm</w>
at tract</w>
For ce</w>
t less</w>
past e</w>
Y ellow</w>
t ooth</w>
v end
inv est</w>
con sequences</w>
Mo del</w>
accum ulation</w>
St a
no tation</w>
urg ent</w>
met als</w>
engine ers</w>
con firm</w>
C at
surr ounded</w>
super -
sil ence</w>
l ingu
Ph il
gr ounds</w>
cultiv ation</w>
w are
ulti mately</w>
exc ep
emo tions</w>
arri val</w>
pain ted</w>
Jo e</w>
v ap
Zh ong
lo ves</w>
2 7
mat ches</w>
ac ous
lic en
Chris ti
dra gon</w>
re views</w>
Rec ently</w>
X u
t ability</w>
fi bers</w>
em ission</w>
ber t</w>
D ig
x ia</w>
lic ense</w>
fin ancing</w>
Stud ents</w>
G et</w>
tow ns</w>
s an
respon ses</w>
promo ted</w>
flu x</w>
anc er</w>
solu ble</w>
establ ishing</w>
Yun nan</w>
Phili pp
mod ules</w>
fortun e</w>
d ying</w>
AI M</w>
instruc tion</w>
ear l</w>
pur sue</w>
law yer</w>
bub ble</w>
arre sted</w>
re member
prot ecting</w>
as sume</w>
vit amin</w>
thres hold</w>
mus eum</w>
bow l</w>
ch ina</w>
ch ances</w>
Repu blic</w>
Un der
N ations</w>
sp her
bl ame</w>
b ic</w>
m .</w>
er ic</w>
F C</w>
guid el
Hun an</w>
wor e</w>
cor on
M as
Inde ed</w>
ton ight</w>
pass age</w>
be ans</w>
f itting</w>
J ing
Every one</w>
n ight
it ory</w>
peac eful</w>
e igh
S yn
Analy sis</w>
spec im
D ou
drin ks</w>
tou ched</w>
less ly</w>
ff s</w>
Xi a
choos ing</w>
wh el
qu antum</w>
mus cles</w>
heal th
behavi our</w>
T ot
ol ine</w>
ha ir
val ence</w>
regi ster</w>
tis sues</w>
pol ar</w>
consol id
Ch ur
p in</w>
on ia</w>
fac tories</w>
Ch em
am ino</w>
oo m</w>
m ang
ten tion</w>
In vest
sav ings</w>
in sist
ch in
rec ording</w>
Pol ice</w>
mat h</w>
g est
bac ked</w>
wides pread</w>
p ire</w>
F u</w>
le ak
bi ology</w>
scen ario</w>
gi fts</w>
favor able</w>
Th ee</w>
re turning</w>
p it</w>
it age</w>
se ed
o o</w>
j ian</w>
sal ary</w>
mar ry</w>
S ir</w>
t osis</w>
expres sions</w>
w ol
f eng</w>
eng er</w>
dra ft</w>
colum ns</w>
B E
treat ments</w>
in corpor
Sm ith</w>
wor n</w>
gen e
contrac ts</w>
tic kets</w>
B P</w>
determin ing</w>
u l</w>
jum ped</w>
fr actu
bab ies</w>
p ink</w>
microw ave</w>
gr ass
decis ion-
exc eption</w>
bar rier</w>
N um
L am
con servation</w>
op inions</w>
lu br
simultan eously</w>
pri ze</w>
prec ed
fertiliz er</w>
br a</w>
od d</w>
mom ents</w>
e fully</w>
su icide</w>
accompan ied</w>
diam ond</w>
man -
ther mo
re stor
L atin</w>
gl ut
vers ary</w>
presid ential</w>
m in</w>
hel icop
A gr
p ill
gir l
ra g
mem or
dec lar
cou ples</w>
c it
Ph one</w>
cham pi
Cur ren
ap parent</w>
I R</w>
isc al</w>
develop s</w>
swit ching</w>
Char les</w>
6 0
sor ts</w>
o tive</w>
is chem
be ar
AP I</w>
prospec ts</w>
mort ality</w>
main tained</w>
gr y</w>
b are
C op
p ushing</w>
un employment</w>
resid ual</w>
marg in</w>
gast ric</w>
moder ate</w>
mean ing
des per
bes ide</w>
ow ing</w>
necess ity</w>
de struction</w>
ap p</w>
log istics</w>
ici pal</w>
stand ardi
lab el</w>
Th omas</w>
Spec ial</w>
NAS A</w>
M C
mis sions</w>
connec ting</w>
autom obile</w>
B ook</w>
st al
k n
inde xes</w>
cor d</w>
in form
cr ash</w>
char ging</w>
Y a
B O
tril lion</w>
Th ail
f ice</w>
equi pments</w>
bl ast</w>
5 2</w>
F ive</w>
unc ture</w>
soph istic
moun ted</w>
mo bil
func tionality</w>
dri ed</w>
chec ked</w>
s oc
rad ical</w>
or us</w>
happ ening</w>
worl d-
tum ors</w>
r ight-
mon thly</w>
i ans</w>
Ye ah</w>
desig n
appoin tment</w>
Pal est
i tions</w>
el et
B at
t ut
poly mer
phenomen a</w>
pen alty</w>
li ament</w>
diagno sed</w>
bat ch</w>
arg ue</w>
an es
y ar
sec urities</w>
pleas ant</w>
isc o</w>
Stu dies</w>
schedul ed</w>
hand -
X u</w>
neu tr
tox icity</w>
poc ket</w>
partner ship</w>
conc eption</w>
pro sec
9 -
main taining</w>
d ates</w>
Ch i
pe as
min ds</w>
de al
B ol
intest inal</w>
comp act</w>
dis c</w>
Youn g</w>
refer ences</w>
Chong qing</w>
r igh
pro jec
avail ability</w>
Sh andong</w>
F oundation</w>
ess entially</w>
Thail and</w>
wor ship</w>
ro ad
k ar
D re
Bar ack</w>
tem plate</w>
C ome</w>
p an</w>
bas es</w>
ven tric
se ats</w>
bas sad
v ary</w>
c em
mal ign
ig no
gen ic</w>
e ph
provid er</w>
oper ators</w>
expen ses</w>
au g
analy tical</w>
sur ing</w>
sol vent</w>
kne e</w>
d uration</w>
D V
six -
do zen</w>
pra ise</w>
h o</w>
e dition</w>
b os
transpa rent</w>
orr ha
she ets</w>
hi p</w>
deep er</w>
Nor thern</w>
yst ems</w>
t ap
sp are</w>
satis factory</w>
qu ad
k age</w>
under lying</w>
on ym
pleas ed</w>
hot els</w>
effici ently</w>
dist ant</w>
ep is
di oxide</w>
acc es
rul ing</w>
ent y-
ca th
plan es</w>
f ound
comp res
v ical</w>
sing er</w>
ad o</w>
pi ano</w>
par tly</w>
es -
dra matic</w>
de bu
' an</w>
succ eed</w>
in cen
disser tation</w>
Ser v
H al
tw enty</w>
sil ent</w>
scul p
scienti st</w>
ini an</w>
b iting</w>
Re al</w>
y stem</w>
set tings</w>
H ang
Can adi
terri ble</w>
pat ch</w>
lym ph
for cing</w>
V ill
vill ages</w>
travel ing</w>
c e-
pat ent</w>
P E</w>
2 8
Wel come</w>
H all</w>
we al
ul ous</w>
e z</w>
cent uries</w>
ban ds</w>
abs ence</w>
Sen ate</w>
Hol lywood</w>
0.0 1</w>
in ver
op ens</w>
Engine ering</w>
En ergy</w>
odi c</w>
a b</w>
port fol
pat ri
anti bio
Q in</w>
val ley</w>
t elec
suspen sion</w>
me tic</w>
gather ing</w>
adap t</w>
L ight</w>
rela tives</w>
in e-
He av
S L
E astern</w>
si zes</w>
izh ou</w>
mo ther
invest ments</w>
cop ic</w>
waste water</w>
s ers</w>
rob ust</w>
mo thers</w>
un likely</w>
mechan ics</w>
gu ided</w>
uni or</w>
enti ty</w>
J ane</w>
sha pes</w>
rol ler</w>
IN G</w>
some where</w>
ic ating</w>
gr ound
ec tomy</w>
stra ins</w>
sus pec
correc tion</w>
compl etion</w>
acknow led
Ke ep</w>
some body</w>
n est</w>
un ning</w>
t ell
ic on
electr onics</w>
condi tioning</w>
initi ative</w>
prelimin ary</w>
p seud
strength ening</w>
conveni ence</w>
Au th
sh allow</w>
Nan jing</w>
no body</w>
Democ ratic</w>
me ets</w>
mach ining</w>
lo vely</w>
high- tech</w>
er ce</w>
br ick</w>
di an</w>
Xin hua</w>
pl er</w>
it ance</w>
electro de</w>
I L
per -
pass word</w>
mil li
grow s</w>
f ears</w>
coast al</w>
v eter
prosper ity</w>
fun g
sig nature</w>
ro tation</w>
entrepre neur
Com bin
im pression</w>
democra tic</w>
adop ts</w>
Xi ao</w>
R oc
le ague</w>
defici ency</w>
St .</w>
Mat er
extrac ted</w>
win ner</w>
D on</w>
sub str
re tar
en rich
Com pu
cur ves</w>
ch a
stitu tion</w>
Manag er</w>
t oo
scop y</w>
inf ections</w>
T un
Ro yal</w>
the tics</w>
di ent</w>
brea thing</w>
a warded</w>
mil d</w>
Clu b</w>
Ch ief</w>
tic ity</w>
H on
Gr and</w>
B est</w>
l anding</w>
f iscal</w>
Scienti sts</w>
ig ra
de par
cap tain</w>
ass ist</w>
SO A</w>
Flor ida</w>
S us
Res ources</w>
L angu
H app
E arly</w>
coll ective</w>
wh enever</w>
coll abor
di alogue</w>
cham p
St an
S pi
cou pled</w>
Ama z
y og
inst ant</w>
thir d-
remo ving</w>
pur ple</w>
pur ity</w>
M .</w>
ol a</w>
equ ally</w>
W a
s ought</w>
le ep</w>
cri tici
desig ners</w>
c ook</w>
uc tu
g ently</w>
ben ding</w>
a to</w>
B oo
exc ess</w>
ero sion</w>
dro ps</w>
cir cles</w>
in tu
hor ses</w>
filtr ation</w>
country side</w>
co des</w>
co ated</w>
keep er</w>
g ather</w>
clu bs</w>
W ol
D R
st up
mathema tics</w>
em an</w>
Republic an</w>
Fe deral</w>
dis cre
stit utes</w>
pre ferred</w>
gent le</w>
end ers</w>
se where</w>
adjust ed</w>
heal ing</w>
disp ute</w>
differenti ation</w>
ori ous</w>
cra zy</w>
qu al
continu ing</w>
CONCLUS ION</w>
ste ad
respon si
repl ied</w>
pal ace</w>
id en
fic tion</w>
accep table</w>
SQ L</w>
o ids</w>
9 8</w>
l ing
human ity</w>
coll ecting</w>
celebr ate</w>
B ir
vir tu
ph ic</w>
stret ch</w>
li p</w>
John son</w>
Medic ine</w>
H i
jo in
ran k</w>
wavel et</w>
op hy
measure ments</w>
Oc ean</w>
m ay
j un
e po
coordin ate</w>
ac ent</w>
5 6</w>
to ol
in ating</w>
om ed</w>
d ating</w>
Y ao</w>
mo m</w>
Com pl
ligh t-
O x
Har vard</w>
min ist
is lands</w>
as sa
the at
loc ks</w>
jud icial</w>
s atur
pro por
li est</w>
irrig ation</w>
f lies</w>
O ri
po et</w>
mil it
gr ace</w>
fre e-
tri als</w>
in age</w>
gal ax
de ar</w>
co ordination</w>
U r
Buddh a</w>
scen es</w>
inev itable</w>
pun ishment</w>
at oes</w>
a thy</w>
Resear chers</w>
b ent</w>
b alls</w>
Manch ester</w>
F eng</w>
main land</w>
pi ed</w>
P la
ret ail
z ones</w>
pre me</w>
mat ory</w>
t ack
Zh u</w>
Industri al</w>
u ter
initi ally</w>
bi ke</w>
W in
vulner able</w>
T C</w>
Cen tre</w>
s '
re ar</w>
un certainty</w>
lo y
is ite</w>
dis pen
a w</w>
sti ff
metabol ism</w>
gre y</w>
as ym
T est</w>
scre ening</w>
provin ces</w>
trans actions</w>
degrad ation</w>
J ac
H PLC</w>
prog no
p .</w>
op ha
k ings</w>
b id
athle tes</w>
E L
im pe
— and</w>
sp inal</w>
it ative</w>
B ang
reco ver</w>
popul arity</w>
dec oration</w>
dom inated</w>
2 4
oun d-
m old</w>
e uro
199 6</w>
prov en</w>
re st
m ented</w>
isol ation</w>
cl ari
Mi ke</w>
invol ve</w>
coron ary</w>
G -
ili ary</w>
trans formed</w>
k id</w>
inj iang</w>
sum mary</w>
fi bro
bedro om</w>
z ens</w>
b our
M ol
mag nit
P P</w>
ver e
re n</w>
met al
gran ted</w>
exc essive</w>
be half</w>
ab ul
Ex ec
uti ves</w>
bul k</w>
Sim il
Pr in
Indon esia</w>
Curren tly</w>
Bl ack
sun light</w>
que ue</w>
des ired</w>
M ain
viol ent</w>
it ter</w>
del icate</w>
F ed</w>
n ut</w>
gluc ose</w>
C o</w>
vi br
arg uments</w>
O il</w>
sc rat
neu tral</w>
ten der</w>
re vis
er as</w>
concentr ated</w>
ru pt</w>
fin ishing</w>
small -
il e
d op
compet e</w>
B an
valu ed</w>
ten nis</w>
sid ers</w>
rig id</w>
hom ogen
fl uctu
ultra -
exerc ises</w>
color ful</w>
b oun
th eless</w>
eu tical</w>
d ys
construc ting</w>
particip ation</w>
b i</w>
ut ter</w>
sens ors</w>
infl amm
fl esh</w>
Agr icul
periph eral</w>
need le</w>
ins ulation</w>
en abled</w>
medi um-
P M</w>
iz ations</w>
ig nor
E .</w>
A long</w>
so vere
in er
engine er</w>
bene ath</w>
pi one
graph ics</w>
farm er</w>
albu m</w>
Buil ding</w>
as th
ti fy</w>
del icious</w>
F our
s can</w>
qui etly</w>
oil -
is ely</w>
cer vical</w>
y o
tu ber
re store</w>
L u</w>
sa uce</w>
form ity</w>
three- dimensional</w>
au x
M and
youn g
sp reading</w>
mic ro</w>
vis cos
gl ory</w>
Tian jin</w>
S tra
str ang
speak er</w>
gr ac
Gol d
B ible</w>
simul ate</w>
sequ ent</w>
energ y-
analy se</w>
Ze al
R ES
ex it</w>
restric ted</w>
id er</w>
where as</w>
fore sts</w>
w ishes</w>
p assi
repor ter</w>
i .</w>
C S</w>
over whel
b adly</w>
R ol
me als</w>
5 3</w>
pro -
dimen sions</w>
implem enting</w>
harm ful</w>
fl ash</w>
ac char
Ar gent
newsp apers</w>
ar i</w>
Em peror</w>
fil tering</w>
extra ordinary</w>
t esti
popul ations</w>
conc ent
chec k
y en</w>
sh ots</w>
re p
ou l</w>
m ask</w>
comman ds</w>
cell ular</w>
N .</w>
H O
fun ny</w>
cy to
treas ure</w>
por ting</w>
cop ies</w>
Sm all</w>
P ic
ti les</w>
ab use</w>
T ry</w>
influ encing</w>
lo ving</w>
cardi ac</w>
anc est
Mal ay
C A</w>
dr ought</w>
P lat
e ks</w>
pro ph
ca ve</w>
activ ation</w>
sul f
profession als</w>
L .</w>
star ch</w>
head ing</w>
ec os
air y</w>
sy l
infl am
e .
ad en
Corpor ation</w>
ra inf
pri de</w>
W oo
ti m</w>
met ast
hyper tension</w>
min istry</w>
g ang
res ist</w>
hu ang</w>
ev ap
ograph ical</w>
o k</w>
ad der</w>
Mos cow</w>
morph ology</w>
loc king</w>
be ams</w>
cros sing</w>
I G
occu pied</w>
ach ment</w>
nor theast</w>
m ere</w>
k ine
hol y</w>
H ai
repeat edly</w>
r on
inter ven
expec ts</w>
I F
ab oration</w>
electro magnetic</w>
hop ed</w>
cat tle</w>
r ush</w>
occ er</w>
commod ity</w>
clim b</w>
Por tu
po sts</w>
hun gry</w>
c ents</w>
6 4</w>
su rely</w>
i Phone</w>
du pl
develop er</w>
L y
min ority</w>
head quarters</w>
bom b</w>
ac u
trans ferred</w>
min ded</w>
ing e</w>
am -
20 -
viscos ity</w>
exc av
enc ryp
ac les</w>
N ature</w>
trigg er</w>
lo gging</w>
it i</w>
dra ma
dis orders</w>
consider able</w>
au to-
be ef</w>
K now
H ome</w>
Ara b</w>
yn as
har vest</w>
ent ations</w>
anten na</w>
Ale x
out door</w>
h il
gent lem
chi ps</w>
t ness</w>
pan cre
ig ns</w>
embar r
t os
sel ecting</w>
gla d</w>
m aps</w>
her e
ch i</w>
C O</w>
A th
voc ational</w>
re bel
dro ve</w>
as ser
Moder n</w>
fun ded</w>
ex changes</w>
decision- making</w>
bur ned</w>
C ath
pa irs</w>
e ther</w>
e au</w>
bit ter</w>
Gol den</w>
ti te</w>
s our
grad es</w>
wal ks</w>
turb ine</w>
el ial</w>
N ever</w>
s a</w>
r ough
ass ay</w>
L og
se aling</w>
her o
be ars</w>
dri ves</w>
al location</w>
scen ery</w>
fat ty</w>
che ese</w>
ap op
Ti bet
5 4</w>
sophistic ated</w>
or bit</w>
ill ance</w>
o ch
5 8</w>
Ma j
p m</w>
jo ining</w>
exec utives</w>
politici ans</w>
hun ting</w>
seas ons</w>
sc ar</w>
cur ative</w>
con vic
Yang t
substanti al</w>
leak age</w>
i tis</w>
ge al</w>
farm ing</w>
ynas ties</w>
win ds</w>
subst ances</w>
spec tac
res ort</w>
loc ate</w>
an th
V E
199 5</w>
co operative</w>
phr ase</w>
pas sive</w>
bu yers</w>
lo sis</w>
dark ness</w>
ast es</w>
optim ize</w>
suspec ted</w>
fo am</w>
architec tural</w>
all ing</w>
V ari
port al</w>
l oud</w>
combin es</w>
respir atory</w>
p ist
negoti ations</w>
Dan iel</w>
ud ge</w>
ri ding</w>
ig ners</w>
cop y
con qu
P ut</w>
t et
pain ful</w>
impres sive</w>
7 00</w>
su its</w>
libr aries</w>
b low
Th ir
G E
os a</w>
w ells</w>
no d
Canadi an</w>
Are a</w>
7 2</w>
re jected</w>
m one</w>
igh ted</w>
Produc ts</w>
L C</w>
k ingdom</w>
dra inage</w>
de plo
S af
sum mit</w>
rab bit</w>
fast -
Ji m</w>
t ling</w>
R ome</w>
Gul f</w>
ten ds</w>
Y ou
D at
D M
produc er</w>
ele ph
cri mes</w>
thre w</w>
pro pose</w>
dipl om
conserv ative</w>
are r</w>
agg ressive</w>
thor oughly</w>
regar dless</w>
demonstr ates</w>
ra is
ol dest</w>
no tion</w>
anni versary</w>
With in</w>
sa fe
coun ting</w>
trem end
fing er
I l
6 2</w>
or ic</w>
f ers</w>
bi an</w>
Ch eng</w>
ref res
encoun ter</w>
ble eding</w>
mel ting</w>
inflamm ation</w>
inflam matory</w>
em peror</w>
B ul
graph y</w>
fir stly</w>
Fin ancial</w>
re stra
i at
Ch e
wor m</w>
po ster
i P
lo ver</w>
is her</w>
evol u
P ot
M ain</w>
I II</w>
m ad</w>
fl at
capsul e</w>
assi um</w>
pa tic</w>
he ated</w>
eng age</w>
cab inet</w>
al a</w>
adjust ing</w>
Pho to
ph ases</w>
moment um</w>
li fting</w>
eg o</w>
as er</w>
ste pped</w>
out look</w>
dr ill</w>
ro yal</w>
Hist ory</w>
arbit r
Li ber
1 000</w>
wid er</w>
mon opol
proc e
def ence</w>
conc e
ide ology</w>
S P</w>
Ch o
Bl ue</w>
2 3
sent ences</w>
provin cial</w>
explo red</w>
cre atures</w>
b is
Un til</w>
T B</w>
Squ are</w>
Ag ency</w>
iden tical</w>
dir ty</w>
micro scope</w>
abstr act</w>
Ac t</w>
ti a</w>
schem es</w>
em a</w>
di ver
W ei
lon ely</w>
enem ies</w>
en forcement</w>
Mus ic</w>
y e
trans plantation</w>
st en
ra ble</w>
it a</w>
ex -
distur b
criter ion</w>
adv ances</w>
I -
Hu ang
B en</w>
pay ments</w>
specific ations</w>
m asses</w>
imag ination</w>
defic it</w>
F oo
si de
sh ire</w>
gin ia</w>
el sewhere</w>
comp rises</w>
ec o-
thro at</w>
st ack</w>
rel and</w>
elec tions</w>
tex tile</w>
acous tic</w>
pati tis</w>
mortg age</w>
gu ards</w>
cre ativity</w>
V M</w>
suspen ded</w>
rang ing</w>
exclus ive</w>
defin es</w>
con fron
Un like</w>
Serv ices</w>
rul ed</w>
qu as
om al
magnit ude</w>
ic ed</w>
E s
thro m
struc tured</w>
sin cer
tab lets</w>
poss ess</w>
l ou
199 0</w>
C el
econom ist</w>
6 3</w>
par as
exc it
T own</w>
sig ning</w>
ig en
bo ats</w>
G M
Des cri
war m
li ability</w>
6 6</w>
web sites</w>
sp inning</w>
K un
in er</w>
fle w</w>
econom ical</w>
ur ban
ion ally</w>
dis appeared</w>
broad cast</w>
im migr
am pl
C as
vac ation</w>
Ser ver</w>
soldi er</w>
att acked</w>
om y
c in</w>
al ties</w>
cat s</w>
accep tance</w>
Zeal and</w>
Vir ginia</w>
H E
sen ds</w>
ex clud
Ste el</w>
pro hi
peti tion</w>
j ade</w>
trans fer
inten tion</w>
h yp
aband oned</w>
A si
soci alist</w>
ail ing</w>
re ward</w>
but ter
U I</w>
petro leum</w>
bo ar
Sh i</w>
Organ ization</w>
m ile</w>
ha bil
car to
sti r
osc ill
e ti
target ed</w>
prov es</w>
inter val</w>
hor mone</w>
divor ce</w>
cros s
Langu age</w>
8 6</w>
inv o
as ph
Treas ury</w>
T ar
ultras onic</w>
s ist</w>
T en
P ow
shor tage</w>
pri mi
ni e</w>
concentr ate</w>
bassad or</w>
ven ous</w>
val idity</w>
ro pe</w>
introduc ing</w>
er up
chro mos
Col um
tex t
prov isions</w>
junc tion</w>
ad verse</w>
N ow
in formed</w>
improv ements</w>
dra g</w>
des k
The ory</w>
tig er</w>
in clin
del ayed</w>
invas ion</w>
develop ments</w>
contribu tions</w>
compati ble</w>
co her
upd ated</w>
fa ith
adj acent</w>
rap h</w>
nu ts</w>
correspon d
U p</w>
A A</w>
vil le</w>
repe at</w>
k ick</w>
w ill
ur ine</w>
sol e</w>
inter faces</w>
f ought</w>
de hy
c ow
C ra
sh rin
rec k
portfol io</w>
li t</w>
q i
ir y</w>
struggl ing</w>
st ery</w>
an thro
veri fy</w>
ol y
E v
os copic</w>
brid ges</w>
al em</w>
pric ing</w>
gen u
Liby a</w>
g li
devo ted</w>
bat ter
pi pes</w>
m ill
bo iler</w>
l o</w>
en vel
circu its</w>
adop ting</w>
U V</w>
tra its</w>
astr onom
an es</w>
set tle</w>
hun g</w>
reg ression</w>
bl an
M ount</w>
car go</w>
1. 5</w>
tw enty-
to ys</w>
In te
B ut
wel fare</w>
pl ating</w>
ir rit
C a
1 20</w>
pris on
on t</w>
en a</w>
el ite</w>
ang les</w>
Mr s</w>
B ack</w>
neighb ors</w>
mel t</w>
stic ks</w>
discus sions</w>
deli ber
M ul
8 8</w>
roc ket</w>
comput ation</w>
b ite</w>
Ad v
sha ke</w>
inf ec
hon ey</w>
al izes</w>
Th ink</w>
TH O
Buddh ist</w>
ver te
rec re
j ur
dipl omatic</w>
bin ary</w>
Mar x
tiz ation</w>
ack er</w>
G old</w>
struc tive</w>
conflic ts</w>
spir al</w>
om es</w>
le an
girl friend</w>
appreci ation</w>
adhes ive</w>
O pen
F a
induc tion</w>
ann y</w>
S R
P har
B on
par king</w>
LE D</w>
wa ve
sus pect</w>
rec all</w>
precip itation</w>
in door</w>
M ass
op posed</w>
modi fy</w>
la tions</w>
inter active</w>
em bo
L aw
ro o
pi x
oper a</w>
m ud
de fl
an ia</w>
S c
my ocardi
educ ated</w>
M M
fl our</w>
encoura ged</w>
embarr ass
S or
u ph
s its</w>
ri a</w>
do zens</w>
us alem</w>
exec uted</w>
co ag
Buddh ism</w>
Gre en
6 8</w>
soy bean</w>
prec isely</w>
motiv ation</w>
mag nific
h ing</w>
autom ation</w>
5 00
s ake</w>
i ers</w>
corpor ation</w>
L a</w>
E liz
vic tim</w>
organ isms</w>
ol e
G PS</w>
nam ent</w>
mod ulation</w>
m ad
ag en</w>
C ir
- related</w>
occas ion</w>
guidel ines</w>
F ree</w>
t am
conver ted</w>
miner als</w>
igno red</w>
g or
d ressing</w>
aff ir
ce iling</w>
S wit
ti zed</w>
k is
gradu ated</w>
diff usion</w>
bl ank</w>
accid ents</w>
th rown</w>
net working</w>
h os
Ste ph
sw i
chec ks</w>
ben z
Pro c
M ari
weak ness</w>
thy ro
o v</w>
myster ious</w>
di verse</w>
N G
sm an</w>
f ec
cy l
voc abul
separ ately</w>
leis ure</w>
gras p</w>
el ly</w>
con fin
ak e
accompl ished</w>
S em
Jer usalem</w>
resc ence</w>
on- line</w>
fr action</w>
N -
ve in</w>
gra ded</w>
g ang</w>
Tem ple</w>
G ive</w>
l en
g ers</w>
sh ou
con clusions</w>
surve illance</w>
Sh ould</w>
S D</w>
tim ing</w>
st ake</w>
ogra m</w>
announ cement</w>
S T</w>
M ot
sou thwest</w>
fit ness</w>
expen se</w>
t ue</w>
publ ishing</w>
neighbor hood</w>
lay ing</w>
insul in</w>
pro pri
cri tics</w>
contro versi
1 0.
ti d
phys ic
bas ket</w>
S et</w>
ug ly</w>
sho e</w>
ne ar-
fer mentation</w>
at ings</w>
an x
vo id</w>
sen sing</w>
d enti
ver -
s light</w>
righ te
inter fer
T ong
S wis
st aying</w>
squ ad</w>
he patic</w>
coo ked</w>
contribu ted</w>
ch im
c rown</w>
anim ation</w>
J ord
Ex po</w>
sugges tion</w>
st ops</w>
Yangt ze</w>
shor ter</w>
den se</w>
ag on
Confuci us</w>
priv acy</w>
d are</w>
yi elds</w>
wra pped</w>
vis u
trac ks</w>
malign ant</w>
coc k
manufac tured</w>
for um</w>
decreas es</w>
Zh eng</w>
Jiang su</w>
shi eld</w>
satur ated</w>
coll aboration</w>
MR I</w>
I mag
threat ened</w>
stimul us</w>
organ ize</w>
embr y
ail ed</w>
red und
pig s</w>
physi ological</w>
inf arc
fil ed</w>
Pr inc
stric tly</w>
publ ication</w>
perme ability</w>
Pro t
5 7</w>
pe ts</w>
inter n
fir mly</w>
ed ges</w>
Qu ality</w>
Musli m</w>
J us
plu g</w>
jo ints</w>
intermedi ate</w>
cor related</w>
I reland</w>
tra ins</w>
main stream</w>
scop ic</w>
p oo
hem orrha
demonstr ation</w>
pol l</w>
mass age</w>
rot ating</w>
m esh</w>
inspir ation</w>
fortun ately</w>
enc lo
discus sing</w>
conver t</w>
os yn
di versi
am id</w>
vari ed</w>
govern or</w>
H ill</w>
var ying</w>
questionn aire</w>
fem in
emp ir
any way</w>
M L
deploy ed</w>
end less</w>
Pol y
O thers</w>
Anti -
sub mit</w>
studi o</w>
fre ely</w>
be st-
N AT
pl un
nar rative</w>
gra ins</w>
P D</w>
Gar den</w>
F ord</w>
D I</w>
2. 0</w>
r d</w>
inv ented</w>
exc e
es ity</w>
b esides</w>
ul ations</w>
ho o</w>
constitu tion</w>
add resses</w>
ul ty</w>
re forms</w>
od es</w>
integr ate</w>
th um
prin ts</w>
pack ages</w>
Com par
wavel eng
in take</w>
F lo
D utch</w>
sedi ment</w>
it an</w>
high- level</w>
et t</w>
dep uty</w>
at om
J obs</w>
Bo b</w>
uc ks</w>
neur ons</w>
cen tered</w>
P hys
v or
plug -in</w>
cam eras</w>
Atl antic</w>
u ous</w>
ch eng</w>
b or</w>
au dit</w>
N S</w>
conver ter</w>
up grade</w>
nin et
les ions</w>
evol ved</w>
dis til
im mer
boo m</w>
G an
top s</w>
6 7</w>
3 00
ri val</w>
ri m
resol ved</w>
ch at</w>
sub ur
nor thwest</w>
inc ere</w>
go ds</w>
ep h</w>
authentic ation</w>
ack ers</w>
2 50</w>
199 0s</w>
tit udes</w>
ti re</w>
s ne
ol ds</w>
ud i</w>
stri king</w>
propag ation</w>
i est</w>
ben ch</w>
V ery</w>
S E</w>
liqu or</w>
det ector</w>
H ello</w>
test ers</w>
ta to</w>
s al</w>
remember ed</w>
mur der</w>
lef t-
d ao</w>
Cap ital</w>
suppl ied</w>
op her</w>
sun shine</w>
mar king</w>
ch op
High -
Amaz on</w>
r ine</w>
immun o
enthusi asm</w>
el a</w>
dr um</w>
2. 5</w>
w ed</w>
k iss</w>
n ights</w>
my stery</w>
le uk
compati bility</w>
bur y</w>
radi o
Pr ac
serv ant</w>
L akers</w>
Ex change</w>
Chur ch</w>
1 2-
u o</w>
ser ial</w>
mat ched</w>
Reser ve</w>
Ac tually</w>
person ally</w>
cy cles</w>
el ding</w>
parti tion</w>
method ology</w>
la v
h ills</w>
br ac
veri fied</w>
re ment</w>
per mission</w>
k es
el ine</w>
T y
Cha ir
C B
2 nd</w>
port able</w>
expl oring</w>
enz a</w>
D ist
re pos
pul ling</w>
on y
e- up</w>
a tics</w>
us er-
tra p</w>
orth og
molec ule</w>
invest ed</w>
Hen an</w>
repres enting</w>
r ushed</w>
buff er</w>
subsi di
gun s</w>
acces sible</w>
Tur key</w>
Res ult</w>
Fur ther</w>
A G
9 6</w>
′ s</w>
proto type</w>
A bra
recep tor</w>
o dy</w>
D un
there of</w>
pot assium</w>
hear t
cont est</w>
bu yer</w>
vir uses</w>
posi tioning</w>
bath room</w>
Y in</w>
K i
promis es</w>
ig an</w>
dec k</w>
al istic</w>
ad er</w>
Y ong
L and</w>
sk elet
greg ation</w>
bra ke</w>
argu es</w>
Franc isco</w>
photograph s</w>
an s
Pl ant</w>
yar n</w>
tic ul
ph er
oc e
Ser ies</w>
ME THO
Israel i</w>
t es
re covered</w>
pan els</w>
cur y</w>
bot tles</w>
Gi ven</w>
m ou
inter actions</w>
def end</w>
bl adder</w>
sec tors</w>
ish -
am b
shoul ders</w>
min es</w>
h ex
Cul ture</w>
199 4</w>
sou theast</w>
pul p</w>
ini um</w>
her itage</w>
d awn</w>
P sych
tim ely</w>
resear cher</w>
are n</w>
Sel f-
Q a
there by</w>
te ar</w>
is si
est y</w>
s ick
can al</w>
v able</w>
un expected</w>
l ending</w>
j unior</w>
up uncture</w>
saf ely</w>
convinc ed</w>
weal thy</w>
cri ed</w>
I N</w>
F ul
sacri fice</w>
concer t</w>
al ong
pic king</w>
Pro gram</w>
J on
tr a</w>
sub mitted</w>
fla p</w>
en ligh
coun ts</w>
car bo
S phere</w>
s ni
perc eption</w>
l ord</w>
cyl ind
clim bing</w>
X injiang</w>
vide os</w>
life style</w>
pol ys
ide -
ab eth</w>
pes tic
compar ative</w>
Mar s</w>
Air port</w>
- 1</w>
mon etary</w>
met e
mater i
lab our</w>
is i
ill -
g ay</w>
T wit
Fran k</w>
u ality</w>
recei ver</w>
no od
div ide</w>
conduc ting</w>
ca us
bar rel</w>
b ills</w>
Wu han</w>
F O
whe els</w>
sk y
resid ence</w>
che aper</w>
fra mes</w>
rou ting</w>
y le</w>
revolu tionary</w>
invent ory</w>
icon duc
L is
G ir
re tired</w>
lin king</w>
g ement</w>
fractu res</w>
in ches</w>
Jos eph</w>
s occer</w>
eth anol</w>
T ro
K .</w>
li fted</w>
but ter</w>
H ear
Ch ang</w>
vir tue</w>
sle ep
mag nes
constra ints</w>
feat ured</w>
ran ks</w>
le x
la h</w>
guil ty</w>
end -
cal ories</w>
associ ate</w>
as pir
as leep</w>
argu ed</w>
tr ick</w>
sub sequent</w>
den ied</w>
la p</w>
f its</w>
explo itation</w>
electro ly
Tibet an</w>
im ports</w>
abdom inal</w>
re ply</w>
metal lic</w>
he patitis</w>
gra ve</w>
sus p
plat forms</w>
or ds</w>
m ast
evalu ating</w>
it ated</w>
gra ding</w>
facil itate</w>
challeng ing</w>
Pal ace</w>
P HP</w>
Hang zhou</w>
F S</w>
distinc tive</w>
S and
venti lation</w>
produc ers</w>
peo ples</w>
Con struction</w>
x -
myocardi al</w>
g ases</w>
anter ior</w>
Champi ons</w>
Ch u
ven ue</w>
r ant</w>
qu it</w>
on going</w>
lim itations</w>
dic tionary</w>
Dra gon</w>
sur ge</w>
suppl ier</w>
scri pts</w>
ob ic</w>
l or</w>
fil ters</w>
Inte gr
ventric ular</w>
thre ats</w>
W TO</w>
L ine</w>
t ale</w>
o zo
mark et
en ters</w>
distingu ish</w>
O f
Fran k
Differ ent</w>
D an</w>
Ch eck</w>
toil et</w>
ide ological</w>
gast ro
en sis</w>
dev ast
I ron</w>
tor que</w>
spir its</w>
show er</w>
l ecture</w>
c au
un like</w>
un cle</w>
ti ve
chol ester
ag on</w>
regul atory</w>
follow -up</w>
di al</w>
T able</w>
m ould</w>
daugh ters</w>
d d
bl end</w>
M uch</w>
recei ves</w>
exec ute</w>
suppor ters</w>
sli ding</w>
olog ically</w>
ear liest</w>
A sh
man s</w>
d ated</w>
Xi ang
system atically</w>
Inc .</w>
Def ense</w>
w ool</w>
n i</w>
man n</w>
for gotten</w>
to y</w>
apop tosis</w>
— the</w>
quo ted</w>
pro test</w>
wit ness</w>
pan ic</w>
enh ancing</w>
19 th</w>
ra in
n es</w>
ar range</w>
alco hol
add ressed</w>
E st
Cheng du</w>
vari ations</w>
contra dic
se aled</w>
ne ph
Sh anxi</w>
Ar ts</w>
D s</w>
19 0
hol low</w>
e k
cr acks</w>
cigaret te</w>
b ell
access ories</w>
K ingdom</w>
C li
vocabul ary</w>
u el</w>
sw ing</w>
counter measures</w>
as cular</w>
anti body</w>
al dehy
val ves</w>
re habil
o ti
schem a</w>
k le</w>
Ex am
Bo ard</w>
surpris ing</w>
path ological</w>
lim itation</w>
fab ric
f ake</w>
an no
tan ks</w>
e ag
cre di
Li br
str ings</w>
spon tan
offici ally</w>
nan o
min i
des c
br igh
boo t</w>
blo s
Fol lowing</w>
p end
m aster
influ ential</w>
er ly</w>
S H
L en
medic ines</w>
inc id
ch at
bloc king</w>
G B</w>
vir tually</w>
eth ylene</w>
Wor k</w>
t .</w>
sw im</w>
retro spec
pa ths</w>
Z i
week ly</w>
shel f</w>
scat tered</w>
bal lo
ad dy</w>
phosph ate</w>
anti oxid
Chin es
trag edy</w>
h in
gra dient</w>
ar rest</w>
uni fied</w>
tremend ous</w>
p ound</w>
ar a</w>
goo d
descri bing</w>
counter -
2 1st</w>
inten si
e up</w>
e ager</w>
concent rations</w>
c tic</w>
inter nation
ho sts</w>
cre ature</w>
S om
buil ds</w>
Or ig
t- in</w>
p ale</w>
mer ch
config ured</w>
call igra
bor ing</w>
P R</w>
induc e</w>
ac ter
vo ters</w>
ur ged</w>
off set</w>
dr unk</w>
V eg
meaning ful</w>
ed iting</w>
comm ission</w>
br is</w>
tw el
guid ing</w>
champ ion</w>
ari ties</w>
vis its</w>
ur ry</w>
cast le</w>
Tra ditional</w>
O w
A l</w>
3 0-
ch ains</w>
bor row
regre t</w>
ign ore</w>
c ous
bare ly</w>
ter ly</w>
photograph y</w>
M en
Don ald</w>
D r
6 1</w>
v ine</w>
tra de
ra ises</w>
pos ing</w>
insec ts</w>
fl ights</w>
direc tional</w>
8 7</w>
coo k
consum ing</w>
co st-
bra ins</w>
B il
suppl iers</w>
est -
bloc ked</w>
b ular</w>
1 :
volati le</w>
sel ective</w>
poin ting</w>
fl our
char m</w>
at oms</w>
ec ology</w>
aw a</w>
appear ing</w>
NE T</w>
F ab
invas ive</w>
es ome</w>
aly sis</w>
adsor ption</w>
Typ e</w>
Con tin
viol et</w>
terror ism</w>
si ded</w>
hand some</w>
bun ch</w>
M E</w>
st ore
enjo ying</w>
bu st
al ine</w>
progno sis</w>
veget ation</w>
neighb or</w>
n ail</w>
ep ith
ver sus</w>
rela x</w>
comm it</w>
Inde x</w>
win ding</w>
th an
s incere</w>
modern ization</w>
es opha
decreas ing</w>
Tre at
7 6</w>
sub stitute</w>
in trac
green house</w>
cli p</w>
Chair man</w>
C P</w>
res ume</w>
boy friend</w>
B ack
t ough
ocy tes</w>
j am
ig er</w>
an omal
all erg
Swis s</w>
N ever
in depend
stra w</w>
indic ator</w>
geomet ry</w>
h ell</w>
cha os</w>
b lowing</w>
T ali
Nat ural</w>
pa thy</w>
omet ry</w>
min ation</w>
ap olog
Spi rit</w>
Compu ter</w>
ush es</w>
nur se</w>
ke en</w>
hist ori
en larg
C ent
conver gence</w>
fi erce</w>
deep -
ag end
A gain</w>
ro tor</w>
k ins</w>
tac tics</w>
citiz en</w>
accompl ish</w>
H ow
sus cep
propos als</w>
oc ar
il le</w>
I V</w>
po tato</w>
ph on
eng ag
an i
ment ally</w>
Pol i
ren der</w>
in no
fo ol
desk top</w>
Mar ket</w>
Experim ental</w>
sub tle</w>
member ship</w>
Loo king</w>
s i</w>
orig inated</w>
de m</w>
7 1</w>
simpli fied</w>
pra g
J ul
photo graph</w>
liter ally</w>
l ings</w>
b old</w>
h ire</w>
L eg
5 9</w>
si r</w>
qu it
m ount</w>
disp utes</w>
D am
w et
substr ate</w>
st y</w>
restric tions</w>
preser ved</w>
new -
m ing
Ya hoo</w>
clim bed</w>
batter ies</w>
N ing
I ran
H ey</w>
ge ous</w>
L iter
Eliz abeth</w>
s .
p ad</w>
docum entation</w>
char ity</w>
mean while</w>
gener alized</w>
To y
w ear
s essions</w>
crow ded</w>
act ress</w>
Mo on</w>
Col l
lo vers</w>
sk illed</w>
legen d</w>
gas oline</w>
un ited</w>
fri ed</w>
emerg ence</w>
cle ar
at ri
all y-
Te am</w>
199 2</w>
w ashed</w>
vir al</w>
h ob
fix ation</w>
disclo ses</w>
be ating</w>
ob esity</w>
fo x</w>
fe der
V o
T ao
Arch it
represent atives</w>
meth yl
key board</w>
controversi al</w>
ad mit</w>
Ci vil</w>
Bas in</w>
resear ching</w>
inst ances</w>
fi ers</w>
el ementary</w>
Mongol ia</w>
se p
p ray</w>
ev id
du ties</w>
cryst all
B BC</w>
gi e</w>
sist ers</w>
requ ested</w>
i i</w>
cros sed</w>
ultras ound</w>
t an</w>
ic it
ur i
sem antic</w>
over head</w>
dis advantages</w>
cr acking</w>
b ols</w>
sust ained</w>
stup id</w>
real -
yl on</w>
t ful</w>
An dro
sel ls</w>
Loc al</w>
objec tives</w>
e ste
Ch an
CP U</w>
work shop</w>
fi res</w>
fa thers</w>
minim al</w>
T D</w>
9 2</w>
sec retary</w>
responsi bilities</w>
es tive</w>
an alog
respec tive</w>
Nav y</w>
H .</w>
7 8</w>
pre mium</w>
inter rup
emul sion</w>
A L</w>
preser ve</w>
poss esses</w>
along side</w>
ab ras
L ot
in jec
goo d-
Democ rats</w>
Bu ff
inf ants</w>
i tive</w>
e aten</w>
ang ular</w>
Fu jian</w>
w ages</w>
journ alists</w>
avo ided</w>
S W
transl ated</w>
stri ker</w>
hi red</w>
econom ists</w>
determin es</w>
C lo
ten ded</w>
mon d</w>
coun sel
b ble</w>
k it</w>
aes thetics</w>
Res pon
Gener ally</w>
Dig ital</w>
g .</w>
coll ision</w>
F ra
An im
en er</w>
be ds</w>
ol en</w>
co ded</w>
N O</w>
wil d
P ati
M eas
wr ink
tab let</w>
invest or</w>
indic ating</w>
cur ing</w>
Jord an</w>
- free</w>
sp ell</w>
o ils</w>
illustr ates</w>
gol f</w>
S .
Exec utive</w>
t ted</w>
on ship</w>
in- law</w>
igh ty</w>
doc tr
bil li
achiev ing</w>
por ous</w>
emphas ized</w>
by e</w>
wh i
don t</w>
con sen
Hol y</w>
9 7</w>
sil ic
res cent</w>
N BA</w>
D er
sc and
fail s</w>
defin ite</w>
ber ries</w>
ain ts</w>
tran sc
ta p</w>
orthog onal</w>
explo res</w>
R ail
it arian</w>
fir ing</w>
any more</w>
absor bed</w>
S how</w>
pron oun
primi tive</w>
helicop ter</w>
author ized</w>
design ated</w>
METHO DS</w>
E specially</w>
im pa
d ust
G ates</w>
deter i
woo ds</w>
Web Sphere</w>
K -
C ab
Ber lin</w>
off s</w>
el as
ed a</w>
vis ions</w>
tit les</w>
rhyth m</w>
ol i
ment ary</w>
eter nal</w>
res cu
no te
sh a</w>
let ting</w>
fav our
exten ding</w>
auc tion</w>
pol lu
persist ent</w>
la m</w>
fr igh
fit ted</w>
No bel</w>
ve y</w>
some how</w>
imp acts</w>
g in</w>
de position</w>
c ache</w>
am orph
I ni
mus h
encoun tered</w>
c af
agre ements</w>
15 -
in finite</w>
ey e
at ro
Swe den</w>
P ost</w>
1 ,000</w>
w ounded</w>
rol ls</w>
ran ked</w>
f ame</w>
du al-
Sci ences</w>
six th</w>
esc ence</w>
e i</w>
N C</w>
199 3</w>
rel uc
refin ed</w>
re active</w>
cr ying</w>
bl ind
ast -
M ess
K er
Hu i</w>
7 0
pharmac eutical</w>
d ents</w>
ass ignment</w>
ure ly</w>
m ust
illustr ated</w>
ev ident</w>
dir t</w>
c m</w>
G az
mal es</w>
fant astic</w>
glob alization</w>
vi al</w>
ff ed</w>
co atings</w>
T ony</w>
B ay
tempor al</w>
i fication</w>
hard ness</w>
am ics</w>
acqu ire</w>
re mind</w>
pum ping</w>
hor ri
el and</w>
In tell
Ar ti
pe pper</w>
gra ft</w>
compl iance</w>
8 2</w>
on t
d ary</w>
In v
Ear lier</w>
qu et</w>
inter views</w>
hor mon
w oul
ampl itude</w>
S ystems</w>
No thing</w>
pre m
met res</w>
jew el
fol der</w>
chromat ography</w>
assum ed</w>
retrospec tively</w>
pl e-
man kind</w>
ess ors</w>
Vill age</w>
war s</w>
rac es</w>
purch asing</w>
og en</w>
mod est</w>
mat urity</w>
consist ency</w>
c eas
Now adays</w>
Ale x</w>
sp in</w>
re vi
insist ed</w>
harmon ic</w>
am en</w>
acceler ate</w>
A im</w>
sym bols</w>
sha de</w>
recommend ations</w>
nucle us</w>
il in</w>
f ar-
evolu tionary</w>
datab ases</w>
b ou
T ao</w>
M es
sem iconduc
S ig
upd ates</w>
ro pol
respon ded</w>
investig ating</w>
immun ity</w>
ac upuncture</w>
H R
9 3</w>
t sun
ran king</w>
plan ets</w>
onym ous</w>
mun icipal</w>
f us
bar riers</w>
re y</w>
nas al</w>
exper tise</w>
cu losis</w>
autom ated</w>
ta i</w>
rel ating</w>
p ays</w>
h -
fem ales</w>
commer ci
b ig
appl i
al ert</w>
Mad rid</w>
Lin col
H -
j acket</w>
el lip
CO 2</w>
un preced
survi v
pp y</w>
p ore</w>
bra ve</w>
ar in</w>
ab ling</w>
3 ,
r is</w>
occas ionally</w>
enh ancement</w>
absor b</w>
Str at
C ro
wa x</w>
si de-
omet ric</w>
h ook</w>
glo be</w>
ym es</w>
sc oring</w>
inv ite</w>
gau ge</w>
exha ust</w>
bi o-
b uck
Tali ban</w>
summar izes</w>
no is
contr ary</w>
Sh ar
R on
g ent</w>
ware house</w>
ol d-
conf used</w>
Per i
h ence</w>
g ross</w>
f ty</w>
nutri ents</w>
diab etic</w>
U -
9 0
tal ented</w>
summar ize</w>
strength ened</w>
con dem
cent ri
aff air</w>
198 0s</w>
tw ist
swe at</w>
s ink</w>
g aining</w>
im posed</w>
form ations</w>
dis count</w>
b ial</w>
ak a</w>
C s</w>
share holders</w>
Li ang</w>
Hy dro
Con ference</w>
shor tly</w>
rel ate</w>
o ved</w>
Si x</w>
provid ers</w>
F R
p ag
h iding</w>
fl ed</w>
con sec
cataly tic</w>
ben ch
Twit ter</w>
S ym
M P</w>
Jew ish</w>
Cre ate</w>
C T
B .</w>
An drew</w>
Fun d</w>
home work</w>
h omet
ect onic</w>
In st
repor tedly</w>
rel ay</w>
quanti ties</w>
drama tically</w>
d ining</w>
Pl an</w>
Fe der
hand led</w>
direc tors</w>
A ward</w>
real izing</w>
n aked</w>
sh i</w>
radi us</w>
profes sion</w>
it ably</w>
cont acts</w>
ure -
shar ply</w>
sa tions</w>
com ed</w>
S uc
Malay sia</w>
7 4</w>
ell ation</w>
e dit</w>
comman der</w>
Republic ans</w>
Enter prise</w>
- off</w>
w n</w>
contin ent</w>
ai res</w>
Ira qi</w>
E E
tigh tly</w>
pe i</w>
nar row
ext inc
ed ged</w>
assist ed</w>
veri fication</w>
So on</w>
Of ten</w>
radi al</w>
mis sil
floo ding</w>
Rev i
reson ance</w>
random ly</w>
ic ing</w>
figh ter</w>
belie fs</w>
sub jective</w>
ecos ystem</w>
af i</w>
por k</w>
lo os
I M</w>
s oo
o st
de viation</w>
S I</w>
th reads</w>
fab rics</w>
comp iled</w>
cle ver</w>
aldehy de</w>
adop tion</w>
J am
tur bul
rainf all</w>
gg er</w>
ge ographical</w>
f li
do or
disper sion</w>
H B
moun tain
govern mental</w>
g on
empir ical</w>
distor tion</w>
d ant</w>
pra yer</w>
inher itance</w>
house holds</w>
back up</w>
transm itted</w>
regul ate</w>
ay a</w>
Aut om
sl ice</w>
re now
p sy
adap ted</w>
T an
le an</w>
en suring</w>
bre ed</w>
as cen
aff ection</w>
H and
Every thing</w>
M ax
7 7</w>
transi ent</w>
insul a</w>
fe ud
em en</w>
conf igure</w>
D al
reservo irs</w>
mon y</w>
ig ence</w>
draw s</w>
dispos al</w>
chem otherapy</w>
Pak ist
Elec tric</w>
inhi bition</w>
impl ications</w>
enjo y
cultiv ated</w>
ant i</w>
9 4</w>
typ ing</w>
ro t</w>
rec eption</w>
garden s</w>
bre eze</w>
al titude</w>
ag ging</w>
H D
threat ening</w>
op tic</w>
infarc tion</w>
cele bration</w>
arch i
L an
sm iling</w>
ri dge</w>
parti ally</w>
he at-
decom position</w>
bas e
Cl ass</w>
Chr is</w>
st ag
out let</w>
L A</w>
G a
pack et</w>
mon o
de bris</w>
Wh it
Swit zer
PC R</w>
Never theless</w>
prote sts</w>
pr one</w>
out comes</w>
nur ses</w>
mean ings</w>
cr yp
St one</w>
u plo
tex ts</w>
explo sive</w>
b ad
V ice</w>
L ady</w>
wa ist</w>
schol ar</w>
reci pi
real m</w>
assem bled</w>
N et</w>
F ang</w>
schedul ing</w>
re d-
indic ators</w>
duc t</w>
boo ts</w>
at ers</w>
Sof tware</w>
Mos es</w>
stre ams</w>
leg ally</w>
k ra
horiz on</w>
Multi -
s ors</w>
reli ev
poster ior</w>
ban ned</w>
N as
H as</w>
8 3</w>
wa ited</w>
puri fication</w>
nation ality</w>
inf ant</w>
competi tors</w>
spec tral</w>
shel ter</w>
inter act</w>
duc k</w>
conf usion</w>
bo iling</w>
assi c</w>
ad ol
Sh an</w>
8 4</w>
unpreced ented</w>
serv ants</w>
ligh ted</w>
ever -
en sures</w>
dro pping</w>
buil t-in</w>
H ou
G all
Fi eld</w>
199 1</w>
\ \
e quality</w>
set up</w>
hi on</w>
S C</w>
Geor gia</w>
refl ecting</w>
op ia</w>
om mun
des cen
Tot al</w>
A im
survi ved</w>
in direct</w>
cryst als</w>
par ks</w>
epide mic</w>
dis crete</w>
chap ters</w>
V an</w>
Lou is</w>
He bei</w>
re m
pl ess</w>
a ren
S at
traum a</w>
regul ated</w>
pl um
fore igners</w>
encoura ging</w>
d well
R ot
purch ased</w>
oper ates</w>
n our
j ar</w>
g ig
S ul
Mc C
s able</w>
p ants</w>
ov ascular</w>
co operate</w>
c lic</w>
O '
An n
modi ties</w>
h ath</w>
M T
Ex pl
strat ors</w>
sm iled</w>
ne ts</w>
differ ently</w>
carb onate</w>
Pri ze</w>
Lincol n</w>
Lim ited</w>
B R
om ers</w>
incredi ble</w>
distingu ished</w>
R og
P T
Bar cel
sugg esting</w>
gr ant</w>
d airy</w>
cour ts</w>
c ope</w>
Lar ge</w>
scre ens</w>
sand w
gen ital</w>
defin ing</w>
car riers</w>
ap ps</w>
M iss
speak s</w>
pig ment</w>
law yers</w>
identi fying</w>
he l</w>
collap sed</w>
ak en</w>
shir ts</w>
pro long
S am</w>
. x
su ited</w>
sk et
con sist</w>
b ore</w>
infer ior</w>
b are</w>
Philipp ines</w>
speci alty</w>
homet own</w>
bron ze</w>
T ang
H D</w>
Econ om
sper m</w>
mut ation</w>
inv is
guarante ed</w>
config ur
ar ized</w>
a rest</w>
D op
ref use</w>
organiz ational</w>
earth qu
ud inal</w>
t ari
in tim
ill um
deriv atives</w>
C M</w>
val uation</w>
up set</w>
S ure</w>
volcan ic</w>
or b
observ ations</w>
contain ers</w>
S anta</w>
E qui
ocy te</w>
gl omer
M obile</w>
wel comed</w>
tra pped</w>
gram mar</w>
emer ge</w>
ar sen
B lu
tor al</w>
thir ty</w>
reci pe</w>
ex er
acceler ation</w>
Switzer land</w>
Sin o-
A F</w>
g e-
cou l
cali bration</w>
ad dic
Q i</w>
pri est</w>
no vel
free zing</w>
I /
w oven</w>
sever ely</w>
me g
ins ect</w>
consist ing</w>
Afgh an</w>
sul fur</w>
st res
so red</w>
inv al
d i</w>
addi tive</w>
N on
view point</w>
rout es</w>
pal m</w>
ha ble</w>
am ide</w>
H em
7 3</w>
reti rement</w>
b ai</w>
Scot land</w>
Fam ily</w>
out break</w>
avo iding</w>
accoun ted</w>
sun g</w>
spectr a</w>
o x</w>
f i</w>
engag ement</w>
cholester ol</w>
cent ric</w>
agend a</w>
Sud denly</w>
H im</w>
Guang xi</w>
' The</w>
rac ing</w>
fail ures</w>
appli ances</w>
Tur k
n ate</w>
Barcel ona</w>
tuber culosis</w>
ju ven
im pressed</w>
coun cil</w>
as c
symp tom</w>
pon d</w>
gra ms</w>
corpor ations</w>
attem pted</w>
Produc t</w>
Em pire</w>
ul c
re b
Fac tory</w>
6 9</w>
utili zed</w>
r ally</w>
im a</w>
f arms</w>
broad er</w>
app rais
ra dic
dis asters</w>
certi fication</w>
sur plus</w>
land ed</w>
discrimin ation</w>
bla sting</w>
RES UL
it ating</w>
after -
speak ers</w>
har den
h itting</w>
fra ud</w>
exc eed</w>
perc eived</w>
optim istic</w>
in form</w>
disturb ance</w>
cul tured</w>
coun ted</w>
c age</w>
th rowing</w>
clust ers</w>
band width</w>
T ower</w>
N T</w>
preser vation</w>
pra ised</w>
ap er
G il
vill agers</w>
pro files</w>
prescri ption</w>
de pres
asth ma</w>
alli ance</w>
sup pose</w>
per forms</w>
o dic
met aph
ei ve</w>
bic ycle</w>
Chem ical</w>
A I</w>
i vely</w>
y ours</w>
form ers</w>
fail ing</w>
enjo ys</w>
V O
wit n
tr ick
cur tain</w>
ish an</w>
a wards</w>
8 1</w>
stimul ation</w>
ri b
lo s</w>
de em
cu red</w>
rab bits</w>
er i</w>
endo th
employ ers</w>
S t</w>
C lar
A O
t ants</w>
sn ake</w>
genu ine</w>
cel ain</w>
J .</w>
k g</w>
de adly</w>
A ge</w>
pum ps</w>
er o</w>
ang el</w>
R .</w>
P ort</w>
rol l
plas tics</w>
influ enza</w>
gu it
add afi</w>
S ear
A h
regul ating</w>
gre gate</w>
st um
meth yl</w>
fluo rescence</w>
em bro
at om</w>
Isl amic</w>
Hu a</w>
view ers</w>
us ive</w>
terror ist</w>
stric ts</w>
ins ight</w>
fragr ance</w>
Sum mer</w>
ec raft</w>
D ri
tion er</w>
iss ance</w>
gener ous</w>
astr on
TC M</w>
NAT O</w>
D ad</w>
Commer ce</w>
tr ust
gar bage</w>
coll ar</w>
7 9</w>
enti tled</w>
L ad
organ ism</w>
invest ing</w>
con sume</w>
centri fu
back -
mer ged</w>
hypo thesis</w>
clo sure</w>
c ited</w>
al lies</w>
ak i</w>
prog ressive</w>
h is
consul ting</w>
ar ise</w>
H op
under water</w>
peri odic</w>
fo res
M is
C old</w>
light ning</w>
ji e</w>
he al</w>
di min
comp ul
atmosph eric</w>
amb igu
M R</w>
se a
pro jection</w>
phosph orus</w>
parag raph</w>
minist ers</w>
list ing</w>
bank rup
2 2
nor th-
P P
Bet ween</w>
x in</w>
di o</w>
S ection</w>
syn tax</w>
rela xed</w>
f os
ex qu
ci a</w>
8 9</w>
inno cent</w>
high light</w>
er ings</w>
co effici
ari um</w>
ac e
T op</w>
vol umes</w>
scat tering</w>
s …</w>
epis ode</w>
dis appear</w>
T our
Happ y</w>
A B</w>
so m</w>
rehabil itation</w>
ir o</w>
independ ently</w>
f ang</w>
Y esterday</w>
reason ing</w>
co il</w>
Ne ther
M ine</w>
w ines</w>
ste ering</w>
repos itory</w>
down town</w>
Gu o</w>
the ater</w>
r us</w>
pati ence</w>
med ication</w>
le vel
el et</w>
appro ached</w>
an ity</w>
N ep
3 5
un ve
ozo ic</w>
long est</w>
hum idity</w>
formul as</w>
ex em
A v
bound aries</w>
admin istr
Moun tains</w>
j un</w>
In cre
Braz ilian</w>
sur fac
H ur
stiff ness</w>
spl en
qu est</w>
magnes ium</w>
j ug
hum or</w>
dom s</w>
ancest ors</w>
ag ged</w>
Nor mal</w>
D ong</w>
Ad di
transi t</w>
ris en</w>
pil es</w>
infec tious</w>
fru str
cu b
Ok ay</w>
hot -
thr ust</w>
mar row</w>
lin ear
fr anch
se wage</w>
ow -
am in
G rand
3- D</w>
wor ries</w>
ru b</w>
re marks</w>
long it
escap ed</w>
deman ding</w>
F an</w>
00 0
E mer
9 1</w>
1 1.
pe di
head er</w>
er able</w>
Sh en</w>
K in
ta xi</w>
specim ens</w>
renow ned</w>
W .</w>
Por t
v otes</w>
ren e</w>
pursu ing</w>
po etic</w>
end or
anthro p
Toy ota</w>
R ather</w>
L earning</w>
st resses</w>
leg acy</w>
diff er</w>
Steph en</w>
M D
Al most</w>
w u</w>
sel ler</w>
il a</w>
gi an</w>
Z one</w>
O ut</w>
L ind
198 0</w>
loc k
exp ounds</w>
advis ed</w>
A E
wi ves</w>
oppon ent</w>
o e</w>
m asters</w>
j ia</w>
h ong</w>
coeffici ents</w>
H awa
B I</w>
waveleng th</w>
rh et
per mit</w>
micro structure</w>
jur is
w ins</w>
stimul ate</w>
ri vals</w>
pr ince</w>
poss ession</w>
mid fi
exhi bit</w>
ber y</w>
par all
magaz ines</w>
ing ed</w>
gas -
exc use</w>
en ix</w>
econom ics</w>
TH E</w>
D or
sacri fic
re tain</w>
organ izing</w>
form ulation</w>
foc al</w>
Mic h
Aut umn</w>
y ant</w>
t us</w>
missil es</w>
log y</w>
Car ol
no ble</w>
med al</w>
con notation</w>
L and
C E</w>
A ustri
view er</w>
icit ly</w>
ac es</w>
Ch ange</w>
sla ve</w>
ind ication</w>
in- depth</w>
gra b</w>
gover ning</w>
defe ated</w>
aux iliary</w>
P ul
J as
F ar
Ed ward</w>
trans former</w>
perc ep
f ancy</w>
RM B</w>
F T</w>
Al li
hear ted</w>
any body</w>
ad ata</w>
Isl ands</w>
under -
stri kes</w>
invol vement</w>
illustr ate</w>
ign -
human -
bi as</w>
N az
G ao</w>
ig ning</w>
T ell</w>
Mar k
restor ation</w>
qu een</w>
fa ul
Zh eng
J ing</w>
H ence</w>
ra tion
pe an
conden s
celebr ated</w>
m ess</w>
travel ed</w>
t ectonic</w>
m ighty</w>
hydro ly
dos age</w>
Po or</w>
A O</w>
vo ices</w>
sit u</w>
re generation</w>
pres ent
h its</w>
cra w
az z
abund ance</w>
Th ai</w>
under went</w>
rot ary</w>
extrac ting</w>
exter ior</w>
el e</w>
anch or</w>
Chines e-
magnific ent</w>
elim inated</w>
consum ed</w>
Pro cess</w>
Egyp tian</w>
Argent ina</w>
thri tis</w>
program mes</w>
par liament</w>
heter ogen
tour nament</w>
tor -
t ress</w>
simil arity</w>
rel s</w>
p ation</w>
ossi l</w>
jud ges</w>
fu els</w>
de pressed</w>
bon ding</w>
out- of-
n a
ent ine</w>
compres sor</w>
scen ic</w>
occur ring</w>
bi e</w>
belong ing</w>
ain an</w>
A pp
lip id</w>
ho sted</w>
accum ulated</w>
Y outh</w>
F ire</w>
thes ia</w>
l as</w>
in stitute</w>
i onal</w>
fo g</w>
st olen</w>
shi fting</w>
sel ec
seg ments</w>
rela x
fibr e</w>
antibio tics</w>
T ru
Di vision</w>
si on-
or i</w>
laugh ed</w>
inher ent</w>
calcul ations</w>
back ward</w>
archit ect</w>
ali tion</w>
T E</w>
umb rel
re v
per m
ar ith
tig ation</w>
spe eds</w>
smoo thly</w>
mol ding</w>
lingu istic</w>
har vest
conclud e</w>
break through</w>
Ju vent
woo d
prosper ous</w>
fortun ate</w>
flo at</w>
fe i</w>
es cent</w>
consen sus</w>
zh i</w>
sp rin
Pro per
Con sum
A qu
volunte er</w>
purch ases</w>
favour ite</w>
entrepreneur s</w>
en de
appe tite</w>
S V
Ji an
so ap</w>
r ick</w>
pro xim
o h</w>
multi media</w>
ham mer</w>
distinc tion</w>
swe et
now adays</w>
U kra
D ru
ul ating</w>
se af
o is</w>
con grat
cardi ovascular</w>
ampli fier</w>
Libr ary</w>
t ary</w>
rele ases</w>
post operative</w>
e z
thir ds</w>
ten sile</w>
ight ness</w>
ic e
grat eful</w>
dial ect</w>
civ ilian</w>
them es</w>
aff ili
ob sc
decor ated</w>
ste al</w>
scen ari
integr ating</w>
d ental</w>
ci ent</w>
M -
J ia</w>
ynam ics</w>
public ly</w>
ful fill</w>
com modities</w>
calligra phy</w>
bor row</w>
Pl ace</w>
t ags</w>
exten ds</w>
exp end
di ar
dec l
an ic</w>
Me dia</w>
ro of
par t-
fun eral</w>
fast est</w>
comp eting</w>
ch ie
bre ath
Z hi
tri um
resid ue</w>
oc tion</w>
enz ymes</w>
F ro
s est</w>
jewel ry</w>
im er</w>
con stitute</w>
claim ing</w>
b -
O l
Ma h
M erc
H A</w>
B ao
tradi tions</w>
publ ish</w>
pep tide</w>
inhi bit</w>
fat al</w>
contam ination</w>
T ay
v ag
tw in</w>
gener ic</w>
de but</w>
bl essing</w>
P in
Ch i</w>
z u</w>
succ eeded</w>
sla g</w>
quas i-
per ed</w>
depar ture</w>
bul l
Wat ch</w>
RESUL TS</w>
M om</w>
M e</w>
3 rd</w>
synchron ous</w>
happ ily</w>
alum inium</w>
a .
Jew s</w>
tr ucks</w>
p ulation</w>
l umin
agre es</w>
utili zing</w>
ste ep</w>
sha king</w>
out line</w>
l akes</w>
defin itions</w>
def ensive</w>
S ports</w>
Palest inian</w>
G ri
Aff airs</w>
un clear</w>
revis ed</w>
pres ti
imper ial</w>
en er
tou ching</w>
stead ily</w>
so ils</w>
particip ated</w>
gener ates</w>
dam ages</w>
chil d
autom otive</w>
Hu bei</w>
too th
inst inc
in fr
con siders</w>
che str
bo d
at al</w>
assess ed</w>
Simil arly</w>
As sem
se ized</w>
dy eing</w>
be aten</w>
pro testers</w>
monopol y</w>
esc ope</w>
di g</w>
Zh ang
Juvent us</w>
tempor arily</w>
J en
jo ke</w>
hun ger</w>
he pat
commun ic
ali ke</w>
ag h
reser ved</w>
high- end</w>
Sha kes
vo ted</w>
p our</w>
expec ting</w>
bi op
bankrup t
Wh atever</w>
Sen ator</w>
S w
di stricts</w>
co ar
advent ure</w>
adhes ion</w>
Regi on</w>
ri e</w>
holid ays</w>
f id
em atic</w>
b end</w>
Environ mental</w>
o type</w>
grad uation</w>
bil lions</w>
R ed
Mic hel
M organ</w>
Co de</w>
y lic</w>
in verse</w>
c ough</w>
K al
ma ize</w>
hemorrha ge</w>
ach el
Gold man</w>
4 th</w>
smar t
pe aks</w>
mal aria</w>
la tive</w>
ell ular</w>
cy clo
but tons</w>
U su
L ow</w>
wi res</w>
viv id</w>
recycl ing</w>
por ter</w>
op tional</w>
on able</w>
desi rable</w>
b orders</w>
accord ingly</w>
Strat eg
Po int</w>
war ri
vit ality</w>
vari ance</w>
un certain</w>
re act</w>
pec uli
ari ans</w>
ap es</w>
sh r
penet ration</w>
min us</w>
instr um
ge on</w>
Un it</w>
P earl</w>
D ol
B ot
sul ph
por celain</w>
full- time</w>
b ay</w>
twel ve</w>
tr usted</w>
inst antly</w>
grand father</w>
anx ious</w>
G R
so y</w>
senti ment</w>
nick el</w>
cal end
ar row</w>
seas onal</w>
moun ting</w>
k nit
is n</w>
ber -
Scot t</w>
S N
Re ad</w>
ter rain</w>
ind ul
fol ding</w>
R ose</w>
phys ically</w>
h as
flo ors</w>
requ iring</w>
it y
bu g</w>
sp here</w>
poll ut
forman ce</w>
figh ters</w>
H K</w>
sta dium</w>
scenari os</w>
fer tility</w>
ster il
mak eup</w>
laugh ter</w>
hierarch y</w>
geomet ric</w>
forec asting</w>
desper ate</w>
c ables</w>
air line</w>
F unc
se d
Qing dao</w>
refu ge
psy cho
dis si
contin ental</w>
V A</w>
CA D</w>
tun n
ol ig
en ly</w>
cultiv ate</w>
bel oved</w>
Su preme</w>
Ex hi
C ross</w>
hor n</w>
bal ancing</w>
ar tic
Iran ian</w>
G IS</w>
sw elling</w>
polymer ization</w>
expl icit</w>
ex chang
att ach</w>
at traction</w>
aim ing</w>
sac red</w>
plas m</w>
embr ace</w>
tra ded</w>
l ane</w>
ec lip
dat a-
ass ure</w>
Te a</w>
Sy d
Ch an</w>
An hui</w>
w iz
ul ative</w>
spot ted</w>
shoc ked</w>
f ossil</w>
ben ign</w>
bas sy</w>
al ignment</w>
Ir ish</w>
tsun ami</w>
tit anium</w>
respec ted</w>
pre valence</w>
D ow</w>
trigg ered</w>
stop ping</w>
lim iting</w>
kind ness</w>
ent ries</w>
dra in</w>
Ti m</w>
star t
or ly</w>
cour ty
az z</w>
V it
ur s</w>
k iller</w>
gl and</w>
blow n</w>
sc ales</w>
compl aints</w>
al ised</w>
Wor ks</w>
Shakes pe
N G</w>
ra ms</w>
dis course</w>
Dop pler</w>
D u</w>
wh er
trop ic</w>
gentlem an</w>
exten sively</w>
embr yo</w>
crystall ine</w>
compl ain</w>
comp ressed</w>
bel ly</w>
Tai pei</w>
Cath olic</w>
tow n
th western</w>
swe pt</w>
quali fication</w>
S ong
prison ers</w>
nutri tional</w>
mul ti</w>
der ness</w>
col s</w>
acr yl
sh ells</w>
s ang</w>
hand ful</w>
dru g-
dam s</w>
Pe ace</w>
B la
A gre
per pet
k l
c ann
asph alt</w>
as ka</w>
T am
y el
mean time</w>
li me</w>
comp ares</w>
cat ching</w>
Ch u</w>
ur anium</w>
legi timate</w>
ground water</w>
fix ing</w>
er y
cer amics</w>
aca dem
T ai</w>
nutri ent</w>
retriev al</w>
laugh ing</w>
j ail</w>
anc e
L ing</w>
H S
philosoph ical</w>
medi ation</w>
may or</w>
dy e</w>
con e</w>
a unt</w>
N 1</w>
Andro id</w>
ucle ar</w>
lin er</w>
galax y</w>
To o</w>
HT TP</w>
res is
ep il
— a</w>
spac ecraft</w>
simpl icity</w>
ri dic
dec o
H aw
inser t</w>
att acking</w>
secre ts</w>
pres sures</w>
ili ans</w>
clo se
ad mi
surve yed</w>
speci alist</w>
lo go</w>
Fin ance</w>
us able</w>
transpa ren
sl udge</w>
promo tes</w>
i ously</w>
ch ew
att achment</w>
arbitr ary</w>
Sto ck</w>
suppl ement</w>
mit ting</w>
invis ible</w>
expend it
consol e</w>
biom ass</w>
Pet ro
obst acles</w>
m our
hon ey
g lim
al together</w>
advertis ement</w>
Sa udi</w>
tic -
te -
prov ision</w>
occup ation</w>
ic ular</w>
employ er</w>
car ved</w>
be st
atten ding</w>
K ev
Carol ina</w>
C ao</w>
psych iat
dis abled</w>
Nether lands</w>
N ap
inv itation</w>
cor ners</w>
che er
c k
appro aching</w>
Fo rest</w>
stret ched</w>
le ak</w>
kne es</w>
excit ement</w>
Co ast</w>
A G</w>
tur n
longit udinal</w>
gen us</w>
Objec tive
D e</w>
p oured</w>
mar i
it ability</w>
cut ter</w>
at titudes</w>
S n
Qu e
For um</w>
De ath</w>
tr unk</w>
hy gi
ann ually</w>
Pen n
B os
s om
reason ably</w>
op athy</w>
fle et</w>
d row
St art</w>
Ri o</w>
In ner</w>
: 1</w>
semiconduc tor</w>
photograph er</w>
mar tial</w>
lot us</w>
coun tless</w>
c auti
P I</w>
avi ation</w>
adap tation</w>
UR L</w>
G ran
B ase</w>
Addi tionally</w>
sh rim
re placing</w>
poll en</w>
pill ar</w>
initi ated</w>
fut ures</w>
declar ation</w>
com positions</w>
B un
tox in</w>
sla ugh
sh y</w>
s lot</w>
robo ts</w>
pol arization</w>
pe dia</w>
win ners</w>
up ward</w>
tra ders</w>
m illing</w>
knoc ked</w>
f ool</w>
em bol
uti n</w>
sha me</w>
St even</w>
stoc k
prac ti
pois oning</w>
perf ection</w>
ick ens</w>
cr ane</w>
Ac c
20 15</w>
the astern</w>
quo te</w>
over night</w>
midfi elder</w>
medic inal</w>
in organic</w>
grand mother</w>
gh ost</w>
ch airs</w>
N ame</w>
Colum bia</w>
stam p</w>
sc ared</w>
possi bilities</w>
gl ue</w>
W est
R F
P it
Man ufac
y land</w>
s /
remark ably</w>
poly morph
emphas izes</w>
ambi tious</w>
y east</w>
un ci
t all
pen ding</w>
minim ize</w>
hom e-
fac tor
de er</w>
Pa ul
P ing
E cli
ren ts</w>
non- linear</w>
mo on
mark er</w>
l acking</w>
i v
Syd ney</w>
F ind</w>
sh ining</w>
nov ation</w>
high lights</w>
compar able</w>
valid ation</w>
sub jected</w>
pric ed</w>
p to
ine a</w>
c ute</w>
vap or</w>
inqu iry</w>
der -
de alt</w>
ar thritis</w>
Wh enever</w>
Pol icy</w>
McC ain</w>
Em ploy
th at
path way</w>
particip ating</w>
distribu te</w>
del ete</w>
cu ps</w>
com edy</w>
c ade</w>
ad mir
thor ac
deplo y</w>
ad ers</w>
met adata</w>
v is</w>
rec tang
pre ference</w>
od a</w>
m im
aff ord
Ken ne
seem ingly</w>
har sh</w>
dis appointed</w>
R est
Commun ity</w>
m am
high er-
expres sing</w>
docum ented</w>
theore m</w>
sub way</w>
rh iz
o ever</w>
n ish</w>
es ian</w>
de structive</w>
ach ers</w>
W as</w>
Off ici
L abor
K a
G F</w>
w a</w>
tra il</w>
dis rup
bure auc
polys acchar
po ison</w>
I F</w>
inst ability</w>
ha ven</w>
cur ious</w>
cand y</w>
Sou theast</w>
Saf ety</w>
S on</w>
warm th</w>
shi p
ri p
reg ards</w>
qual itative</w>
emphas ize</w>
all urg
al ge
ac tic</w>
wol f</w>
ri pe</w>
rele asing</w>
li vely</w>
electr ons</w>
clo sest</w>
S Y
ir regular</w>
Su zhou</w>
w ide-
ut en
sincer ely</w>
prom pt</w>
loy alty</w>
i b
her oes</w>
diff r
copy right</w>
char ming</w>
S cri
Ox ford</w>
st aff
re tention</w>
ques tioned</w>
cur ved</w>
co al-
N iger
Mach ine</w>
Le on
B ran
198 9</w>
ru ption</w>
pu zz
pa vement</w>
ind le</w>
igg ing</w>
ag gregate</w>
x ian</w>
vis a</w>
vacc ines</w>
thor ough</w>
id er
consist ently</w>
avo id
Usu ally</w>
R NA</w>
te es</w>
shi pped</w>
perf usion</w>
liber al</w>
ig ible</w>
f a</w>
euro s</w>
elim inating</w>
xi ang</w>
work -
un a</w>
spec ulation</w>
mark ers</w>
jum ping</w>
W an
Pu bl
Pro gram
Consi der</w>
Christi ans</w>
up coming</w>
s ap
for -
acknowled ged</w>
T it
An dy</w>
vo ting</w>
uni qu
tri ps</w>
t astes</w>
spectac ular</w>
shi pment</w>
s es
roman ce</w>
reli eve</w>
lum bar</w>
in jected</w>
hydro gen
de vil</w>
bra tions</w>
M aking</w>
lun ar</w>
lam ps</w>
en coding</w>
contam inated</w>
addi tives</w>
Confuci anism</w>
C oc
vend ors</w>
tom ato</w>
inter s</w>
extrac ts</w>
do t</w>
O therwise</w>
Cor p.</w>
shut tle</w>
bol t</w>
alle vi
Maj or</w>
pl a
p .
mete or
ins ist</w>
cu is
cou ra
whit e-
un ch</w>
li fel
form ats</w>
X ing
K ir
situ ated</w>
expec tation</w>
cat astro
agg er
Str uc
D alian</w>
theore tically</w>
qu ot
main tains</w>
carb on
a issance</w>
Sim on</w>
E qu
E R</w>
Ar th
sc or
refer ring</w>
W enger</w>
Li a
L ing
Col or
Ab str
sc an
insi sts</w>
repa iring</w>
ol in</w>
join tly</w>
incen tive</w>
for give</w>
deduc ed</w>
sli pped</w>
lap top</w>
inclin ed</w>
cor tex</w>
chin ese</w>
car pet</w>
s ar
oul try</w>
ong -
list ened</w>
compet ence</w>
su ite</w>
nan o-
min i-
in dispen
g ul
fas cin
doctr ine</w>
G O
ep age</w>
L CD</w>
tol l</w>
qu eries</w>
je al
fol ded</w>
emplo y</w>
elev ation</w>
di m
att an</w>
ac idi
T ian</w>
H ope</w>
uni vers
restric tion</w>
ni tion</w>
enti ties</w>
compos ites</w>
clear ance</w>
bure au</w>
b idden</w>
absor bing</w>
Sh er
swit ched</w>
iter ation</w>
hydro carbon</w>
com promise</w>
colle ague</w>
co alition</w>
K at
orb ital</w>
n ails</w>
la g</w>
coll ec
be have</w>
Electr onic</w>
prob es</w>
on set</w>
mid night</w>
j ust
inher ited</w>
bri de</w>
bankrupt cy</w>
ad or
K ey</w>
ur ge</w>
sem in
re productive</w>
ge ography</w>
Sh u</w>
Rec ent</w>
C V
4 ,
ta b</w>
ligh ter</w>
exqu isite</w>
emp ire</w>
categ or
Sor ry</w>
s way</w>
en abling</w>
assum ption</w>
anti gen</w>
alk ali</w>
Re port</w>
Est abl
un stable</w>
frag ile</w>
elev ated</w>
am y
Sus an</w>
SE M</w>
Pe king</w>
P ing</w>
L ew
G E</w>
weigh ted</w>
r ous</w>
proto cols</w>
i od
ex pon
with draw
un necessary</w>
sp rings</w>
por ters</w>
oc ular</w>
cr um
col ours</w>
car riage</w>
Ste p</w>
Del ta</w>
u tions</w>
po tent</w>
in ely</w>
dis pat
ann a</w>
ach us
t ting</w>
ren dering</w>
off shore</w>
d un
cool ed</w>
H K
w ay
spon sored</w>
mer its</w>
fol ks</w>
Mar ine</w>
H ind
pro of
posi tively</w>
peri odic
off ensive</w>
g um</w>
Mongol ian</w>
um ber</w>
este em</w>
com ings</w>
Sar ah</w>
Cam bridge</w>
Ad am</w>
oun ce</w>
motiv ated</w>
m id</w>
laun ching</w>
fif ty</w>
utili ze</w>
trou bled</w>
res our
re frac
e pers</w>
cli ff</w>
H S</w>
Blo od</w>
An dre
hun t</w>
her bs</w>
deliver ing</w>
decl are</w>
az ole</w>
am ph
we igh</w>
under stand
dri ft</w>
con sequence</w>
M od
practic ing</w>
nood les</w>
elev ator</w>
elabor ate</w>
conven tion</w>
Sup port</w>
Fil m</w>
trou bles</w>
priv il
lo v
hem at
gar lic</w>
fac ies</w>
consul tation</w>
An cient</w>
2 1
ous es</w>
or nam
govern ment-
g ates</w>
el t</w>
No tice</w>
Mass achus
M B</w>
Bro ad
surpris ingly</w>
hi o</w>
haz ard</w>
Hear t</w>
Con n
A k
sli des</w>
s lower</w>
ogen ous</w>
descri p
cell u
re use</w>
g ym
avi er</w>
D B</w>
tic a</w>
po ols</w>
ligh tly</w>
Mat the
As k</w>
A h</w>
w rec
read ily</w>
prof itable</w>
ne ys</w>
la dies</w>
feat uring</w>
din os
consist ed</w>
ber ed</w>
M echan
Dis cus
B ai</w>
ter ror</w>
spe ech
o ak</w>
lo yal</w>
g h</w>
et ts</w>
dou bled</w>
col ony</w>
c akes</w>
be e</w>
we ed</w>
reven ues</w>
relax ation</w>
pot atoes</w>
min d
m and</w>
func tioning</w>
Ar ctic</w>
sa il</w>
qu en
is er</w>
ch ase</w>
arrang ements</w>
J un</w>
5 ,000</w>
thr one</w>
r ication</w>
fant asy</w>
blu e
autonom ous</w>
after wards</w>
Pakist ani</w>
N ok
Kenne dy</w>
Ber k
ure ment</w>
prev ents</w>
fre ight</w>
fin als</w>
ef f</w>
dre am
av ed</w>
Pro b
2 9
synchron ization</w>
sul fate</w>
s ory</w>
lin ess</w>
less ness</w>
ke wise</w>
hydro x
free ze</w>
fic ally</w>
duc tion</w>
def ender</w>
compet ent</w>
att or
R ab
ud ed</w>
preven ted</w>
cor rid
cas ual</w>
Sim ulation</w>
Four th</w>
tack le</w>
sel dom</w>
pres um
per for
med itation</w>
low er-
in ous</w>
he ater</w>
end ang
bas ement</w>
R ac
telec ommun
ste pping</w>
small est</w>
sch e</w>
privil eg
om orph
base ball</w>
Y ing
Re ds</w>
Mich igan</w>
y n</w>
worl ds</w>
su gar
stri ve</w>
know led
hy ster
ch y</w>
appl es</w>
Lab or</w>
F air</w>
un -
sem ester</w>
r ors</w>
mag net</w>
exp ounded</w>
epil ep
dec ides</w>
class mates</w>
bus es</w>
Wi ki
Kev in</w>
vi sts</w>
tion ers</w>
system ic</w>
f oil</w>
bon us</w>
bl ess</w>
bid ding</w>
accep ting</w>
Wor king</w>
O N</w>
s inter
os copy</w>
kine tic</w>
inter pol
institu tional</w>
expl aining</w>
consec utive</w>
conduc tivity</w>
R ock</w>
well- being</w>
thyro id</w>
st ays</w>
sp ite</w>
sor row</w>
arith metic</w>
apprais al</w>
ur inary</w>
stat ue</w>
sal es
lim bs</w>
h t
constra int</w>
col i</w>
cigaret tes</w>
W an</w>
U. S.
E E</w>
ther m
sedi mentary</w>
c ows</w>
Cap tain</w>
198 8</w>
contra diction</w>
Up on</w>
US B</w>
Sup er</w>
M ir
F I
Abra ham</w>
target ing</w>
pre dec
my th</w>
allo ys</w>
we ather
urban ization</w>
succ ession</w>
inv ari
alleg ed</w>
Z ha
Rail way</w>
Confuc ian</w>
r acy</w>
predic ting</w>
o on</w>
hu b</w>
dos es</w>
ch ess</w>
ch ao
as sion</w>
Shakespe are</w>
pl asty</w>
ore r</w>
er on</w>
der son</w>
R D</w>
H C
treat y</w>
ou tw
mag net
Ken ya</w>
witn essed</w>
see ks</w>
d war
ac ity</w>
Xi ang</w>
under going</w>
sp ire</w>
is k</w>
experi encing</w>
cle ared</w>
In tel</w>
trans late</w>
prom pted</w>
in let</w>
fair y</w>
develop mental</w>
ag an</w>
abor tion</w>
abo ard</w>
Th om
Jus tice</w>
v as</w>
pap er
loc ally</w>
deem ed</w>
c enti
sil s</w>
pe ers</w>
orig ins</w>
j a</w>
clean er</w>
Lu o</w>
3. 5</w>
ok ay</w>
k ou</w>
immigr ants</w>
gam bling</w>
bear ings</w>
T en</w>
PV C</w>
10 ,000</w>
tow ers</w>
sal ad</w>
pi e</w>
m amm
g a</w>
c up
Inv estig
us -
nav al</w>
ing- up</w>
Mil ton</w>
197 0s</w>
superi ority</w>
poc kets</w>
it z</w>
import antly</w>
coll ector</w>
cab in</w>
c ation</w>
M ing
F eng
o do
monit ored</w>
meth ane</w>
co gnition</w>
an alog</w>
ag e
V C</w>
Lot us</w>
Con nec
skir t</w>
gu ides</w>
aqu eous</w>
adm its</w>
pres enting</w>
low ering</w>
dic t
clust ering</w>
al is</w>
W is
Lad en</w>
G C</w>
tun ing</w>
spontan eous</w>
sp ine</w>
ris on</w>
tra y</w>
run time</w>
fil ing</w>
fe ared</w>
ell ar</w>
P utin</w>
G P
surve ys</w>
draw ings</w>
consul tant</w>
butter fly</w>
bloo m</w>
ast on
ap ing</w>
Tr ue</w>
R ice</w>
Massachus etts</w>
G ong</w>
y- to-
tu re-
teach es</w>
ro ses</w>
per mitted</w>
path ogenesis</w>
nation wide</w>
h all
Willi ams</w>
P ap
M C</w>
coher ent</w>
Xi e</w>
F ut
wh ist
syl van
sun ny</w>
sou ls</w>
j ury</w>
inser ted</w>
fas c
ess ly</w>
eleph ant</w>
ans as</w>
T ou
Il lin
under take</w>
traum atic</w>
gro cer
gl ance</w>
f ence</w>
ex agger
certific ates</w>
b n</w>
won dering</w>
th ane</w>
je ans</w>
hormon es</w>
ammon ia</w>
a than</w>
R T
An ton
war ding</w>
war d-
re production</w>
oppon ents</w>
im pulse</w>
gar ment</w>
farm land</w>
br ut
bench mark</w>
ap pre
Nok ia</w>
re jection</w>
prem ise</w>
fl ag
conduc tor</w>
compl ained</w>
cas ing</w>
T ong</w>
Invest ment</w>
0 1</w>
super market</w>
o '
impe dance</w>
h an
flu ids</w>
distribu tions</w>
O hio</w>
Com pan
struggl ed</w>
ro sis</w>
re conc
contin ually</w>
Pl an
Ini ti
G un
G or
Clin ical</w>
C lear
swit ches</w>
stra tions</w>
sc ape</w>
e- commerce</w>
critici zed</w>
For tun
str anger</w>
schol ar
p oultry</w>
no table</w>
loc alization</w>
g ate
f ounding</w>
deleg ation</w>
strong est</w>
re stored</w>
occas ions</w>
h iring</w>
earthqu akes</w>
deser ve</w>
as -
separ ating</w>
quar tz</w>
edi ble</w>
U T
R ights</w>
D own
w ounds</w>
top ology</w>
star t-
la sted</w>
d ull</w>
X in</w>
S ony</w>
R C</w>
Dis ney</w>
Al ice</w>
Adv anced</w>
5 th</w>
wra p</w>
ver b</w>
sc ram
oblig ations</w>
negl ected</w>
ish ers</w>
ey ed</w>
ad her
Gu izhou</w>
tor ia</w>
ran ean</w>
ch e</w>
bloc k
L P
sem i
ox idi
or ch
hydr ate</w>
gy m</w>
calend ar</w>
ac company</w>
rang es</w>
man eu
lim b</w>
j ob
clus ive</w>
brea the</w>
ad mission</w>
Par ti
sti pul
spokes woman</w>
real izes</w>
on ous</w>
der gar
bus h</w>
S hel
P ass
Fi f
vest ock</w>
v et</w>
sque e
sp in
journ alist</w>
diffr action</w>
attribu ted</w>
arti facts</w>
W ell
Tay lor</w>
Mar x</w>
vic e-
rec alled</w>
prescri bed</w>
metast asis</w>
embro id
confin ed</w>
circumst ance</w>
appl iance</w>
Meth od
E C</w>
2 4-
z he
pre y</w>
pl ex
o vari
negoti ation</w>
habit at</w>
di p</w>
G S</w>
Chan nel</w>
whol es
tw ist</w>
proc eed</w>
mel on</w>
ex ual</w>
cont ex
V s</w>
Ma c</w>
wan ting</w>
tax pay
secre tly</w>
sculp ture</w>
h en</w>
c ant</w>
as surance</w>
Stud ent</w>
Ji a
Ha iti</w>
Fi re
E vent
D E</w>
ta o</w>
stor ms</w>
ro l</w>
re treat</w>
ow l</w>
od ds</w>
ingredi ent</w>
frequ encies</w>
for got</w>
Portu gal</w>
F .</w>
Doc tor</w>
B ai
ten ment</w>
sens ation</w>
mon key</w>
deman ded</w>
Objective To</w>
Assem bly</w>
t ancy</w>
se am
low- cost</w>
ing ness</w>
d ent</w>
symbol ic</w>
dec ent</w>
compl ication</w>
Se oul</w>
Illin ois</w>
ro om
retail ers</w>
ig ent</w>
fet al</w>
dig nity</w>
depos ited</w>
cap illary</w>
T og
R S</w>
He at</w>
skir ts</w>
desi res</w>
al ter</w>
Vi ew</w>
S now</w>
D ur
teen agers</w>
peri od
nam es
met rical</w>
i tic</w>
Pati ents</w>
P W
tom b</w>
spec tives</w>
lab els</w>
i us</w>
f ill
as sured</w>
P ra
P ep
Off ic
E le
spher ical</w>
s our</w>
low ered</w>
in sufficient</w>
F ou
st unning</w>
ri an</w>
go al
docum entary</w>
div ine</w>
H ot
F oc
no zzle</w>
f t
arch ae
ar oma</w>
sci ences</w>
r y
p ouring</w>
min al</w>
he dge</w>
col d-
bl amed</w>
Thir dly</w>
Revi ew</w>
R evolution</w>
H om
Alex ander</w>
spra ying</w>
peas ants</w>
ha ul</w>
courty ard</w>
bul l</w>
renew able</w>
lun gs</w>
ish ments</w>
g y</w>
den y</w>
announ ce</w>
Swe dish</w>
H ay
t ones</w>
or ate</w>
k ling</w>
ey el
dur able</w>
P il
H i</w>
Fu k
E ric</w>
An n</w>
ty pe
re vel
poly ester</w>
im men
g low</w>
S I
R -
E D
B each</w>
th on</w>
inev itably</w>
f ear
b ail
Dre am</w>
sylvan ia</w>
sla b</w>
op ath
im migration</w>
homogen eous</w>
can e</w>
batt le
W ord</w>
G ame</w>
yog a</w>
ur ious</w>
tradi tionally</w>
s wa
mo bility</w>
incorpor ated</w>
d les</w>
cous in</w>
optim izing</w>
met allurg
fab rication</w>
ent ro
car ing</w>
v aries</w>
us s</w>
scri p
rec tal</w>
ne arest</w>
feud al</w>
cor ne
W r
W ay</w>
B y
rat ings</w>
preven tive</w>
in habit
in coming</w>
don or</w>
war fare</w>
to e</w>
sa il
fi el
bl essed</w>
ali en</w>
M it
Cur rent</w>
w ears</w>
sin us</w>
pro state</w>
int ent</w>
Heav en</w>
Cre dit</w>
Al i</w>
Agricul ture</w>
u i</w>
ren dered</w>
pollu ted</w>
mut ually</w>
ener ge
confir mation</w>
cle aring</w>
Re present
E N
Ch ile</w>
9 00</w>
rein forcement</w>
regul ators</w>
le ap</w>
id ation</w>
g inger</w>
as k
W ang
Spe aking</w>
Offici als</w>
v in</w>
stor ing</w>
hon our</w>
b aking</w>
X i</w>
viv o</w>
stain ing</w>
qu an</w>
pro se</w>
l anter
cher ry</w>
R oom</w>
Princ ess</w>
us eless</w>
transparen cy</w>
prov ing</w>
od ynamic</w>
indispen sable</w>
e ity</w>
buc ket</w>
b le-
Agre ement</w>
sou th-
shad ows</w>
prom p
log s</w>
b bing</w>
L yn
Eff ect</w>
E X
reser vation</w>
id en</w>
hand les</w>
g le
et c
ed it
bloo d
am bition</w>
al tered</w>
Tra ining</w>
T el
investig ations</w>
decor ative</w>
coll ections</w>
No body</w>
Cl ick</w>
1. 2</w>
t ent
sle eve</w>
osph ere</w>
in stein</w>
faith ful</w>
et ric</w>
bub bles</w>
air plane</w>
O scar</w>
K az
tak e
so oner</w>
roo ted</w>
ol ive</w>
floo ds</w>
alg ae</w>
Tai wan
00 0-
phr ases</w>
le ver</w>
dam ping</w>
am ins</w>
E ve</w>
D ynasties</w>
Abstr act</w>
travel ling</w>
travel ers</w>
s ali
o b</w>
gra pe</w>
umbrel la</w>
retri eve</w>
res is</w>
radio active</w>
pre dat
over view</w>
coll agen</w>
Y ale</w>
P ack
sk ull</w>
pen sion</w>
gen ome</w>
fore ign-
connec ts</w>
be verage</w>
ather ine</w>
Produc tion</w>
Pri v
I de
per it
mem bran
lear ners</w>
in ho</w>
id u</w>
co st
Rus si
R ay
H ainan</w>
Foo t
tri be</w>
sk in
portra it</w>
lo ses</w>
fore stry</w>
circul ating</w>
chao tic</w>
as yn
Sha anxi</w>
L ate</w>
pneum onia</w>
kid n
incredi bly</w>
ha r</w>
comput ational</w>
tric ks</w>
shou ted</w>
satis fying</w>
rela tional</w>
recur rence</w>
plas ia</w>
j er
install ing</w>
form ally</w>
epo xy</w>
coordin ates</w>
Sel ect</w>
Po st
L S</w>
Ecli pse</w>
Con sul
sh u</w>
ri ages</w>
mon s</w>
metabol ic</w>
jo y
hist o
fig ured</w>
es —
counter parts</w>
chromos ome</w>
anti bodies</w>
U sed</w>
rectang ular</w>
post ing</w>
hon ored</w>
S R</w>
Op tim
Is lam</w>
C ast
ti des</w>
sty l
sle pt</w>
process ors</w>
d owns</w>
ast ly</w>
P an</w>
List en</w>
L at
AS E
short comings</w>
ob taining</w>
inc enti
dig it</w>
aw s</w>
audi ences</w>
an o
Loc ated</w>
In clud
C ancer</w>
198 6</w>
we ights</w>
u pr
strat a</w>
scand al</w>
ne o
me tics</w>
cl an</w>
certi fied</w>
F ine</w>
A z
spac e-
Ret ur
Par t
P aper</w>
transm it</w>
simpl er</w>
neighbor ing</w>
mer cy</w>
mer cury</w>
el iness</w>
V e
T op
T .</w>
R h
O s
Matthe w</w>
K y
C ase</w>
sever ity</w>
knoc k</w>
an ne
alk aline</w>
Prot ection</w>
F DA</w>
two- dimensional</w>
satell ites</w>
oblig ation</w>
ner ves</w>
encryp tion</w>
celebr ity</w>
administr ator</w>
zer o-
obst acle</w>
mo tors</w>
met ap
imag ined</w>
heal th-
ff e
dest iny</w>
bi -
In side</w>
C os
1 1-
tra jec
si ties</w>
scrat ch</w>
parad ig
head ache</w>
graph s</w>
gi um</w>
bun dle</w>
blo gs</w>
T on
Per son
J eff</w>
Hu a
vers y</w>
plat eau</w>
iP ad</w>
cataly sts</w>
b yp
assa ult</w>
am p</w>
advoc ate</w>
Ber n
.x ml</w>
tic es</w>
sub jec
sl urry</w>
pist on</w>
gl orious</w>
campa igns</w>
bul let</w>
I sa
Elec tro
veter an</w>
sun set</w>
off erings</w>
insi c</w>
Jer sey</w>
H il
F lu
C I
y un</w>
trade mark</w>
r ack</w>
g el
cuis ine</w>
compu ted</w>
adjust able</w>
On line</w>
Bas ic</w>
1 2.
sil ly</w>
respec ts</w>
fav our</w>
f an
elas ticity</w>
cy clic</w>
arri ves</w>
Imag ine</w>
seed ling</w>
pow er-
m o</w>
ha w
acet ate</w>
aband on</w>
C ant
tem p
mani pulation</w>
fu me</w>
del ighted</w>
conve y
Tra ff
Sy ria</w>
Sud an</w>
Rob er
Ar ound</w>
sh ook</w>
inter viewed</w>
co ke</w>
appreci ated</w>
R ap
Prac tice</w>
Penn sylvania</w>
t ann
interpre t</w>
gr u
curren cies</w>
b red</w>
appear ances</w>
Some one</w>
ur t</w>
trans verse</w>
sc r
light weight</w>
in oc
hal f
accommod ate</w>
acceler ated</w>
N ight</w>
Man h
simul ating</w>
per spectives</w>
f ills</w>
dam aging</w>
cri tic
cr ashed</w>
boar ding</w>
Ob viously</w>
Dar k</w>
A /
16 -
ust er</w>
th a</w>
reli es</w>
fl ash
civ ilians</w>
ank le</w>
ab norm
H R</w>
F err
y in</w>
theat re</w>
mag ical</w>
ischem ia</w>
frac tal</w>
fish er
ech o</w>
bel i
ass ass
acqu ain
Over all</w>
Mater ials</w>
y ards</w>
v ic</w>
scre en
in hal
envel ope</w>
broad band</w>
U P</w>
S ales</w>
subur b</w>
start up</w>
recep tors</w>
mid st</w>
initi atives</w>
embr ac
cylind rical</w>
car d
b at</w>
G od
ti zing</w>
r ounded</w>
lay ered</w>
la zy</w>
arri ving</w>
St or
J A
phen ol</w>
man ually</w>
man ages</w>
ma x</w>
anci es</w>
Consi dering</w>
C ou
v om
streng ths</w>
mor tal</w>
formul ated</w>
achel or</w>
Pol and</w>
Br yant</w>
o ked</w>
fin anci
con fer
break down</w>
Mexic an</w>
F res
seven th</w>
re ign</w>
pe ach</w>
p earl</w>
hon esty</w>
deriv ative</w>
consider ably</w>
co stly</w>
M iss</w>
M I</w>
Bet ter</w>
Ari z
fabric ated</w>
comp il
Sar ko
S ab
wor th
soci eties</w>
rebel s</w>
are -
Mil itary</w>
4 00
trac es</w>
stret ching</w>
mul tic
is -
di etary</w>
conver sations</w>
competi tiveness</w>
18 0</w>
occup y</w>
gri p</w>
expec tedly</w>
ch ang</w>
aw ak
ar on</w>
Fo x</w>
D R</w>
0. 5</w>
won dered</w>
ver bal</w>
persu ade</w>
ir a</w>
guit ar</w>
gra pes</w>
fascin ating</w>
Wor k
As sist
vari ant</w>
th en
respon dents</w>
pu ted</w>
prin ter</w>
no where</w>
li a</w>
les ion</w>
dis solved</w>
di alog</w>
M D</w>
G am
v a
struc turing</w>
st ems</w>
medi an</w>
compu ter-
Hawa ii</w>
198 7</w>
t ing
ra z
enc ap
e -</w>
dis closed</w>
cr ust</w>
coun ties</w>
ar ous
anticip ated</w>
Al ways</w>
mess aging</w>
l acks</w>
fac ulty</w>
eg ar</w>
ang el
Ch en
Ath ens</w>
up -
sh eng</w>
sec ured</w>
part- time</w>
exam s</w>
ep s</w>
dr al</w>
Wat er
Sta tis
Musli ms</w>
Im per
tri angle</w>
soci alism</w>
rul er</w>
mis sion
constitu ents</w>
Per formance</w>
He ad</w>
Al an</w>
wat ches</w>
trac ing</w>
standardi zed</w>
legen dary</w>
far ther</w>
el le</w>
consci ously</w>
Sarko zy</w>
S F</w>
1. 1</w>
vi able</w>
simpli fy</w>
shi fted</w>
seg mentation</w>
pl ain
fung i</w>
behavi oral</w>
Vic toria</w>
Th ous
T ab
Pot ter</w>
P ent
Mo vement</w>
Liby an</w>
J im
te m</w>
ogra ms</w>
int act</w>
expl icitly</w>
ev a</w>
ec tion
deb ts</w>
contro versy</w>
ammon ium</w>
Me i</w>
valu e-
sa ves</w>
prolong ed</w>
p ity</w>
interpre ted</w>
go at</w>
carto on</w>
aer obic</w>
acc ord</w>
Sear ch</w>
O s</w>
young est</w>
sol idi
prag matic</w>
ho sting</w>
ev al</w>
an alg
DV D</w>
ten se</w>
sta tionary</w>
po ets</w>
nor m</w>
f ing</w>
enc e-
arm ing</w>
Wil son</w>
N early</w>
Le ban
G aus
voc al</w>
loo m</w>
in complete</w>
desc end
combin ations</w>
ar do</w>
W S</w>
J eff
E F
p unc
hi p
bac king</w>
Th ank
M B
' We</w>
trag ic</w>
gri ef</w>
de w</w>
bu gs</w>
Com mon</w>
Al l
rati os</w>
prin cess</w>
on in</w>
e- to-
compar atively</w>
bo iled</w>
T est
P ain
Bo eing</w>
20 20</w>
vis m</w>
qu in
pneum atic</w>
p iz
ch uan</w>
ar y-
S top</w>
I L-
C ros
pr ud
li vestock</w>
distribu ting</w>
Liter ature</w>
A E</w>
compens ate</w>
at i</w>
Nor way</w>
G ord
pu pil
graph ite</w>
di c</w>
dec ay</w>
crimin als</w>
Zh en
R ad
Cul tural</w>
lik eli
ar id</w>
Dep uty</w>
under graduate</w>
st un
le th
ha med</w>
first- class</w>
dis sem
cool er</w>
L E</w>
us er
cru el</w>
char ts</w>
cas u
bom bs</w>
ari b
M T</w>
Labor atory</w>
Fortun ately</w>
For m</w>
Compan ies</w>
sy r
or dering</w>
is ot
ende av
B eg
20 13</w>
sk ep
ra ins</w>
predic table</w>
plac e
org es</w>
exam ining</w>
enc eph
dem a</w>
compl im
P s</w>
Jiang xi</w>
Cl ass
1. 3</w>
sti l
pil ots</w>
ound ings</w>
op ing</w>
diagno se</w>
b ind</w>
a thers</w>
Manh attan</w>
Exhi bition</w>
Co al</w>
Ben j
pro xy</w>
lem on</w>
g ated</w>
ef s</w>
comp iler</w>
analy tic</w>
Event ually</w>
ten sive</w>
sha ping</w>
poss essed</w>
il -
frag ments</w>
fe eds</w>
dynam ically</w>
co co
R af
5 0-
198 4</w>
ulc er</w>
r al</w>
bl ades</w>
archit ects</w>
accid entally</w>
N E</w>
F ish</w>
0 5</w>
surviv ors</w>
on i
iz ers</w>
gar age</w>
weak er</w>
sm iles</w>
ill umin
emul si
d ul
consolid ation</w>
Eff ects</w>
E l</w>
in scri
Med iter
M ill
til l
mod al</w>
ment ality</w>
f aint</w>
cra m
compl ement</w>
Sh or
v ents</w>
sti r</w>
sad ness</w>
righte ousness</w>
ph ony</w>
it e-
en ers</w>
disci ples</w>
del ight</w>
P av
posi tioned</w>
ol ith
fa x</w>
ex ported</w>
es cal
com a</w>
Al zhe
c uc
Q in
D ear</w>
ultra violet</w>
sch iz
me i</w>
h olog
f est</w>
M ao</w>
For mation</w>
Co st
Cam bo
pa thetic</w>
obser ving</w>
ill us</w>
discipl inary</w>
dis missed</w>
be es</w>
W ars</w>
Radi o</w>
Engl ish-
wi pe</w>
sw ine</w>
re covering</w>
ra tionality</w>
peas ant</w>
manife stations</w>
Un fortunately</w>
Mo z
1 4.
ev es</w>
coul dn</w>
c s</w>
associ ations</w>
arter ies</w>
IS A</w>
Combin ed</w>
sym metry</w>
s ab
pupil s</w>
mus cular</w>
k a
ever s</w>
em ma</w>
den s</w>
conclud es</w>
afford able</w>
Tr ust</w>
L e</w>
A j
ow e</w>
occu pa
gra vit
chron ous</w>
car t</w>
bu d</w>
arm or</w>
Sec urities</w>
S u</w>
treat s</w>
re strict</w>
po orly</w>
pen cil</w>
mark et-
ischem ic</w>
h ec
Star ting</w>
P ID</w>
Exper ts</w>
zh ong</w>
osc ope</w>
de stri
bel ts</w>
withdraw al</w>
to es</w>
sub marine</w>
sil ica</w>
passi onate</w>
man ned</w>
loc ating</w>
in timate</w>
fo ster</w>
em ent
conve y</w>
Prin ci
K ate</w>
tim ber</w>
r s</w>
dis gu
M ei
198 5</w>
weigh ing</w>
recei pt</w>
qu o</w>
pat ents</w>
morph ological</w>
medium- sized</w>
j a
in um</w>
electro -
coordin ated</w>
co ins</w>
ad here</w>
a …</w>
un happy</w>
tribu te</w>
th ed</w>
se am</w>
res ection</w>
recommend ation</w>
loo k
le verage</w>
igh ting</w>
g ad
fem oral</w>
un comfortable</w>
ter n
my th
gall ery</w>
allerg ic</w>
H us
C /
Benj amin</w>
yl ation</w>
tut orial</w>
sol ves</w>
se ated</w>
g aps</w>
fol i
esopha geal</w>
Y e</w>
Q ian</w>
H im
3 6
ver bs</w>
sem an
ot omy</w>
k icked</w>
impl ies</w>
ed i</w>
ar omatic</w>
P re-
Den mark</w>
Ch er
trans forming</w>
sub stitu
hum ble</w>
fron t-
fi re-
exc itation</w>
bur nt</w>
Lev el</w>
sovere ign</w>
phot osyn
p ills</w>
micro scopy</w>
metaph or</w>
it us</w>
in ally</w>
enclo sed</w>
del ta</w>
blu e-
ant ine</w>
altern atives</w>
Pho enix</w>
J 2
I/ O</w>
Christi anity</w>
C ru
An tar
w o
ren tal</w>
clean ed</w>
anes thesia</w>
Shen yang</w>
D F</w>
wher ever</w>
si e</w>
qi ao</w>
ili ation</w>
he d
form at
fe e
ex changed</w>
compl aint</w>
V in
St at
K ing
D eter
so da</w>
serv o</w>
i ah</w>
he els</w>
coar se</w>
bloo d-
b ies</w>
Mand arin</w>
E c
inten d</w>
constitu tional</w>
am ents</w>
G ab
sp reads</w>
pl ated</w>
oph ren
mon ster</w>
inter section</w>
glob ally</w>
exha usted</w>
W ales</w>
Gover nor</w>
war ran
pun ished</w>
mo dem</w>
hydr ation</w>
hand ic
enti als</w>
doub tedly</w>
S ay</w>
H illary</w>
C are
remin ded</w>
reci proc
lym ph</w>
high lighted</w>
d ication</w>
Te aching</w>
the ft</w>
th ief</w>
mo tive</w>
for ging</w>
fix ed-
domin ate</w>
adv ise</w>
D a</w>
verte bral</w>
tac tic</w>
specim en</w>
sp ends</w>
ph a</w>
or chestr
law n</w>
er ial</w>
elim ination</w>
cu bic</w>
corru pt</w>
co hes
bl ending</w>
at ar</w>
ac ies</w>
S oc
A bo
w asted</w>
sanc tions</w>
prepar ations</w>
pre mi
mac ro</w>
l us
grac eful</w>
follow ers</w>
e tics</w>
au ts</w>
Coun try</w>
tid al</w>
ti bility</w>
mater nal</w>
iter ative</w>
gen s</w>
explo it</w>
enrich ed</w>
dial ec
br ightness</w>
Jon athan</w>
Environ ment</w>
m i</w>
li d</w>
lap ar
la sts</w>
di electric</w>
al located</w>
S even</w>
L P</w>
Im age</w>
F P
E J
1 10</w>
wor ms</w>
vit amins</w>
ure thane</w>
tra vels</w>
sof a</w>
simultan eous</w>
op ed</w>
occas ional</w>
ex otic</w>
aw ake</w>
X X
Techn ical</w>
Ob ject</w>
J ean</w>
18 -
wat ch
dis playing</w>
Li u
Hun g
1 3.
re wards</w>
lab eled</w>
Every body</w>
un ks</w>
r ust</w>
lad der</w>
establ ishes</w>
constra ined</w>
bur gh</w>
am bassador</w>
S i</w>
w eld</w>
us ions</w>
ne ath</w>
inte ger</w>
gra titude</w>
col on</w>
col li
aw k
Cent ury</w>
t ing-
op y</w>
objec t-
g us</w>
canc ers</w>
Imper ial</w>
the or
os pel</w>
m at</w>
equ als</w>
e …</w>
deliber ately</w>
L ist</w>
Fre e
subsidi ary</w>
lu gg
lo be</w>
inten ds</w>
R emo
w en</w>
po res</w>
ma id</w>
l end</w>
kin dergar
in version</w>
in clusion</w>
hand ler</w>
fashi oned</w>
Sch ol
CN N</w>
thum b</w>
surr oundings</w>
star ing</w>
s age</w>
ballo on</w>
bacter ium</w>
ap t</w>
Lis a</w>
Ariz ona</w>
propag anda</w>
met ropol
fluo rescent</w>
ex pose</w>
Gaz a</w>
safe guard</w>
pix el</w>
ma x
k ing
in king</w>
decis ive</w>
dec lining</w>
de x
contribu tes</w>
com b</w>
Oper a</w>
wr ong
ut aneous</w>
ther ed</w>
sear ched</w>
practic ed</w>
o' clock</w>
mo re
migr ant</w>
incenti ves</w>
her bal</w>
fluctu ation</w>
el ect</w>
acr ylic</w>
ach s</w>
C ard</w>
st en</w>
fer ro
bo ther</w>
Agricul tural</w>
tet ra
ovari an</w>
di ving</w>
borrow ed</w>
approxim ate</w>
T iger</w>
Qa eda</w>
Mediter ranean</w>
stre am
sol ely</w>
shoo ts</w>
over weight</w>
of- the-
mar t</w>
exclus ively</w>
dum ping</w>
domin ance</w>
dead line</w>
capit alism</w>
Pro to
P as
on dri
intellec tu
dr ank</w>
diar rhe
col lo
bur ns</w>
M our
F ull</w>
F L
x on</w>
overwhel ming</w>
fashi onable</w>
challeng ed</w>
approxim ation</w>
al lization</w>
acti vists</w>
Y ue</w>
E S</w>
Color ado</w>
B row
As s
Al aska</w>
resist ing</w>
phys ician</w>
op hi
Pho to</w>
IM F</w>
197 9</w>
vin egar</w>
th read
rit ual</w>
publ icity</w>
plan ar</w>
on aire</w>
modul us</w>
ic le</w>
health care</w>
crow ds</w>
attem pting</w>
W o
Vari ous</w>
Re ading</w>
Jac ob</w>
Ex peri
A ch
v ity</w>
sovere ign
pul ses</w>
me -
ey e-
dem ol
compl y</w>
cl ause</w>
c i</w>
bo red</w>
Ur ban</w>
Mon ey</w>
H T</w>
u ts</w>
typ ed</w>
shrim p</w>
mar ble</w>
lat tice</w>
es sional</w>
co in</w>
Stan ley</w>
Hou ston</w>
underst ands</w>
sent enced</w>
pe er</w>
off spring</w>
ob struction</w>
manife station</w>
likeli hood</w>
con genital</w>
cler osis</w>
U s</w>
R un
I SO
G as</w>
Dou ble</w>
D ai</w>
Bur ma</w>
A my</w>
ver sa
unve iled</w>
spl een</w>
p ent
oce ans</w>
form erly</w>
et on</w>
dist ress</w>
del ays</w>
antioxid ant</w>
J up
Cam eron</w>
two- thirds</w>
res um
kil n</w>
excep tional</w>
author ization</w>
B ear</w>
st ain</w>
sh at
sex y</w>
sc aling</w>
reven ge</w>
pu zzle</w>
pre mature</w>
por osity</w>
lo d
guarante es</w>
L ei
3 0s</w>
pr er
on ey</w>
obe y</w>
mil est
gu an</w>
extr usion</w>
ch ill</w>
N one</w>
L au
regul ator</w>
id le</w>
d resses</w>
conv ince</w>
ble w</w>
arter ial</w>
C I</w>
1 30</w>
shel ves</w>
li f
hur ry</w>
he ap</w>
descri ptions</w>
ac res</w>
R and
F erg
D ing</w>
Arth ur</w>
- shaped</w>
we ird</w>
ste p
seed lings</w>
pl ings</w>
negoti ate</w>
di alysis</w>
tor n</w>
seaf ood</w>
res ili
an e
Col om
3 2
00 1</w>
0. 1</w>
te am
prosec ut
lo com
don ors</w>
dom ains</w>
L az
Goo d
Descri ption</w>
Alzhe imer</w>
water proof</w>
ud ing</w>
pain ter</w>
im plantation</w>
gl ing</w>
expres ses</w>
curren ts</w>
coag ulation</w>
Li ve</w>
Al -
A li
upr ight</w>
st ance</w>
sp y</w>
re ject</w>
op o
em in
continu ity</w>
ab sur
T an</w>
N T
G addafi</w>
vis itor</w>
vig orous</w>
sear ches</w>
eng aging</w>
endoth elial</w>
emplo ys</w>
champi onship</w>
ch in</w>
R ay</w>
I cel
Gord on</w>
Ba idu</w>
suppl em
ed ings</w>
batt les</w>
abo ve-
Sil ver</w>
I V
Air lines</w>
ti um</w>
ste p-
sat uration</w>
sa iling</w>
recru it
pi v
open ha
doub ts</w>
bor rowing</w>
al isation</w>
Un less</w>
Treat ment</w>
SA R</w>
ninet een</w>
low ers</w>
in spire</w>
cra fts</w>
coc cus</w>
Th ings</w>
B T</w>
18 th</w>
y u
tic k</w>
sa fer</w>
path ology</w>
bas eline</w>
Val entine</w>
Gan su</w>
G ad
transfer ring</w>
to ken</w>
s ins</w>
philos opher</w>
ign ation</w>
ch ir
V ide
R un</w>
E p
Dist ribu
Di ego</w>
vend or</w>
oc ation</w>
m ist</w>
ill usion</w>
compan ion</w>
benz ene</w>
ac in</w>
W rit
Sta dium</w>
Ru by</w>
teen th</w>
r ounds</w>
prac tically</w>
industri alization</w>
even ly</w>
el ong
at tle</w>
a ic</w>
Te acher</w>
Nor theast</w>
Commun ication</w>
work place</w>
stu b
marg ins</w>
consul t</w>
concep tual</w>
authen tic</w>
S AR
Par liament</w>
For mer</w>
Col or</w>
trans plant</w>
reve aling</w>
fron tier</w>
cellu lose</w>
Indi ans</w>
Feder ation</w>
p ill</w>
liber ation</w>
le aching</w>
impl icit</w>
gl ass
e dema</w>
L et
K ai
sour cing</w>
fl ags</w>
cr ack
Xi 'an</w>
Ukra ine</w>
work flow</w>
viol ation</w>
ten sions</w>
substanti ally</w>
micro scopic</w>
man ship</w>
let t</w>
legis lative</w>
cos metics</w>
chan dis
advoc ates</w>
a ided</w>
H ond
Du bai</w>
De pression</w>
Abo ve</w>
tr ash</w>
te ens</w>
stic king</w>
sm en</w>
pro s
peculi ar</w>
macro -
law suit</w>
ing ent</w>
exhi bited</w>
cr ushed</w>
L AN</w>
Con cer
C lim
sust ain</w>
shi fts</w>
scr ut
nav y</w>
mon keys</w>
found ations</w>
encoura ges</w>
conf identi
ad diction</w>
R F</w>
I t
wild life</w>
rhet oric</w>
refin ing</w>
recur rent</w>
hydro chloride</w>
en gra
al pha
Tai wan</w>
Sen ior</w>
N ar
B ey
w oke</w>
tw ins</w>
tra it</w>
tl en
ti st</w>
schiz ophren
s log
recomm ends</w>
ne ur</w>
k ong</w>
B in</w>
3 50</w>
1. 0</w>
inhibit or</w>
fin est</w>
cred ited</w>
correc ted</w>
ac re</w>
SO AP</w>
sla ves</w>
mon k</w>
gor geous</w>
el ded</w>
di ment</w>
b read
Tu be</w>
Po si
M A
Lew is</w>
I X</w>
Fe i</w>
E instein</w>
C z
top ped</w>
sovereign ty</w>
pro spective</w>
ori an</w>
individ u
ch al
bo xing</w>
add ressing</w>
S ource</w>
Or der</w>
Ni k
Con ver
Con t
sup press</w>
s giving</w>
mel an
m oul
le ys</w>
down turn</w>
at ories</w>
A wards</w>
wel ded</w>
liber ty</w>
ig ner</w>
ff y</w>
deli vers</w>
compu ter
activ ate</w>
Ma x</w>
An th
test er</w>
stri ps</w>
strang ers</w>
sen ses</w>
pri orities</w>
ph s</w>
pe destri
organ is
moist ur
m um
le af
iz able</w>
in land</w>
forec asts</w>
credi bility</w>
ch asing</w>
ath on</w>
ar rog
Stan ford</w>
S ti
S cho
Peri od</w>
G .</w>
volcan o</w>
pl um</w>
out lined</w>
hoo ds</w>
gro ove</w>
be ard</w>
V an
T ak
Equi pment</w>
Cust omer</w>
Af ter
we aving</w>
respon ding</w>
pro jected</w>
pris ing</w>
new est</w>
li ed</w>
journ als</w>
iz ar
ca ffe
b aked</w>
applic ants</w>
Win ter</w>
O ne
O -
D ay
A aron</w>
ton nes</w>
t ably</w>
sym metric</w>
splen did</w>
reluc tant</w>
qu il
pol es</w>
fragr ant</w>
cur i
chec k-
cauti ous</w>
Pl us</w>
E M</w>
Cor p</w>
un expectedly</w>
stra ight
micro computer</w>
m oo
k el</w>
fol ds</w>
contribu ting</w>
al tar</w>
sick ness</w>
psych ologist</w>
entro py</w>
d ump</w>
comp rising</w>
Lia oning</w>
How ard</w>
F D
Dis ease</w>
Con stitution</w>
Al len</w>
4 5
tro phy</w>
stre aming</w>
sens ory</w>
pun ch</w>
mar ch</w>
cre ep</w>
H ot</w>
E T</w>
' It</w>
sn ack</w>
ordin ate</w>
n ant</w>
ko v</w>
intr insic</w>
ge ology</w>
fe ast</w>
dec iding</w>
compul sory</w>
and /
A void</w>
ou n</w>
d b
X ia</w>
M aria</w>
zo o</w>
w w
w ash
tal es</w>
new ly-
met allo
jud ged</w>
it ates</w>
embo died</w>
appro ve</w>
anc ers</w>
a or
Li qu
shar k</w>
rever sible</w>
pu rely</w>
pal e
in son</w>
in fin
hear t-
epith elial</w>
br icks</w>
b und
an tic
acknow ledge</w>
NE W</w>
Mo tor</w>
An ne</w>
th ful</w>
spectro phot
post ure</w>
o types</w>
h op</w>
capsul es</w>
bo il</w>
ar rays</w>
Yu an
st ove</w>
spar k</w>
sm uggl
sandw ich</w>
prot ects</w>
mang anese</w>
il i</w>
gl u
chur ches</w>
U ML</w>
Tur n</w>
G ary</w>
A venue</w>
war n</w>
ob s
i strators</w>
ho st
ff ing</w>
de vi
adm ire</w>
Xi amen</w>
V I</w>
Turk ish</w>
St ore</w>
Am bassador</w>
196 0s</w>
uni ons</w>
t ec
rup ture</w>
oti d</w>
le y
distil lation</w>
dig estive</w>
con sent</w>
Sing le</w>
In c</w>
renew ed</w>
end ur
all- round</w>
ag greg
E P
Bri an</w>
Any one</w>
run off</w>
o res</w>
nit ro
ha em
comp ute</w>
ac etic</w>
Th re
3 7
soc ket</w>
implem entations</w>
for ty</w>
fair ness</w>
exha us
emplo ying</w>
Gu ardi
Ferg us
propor tional</w>
man- made</w>
do s</w>
di aph
conver ting</w>
an t-
ac eous</w>
P ay
Exc ept</w>
Con vention</w>
prop ylene</w>
pig e
new born</w>
hand y</w>
eas ed</w>
doc k</w>
bro ker</w>
Poli tical</w>
J ur
t u</w>
ric ane</w>
out fit</w>
ond ers</w>
inc ision</w>
graph ical</w>
floo ded</w>
eth yl</w>
bron ch
S F
F le
A us
198 2</w>
th- century</w>
se ize</w>
ris ky</w>
mar sh
gri ev
attor ney</w>
at or
Pro te
F as
Bor n</w>
trac ked</w>
sw allow</w>
smo kers</w>
redund ant</w>
motor cycle</w>
man tle</w>
jo kes</w>
h ed</w>
energy- saving</w>
comp assion</w>
Te achers</w>
Lu ke</w>
Commer cial</w>
stra w
pil low</w>
or g</w>
medi ated</w>
d res
ch ickens</w>
M ember</w>
G ro
DS P</w>
CN C</w>
AN D</w>
: 00</w>
uter ine</w>
tran sist
pul sion</w>
on el</w>
ol ym
lugg age</w>
lec tures</w>
k not</w>
eigh th</w>
c on</w>
big -
R on</w>
Mid d
Jas on</w>
Introduc e</w>
self- esteem</w>
inter vals</w>
gastro intestinal</w>
flav ors</w>
es tic</w>
cl ues</w>
ad ul
Y ing</w>
Veg as</w>
U sers</w>
Tog ether</w>
J i</w>
Analy sts</w>
wr ist</w>
toler ant</w>
thir ty-
sub sequently</w>
or derly</w>
mort ar</w>
inter f
in surg
fore head</w>
evap or
end ure</w>
dys function</w>
dol ph
Taiwan ese</w>
Bu y</w>
Bro ok
ther mod
og ens</w>
leuk emia</w>
investig ators</w>
excav ation</w>
che ek</w>
an at
abdom en</w>
W rite</w>
unci ation</w>
os an</w>
k no
exam inations</w>
attrac ting</w>
Phar mac
Hel en</w>
Ex cell
whe el
set tling</w>
on ds</w>
evol ve</w>
dang ers</w>
com ic</w>
centr alized</w>
autonom y</w>
an onymous</w>
S car
P ope</w>
De ep</w>
refriger ator</w>
met a-
issu ing</w>
g los
debu gging</w>
d ynasties</w>
construc ts</w>
compl ementary</w>
cl icking</w>
and/ or</w>
Blo om
sof t-
res sively</w>
ne tic</w>
log in</w>
im pose</w>
i k
f le</w>
en vy</w>
em ails</w>
el ders</w>
competi tions</w>
ass ign</w>
Jan .</w>
swe ep</w>
re tained</w>
pl ur
oil field</w>
mer it</w>
mem orial</w>
h man</w>
ff le</w>
electro des</w>
configur ations</w>
care ers</w>
cam ps</w>
Y ears</w>
Aim ing</w>
weigh ed</w>
tor ture</w>
puri fied</w>
j ap
adv ancing</w>
S ter
FE M</w>
D ynamic</w>
Bi o
2 ,000</w>
15 .
tem ples</w>
sli p
secre tion</w>
p ush
ob ese</w>
mir acle</w>
ke epers</w>
el igible</w>
dis par
de v</w>
col oured</w>
ch it
cand le</w>
an not
Ac tion</w>
speci alizes</w>
sor ting</w>
sn acks</w>
rich est</w>
re t</w>
on ian</w>
ide als</w>
human itarian</w>
grass land</w>
e er</w>
canc el</w>
Jud ah</w>
D F
zi p</w>
z y
por tions</w>
polym ers</w>
in cub
grad ual</w>
engine ered</w>
destro ying</w>
con jug
We ek</w>
Fergus on</w>
volun tary</w>
sto ch
ou tra
laun dry</w>
ir radiation</w>
h ind
epide mi
ep ic</w>
anc e-
adap ter</w>
T T</w>
L ang
L L</w>
K an
An field</w>
. NET</w>
wor rying</w>
sn ap
ne on
ne at</w>
in ates</w>
condi tional</w>
belong ed</w>
aper ture</w>
a g</w>
In surance</w>
Cl oud</w>
20 s</w>
twist ed</w>
simil arities</w>
le ans</w>
hor ror</w>
gran ite</w>
co inc
br u
R oo
wiz ard</w>
tem plates</w>
ow a</w>
onom y</w>
g ons</w>
dy es</w>
de pri
conduc tive</w>
colon ial</w>
cat alog</w>
blan ket</w>
aqu atic</w>
s son</w>
ro ds</w>
om on</w>
ic t</w>
glo ves</w>
au r</w>
Sh ang</w>
Pri mary</w>
N Y
Du ke</w>
seven -
roc k
regul arity</w>
in cur
go -
endang ered</w>
di visions</w>
def ending</w>
cali br
J edi</w>
squ ir
n er-
ful l
fire works</w>
excell ence</w>
deser ves</w>
cerem on
S on
Le i</w>
D D
Cust oms</w>
100 -
tou ch
sequ ential</w>
pl edge</w>
inhi bited</w>
i g</w>
ev acu
condens ation</w>
cal ori
bo t</w>
arch ive</w>
advis er</w>
ac ious</w>
Mo del
ther net</w>
simil arly</w>
ru ins</w>
popul ated</w>
licen sed</w>
interrup ted</w>
he el</w>
expendit ure</w>
cast s</w>
bul b</w>
U. S</w>
Num ber</w>
sp ill</w>
sel f
interf ere</w>
incid ents</w>
Del hi</w>
C arib
4 0-
under go</w>
rec ti
re bel</w>
pollut ants</w>
l ays</w>
g em
dist ances</w>
des pair</w>
ak e-
Li ving</w>
E ight</w>
w ang</w>
vi an</w>
ve ins</w>
ous ing</w>
li tigation</w>
ko k</w>
iod ine</w>
g ossi
ed itors</w>
discipl ines</w>
ag og
High er</w>
tor ch</w>
swe eping</w>
organ isation</w>
down stream</w>
cul ation</w>
comprehen sively</w>
ay er</w>
advant ag
administ ered</w>
Mc Donald</w>
L s</w>
Ara bia</w>
yn geal</w>
oo p</w>
end ment</w>
ar ising</w>
ann e</w>
W E
Parti cip
war t</w>
trajec tory</w>
subsi dies</w>
persist ence</w>
mon ks</w>
innov ations</w>
hi l</w>
V /
S eas
P A
N ot
Fri ends</w>
under neath</w>
ten -
poin t-
pestic ide</w>
micro bial</w>
merch ants</w>
h emo
ge ographic</w>
diarrhe a</w>
cad res</w>
bri ties</w>
L un
16 .
po ts</w>
perm its</w>
middle- aged</w>
maj ors</w>
athle te</w>
adap tability</w>
P RO
N either</w>
Bei j
8 th</w>
tem per</w>
re vision</w>
pione er</w>
in qui
hip po
guil t</w>
ger mination</w>
cook ies</w>
arch y</w>
altern ate</w>
T M</w>
Isl am
F arm
re sting</w>
pancre atic</w>
mari time</w>
di ets</w>
cap s</w>
applic ant</w>
ab ao</w>
Sh eng</w>
Phili p</w>
Mar t</w>
A BC</w>
sup pression</w>
pir ates</w>
gi ous</w>
fru stration</w>
dis position</w>
Sam sung</w>
O t
ti ly</w>
sel s</w>
program mers</w>
p ear
fi able</w>
estim ating</w>
E li
CO M</w>
ste aling</w>
ser t</w>
se als</w>
sc ent</w>
s p</w>
re actors</w>
prof essors</w>
pat ches</w>
j ac
de eds</w>
d led</w>
arbit ration</w>
- out</w>
un ting</w>
suffici ently</w>
pean ut</w>
gl ish</w>
gener ative</w>
fool ish</w>
bio chemical</w>
L ower</w>
H F</w>
C ape</w>
Ac cess</w>
uni formity</w>
su b</w>
op er</w>
har bor</w>
dam p</w>
d azz
G F
pri ests</w>
ong yang</w>
in tro
comp ile</w>
class ics</w>
Niger ia</w>
M iller</w>
M eg
sinter ing</w>
liqu idity</w>
hem is
hal t</w>
down ward</w>
T ree</w>
trac tor</w>
th an-
spor ting</w>
jud ging</w>
gh o
devast ating</w>
W W
N P</w>
In spec
Cu ba</w>
Cer tain
An na</w>
sus pects</w>
mul tin
land slide</w>
hat red</w>
eth ics</w>
diag rams</w>
cy an
choos es</w>
az ine</w>
ace ae</w>
F ar</w>
Br on
u bi
ph al
p u</w>
len ses</w>
tr um
tel escope</w>
re me
pp i</w>
ful filled</w>
fro g</w>
d igging</w>
construc tive</w>
cent res</w>
a .</w>
St anding</w>
In flu
Bo dy</w>
A x
suc tion</w>
st ained</w>
simul ations</w>
pol ishing</w>
multi t
in puts</w>
complet ing</w>
G h
Ap ache</w>
1. 4</w>
w af
tri m
si c</w>
rec alls</w>
li vel
hygi ene</w>
fru it
counter fe
bo asts</w>
am y</w>
accommod ation</w>
ab s</w>
D um
B agh
v ain</w>
uni fication</w>
oo s</w>
j unk</w>
dis cer
control l
au x</w>
assem ble</w>
Ex press</w>
Commun ist</w>
Ch un
1 40</w>
tit led</w>
sque eze</w>
pre pa
p id</w>
or ously</w>
g aming</w>
f ond</w>
enni al</w>
distur bed</w>
centrifu gal</w>
bal con
Portu gu
Mach inery</w>
5 ,
' s
su ms</w>
sh ru
remin ds</w>
re ac
pol ar
enni um</w>
dis solution</w>
dis ks</w>
cru ise</w>
as ia</w>
Un cle</w>
T ele
Sh eng
Pat rick</w>
Experim ents</w>
C openha
50 ,000</w>
197 8</w>
with draw</w>
ver ing</w>
valid ated</w>
tra m
spectro scopy</w>
o idal</w>
nois y</w>
mini ature</w>
mamm als</w>
linear ity</w>
juris diction</w>
j am</w>
des cent</w>
cop ied</w>
be ast</w>
anim ated</w>
P V</w>
N ev
Jup iter</w>
Ji e</w>
J ose</w>
I ce</w>
prec au
plo ts</w>
mus icians</w>
le ase</w>
gi ants</w>
extinc tion</w>
M I
Compar ing</w>
16 th</w>
tr ous
s ounded</w>
pi res</w>
pal ate</w>
ori um</w>
or ical</w>
mer chandis
ile ge</w>
ig nition</w>
gra bbed</w>
e —
cau tion</w>
Ma il</w>
Carib bean</w>
C atherine</w>
- ins</w>
un fair</w>
med als</w>
en rolled</w>
dur ability</w>
appropri ately</w>
N ur
was n</w>
tri bes</w>
stu me</w>
s no
rescu ed</w>
recipi ent</w>
oph il
land -
in ers</w>
clari fy</w>
chro me</w>
b agg
air lines</w>
Se attle</w>
D im
u pli
terror ists</w>
se epage</w>
h int</w>
divid ing</w>
diplom acy</w>
comprehen sion</w>
car til
bot tom
am ong
Marx ism</w>
Buff ett</w>
B ac
writ ings</w>
shrin kage</w>
in comes</w>
gl ac
gen esis</w>
el bow</w>
d- up</w>
business man</w>
bi ography</w>
ban kers</w>
Mag ic</w>
Exc use</w>
Ben it
wholes ale</w>
sla very</w>
poin ter</w>
k ill
ing ual</w>
dis advantage</w>
S ri</w>
Chr ys
loc als</w>
hierarch ical</w>
g ears</w>
f um
cos mic</w>
ch un</w>
ag eing</w>
W ind</w>
tra des</w>
si zing</w>
sel lers</w>
recycl ed</w>
optim ism</w>
dig estion</w>
close d-
at orial</w>
Ven us</w>
Copenha gen</w>
Char lie</w>
vo y
suscep tible</w>
serv ice-
reme dy</w>
pic ks</w>
over s</w>
out lets</w>
met amorph
gene tically</w>
buc ks</w>
bin es</w>
analy sing</w>
Si x
Chang sha</w>
Benit ez</w>
prohi bited</w>
pre tend</w>
paradig m</w>
op t</w>
min ers</w>
fro st</w>
exam ines</w>
eth eless</w>
enti a</w>
eas ing</w>
e ight-
bot tlen
appe aling</w>
and o</w>
W S-
Tran sl
G ram
un doubtedly</w>
trans duc
se a-
rul ers</w>
gr ating</w>
don ated</w>
dep ths</w>
connec tor</w>
cin ema</w>
blos som</w>
K ur
Certain ly</w>
Bat tle</w>
Aut omatic</w>
preser ving</w>
non -</w>
l apping</w>
investig ates</w>
New ton</w>
Mour inho</w>
Method s
trac ed</w>
sol em
re taining</w>
monit ors</w>
ing es</w>
for k</w>
d itch</w>
con science</w>
S U
Prov in
Car lo</w>
Al bert</w>
ti mately</w>
super ficial</w>
st ake
shr ink</w>
one- third</w>
och ondri
energe tic</w>
w icked</w>
vis ibility</w>
pol ished</w>
it ters</w>
ir re
hop efully</w>
es sively</w>
ed es</w>
L D</w>
tough ness</w>
stro kes</w>
ov o</w>
intra -
goo dness</w>
galax ies</w>
evap oration</w>
di ve</w>
C all</w>
Asi a-
z ers</w>
z e-
un ted</w>
sol o</w>
si ves</w>
on ically</w>
medic ations</w>
gen re</w>
cos metic</w>
cl ut
an ing</w>
S G
Jo int</w>
Cho ose</w>
10- year</w>
sti ff</w>
s wee
re structuring</w>
phas e-
f ade</w>
assum ing</w>
ad el
Pen insula</w>
su preme</w>
publ ications</w>
pl ets</w>
oxy gen
muc osa</w>
j an</w>
gr ound-
champi ons</w>
au tism</w>
ar ose</w>
R yan</w>
Py ongyang</w>
Archit ecture</w>
Ap ply</w>
Al l-
ys tic</w>
upd ating</w>
shu i</w>
q in</w>
interpol ation</w>
enh ances</w>
differenti ate</w>
c ans</w>
be aches</w>
asyn chronous</w>
Me eting</w>
trou bl
stu ffed</w>
ski p</w>
skelet on</w>
li me
imag in
f in</w>
ep it
du g</w>
t ails</w>
statis tic</w>
refrac tory</w>
publ ic-
pol ite</w>
car ving</w>
byp ass</w>
ati zation</w>
S tri
Be auty</w>
B eng
A er
r ud
princi p
omet ri
inhabit ants</w>
diaph rag
cred its</w>
cl arity</w>
can vas</w>
b ao</w>
alli ed</w>
R ich</w>
N uclear</w>
J enni
Hal f</w>
C air
Bel gium</w>
y sis</w>
ush i</w>
pu pp
ol -
con junction</w>
bre w</w>
T M
R ud
IS O</w>
ul arity</w>
program med</w>
deal ers</w>
comm is
ag gregation</w>
Y un</w>
Ne uro
L as</w>
Kun ming</w>
K am
B ou
slow ing</w>
s ore</w>
ra iny</w>
par ade</w>
p acks</w>
ol ite</w>
k e-
induc ing</w>
gest ure</w>
W ay
Th rough
S et
B B
vor tex</w>
tow el</w>
tom atoes</w>
ti que</w>
t abl
rein force</w>
l ately</w>
ind ices</w>
gl es</w>
g ut</w>
exhi bits</w>
en am
ash i</w>
ang es</w>
W SD
Thous ands</w>
Bang lad
y- based</w>
ur red</w>
lam b</w>
inhibit ory</w>
form aldehyde</w>
enligh tenment</w>
dis g
ab sent</w>
T s</w>
M t</w>
M o</w>
war nings</w>
through put</w>
stoch astic</w>
specific ity</w>
sand stone</w>
or n</w>
m are</w>
in spect</w>
enthusi astic</w>
diversi fied</w>
del eted</w>
bar k</w>
R A</w>
Qi an
M om
un changed</w>
tur no
ten ding</w>
spl itting</w>
se wing</w>
rig idity</w>
poly urethane</w>
pestic ides</w>
inten tions</w>
in aug
bi tions</w>
ax le</w>
G B
E ver</w>
tri ple</w>
op tics</w>
mer ge</w>
in formal</w>
fl ora</w>
fe athers</w>
aur s</w>
among st</w>
am ate
ti fic
sha m
renew al</w>
priv ilege</w>
pic ion</w>
evol ving</w>
capit a</w>
Y in
Mi ami</w>
Invest ors</w>
An derson</w>
wh ir
valid ate</w>
ure a</w>
sl ices</w>
mo t
marg inal</w>
deep ening</w>
chlor o
bo re
ar k</w>
Tor onto</w>
He ad
E th
Con sequently</w>
10 th</w>
work load</w>
soc ks</w>
re build</w>
ol ing</w>
non- profit</w>
mark edly</w>
er b
en ch
b ows</w>
apart ments</w>
A str
rub b
illum ination</w>
ignor ance</w>
cus hion</w>
Tra vel</w>
Tal k</w>
Contro l
z z</w>
straight forward</w>
sing ular</w>
pl edged</w>
kine tics</w>
impa ir
fif teen</w>
et al</w>
em bodies</w>
cor n
con spir
ap hy
Offic er</w>
M IT</w>
text book</w>
test -
swe ar</w>
intu itive</w>
inf usion</w>
health ier</w>
fron tal</w>
br ass</w>
Sim ple</w>
P T</w>
P N</w>
Mon t
G ate</w>
Cha o
us cri
sw ir
silic one</w>
rever sed</w>
ph ia</w>
grocer y</w>
B L
vis c
stabil ization</w>
lat e-
ind igen
er ad
bl er</w>
admin istrators</w>
Viet nam
N am
Foot ball</w>
sli m</w>
pris oner</w>
pre jud
mountain ous</w>
ext ingu
O F
F ew</w>
Anton io</w>
AC T</w>
9 /
in filtration</w>
fung us</w>
N ick</w>
May or</w>
Har d
Bang kok</w>
6 00
197 0</w>
v ectors</w>
tr ig
teen ager</w>
stra igh
stimul ating</w>
prog ression</w>
modi fying</w>
lux urious</w>
ign ments</w>
ick et</w>
g az
ang els</w>
Det ro
CC TV</w>
Bec k
t ely</w>
publ isher</w>
ound ly</w>
ol i</w>
ob li
membran es</w>
comman ded</w>
b by</w>
W it
Portugu ese</w>
Char acter
des ul
cr acked</w>
S aint</w>
20 14</w>
2 :
2 5-
will ingness</w>
not ably</w>
ish op</w>
flav on
dat ory</w>
blos s
Sa har
Objec tives</w>
Mem bers</w>
Lar ry</w>
Combin ing</w>
thorac ic</w>
the tical</w>
rig orous</w>
broad casting</w>
biop sy</w>
al er
Tr ump</w>
Pl anning</w>
Austri a</w>
thes es</w>
si del
she er</w>
repa ired</w>
pois onous</w>
man ners</w>
ici p
advantag eous</w>
E thernet</w>
3 8
1 60</w>
v ague</w>
ou ting</w>
nor ms</w>
negl ect</w>
exter n
em -
corrid or</w>
comm ent
ag a</w>
Se par
P hil</w>
Fou rier</w>
F ru
F al
wor d
ur i</w>
uc ked</w>
sin king</w>
ic an</w>
el son</w>
assum ptions</w>
Z im
S B
Rog er</w>
I E</w>
w ished</w>
st an
for bidden</w>
eth ical</w>
contr action</w>
chlor ine</w>
c al</w>
by te</w>
astron auts</w>
aer ial</w>
acc us
Re ally</w>
PC s</w>
L ao</w>
C PC</w>
B in
to tal
te d
slo pes</w>
qu ette</w>
pol ls</w>
m all</w>
internation ally</w>
de an</w>
bro w</w>
Mark eting</w>
I denti
B run
ASE AN</w>
sil ently</w>
sand y</w>
in corporate</w>
il ers</w>
gra fting</w>
frigh tened</w>
fl ames</w>
enjoy ment</w>
L an</w>
H C</w>
Boo ks</w>
susp icious</w>
sus picion</w>
simpl est</w>
ris k-
har b
exten sions</w>
em ic</w>
by tes</w>
br and-
Mid -
J D
Gir l</w>
vo y</w>
threat en</w>
sp ouse</w>
posi tional</w>
mer ger</w>
cele brities</w>
battle field</w>
Re duc
Dru g</w>
regi stry</w>
refres hing</w>
piz za</w>
immen se</w>
fl y
expl or
excep tions</w>
endur ance</w>
ech o
con su
bl ended</w>
Ad vis
100 ,000</w>
th rows</w>
sm el
ocy an
i .
haz ards</w>
allevi ate</w>
ag ile</w>
Pi er
Bagh dad</w>
A part</w>
utili ties</w>
st an</w>
re forming</w>
ran ial</w>
pra yers</w>
j o</w>
cultiv ating</w>
commun icating</w>
bloo dy</w>
antibio tic</w>
am a
Vir tual</w>
U ser</w>
R ational</w>
Ji abao</w>
ust ing</w>
transm itter</w>
tis ing</w>
ti ans</w>
sur geon</w>
slow ed</w>
pi er</w>
inspir ing</w>
im al</w>
conc eived</w>
believ ing</w>
ain -
Wor l
Sam uel</w>
I .</w>
s igh
ogra ph</w>
la st
ban ana</w>
E thi
year- olds</w>
shor ten</w>
pe ar</w>
medi al</w>
mani fest</w>
j ets</w>
happ ier</w>
h our
frustr ated</w>
exist ent</w>
cor al</w>
bo dy
Re form</w>
PD F</w>
O u
Ch ro
Auth ority</w>
17 th</w>
w onders</w>
ush u</w>
un limited</w>
speci alizing</w>
sign aling</w>
prer equ
politici an</w>
lot tery</w>
commit ments</w>
che eks</w>
a is
T ol
Prof essional</w>
Nep al</w>
Ko be</w>
H ai</w>
De an</w>
physi ology</w>
maxim ize</w>
for c
f ry</w>
b li
P os
M ade</w>
un conscious</w>
suppl ements</w>
speci alists</w>
sc ans</w>
on ships</w>
nit rate</w>
mod ular</w>
lith ium</w>
intra venous</w>
fun gal</w>
el o
co stume</w>
alcohol ic</w>
Py thon</w>
K ang
Alli ance</w>
3 4
suppl ying</w>
sk ies</w>
min i</w>
he avier</w>
h n</w>
celebr ating</w>
bal ances</w>
Som alia</w>
transl ator</w>
sor ship</w>
pi e
pap er-
on ation</w>
ick y</w>
bon ded</w>
ati tis</w>
U g
Cr yst
C o-
Br uce</w>
Bo x</w>
ti ze</w>
sp ut
sc ars</w>
r ho
nan op
mos quit
lu ent</w>
convic ted</w>
con stitutes</w>
achiev es</w>
Sil icon</w>
0 8</w>
w rest
struggl es</w>
ow ning</w>
mir rors</w>
gate way</w>
dis puted</w>
Lu o
tu ition</w>
re stri
predic ts</w>
im peri
ex ert</w>
disper sed</w>
as hamed</w>
N u
Mot or
L T
D A
18 .
17 .
teen age</w>
obser vers</w>
n ylon</w>
ing i
flu idi
es says</w>
dis cover
deep en</w>
boo king</w>
PE T</w>
Europe ans</w>
wh ales</w>
pul ls</w>
j ar
five- year</w>
che f</w>
ar thro
U. N.</w>
Ter ry</w>
J -
C R</w>
Bab y</w>
8 00
scre ws</w>
scholar ship</w>
ram id</w>
pronoun ced</w>
pack aged</w>
fra gment</w>
custom ized</w>
confron ted</w>
bet ra
N ation
Econ omy</w>
C L</w>
wi ped</w>
statis tically</w>
ferti lization</w>
Con tract</w>
v ings</w>
u ated</w>
te am-
squ ares</w>
sig ni
s ke
real ism</w>
promp tly</w>
poli tically</w>
nam ing</w>
lon eliness</w>
h ints</w>
dre aming</w>
carb on-
avi an</w>
T T
O O
K ang</w>
on ion</w>
k ills</w>
hom eless</w>
fibro sis</w>
disclo sure</w>
di m</w>
acidi c</w>
T elec
Str ong</w>
P K
D oug
C a</w>
with stand</w>
speech es</w>
refuge es</w>
pat rol</w>
mas ks</w>
lin e-
le ver
instruc tor</w>
ill in</w>
econom ically</w>
dec oction</w>
cut aneous</w>
cl ad</w>
M W</w>
L ag
Know ledge</w>
In divid
Anim al</w>
0 9</w>
turbul ent</w>
t angle</w>
pac kets</w>
dro p-
cong res
clam p</w>
ant agon
aff lic
Sur vey</w>
L es
ish i</w>
in car
hydroly sis</w>
fle x</w>
enceph al
e ats</w>
cris es</w>
com ra
c ess
aren a</w>
Tour ism</w>
Pr ice</w>
P B
My an
Mac ao</w>
Im pl
F em
transm itting</w>
rela xing</w>
qui to</w>
inter mit
heterogen eous</w>
entrepre neur</w>
b erg
adv ancement</w>
Zh ong</w>
Thank sgiving</w>
St reng
Scienti fic</w>
Phil adel
P eng</w>
Hu ai
Con serv
one al</w>
men str
lean ing</w>
inhibit ors</w>
impl ication</w>
il st</w>
hi j
he a</w>
du bbed</w>
aw ful</w>
aca demy</w>
T ob
Some thing</w>
Proper ty</w>
Mac au</w>
L ily</w>
B ob
s s</w>
p est</w>
op or
men op
gar ments</w>
e h</w>
d end
Pro g
Pow er
P eter
ul in</w>
ten th</w>
run ner</w>
pum p
mat ch
l act
intest ine</w>
f ights</w>
d ough</w>
conveni ently</w>
cl one</w>
break er</w>
at tain</w>
assess ing</w>
are t</w>
T F
Sol ar</w>
M eng</w>
w er
spi ke</w>
re bound</w>
pre treatment</w>
perman ently</w>
parad ise</w>
p on</w>
g an</w>
end ometri
don ations</w>
comp elling</w>
cl ing</w>
B ell</w>
3 ,000</w>
world- class</w>
visu alization</w>
qu otes</w>
pan demic</w>
ir ates</w>
ine quality</w>
exc eeded</w>
anat omy</w>
Plat eau</w>
H allo
success or</w>
sen sible</w>
oscill ation</w>
o ther
incen se</w>
ic ant</w>
experim entally</w>
de tention</w>
ash a</w>
arti ll
Pri or</w>
N otes</w>
1. 6</w>
0 2</w>
th ank
st ole</w>
sa ti
pl ague</w>
mut ations</w>
individ ually</w>
in adequate</w>
fi g</w>
ear -
bre ach</w>
S mo
Col a</w>
wan dering</w>
start- up</w>
sp ider</w>
oura ble</w>
jud g
j u</w>
im eter</w>
ev ity</w>
anomal y</w>
an atom
Ven ez
S chem
R ho
En ter</w>
un il
treas ures</w>
sten osis</w>
s me
ru in</w>
prec eding</w>
meth anol</w>
m ating</w>
ing en
h ated</w>
fin e-
de tained</w>
cl ash</w>
at able</w>
US -
N i</w>
J ilin</w>
D .
C in
strat um</w>
outw ard</w>
ne eding</w>
mis erable</w>
i fied</w>
gl am
en rich</w>
c il
av a</w>
W ood</w>
He il
Gu ide</w>
7 th</w>
weak ened</w>
under gone</w>
succ essive</w>
stor y
s ight
pun ish</w>
m ia</w>
gym nas
for gi
fil es
f ont</w>
ep ider
electro chemical</w>
el uc
ear ly-
depend ency</w>
d ling</w>
co res</w>
cl utch</w>
brow sers</w>
attrac ts</w>
ab le-
Vietnam ese</w>
text books</w>
post code</w>
polic eman</w>
pill ars</w>
mon th-
j azz</w>
j aw</w>
hy dri
em y</w>
el ey</w>
def end
cur b</w>
contrac tor</w>
ak h
T ech</w>
Ro y</w>
6 th</w>
pol yn
pe dition</w>
lear nt</w>
l ys
f on
diagno sing</w>
be ads</w>
ak in</w>
agg ression</w>
W ong</w>
Met al</w>
K ab
Ger mans</w>
AI X</w>
yi elding</w>
whol ly</w>
trans fers</w>
ster one</w>
re viewing</w>
pie zo
path ogenic</w>
hys ical</w>
er ical</w>
ch a</w>
anti bacterial</w>
anc ell
analog y</w>
Wr iting</w>
Fer n
C ot
v et
qu er
pseud o-
pro position</w>
prefer ences</w>
m p
imper ative</w>
go ats</w>
don ation</w>
capac itor</w>
bu ds</w>
The ore
t we
p ou
isol ate</w>
fer ous</w>
b ang</w>
avo red</w>
W al-
Detro it</w>
Bran ch</w>
y b
wa it
pe el</w>
m apped</w>
es cor
be ats</w>
Pent agon</w>
H at
CC D</w>
tax ation</w>
sc aff
pu p
predic tions</w>
navig ate</w>
man uscri
gre eted</w>
f ats</w>
exec uting</w>
end oc
cr y
co ats</w>
advertis ements</w>
adi c</w>
Through out</w>
G etting</w>
F requ
Con clus
B od
198 3</w>
tri vial</w>
ri g</w>
r in</w>
ex cre
dra gged</w>
c iting</w>
av en
ar ding</w>
Vide o</w>
Stu dio</w>
S L</w>
Mun icipal</w>
La ura</w>
10 1</w>
tur tle</w>
standardi zation</w>
share holder</w>
ous y</w>
cy tes</w>
cr an
cot t</w>
air ports</w>
T elevision</w>
M ass</w>
H 1
D ro
Cer tific
up grading</w>
ridic ulous</w>
pro fici
pa use</w>
p ins</w>
n ex
id ers</w>
ex pati
el ast
dig it
condi tioned</w>
broad ly</w>
b en</w>
W all
Rac hel</w>
K elly</w>
I owa</w>
Ham il
spher es</w>
rel ying</w>
re peti
po d</w>
hydro xy
foo t-
dis ability</w>
de generation</w>
collabor ative</w>
ar y
ap ed</w>
Ori ental</w>
Myan mar</w>
Mar yland</w>
un employed</w>
ul us</w>
two- year</w>
s ounding</w>
mus e
le ware</w>
ight ful</w>
h ats</w>
fer mented</w>
bl ess
b lows</w>
an tim
ali en
al igned</w>
accep ts</w>
Sc ale</w>
Satur n</w>
Direc t</w>
: 30</w>
- in-law</w>
w all
to s</w>
ox ing</w>
ore -
land mark</w>
inst ant
imag ery</w>
id ated</w>
hos tile</w>
gover ned</w>
cycl ing</w>
coc k</w>
cler k</w>
cab bage</w>
alleg ations</w>
O .</w>
M in</w>
J ian</w>
Con tent</w>
Admin ist
wil derness</w>
tion ist</w>
note book</w>
nat ures</w>
mo ist</w>
gr ants</w>
est ly</w>
dr ums</w>
control lers</w>
ca res</w>
aff inity</w>
Priv ate</w>
M AT
F ounded</w>
Car l</w>
BM W</w>
ty pho
sur render</w>
suff ers</w>
presid ency</w>
pres ses</w>
journ alism</w>
dil emma</w>
di ents</w>
convey or</w>
co aches</w>
any ang</w>
Y O
Venez u
R P</w>
Or acle</w>
Hel p</w>
7. 5</w>
wh ale</w>
tion aries</w>
sh out</w>
sa uc
s burg</w>
relev ance</w>
pho resis</w>
flow ering</w>
b rows</w>
Tw o-
Philadel phia</w>
M ut
K el
Cle an</w>
res ur
rac ial</w>
r ang</w>
py ro
o zone</w>
caffe ine</w>
assum es</w>
answ ering</w>
ac ter</w>
Sk y
Nor thwest</w>
Mater ial</w>
Jenni fer</w>
H ab
Gr ant</w>
Ch iang</w>
ye ah</w>
wit nesses</w>
wee ds</w>
wat ering</w>
sub merged</w>
se iz
prosec ution</w>
lo ess</w>
lat ors</w>
jus tified</w>
is ons</w>
bra king</w>
bo oming</w>
argu ing</w>
Sil k</w>
Cor ps</w>
C are</w>
trous ers</w>
m ills</w>
less -
legis l
ir ation</w>
an as</w>
G u</w>
G et
Anth ony</w>
uplo ad</w>
scra p</w>
redund ancy</w>
mi tig
long- distance</w>
h ill
extra -
en force</w>
divid es</w>
curi osity</w>
acceler ating</w>
Rem ove</w>
L ang</w>
H o</w>
D ic
3 2-
2. 2</w>
swa p</w>
re formation</w>
open ly</w>
mit ochondri
en ko</w>
ell i</w>
consider ations</w>
business men</w>
accompan ying</w>
Wal ter</w>
V illa</w>
Nic hol
Bla ir</w>
- oriented</w>
un even</w>
sub system</w>
pursu ed</w>
pr o</w>
f loc
as tically</w>
ap pen
am bul
ac ne</w>
Vi ew
Introduc tion</w>
Clim ate</w>
A i
to ast</w>
go ose</w>
cris p</w>
connec tivity</w>
W id
T ax
R ain
Phys ical</w>
win -
up side</w>
t elev
recruit ment</w>
rain bow</w>
h r
embry onic</w>
dre amed</w>
deleg ates</w>
conve x</w>
bu o
Zh i</w>
N an</w>
v ise</w>
v ae</w>
sub stitution</w>
s ings</w>
resol ving</w>
reliev ed</w>
r ants</w>
publ ishers</w>
pas sport</w>
juven ile</w>
attrac tions</w>
S ue</w>
Marx ist</w>
H ao</w>
G ang</w>
D I
tunn els</w>
thin -
o thy</w>
n ell</w>
model ed</w>
l ur
horri ble</w>
heav y-
energ ies</w>
complex es</w>
b ag
ang -
Wen zhou</w>
T zu</w>
Nic ol
B ing
0. 2</w>
speci fies</w>
per fume</w>
ins ights</w>
exchang er</w>
de dication</w>
ari ous</w>
Back ground</w>
tra ps</w>
sh alt</w>
seman tics</w>
repl ication</w>
prop ell
proc urement</w>
op ic</w>
no ting</w>
lin e
he ights</w>
f ading</w>
diam onds</w>
de vis
cryst allization</w>
col our
athle tic</w>
Y og
RO M</w>
L ic
Dep ending</w>
termin als</w>
stir ring</w>
sh iny</w>
remin der</w>
post al</w>
ong jiang</w>
he m</w>
fi ref
comp ass</w>
aw esome</w>
ash an</w>
Sol omon</w>
F M</w>
ris ed</w>
per sever
odo x</w>
mur der
jo ins</w>
intr igu
Z en</w>
Lu x
4. 5</w>
2 D</w>
pe sts</w>
nic he</w>
n aus
exce eds</w>
di ary</w>
artill ery</w>
ar omas</w>
ambi tions</w>
R T</w>
H ad</w>
D eng</w>
Ar m
un ite</w>
transi tional</w>
pol i</w>
milit ants</w>
mak e-up</w>
k en
den o
cur v
cop ying</w>
clam ation</w>
b izar
Tao ism</w>
S ave</w>
Per s
J uli
Hy per
F it
D N
Chil d</w>
sel fish</w>
resid ues</w>
obser ver</w>
mel ted</w>
lin kage</w>
he igh
educ ate</w>
deal er</w>
cath ode</w>
bar rels</w>
Zh en</w>
K r
Experim ent</w>
vibr ant</w>
v am
turno ver</w>
tu bular</w>
techn ically</w>
state- run</w>
righte ous</w>
p s
p he</w>
m able</w>
ist oc
impl ant</w>
good bye</w>
ent ment</w>
def en
bas al</w>
b ells</w>
b .</w>
WSD L</w>
Sup pl
In f
Gu i
supervis or</w>
pain s</w>
os ev
mu ch-
las ers</w>
in sur
ick er</w>
d ingly</w>
cra b</w>
Le ft</w>
v o</w>
sp icy</w>
plan etary</w>
object- oriented</w>
no tification</w>
met re</w>
mar riages</w>
licen sing</w>
inter rog
gre ase</w>
ep i
ed ness</w>
co al
bur ial</w>
bo x
ar is</w>
acc ent</w>
W ant</w>
He al
Associ ated</w>
pre valent</w>
nom inated</w>
man di
jus tify</w>
en ic</w>
dem entia</w>
con formity</w>
ci ous</w>
bol ts</w>
awk ward</w>
tou ches</w>
ret inal</w>
merch ant</w>
lor ds</w>
ist ing</w>
enlarg ed</w>
eclip se</w>
differenti ated</w>
balcon y</w>
W ow</w>
Luc y</w>
B ao</w>
At t
12 th</w>
1 4-
sol id-
inf o</w>
hero ic</w>
exec ut
cont our</w>
Res ul
Jo b</w>
Ear th
Car ter</w>
Au to</w>
th ouse</w>
ro bust
mos quito</w>
mel ody</w>
inst al
gg ers</w>
Zhu ang</w>
Sa id</w>
Co operation</w>
Ci ti
tu ary</w>
stres s-
ol ar</w>
indigen ous</w>
her b</w>
er ation</w>
conduc tion</w>
cal c
acc ust
abras ion</w>
Statis tics</w>
Mo ore</w>
Hallo ween</w>
EJ B</w>
Bro thers</w>
tac tical</w>
sp ic
sle y</w>
ric her</w>
od on
nec rosis</w>
n ap
gran ular</w>
ge ologic</w>
dwell ing</w>
advoc ated</w>
ST R
P hy
F ort</w>
stic ky</w>
restra int</w>
osp ace</w>
og lob
od or</w>
l an</w>
f lock</w>
cr ush</w>
contrac ted</w>
cont acted</w>
commis sion
S cre
G reg
Frank lin</w>
y ce</w>
ro de</w>
retail er</w>
reli ance</w>
neutr on</w>
kindergar ten</w>
femin ine</w>
S ite</w>
S it
Prof .</w>
P F</w>
O R</w>
Li e
D own</w>
A dri
spec t
ph ar
mother land</w>
la in</w>
gly co
ga ze</w>
fer tile</w>
explo ded</w>
dec on
back grounds</w>
a ver</w>
Wor kers</w>
Banglad esh</w>
war mly</w>
ven ant</w>
sti g
rib bon</w>
program mer</w>
master piece</w>
inver ter</w>
dis covering</w>
depic ted</w>
cri tic</w>
assem bling</w>
Wal- Mart</w>
M M</w>
F E</w>
Al ber
sex ually</w>
proce eds</w>
polysacchar ide</w>
or ating</w>
num bered</w>
hom eland</w>
high- performance</w>
e y-
ber ing</w>
U.S. -
Jim my</w>
En d</w>
Bloom berg</w>
198 1</w>
ul ent</w>
temper ament</w>
re cip
manipul ate</w>
f en
electro phoresis</w>
Wiki pedia</w>
Oper ation</w>
Long -
IP O</w>
Gu ard</w>
C F</w>
Atl anta</w>
tran scri
read ings</w>
pum ped</w>
mush room</w>
mol ten</w>
migr ants</w>
ly rics</w>
ly n</w>
jun gle</w>
integr ates</w>
ic ons</w>
er ie</w>
epilep sy</w>
d well</w>
cy st</w>
che ating</w>
cam p
D ance</w>
1 25</w>
wrink les</w>
tri m</w>
theore tic</w>
st r</w>
st air
quali fy</w>
post er</w>
ont ology</w>
multipl e-
kin ase</w>
der ive</w>
defl ection</w>
air borne</w>
Conclus ion
transpor ted</w>
ta h</w>
scar ce</w>
knit ting</w>
go s</w>
ge ons</w>
franch ise</w>
ery thro
emp ha
comm ented</w>
Vi en
Ch and
An d
suffici ency</w>
sp read
par tis
lou dly</w>
k u</w>
exce eding</w>
dis appoin
cartil age</w>
an ian</w>
V .</w>
K or
H eng
Guardi an</w>
Electr onics</w>
war mer</w>
survi ving</w>
rot ate</w>
red ness</w>
op ping</w>
modern ity</w>
i ant</w>
f ren
cop olym
Rom ans</w>
Pa rents</w>
B us</w>
20 ,000</w>
11 th</w>
sup pos
rout inely</w>
pan e</w>
mo red</w>
leth al</w>
landsc apes</w>
inv oke</w>
in directly</w>
glim pse</w>
encoura gement</w>
do -
cas cade</w>
an iso
Typ ically</w>
P un
[...]
