the	5586505
.	5294673
,	5085055
of	3407853
and	2904368
to	2347796
a	1970689
in	1869465
is	1364666
The	914694
for	821915
that	819381
on	700738
with	694220
are	563110
's	520221
as	520013
I	517434
be	494516
it	490954
was	489979
you	474428
by	457359
``	385965
from	382155
have	381976
this	356598
can	352451
at	347165
an	343838
or	335742
has	322343
)	300119
not	299035
:	298489
(	296773
will	270070
''	253929
his	236019
he	231618
were	230379
which	229186
one	220118
In	218320
but	217590
we	216307
more	210602
their	205860
they	199776
all	196796
your	196092
?	186647
It	186549
its	183076
also	177856
This	174089
said	171838
up	164839
out	163507
A	159858
about	159723
been	159708
time	159005
do	158624
had	158019
into	151705
new	146992
;	145292
so	144233
people	142966
system	140289
who	138947
’	138280
my	138170
than	136114
when	135488
some	135133
other	132137
like	129787
n't	129323
China	126015
s	125565
her	124438
there	123227
our	119792
two	117876
would	116800
only	114712
them	112705
used	108592
first	106288
He	106240
paper	105933
if	105382
To	102368
-	101756
after	101197
We	101160
method	100233
no	100086
-@@	99083
what	98516
But	98512
me	98306
could	97694
use	96039
should	96032
most	94722
years	91757
over	90688
such	90307
very	90134
!	90017
many	88256
just	87772
may	87442
make	86715
between	86703
'	85933
good	84080
high	83726
And	83714
how	83356
work	83199
she	82225
Chinese	81670
us	81394
these	80183
If	79364
%	78689
through	78471
then	78436
world	77758
him	77492
development	77487
water	77070
because	75629
You	75428
get	75015
year	74346
study	74333
life	73075
well	72940
un@@	72665
made	72392
now	71976
any	71160
different	70767
see	67860
way	67627
using	67126
re@@	66285
day	65718
even	65220
S@@	65079
data	64803
control	64445
process	64189
back	63655
They	61865
model	60941
know	60704
much	60605
“	59950
As	59802
before	59425
man	59146
each	58713
down	58665
There	58528
need	58330
take	58159
design	57726
says	57699
three	57362
long	56932
those	56842
still	56559
When	56460
same	56217
where	56137
go	56103
based	55748
results	55502
effect	55391
did	55099
”	55081
For	54011
last	53990
part	53775
being	53567
B@@	53492
P@@	53023
t	52781
must	52045
Objective	51853
under	51783
1	51774
in@@	51760
both	51495
D@@	51373
off	51045
want	50818
research	50798
power	50583
--	50442
company	49987
think	49690
T@@	49617
found	49177
right	49066
set	49023
while	48931
during	48786
G@@	48771
M@@	48423
able	48235
2	48203
great	48154
technology	48015
So	47491
L@@	47433
own	47255
information	47186
important	47038
$	47023
application	46383
analysis	46156
too	45930
help	45769
small	45641
around	45594
quality	45583
N@@	45400
C@@	44998
F@@	44785
group	44732
market	44625
say	44591
A@@	44460
R@@	44276
i	44039
H@@	43462
number	43435
order	42991
little	42911
does	42626
every	42605
put	42585
structure	42471
country	42402
business	42356
area	42310
home	42305
K@@	41897
o	41731
government	41405
end	41277
less	41132
main	41107
old	41053
er	41001
show	40913
come	40900
level	40686
better	40612
without	40145
find	40089
E@@	39630
become	39612
test	39608
change	39474
here	39285
'@@	39260
She	39082
best	39061
love	38781
ing	38710
value	38429
city	38361
always	38311
're	38150
rate	38138
point	38023
e@@	37975
At	37718
large	37628
ed	37594
called	37517
3	37444
type	37230
problem	37171
another	37111
body	37091
against	36975
line	36956
form	36945
place	36865
field	36824
children	36572
ate	36517
going	36497
few	36443
example	36426
management	36289
W@@	35988
ers	35919
service	35913
What	35871
kind	35770
products	35733
non-@@	35680
often	35662
next	35491
production	35450
That	35397
With	35341
including	35320
treatment	35211
low	35165
am	35051
human	34990
y@@	34876
patients	34842
might	34695
look	34643
d@@	34621
students	34578
never	34343
things	34092
…	34004
theory	33947
school	33716
state	33667
percent	33655
give	33488
light	33466
es	33432
function	33404
really	33325
After	33314
away	33243
problems	33204
s@@	32644
since	32588
big	32481
result	32311
let	32192
One	32089
industry	31974
k@@	31904
second	31903
family	31790
o@@	31773
O@@	31740
t@@	31731
days	31671
performance	31613
On	31605
oil	31574
V@@	31529
case	31469
food	31457
an@@	31331
key	31305
side	31169
New	31124
means	31060
article	30762
10	30410
money	30386
men	30379
again	30273
free	30233
name	30221
methods	30181
al@@	30082
energy	29931
provide	29910
making	29871
age	29866
shall	29855
economic	29846
g@@	29822
support	29723
according	29467
dis@@	29461
women	29452
team	29426
en@@	29381
times	29365
person	29335
lot	29307
public	29220
left	29208
studied	29086
air	29084
got	28923
countries	28922
n@@	28905
4	28873
'll	28814
ability	28684
i@@	28601
al	28593
p@@	28588
history	28530
came	28478
'm	28425
hand	28376
four	28316
something	28193
education	28145
y	28092
higher	28085
space	28002
cases	27955
ated	27880
project	27782
together	27731
several	27670
heart	27648
ation	27625
early	27553
current	27513
per	27439
I@@	27324
among	27314
working	27204
content	27198
However	27151
social	27142
course	27113
present	27097
week	27067
local	27059
effects	27056
introduced	26997
law	26959
de@@	26921
These	26913
given	26899
health	26889
face	26816
J@@	26737
5	26717
growth	26716
developed	26689
product	26687
Mr.	26687
house	26653
ch@@	26629
culture	26548
head	26485
network	26483
play	26385
land	26357
University	26286
American	26093
told	26085
top	26063
improve	26050
've	26033
open	26022
environment	25961
material	25956
makes	25887
thought	25846
common	25679
shows	25649
e	25633
within	25606
special	25556
construction	25545
room	25541
real	25496
whole	25486
English	25466
surface	25456
keep	25452
full	25422
future	25385
red	25354
temperature	25353
pressure	25298
class	25238
ating	25206
m	25152
on@@	25052
All	25050
far	25038
building	25034
b@@	25028
characteristics	25017
self-@@	24986
night	24973
already	24941
/@@	24914
By	24865
related	24796
experience	24772
major	24744
Some	24657
economy	24602
P	24596
today	24594
m@@	24558
er@@	24544
took	24539
forward	24431
feel	24368
No	24301
past	24289
–	24262
went	24256
systems	24253
strong	24210
Then	24178
e-@@	24160
young	24159
period	24153
C	24153
operation	24090
United	24034
book	23993
traditional	23922
hard	23872
increase	23799
f@@	23796
showed	23753
Do	23703
—	23683
once	23606
&	23496
known	23442
enough	23320
at@@	23229
language	23129
image	23094
a@@	23023
simple	23004
single	22937
start	22934
thing	22905
Now	22844
My	22787
others	22735
l@@	22712
flow	22699
son	22688
God	22607
Y@@	22569
until	22520
An	22509
led	22481
it@@	22475
gas	22470
effective	22452
along	22446
di@@	22432
why	22370
blood	22334
is@@	22207
c@@	22195
run	22174
h@@	22163
later	22137
im@@	22048
role	22039
20	22017
view	22015
various	21940
discussed	21899
en	21881
basic	21868
possible	21863
cells	21838
above	21802
relationship	21801
software	21773
3@@	21770
2@@	21755
analyzed	21753
five	21751
create	21749
natural	21722
ar@@	21692
international	21678
U@@	21674
car	21673
changes	21665
6	21550
especially	21523
u@@	21511
least	21488
r@@	21461
mainly	21439
cost	21431
conditions	21412
Beijing	21410
code	21374
machine	21343
factors	21343
over@@	21189
million	21170
source	21154
words	21114
game	21097
risk	21094
white	21093
How	21036
US	20982
w@@	20980
security	20960
areas	20899
modern	20843
program	20801
etc	20797
further	20737
live	20729
recent	20723
fact	20719
computer	20684
companies	20672
job	20667
seen	20657
influence	20632
ever	20611
B	20610
series	20605
features	20591
general	20541
Z@@	20487
materials	20480
points	20471
done	20456
ted	20425
ine	20424
whether	20357
mechanism	20323
ago	20314
designed	20226
lower	20185
having	20121
price	20120
ates	20068
proposed	20057
.@@	19997
His	19974
month	19962
basis	19955
months	19942
z@@	19936
am@@	19909
disease	19904
cause	19904
teaching	19881
S	19811
needs	19767
national	19727
presented	19715
p	19690
ting	19678
try	19593
services	19587
practice	19570
call	19545
position	19521
size	19512
D	19507
k	19487
ca	19441
idea	19411
sub@@	19398
es@@	19321
works	19234
cell	19207
table	19160
ways	19123
half	19121
standard	19112
total	19090
art	19070
include	19069
ti@@	19047
friends	18999
el@@	18976
looking	18963
Conclusion	18962
u	18944
style	18939
foreign	18890
4@@	18872
file	18847
ts	18825
In@@	18811
technique	18776
due	18774
following	18728
speed	18693
pre@@	18669
situation	18659
site	18651
as@@	18615
easy	18594
ic	18584
According	18573
king	18557
or@@	18537
across	18534
mother	18529
though	18485
almost	18461
provides	18459
parts	18399
report	18355
principle	18310
specific	18302
le@@	18213
equipment	18203
close	18181
certain	18167
st@@	18161
force	18151
mind	18139
region	18085
applied	18080
eyes	18074
saw	18055
ol@@	18039
States	18036
taken	18029
care	18006
woman	17997
steel	17994
global	17987
pay	17981
living	17977
v@@	17958
Mr	17956
training	17937
30	17937
plan	17926
distribution	17915
society	17882
d	17853
financial	17846
T	17817
n	17790
film	17780
believe	17768
heat	17760
algorithm	17749
em@@	17739
approach	17667
available	17658
activity	17658
stage	17646
ro@@	17636
death	17636
child	17582
8	17581
skin	17575
taking	17561
ac@@	17560
short	17559
processing	17541
comes	17532
R	17531
resources	17527
read	17521
clinical	17513
meet	17506
near	17482
black	17471
America	17469
7	17468
doing	17452
Japan	17448
list	17442
action	17424
tell	17420
U.S.	17403
base	17328
plant	17319
co@@	17286
yet	17267
ant	17265
Based	17257
asked	17249
reason	17244
condition	17236
policy	17213
music	17187
inter@@	17142
South	17131
Methods	17110
color	17102
lead	17069
clear	17040
attention	17039
began	17001
solution	16982
front	16967
Our	16967
turn	16960
addition	16945
con@@	16923
X@@	16921
difficult	16909
user	16878
move	16869
understand	16835
likely	16808
uses	16780
types	16776
knowledge	16749
World	16735
political	16723
j@@	16707
sure	16679
usually	16668
word	16662
trade	16657
L	16629
cut	16616
nature	16606
outside	16572
ground	16547
range	16544
significant	16520
actually	16511
g	16504
anti-@@	16501
ra@@	16438
multi-@@	16428
studies	16410
properties	16407
started	16400
father	16355
green	16270
applications	16260
reported	16231
ab@@	16230
ly	16226
ic@@	16206
similar	16204
fire	16198
established	16198
hours	16162
groups	16160
property	16120
news	16089
kinds	16045
story	16041
beautiful	16022
became	16002
ous	15996
safety	15980
hope	15975
upon	15956
amount	15956
media	15942
M	15925
difference	15922
learn	15904
matter	15889
Shanghai	15889
5@@	15868
increased	15847
efficiency	15838
bring	15833
levels	15821
third	15812
reduce	15811
step	15804
acid	15745
average	15714
developing	15697
build	15694
caused	15687
investigate	15632
normal	15623
rich	15576
strength	15572
learning	15541
sense	15500
potential	15447
Because	15439
center	15429
—@@	15428
added	15391
develop	15378
12	15358
Results	15338
buy	15324
office	15320
compared	15317
bad	15307
built	15301
deep	15275
15	15248
soil	15244
device	15236
war	15233
access	15208
From	15199
100	15181
sp@@	15160
sea	15154
behind	15151
ings	15136
road	15111
party	15107
capital	15096
bed	15063
late	15062
ad@@	15058
true	15055
return	15050
users	15045
Re@@	15031
hot	15030
running	14979
complex	14979
th@@	14975
held	14942
Many	14928
City	14878
inside	14853
shown	14837
nothing	14825
l	14819
interest	14818
ri@@	14805
deal	14805
bit	14800
E	14800
9	14763
question	14743
billion	14743
ator	14740
President	14674
um	14673
b	14657
door	14651
cold	14651
ap@@	14622
O	14614
takes	14589
op@@	14589
however	14584
50	14581
soon	14572
mode	14564
share	14558
weight	14474
science	14471
lost	14380
lo@@	14350
necessary	14337
ia	14333
longer	14329
ha@@	14327
described	14318
-based	14276
provided	14268
video	14231
morning	14230
ter	14228
be@@	14228
'd	14228
wall	14215
stress	14166
complete	14166
getting	14156
et@@	14142
per@@	14130
popular	14110
F	14109
While	14101
ag@@	14091
gave	14084
North	14072
phase	14060
il@@	14055
quite	14047
gold	14030
re	14013
supply	14003
created	14003
sh@@	14000
military	13994
itself	13992
om@@	13982
positive	13898
board	13881
sales	13878
cancer	13858
id@@	13848
stop	13843
members	13835
response	13830
fish	13800
7@@	13791
als	13762
6@@	13743
pl@@	13738
physical	13733
themselves	13722
wind	13718
himself	13704
impact	13695
18@@	13692
core	13691
activities	13681
character	13678
fast	13664
offer	13662
hold	13661
century	13655
fully	13654
x@@	13651
pro@@	13648
talk	13636
bank	13599
six	13595
season	13582
x	13579
text	13574
ex@@	13572
tree	13568
ar	13564
re-@@	13562
ling	13541
medical	13533
issue	13525
parents	13523
box	13518
Con@@	13517
either	13514
measures	13509
community	13509
dynamic	13503
obtained	13498
ul@@	13496
ent	13496
quickly	13488
former	13484
brain	13477
author	13477
000	13475
includes	13472
ancient	13472
famous	13464
ations	13442
section	13441
memory	13431
se@@	13419
books	13407
someone	13403
focus	13403
loss	13379
needed	13372
coming	13364
central	13364
y-@@	13362
active	13362
os@@	13361
mean	13356
original	13346
protection	13341
ones	13340
everything	13337
friend	13331
concept	13328
th	13322
experiment	13320
to@@	13319
meeting	13317
Hong	13312
resistance	13300
degree	13298
minutes	13262
investment	13222
fall	13190
9@@	13188
poor	13169
unit	13157
People	13146
chemical	13129
li@@	13122
demand	13114
An@@	13107
8@@	13105
wife	13102
Al@@	13084
element	13080
de	13069
middle	13066
improved	13048
layer	13043
micro@@	13042
summer	13041
happy	13040
page	13030
ice	13016
eat	13013
communication	13001
ing@@	12989
Japanese	12987
ask	12985
moment	12983
cultural	12970
introduces	12969
writing	12960
success	12942
Since	12937
prices	12926
online	12912
object	12889
police	12886
search	12879
et	12873
S.	12869
gives	12845
add	12842
ans	12835
produce	12808
town	12783
carried	12782
continue	12777
testing	12740
tic	12739
technical	12736
National	12736
ies	12718
enterprise	12717
factor	12710
brought	12703
target	12699
strategy	12690
parameters	12669
directly	12664
thinking	12656
ons	12653
functions	12651
TV	12645
Europe	12638
terms	12630
scale	12615
trying	12614
seems	12571
Even	12559
sound	12557
wide	12548
damage	12542
rest	12540
species	12537
Most	12517
personal	12514
probably	12498
ship	12456
sent	12455
unique	12446
Therefore	12438
el	12433
easily	12429
expression	12426
ve	12418
term	12375
ist	12375
professional	12362
lives	12343
Sh@@	12335
weeks	12322
anything	12319
status	12306
widely	12298
issues	12260
ec@@	12256
hair	12254
workers	12236
elements	12181
models	12176
h	12171
le	12163
index	12158
required	12155
girl	12152
stability	12147
expected	12138
looked	12133
simply	12122
phone	12121
engineering	12120
N	12116
hands	12105
metal	12102
Ch@@	12086
whose	12044
customers	12038
please	12027
capacity	12018
lines	12014
bi@@	12012
behavior	12007
saying	12002
ite	11976
record	11967
ur@@	11950
Is	11938
turned	11929
Kong	11904
frequency	11899
considered	11890
est	11878
recently	11856
final	11854
Obama	11838
Li	11834
private	11824
York	11820
al-@@	11817
pattern	11812
G	11806
1@@	11800
growing	11798
existing	11788
visit	11783
leading	11783
largest	11776
tions	11771
ten	11760
earth	11751
ism	11750
particular	11745
wanted	11728
explore	11727
president	11722
server	11719
write	11697
goal	11687
hit	11678
yourself	11669
ance	11661
version	11657
subject	11624
located	11613
electric	11594
direct	11591
received	11572
avoid	11570
t-@@	11552
fine	11551
c	11549
born	11546
produced	11545
India	11545
Mar@@	11542
rather	11537
won	11536
reading	11532
2010	11512
individual	11497
First	11496
rights	11493
glass	11485
heavy	11484
population	11467
under@@	11455
40	11452
out@@	11446
signal	11442
Although	11442
11	11441
2008	11436
requirements	11425
transfer	11389
shape	11380
in-@@	11380
ed@@	11380
primary	11374
heard	11361
plants	11355
practical	11348
wave	11331
si@@	11326
no@@	11296
mis@@	11295
written	11293
event	11286
rules	11281
message	11260
card	11256
European	11255
digital	11244
ness	11242
prevent	11236
feature	11231
direction	11223
nearly	11217
load	11213
simulation	11200
pre-@@	11182
Let	11179
qu@@	11124
serious	11110
goes	11108
multiple	11073
sometimes	11058
ology	11038
industrial	11029
Q@@	11014
officials	11003
generation	11002
advanced	11000
check	10999
measure	10993
25	10989
components	10987
allow	10979
drive	10975
During	10961
id	10955
college	10935
formation	10915
drug	10899
contact	10895
changed	10888
researchers	10881
values	10868
act	10859
station	10856
enterprises	10842
below	10834
legal	10832
nation	10811
huge	10811
ter@@	10794
stay	10791
bo@@	10791
Ar@@	10779
Finally	10766
output	10762
progress	10760
International	10754
database	10751
John	10747
British	10744
choice	10742
U	10730
account	10726
stone	10715
blue	10714
mass	10701
everyone	10691
high-@@	10685
characteristic	10679
investigated	10678
rise	10676
increasing	10672
tool	10663
student	10662
projects	10649
stock	10643
H	10638
ent@@	10613
river	10573
protein	10572
reaction	10558
met	10555
tax	10549
ors	10547
ratio	10536
suitable	10534
perfect	10534
z	10531
mo@@	10525
formed	10516
forms	10513
ps	10508
reform	10507
par@@	10499
combined	10499
looks	10494
meaning	10491
alone	10480
determined	10478
U.	10464
Of	10459
win	10457
thesis	10449
ph@@	10449
plate	10439
cover	10437
safe	10426
V	10420
domestic	10416
piece	10410
decision	10406
questions	10400
store	10396
teacher	10395
Why	10388
Ex@@	10387
non@@	10386
ball	10383
named	10379
2009	10374
River	10370
fields	10367
round	10364
floor	10347
felt	10347
rock	10344
died	10332
pain	10331
crisis	10324
ding	10317
screen	10311
playing	10310
ring	10306
reach	10297
characters	10293
agent	10288
official	10286
evaluate	10276
boy	10245
ideas	10244
concrete	10244
feeling	10235
eye	10208
moving	10206
spirit	10195
sun	10193
ensure	10189
Wang	10188
Your	10185
Web	10184
tests	10178
wood	10175
planning	10172
highly	10170
carbon	10169
finally	10147
Please	10145
clean	10138
tools	10136
diagnosis	10135
organization	10130
18	10128
images	10123
anti@@	10122
sc@@	10119
evidence	10117
Internet	10115
choose	10110
sky	10109
19@@	10099
earlier	10089
release	10088
movement	10087
spring	10086
techniques	10084
hour	10081
scientific	10071
failure	10059
rates	10052
_@@	10047
Well	10046
involved	10043
carry	10036
send	10034
understanding	10029
Th@@	10020
tea	10018
ig@@	10011
Here	10002
Its	10000
dark	9995
feet	9993
forces	9990
der	9986
becomes	9986
member	9985
us@@	9975
don	9975
ks	9964
Asia	9961
break	9952
liquid	9933
staff	9930
plastic	9910
reference	9908
novel	9902
successful	9896
markets	9895
ong	9894
K	9892
ally	9889
ative	9886
credit	9885
played	9879
May	9877
experimental	9872
cities	9871
associated	9867
rule	9855
soft	9848
plans	9831
pass	9827
ds	9825
combination	9825
wine	9810
date	9808
events	9804
die	9800
oc@@	9797
car@@	9797
charge	9794
ton	9788
16	9783
res@@	9781
medicine	9781
decided	9777
X	9767
dry	9766
coal	9760
reports	9759
beginning	9759
tive	9752
internal	9743
brand	9740
remember	9722
literature	9707
ence	9699
exchange	9698
engine	9696
star	9689
ized	9685
component	9685
prepared	9675
balance	9658
efforts	9657
rice	9651
environmental	9646
London	9644
competition	9643
hospital	9640
Two	9635
female	9633
St@@	9631
attack	9627
causes	9608
useful	9599
net	9599
sign	9593
solve	9587
ment	9573
determine	9573
French	9573
biggest	9568
double	9566
stand	9559
pe@@	9557
negative	9550
achieve	9550
relations	9530
storage	9524
entire	9521
trees	9517
places	9513
path	9509
the@@	9503
zone	9489
length	9479
variety	9468
thus	9461
contains	9459
costs	9456
operating	9449
fruit	9447
se	9443
error	9442
task	9440
window	9435
fell	9431
wrong	9427
Today	9420
cl@@	9411
instead	9408
for@@	9406
allows	9406
teachers	9405
display	9401
contract	9400
ty	9399
urban	9396
significantly	9396
worth	9395
man@@	9392
worked	9389
picture	9389
treated	9386
reasons	9386
En@@	9378
traffic	9362
manager	9359
paid	9358
East	9358
foundation	9355
answer	9351
-year-old	9337
Car@@	9327
d-@@	9325
completely	9323
excellent	9322
match	9317
cooperation	9307
else	9306
iron	9301
province	9293
save	9288
powerful	9284
wear	9280
via	9276
nuclear	9274
s-@@	9268
benefit	9268
60	9265
State	9249
evaluation	9243
enjoy	9242
goods	9240
dead	9238
discuss	9237
ked	9235
animals	9228
te@@	9223
director	9219
sleep	9215
gets	9210
leave	9204
ch	9202
therapy	9196
chance	9196
ready	9189
mon@@	9189
banks	9178
he@@	9169
leaves	9166
platform	9157
toward	9155
mobile	9152
West	9141
walk	9134
published	9134
bl@@	9131
bridge	9126
ang	9122
controlled	9117
games	9110
firm	9109
Group	9109
ne@@	9108
hear	9101
spent	9099
advantage	9084
particularly	9083
ing-@@	9057
limited	9054
train	9040
greater	9030
trend	9026
ir@@	9020
travel	9004
schools	9003
com@@	8999
circuit	8997
voice	8995
knew	8989
establish	8989
wants	8980
press	8979
joint	8971
lack	8968
chief	8967
1.@@	8959
po@@	8954
dog	8954
Korea	8950
players	8943
files	8934
ization	8927
volume	8924
towards	8923
and@@	8922
background	8913
Africa	8912
significance	8903
daily	8892
interface	8890
Dynasty	8890
grow	8889
low-@@	8888
couple	8887
bus	8887
effectively	8878
o-@@	8877
Province	8871
14	8871
follow	8857
Just	8856
location	8853
angle	8852
promote	8850
critical	8850
dream	8844
address	8844
previous	8842
ity	8842
commercial	8837
a-@@	8831
village	8823
Each	8809
tri@@	8798
presents	8797
Through	8796
<	8785
os	8775
opening	8765
protect	8758
watch	8757
income	8757
typical	8748
killed	8748
survey	8745
seem	8742
end@@	8740
fresh	8731
states	8722
super@@	8714
Pro@@	8714
included	8711
measurement	8705
gene	8705
spend	8690
Li@@	8690
bar	8689
advantages	8689
giving	8678
Can	8668
block	8664
bone	8662
opened	8661
hotel	8652
healthy	8650
apply	8648
distance	8645
customer	8640
um@@	8634
tried	8634
tion	8629
opportunity	8626
spread	8623
aspects	8623
solid	8618
ore	8618
]	8618
flowers	8617
ties	8616
der@@	8615
r	8613
realize	8610
13	8601
ard	8598
skills	8587
[	8581
Yes	8578
ish	8577
Once	8575
Using	8558
bar@@	8555
fl@@	8553
fiber	8544
structures	8541
long-term	8537
te	8535
followed	8525
ten@@	8523
consider	8522
appear	8514
one-@@	8502
university	8500
moved	8497
implementation	8493
well-@@	8490
De@@	8490
yuan	8482
overall	8480
2007	8480
court	8479
observe	8476
player	8474
detection	8473
operations	8465
numbers	8464
leaders	8462
processes	8450
bottom	8437
mine	8434
hole	8433
plane	8416
ters	8412
figure	8407
fuel	8402
scientists	8391
discusses	8382
noise	8376
er-@@	8373
rural	8372
highest	8371
ve@@	8370
animal	8368
importance	8359
benefits	8353
resource	8346
sets	8338
steps	8336
although	8334
W	8334
immediately	8330
les	8317
beauty	8317
master	8307
ary	8306
latest	8291
analyze	8288
manufacturing	8281
divided	8273
ad	8273
reached	8262
offers	8249
sex	8247
historical	8245
Di@@	8235
wish	8234
respectively	8234
street	8233
poly@@	8232
ages	8223
injury	8221
movie	8216
setting	8212
objects	8188
lose	8188
cutting	8186
ves	8178
wrote	8164
seven	8160
devices	8160
link	8147
electronic	8143
defined	8140
generally	8139
waste	8138
sides	8137
baby	8137
17	8136
consumption	8135
500	8132
Also	8123
south	8116
rain	8111
department	8098
sa@@	8095
chapter	8091
male	8090
foot	8083
ley	8078
Lord	8068
effort	8066
chain	8064
ian	8063
ality	8058
leader	8057
warm	8055
mechanical	8054
Department	8051
square	8049
sports	8047
climate	8034
Earth	8028
essential	8027
changing	8024
remains	8023
diseases	8014
ver@@	8011
passed	8009
transmission	8007
stable	8007
kept	8004
standards	8003
reduced	7999
recovery	7997
career	7994
frame	7982
ise	7979
pa@@	7977
sing	7976
ics	7976
filled	7974
winter	7973
Not	7970
on-@@	7968
ob@@	7965
ion	7948
Bank	7946
north	7943
mountain	7940
independent	7935
track	7933
medium	7929
ut@@	7911
detail	7909
relation	7907
performed	7903
scheme	7899
relevant	7892
post	7891
jobs	7890
factory	7890
ators	7889
review	7884
Co@@	7882
letter	7881
items	7880
efficient	7880
80	7875
induced	7873
starting	7866
ou@@	7866
laser	7865
administration	7862
actual	7855
root	7853
24	7851
channel	7850
thousands	7848
era	7847
wo	7842
ge@@	7842
connection	7840
larger	7836
fight	7836
calculation	7829
ke	7825
ahead	7824
thin	7814
adopted	7805
Y	7803
differences	7800
measured	7794
gone	7794
western	7792
contents	7787
peace	7785
ni@@	7780
yield	7778
0@@	7775
therefore	7772
sell	7769
ang@@	7760
forest	7759
speech	7758
concentration	7758
speak	7757
details	7756
beyond	7756
Google	7755
sample	7750
rec@@	7748
fat	7746
Russia	7746
rapid	7745
su@@	7741
shot	7735
bright	7730
ded	7728
Gu@@	7724
vi@@	7723
multi@@	7719
remain	7707
fear	7707
two-@@	7703
daughter	7698
patient	7693
myself	7692
tr@@	7690
perhaps	7688
Le@@	7683
investigation	7679
do@@	7679
ber@@	7679
School	7663
automatic	7660
port	7658
observed	7658
Germany	7657
instance	7656
ins	7654
cars	7654
programs	7652
infection	7647
mouth	7646
procedure	7625
me@@	7622
ying	7620
rose	7617
Co.	7615
monitoring	7605
appropriate	7598
begin	7597
ideal	7596
density	7592
closed	7588
drink	7586
tube	7584
vehicle	7581
milk	7578
Her	7574
ants	7565
France	7565
organic	7564
client	7559
co-@@	7558
ase	7548
command	7543
up@@	7542
selection	7542
calls	7539
sites	7530
collection	7527
truth	7522
exercise	7517
discovered	7517
drugs	7515
Washington	7515
Another	7511
ge	7507
band	7507
affected	7507
Center	7507
ker	7503
marketing	7501
affect	7483
v	7481
currently	7478
insurance	7476
conducted	7472
relative	7464
obvious	7461
edge	7461
2006	7460
improvement	7459
Only	7457
greatly	7441
sort	7439
drop	7432
annual	7431
creating	7427
husband	7426
receive	7425
0.@@	7422
More	7416
responsible	7413
relatively	7409
serve	7407
released	7403
statement	7398
ping	7392
learned	7392
Party	7382
powder	7377
proved	7376
izing	7376
16@@	7369
sources	7355
architecture	7354
interesting	7351
br@@	7347
ry	7344
reality	7342
Americans	7339
west	7338
cor@@	7337
mental	7321
Monday	7321
Ac@@	7321
quarter	7320
ah	7316
debt	7314
kids	7312
suggested	7305
appeared	7303
Both	7298
og@@	7297
talking	7294
experiments	7294
fixed	7290
expect	7289
plays	7288
driving	7287
club	7282
request	7273
virus	7272
additional	7272
grade	7268
helps	7261
lies	7252
initial	7250
England	7248
ical	7247
cur@@	7246
regular	7244
20@@	7243
covered	7242
optical	7238
cycle	7238
sold	7236
Hu@@	7236
House	7233
eight	7230
determination	7230
inner	7218
families	7217
ste@@	7216
names	7215
producing	7209
post-@@	7208
weather	7207
Western	7207
ma@@	7202
improving	7199
external	7199
raised	7195
yellow	7192
smaller	7186
respect	7184
raise	7181
happened	7180
clothes	7178
Dr.	7178
ot@@	7177
preparation	7172
principles	7168
spot	7148
accuracy	7148
appears	7147
0	7143
throughout	7142
XML	7141
ai	7139
units	7137
laws	7135
investors	7131
comprehensive	7128
flight	7120
ak@@	7115
fit	7114
anyone	7108
motion	7103
integrated	7103
selected	7102
Figure	7101
website	7092
eating	7092
classes	7083
input	7078
announced	7077
adding	7077
so@@	7075
ents	7075
painting	7069
regional	7066
allowed	7058
requires	7056
web	7053
ful	7049
wait	7048
document	7048
f	7039
tested	7035
ists	7031
library	7028
gain	7027
appearance	7026
Zhang	7025
fault	7021
21	7020
Research	7016
invention	7005
host	7003
filter	6996
require	6993
Every	6993
severe	6991
enter	6991
2005	6983
regions	6981
innovation	6977
forming	6977
helped	6975
Friday	6965
song	6961
describes	6957
magnetic	6946
rats	6942
ize	6932
thermal	6931
exist	6925
King	6922
Their	6917
integration	6910
taste	6905
Company	6905
Per@@	6904
voltage	6897
correct	6891
salt	6890
seemed	6889
becoming	6889
patterns	6879
separate	6873
back@@	6868
la@@	6865
90	6857
rare	6856
map	6856
mixed	6853
all@@	6844
abroad	6842
70	6840
of@@	6833
cent	6830
marriage	6825
brother	6823
miles	6821
theoretical	6818
bearing	6817
ms	6813
sl@@	6807
ind@@	6806
15@@	6805
June	6803
Bar@@	6796
girls	6793
upper	6790
av@@	6790
ant@@	6787
returned	6784
meat	6783
genetic	6778
lived	6777
continuous	6777
Be@@	6775
clearly	6773
employees	6771
El@@	6764
pollution	6759
shop	6758
tissue	6756
pump	6754
motor	6750
solutions	6749
War	6741
hardware	6737
10@@	6729
injection	6727
19	6727
200	6724
fly	6722
join	6713
Sunday	6712
raw	6711
min@@	6711
purpose	6704
Par@@	6701
pretty	6700
sub-@@	6691
David	6689
od@@	6688
configuration	6685
holding	6680
German	6679
ys	6677
treat	6669
note	6665
pair	6664
22	6656
pipe	6653
gradually	6650
Under	6647
maintain	6645
evening	6642
documents	6640
ll	6637
increases	6635
surgery	6634
Jesus	6634
uc@@	6632
creation	6632
linear	6631
trust	6630
ler	6627
ery	6627
pieces	6625
experts	6621
we@@	6612
senior	6609
studying	6607
minute	6607
liver	6605
Com@@	6596
composition	6589
standing	6588
examination	6585
connected	6585
Three	6580
thousand	6577
ner	6572
goals	6564
Un@@	6563
hundred	6562
Tuesday	6560
trip	6557
actions	6556
iz@@	6553
straight	6551
Oh	6550
guide	6549
extremely	6546
pure	6543
technologies	6540
television	6539
weak	6538
waiting	6533
placed	6530
Before	6525
ud@@	6522
responsibility	6522
broken	6518
Qu@@	6516
sw@@	6515
analyzes	6508
limit	6503
tic@@	6502
Day	6501
scene	6499
east	6497
March	6494
Ad@@	6480
mostly	6477
Israel	6477
indicated	6471
containing	6469
aged	6468
rising	6466
spending	6464
sand	6462
birth	6462
selling	6461
Mo@@	6455
slow	6451
fluid	6446
beam	6446
thoughts	6444
knows	6443
buildings	6442
Meanwhile	6442
bs	6441
achieved	6439
labor	6437
Institute	6429
Mon@@	6424
concerned	6423
measuring	6422
Listing	6420
indicate	6417
enhance	6414
Apple	6414
Those	6412
ran	6408
ol	6408
precision	6404
il	6398
feed	6394
Great	6392
ill	6389
static	6388
samples	6385
ses	6382
...	6381
acute	6380
ens	6372
doctor	6370
finished	6369
ming	6366
army	6364
offered	6363
keeping	6362
System	6359
gen@@	6353
race	6350
agreement	6347
civil	6346
July	6346
ously	6338
sweet	6334
touch	6328
perform	6327
mar@@	6327
challenge	6326
vision	6324
parameter	6323
He@@	6322
onto	6317
ep@@	6316
Britain	6316
ach@@	6314
Park	6311
stars	6299
valve	6296
contain	6294
tu@@	6290
island	6290
ched	6289
12@@	6286
nice	6274
arms	6274
tics	6268
Last	6262
successfully	6255
providing	6255
mer@@	6254
ide	6252
White	6251
Chen	6250
cash	6249
explain	6239
flower	6232
maximum	6231
ou	6230
res	6223
cast	6222
sha@@	6221
dance	6209
reduction	6208
General	6206
writer	6202
analyses	6199
draw	6198
happen	6197
Street	6192
completed	6184
na	6183
accept	6183
dollars	6171
Minister	6169
garden	6168
fun	6167
tor	6162
den@@	6153
constant	6152
sensitive	6150
hi@@	6150
bought	6148
continued	6142
cloud	6139
structural	6137
ches	6137
freedom	6133
ering	6130
2000	6130
park	6128
ma	6128
puts	6126
happiness	6120
CA@@	6117
Q	6112
views	6111
aid	6110
extra	6108
maintenance	6103
ie	6098
alized	6097
option	6094
Russian	6092
January	6090
handle	6087
suggest	6085
Other	6083
campaign	6081
dollar	6078
Liu	6078
dec@@	6075
suggests	6074
discussion	6073
Yang	6073
go@@	6072
ver	6071
exactly	6071
an-@@	6070
existence	6064
funds	6063
maybe	6062
quick	6051
ning	6049
…@@	6048
gu@@	6048
k-@@	6047
‘	6045
domain	6045
row	6044
cross	6044
ru@@	6041
functional	6041
phenomenon	6038
compound	6038
alization	6038
package	6036
ill@@	6036
realized	6031
agreed	6029
au@@	6025
13@@	6022
ered	6019
ay@@	6016
DNA	6011
column	6008
ev@@	6005
equation	6005
Australia	6005
Se@@	6004
tin	6003
believed	6001
ological	5998
gi@@	5997
her@@	5994
moon	5987
proper	5986
modified	5983
Sha@@	5983
examples	5981
conference	5980
agency	5980
leaving	5978
driven	5978
17@@	5978
ren@@	5977
interested	5975
married	5974
reasonable	5971
remote	5967
housing	5963
friendly	5963
az@@	5961
meters	5959
height	5955
dy	5955
ble	5955
interview	5952
col@@	5951
drawing	5947
trans@@	5946
suddenly	5946
California	5943
ash	5938
closely	5930
2.@@	5922
hu@@	5918
wild	5916
grain	5916
cre@@	5915
coffee	5914
II	5914
Article	5911
Such	5904
finding	5903
Chapter	5898
2004	5897
snow	5893
contrast	5891
transformation	5890
fashion	5887
aircraft	5885
complicated	5884
cool	5880
southern	5879
35	5877
trial	5876
Like	5868
Thus	5865
philosophy	5863
lots	5862
bag	5862
Thursday	5860
reducing	5859
easier	5859
three-@@	5857
crime	5857
academic	5857
Asian	5857
module	5853
transport	5852
older	5837
reviewed	5831
switch	5830
ingly	5827
mice	5823
virtual	5817
claim	5816
notes	5814
except	5813
identified	5812
mid-@@	5811
focused	5808
14@@	5805
stories	5803
fill	5799
mining	5796
SP@@	5794
Mc@@	5793
23	5789
certainly	5788
talks	5783
Have	5783
analyzing	5782
earthquake	5781
formula	5778
sugar	5777
accurate	5777
mission	5776
matrix	5775
ina	5773
convenient	5769
arrived	5769
ching	5768
trading	5767
AR@@	5767
solar	5766
whom	5765
bu@@	5764
flat	5762
Inter@@	5762
derived	5758
presence	5756
dust	5756
consumers	5754
tra@@	5753
kill	5753
confirmed	5753
corresponding	5749
comparison	5748
remove	5746
reliable	5738
visual	5737
obtain	5735
Ab@@	5733
generated	5731
pick	5725
landscape	5723
ines	5722
ci@@	5720
ao	5720
sale	5716
ended	5716
policies	5712
3-@@	5711
Han	5708
Her@@	5707
sit	5705
wire	5703
introduce	5703
ana	5701
Health	5701
equal	5697
ser@@	5695
sector	5694
April	5685
requirement	5683
tend	5680
parties	5673
string	5671
yesterday	5670
work@@	5666
consumer	5663
shan	5662
bear	5660
hydro@@	5659
slowly	5658
Korean	5658
mark	5657
evolution	5657
alism	5652
2011	5652
electrical	5649
expert	5647
ped	5646
consists	5646
nor	5643
calculated	5643
28	5642
concern	5640
moral	5639
lets	5637
perspective	5632
shares	5631
mentioned	5630
partner	5629
heating	5628
Su@@	5627
soul	5623
select	5621
atmosphere	5618
utility	5616
ure	5612
trouble	5610
identify	5606
networks	5605
Dis@@	5600
ites	5597
cr@@	5595
revealed	5594
sister	5592
AS@@	5590
PC	5588
els	5586
Michael	5584
speaking	5583
single-@@	5583
assets	5579
supported	5577
sed	5577
welcome	5576
ST@@	5571
radiation	5567
eventually	5566
showing	5563
experienced	5563
to-@@	5561
logic	5561
hyper@@	5561
Yet	5548
sequence	5546
UK	5545
slightly	5544
silver	5544
obviously	5544
peak	5542
symptoms	5541
fer@@	5541
Red	5541
5-@@	5534
ey	5528
Ma@@	5528
Are	5528
seeing	5527
un	5526
High	5525
conventional	5524
afternoon	5520
definition	5516
interests	5514
framework	5512
September	5509
pool	5508
camera	5507
expensive	5506
Or	5506
translation	5502
implement	5501
distributed	5501
composed	5500
har@@	5499
cu@@	5497
nations	5496
carrying	5496
explained	5495
fe@@	5483
des@@	5480
decrease	5477
describe	5475
ca@@	5475
district	5474
CT	5474
AN@@	5474
atory	5471
inf@@	5468
arm	5468
secondary	5465
sitting	5464
birds	5464
treating	5462
ta	5462
ta@@	5459
topic	5457
failed	5456
composite	5454
tumor	5452
messages	5451
post@@	5449
yl@@	5442
can@@	5442
ky	5441
automatically	5441
optimization	5439
relationships	5437
>	5437
Am@@	5436
professor	5435
tor@@	5431
wh@@	5429
pi@@	5428
majority	5427
Where	5427
cul@@	5424
shoes	5420
faster	5420
driver	5419
ast@@	5419
houses	5416
Paul	5412
delivery	5409
fund	5407
Use	5405
County	5404
vehicles	5403
est@@	5401
oo@@	5397
cross-@@	5393
AC@@	5389
facing	5388
Who	5388
walking	5387
smooth	5387
ess	5385
self	5382
fans	5382
signs	5381
battle	5378
interaction	5373
dinner	5372
teams	5371
watching	5369
shaped	5369
films	5367
runs	5364
ox@@	5364
Indian	5364
ats	5363
2-@@	5363
iness	5362
Ro@@	5358
ho@@	5357
，	5356
gr@@	5355
horse	5354
ane	5353
strain	5351
advice	5349
forget	5347
authors	5346
finish	5345
experiences	5345
af@@	5343
walls	5342
context	5338
optimal	5337
organizations	5336
26	5335
Cor@@	5334
proof	5333
stood	5332
MS	5332
ot	5331
aim	5331
curve	5316
pictures	5315
mal@@	5313
boat	5313
College	5313
dress	5312
gra@@	5311
linked	5309
signed	5307
Sch@@	5305
brings	5302
variable	5298
machines	5297
aw@@	5294
records	5292
transportation	5291
pri@@	5291
prevention	5291
ear@@	5291
confidence	5290
willing	5288
ically	5288
chronic	5282
tourism	5280
war@@	5278
detailed	5278
clients	5278
rapidly	5274
leaf	5273
hundreds	5272
ships	5268
lock	5267
profit	5266
fourth	5265
criminal	5261
agricultural	5261
turns	5258
shared	5257
occur	5254
fundamental	5253
caught	5253
occurred	5252
ak	5251
default	5250
bound	5248
velocity	5247
molecular	5244
northern	5243
facilities	5243
Tang	5241
sur@@	5236
listed	5235
giant	5234
fighting	5234
reliability	5233
seed	5231
tis	5226
introduction	5226
depth	5225
boss	5223
notice	5219
pointed	5218
seat	5216
soldiers	5214
air@@	5214
Ne@@	5209
ends	5207
200@@	5207
executive	5204
manage	5202
ed-@@	5200
Law	5199
shift	5198
afraid	5196
decades	5192
served	5187
controlling	5181
unto	5180
recognition	5178
tasks	5177
humans	5177
forced	5177
increasingly	5176
Olympic	5169
objective	5166
Cup	5165
quantity	5160
,000	5159
worry	5157
smile	5157
oriented	5157
emergency	5156
stores	5155
Instead	5153
CO@@	5146
vibration	5144
IS@@	5143
27	5141
ement	5139
biological	5139
hand@@	5136
photo	5132
IT	5132
rooms	5131
Technology	5131
stopped	5128
seek	5123
–@@	5120
Second	5119
thick	5118
instrument	5118
feelings	5118
correlation	5118
beat	5118
ay	5118
corner	5116
scope	5115
minister	5114
empty	5114
expressed	5113
lie	5109
Among	5109
rolling	5106
export	5105
despite	5104
holds	5103
extraction	5103
saving	5102
resolution	5101
entered	5101
ale	5100
300	5097
restaurant	5096
Shi@@	5095
favorite	5093
nine	5090
purchase	5086
Science	5083
Har@@	5082
deeply	5081
radio	5078
intensity	5077
wearing	5073
creative	5073
Col@@	5071
stream	5070
Man@@	5070
tw@@	5065
happens	5064
attacks	5063
wealth	5062
copy	5062
currency	5058
launched	5056
tur@@	5055
decreased	5055
border	5055
Central	5055
gl@@	5053
belt	5050
4-@@	5047
ir	5046
Br@@	5044
greatest	5042
compare	5042
neuro@@	5041
sk@@	5039
individuals	5039
copper	5039
sol@@	5038
managed	5038
attitude	5038
subjects	5037
st	5036
ade	5034
expansion	5033
bodies	5031
Good	5029
ordinary	5020
osis	5018
diet	5015
clo@@	5015
newspaper	5013
oxygen	5011
cards	5011
ee	5009
leads	5006
crystal	5002
corporate	5000
regulation	4999
alloy	4998
football	4996
pages	4995
Saturday	4995
authorities	4982
capability	4980
Ming	4979
findings	4971
onic	4970
ell@@	4970
2003	4970
resistant	4968
32	4968
shell	4967
plus	4964
businesses	4964
options	4961
Year	4961
assessment	4960
lay	4959
ial	4959
branch	4952
electricity	4951
IN@@	4951
tells	4949
August	4948
push	4947
Bo@@	4946
estimated	4943
printing	4933
intelligence	4933
waves	4932
busy	4928
defense	4925
oral	4923
claims	4918
Christmas	4917
Sea	4916
valuable	4915
politics	4911
offering	4911
ads	4909
firms	4908
array	4906
ra	4905
Canada	4901
vertical	4898
strengthen	4893
fair	4892
For@@	4888
troops	4886
ff@@	4885
familiar	4880
loved	4879
controller	4879
bacteria	4878
head@@	4877
faces	4876
Any	4875
figures	4872
programming	4871
45	4870
grew	4866
muscle	4865
ns	4862
institutions	4862
putting	4861
turning	4860
title	4859
Council	4858
educational	4857
mountains	4855
agree	4855
numerical	4854
indicates	4853
ES@@	4852
advance	4851
cable	4849
aspect	4849
aware	4847
express	4846
bigger	4846
AD@@	4841
ised	4837
founded	4837
enemy	4837
sensor	4835
Ji@@	4835
ly@@	4834
residents	4831
Take	4827
pat@@	4823
attempt	4823
opportunities	4822
carefully	4822
farmers	4818
prove	4816
ecological	4816
dangerous	4816
entry	4813
cotton	4811
generate	4810
ets	4810
ven@@	4808
pen@@	4806
Sun	4806
ze	4805
listen	4803
parallel	4802
finance	4801
Development	4800
ars	4799
alcohol	4799
bra@@	4795
conclusion	4793
stem	4791
format	4788
risks	4784
radi@@	4782
accident	4781
extent	4780
AC	4779
repair	4778
catch	4777
sat	4776
owner	4776
San	4774
guarantee	4773
reservoir	4772
millions	4768
challenges	4768
J	4766
planet	4764
foods	4763
October	4761
1,@@	4759
Min@@	4758
sheet	4757
str@@	4756
ene	4754
conflict	4753
ae	4750
believes	4744
smoke	4742
joined	4741
installation	4741
broad	4741
estate	4737
administrative	4734
heads	4733
tiny	4731
cooling	4728
Life	4723
ue	4722
literary	4721
bird	4720
We@@	4720
League	4717
ick	4711
AP@@	4711
launch	4710
efficacy	4710
tomorrow	4708
Microsoft	4708
walked	4707
owned	4701
youth	4700
meter	4700
ders	4700
wheel	4697
AT@@	4697
drinking	4696
starts	4692
shopping	4692
sharing	4691
ments	4691
ber	4690
teeth	4686
particles	4685
extended	4681
coating	4680
faith	4679
sight	4678
tradition	4676
mor@@	4676
lights	4675
frequently	4675
stuff	4670
ow@@	4670
mat@@	4670
cont@@	4669
forth	4668
double-@@	4667
George	4667
equivalent	4665
guy	4664
flexible	4658
grown	4656
fied	4656
S-@@	4656
profile	4654
Italy	4654
Dr	4653
personnel	4651
signals	4650
Be	4648
colleagues	4644
prepare	4642
grass	4642
zero	4640
worse	4640
issued	4640
SC@@	4636
Moreover	4634
strategic	4633
positions	4632
monitor	4632
budget	4628
rubber	4627
poetry	4625
fan	4624
ther@@	4623
ably	4623
Professor	4623
Association	4623
oma	4621
membrane	4621
doubt	4620
zed	4619
accepted	4619
opinion	4617
depends	4617
print	4616
origin	4613
links	4613
semi-@@	4612
finite	4609
agents	4609
fication	4607
synthesis	4603
cat	4603
twice	4602
pan@@	4601
minimum	4601
installed	4601
dropped	4601
audience	4601
thy	4598
concerns	4598
all-@@	4597
ster	4595
down@@	4595
manner	4594
ging	4594
fying	4594
zhou	4592
buying	4589
streets	4587
aries	4587
Over	4587
personality	4585
ational	4585
massive	4582
vast	4578
directory	4578
ash@@	4578
wheat	4577
T-@@	4576
industries	4574
assembly	4574
Ltd.	4573
pull	4572
possibility	4571
Me@@	4571
lake	4568
acc@@	4568
transition	4566
script	4565
election	4564
Road	4564
ati@@	4563
boys	4561
neck	4557
theories	4555
sal@@	4555
church	4550
fracture	4547
Union	4547
decide	4543
desire	4542
News	4536
gate	4535
collected	4535
ances	4535
removed	4534
reflect	4534
flying	4533
whatever	4530
meal	4530
identity	4527
welding	4522
ff	4522
Bush	4521
theme	4520
tank	4520
spectrum	4520
payment	4518
aging	4517
thanks	4516
men@@	4515
Lee	4514
Though	4513
governments	4512
Wall	4509
-up	4507
follows	4506
half-@@	4505
Sometimes	4505
DC	4505
degrees	4504
competitive	4504
strategies	4503
religious	4503
exists	4500
cleaning	4495
acts	4495
disaster	4493
LORD	4493
Congress	4493
evil	4492
31	4491
ocean	4490
dogs	4487
division	4484
genes	4479
controls	4477
wonderful	4473
replace	4469
artificial	4469
helping	4468
falling	4468
electro@@	4465
enti@@	4463
duty	4463
cup	4463
county	4463
item	4462
US@@	4462
micro-@@	4461
hydraulic	4460
Iraq	4459
sion	4457
gap	4457
colors	4457
Lake	4457
plasma	4453
briefly	4453
and-@@	4453
Song	4452
ears	4448
designing	4444
Pi@@	4443
bas@@	4441
Qing	4441
represent	4440
stick	4439
Part	4439
authority	4437
Or@@	4436
quiet	4433
depression	4433
asking	4432
SO@@	4432
supporting	4431
decade	4429
circle	4428
hopes	4427
extension	4424
1-@@	4424
syndrome	4415
ls	4415
typically	4414
Conclusions	4414
seeking	4412
native	4411
specified	4410
languages	4407
lam@@	4405
fi@@	4405
paint	4403
tro@@	4402
applying	4400
kers	4399
Mal@@	4398
IC@@	4398
separation	4397
IP	4397
define	4395
Lo@@	4395
aff@@	4394
homes	4392
Bi@@	4387
inspection	4385
bio@@	4385
ned	4383
consciousness	4381
articles	4379
James	4377
syn@@	4376
noted	4376
deposit	4375
lin@@	4373
tion@@	4371
deals	4366
clothing	4366
random	4364
Besides	4364
otherwise	4355
lung	4354
missing	4353
essence	4344
exposure	4343
hom@@	4340
ency	4340
boundary	4338
detected	4337
Ser@@	4337
accounting	4336
No@@	4336
weapons	4335
ation@@	4334
arts	4333
ely	4331
properly	4327
ending	4325
ur	4324
75	4321
tears	4320
gift	4320
suit	4315
detect	4315
description	4315
wedding	4309
stages	4309
implemented	4308
route	4305
fuzzy	4305
bur@@	4305
sexual	4303
regulations	4303
bill	4303
superior	4301
session	4301
procedures	4299
unless	4296
score	4296
electron	4294
click	4294
eg@@	4292
disk	4292
ving	4291
analysed	4290
represents	4289
calling	4289
practices	4288
ences	4287
ily	4284
immune	4283
marks	4282
chosen	4282
nonlinear	4281
bro@@	4281
Sp@@	4281
leg	4280
ong@@	4278
planned	4276
ann@@	4274
songs	4272
relates	4272
commonly	4272
hurt	4270
7.@@	4270
fin@@	4269
inc@@	4266
threat	4265
victory	4264
delay	4264
photos	4262
concepts	4262
Pre@@	4261
variation	4260
previously	4260
nose	4260
fore@@	4260
February	4259
weekend	4257
istic	4257
Sal@@	4255
gear	4253
decline	4253
Government	4251
African	4248
gun	4247
ges	4247
Business	4247
continues	4246
classic	4246
mechanisms	4244
establishment	4244
broke	4243
Note	4243
recorded	4241
Yu@@	4240
pu@@	4239
shock	4238
Ti@@	4238
nerve	4236
ides	4235
Foreign	4231
ung	4230
stored	4230
char@@	4230
met@@	4228
extract	4228
ya	4227
Pl@@	4226
computers	4225
passing	4219
ER@@	4219
phones	4215
AP	4215
pe	4212
breaking	4212
roll	4211
node	4210
identification	4210
del@@	4210
serum	4209
internet	4206
custom	4205
6-@@	4205
tall	4204
tion-@@	4202
Tom	4201
exploration	4199
ass@@	4197
chicken	4194
compensation	4193
count	4191
seconds	4190
coefficient	4189
8.@@	4189
stronger	4188
Reuters	4188
teach	4185
ordered	4182
agriculture	4181
3.@@	4178
survival	4176
time-@@	4175
legs	4172
Peter	4171
imaging	4170
orders	4169
ceremony	4168
ved	4167
.com	4167
leadership	4166
stands	4162
sounds	4162
dreams	4161
herself	4160
ist@@	4158
ourselves	4157
deformation	4157
developers	4156
ear	4151
29	4150
decisions	4144
9.@@	4143
ure@@	4139
begins	4139
comfortable	4135
meant	4132
holiday	4131
Service	4131
modeling	4130
occurs	4129
losing	4129
sodium	4125
sharp	4125
universities	4124
comm@@	4124
zing	4120
Pakistan	4120
Lin	4120
capable	4119
laboratory	4118
Cl@@	4116
effectiveness	4114
chip	4112
false	4111
guidance	4110
Ver@@	4108
psychological	4105
resin	4103
judge	4101
classical	4100
thinks	4099
truly	4098
November	4098
ently	4097
supports	4096
Paris	4094
Love	4094
pers	4089
causing	4088
December	4088
seriously	4087
real-time	4087
ft	4087
eggs	4086
ath@@	4086
Middle	4086
email	4085
winning	4082
secure	4082
farm	4082
outstanding	4079
classification	4079
over-@@	4078
courses	4075
ile	4070
de-@@	4069
2001	4068
mer	4067
gained	4065
approved	4065
ug@@	4064
employment	4063
anger	4062
Ministry	4062
loading	4061
water-@@	4058
Maybe	4057
relief	4056
largely	4052
Management	4052
suffering	4051
w	4050
ture	4050
citizens	4050
attached	4045
ali@@	4045
panel	4044
designs	4044
advertising	4044
Ben@@	4044
overseas	4043
pot	4041
2002	4039
C-@@	4038
spoke	4037
centre	4036
Sa@@	4035
opposite	4033
hua	4033
Christ	4033
30@@	4033
doctors	4032
yl	4031
artistic	4031
water@@	4029
impossible	4028
ba	4028
tically	4027
brief	4027
roof	4026
Em@@	4025
pulse	4024
justice	4024
accounts	4024
ory	4022
laid	4022
RE@@	4022
0.05	4022
marked	4021
Look	4021
Liverpool	4020
drawn	4017
acting	4017
estimate	4016
visitors	4014
loan	4013
tical	4011
eng	4011
faced	4010
Lu@@	4010
my@@	4009
vo@@	4004
infrastructure	4004
officer	4003
dr@@	4002
resulting	4001
Water	4000
dish	3998
loop	3996
da	3996
constructed	3995
Committee	3995
sustainable	3994
prime	3994
la	3993
ew@@	3991
rocks	3989
sm@@	3988
satellite	3986
partners	3986
worst	3984
strange	3984
pr@@	3984
brown	3984
36	3980
blog	3977
violence	3975
artist	3975
transform	3972
Pacific	3972
contemporary	3971
carrier	3970
iting	3968
du@@	3965
ey@@	3964
ore@@	3961
remained	3958
wing	3956
mixture	3956
Island	3956
skill	3952
helpful	3952
characterized	3952
taught	3951
representative	3951
wet	3950
thickness	3950
bond	3949
Mexico	3949
CD@@	3948
equ@@	3947
waters	3946
log	3946
Method	3946
vegetables	3945
den	3945
spokesman	3944
demands	3942
manufacture	3941
stocks	3940
dependent	3940
button	3939
tional	3937
rent	3936
kitchen	3936
nearby	3934
folk	3933
stra@@	3932
Air	3932
employed	3930
maker	3926
joy	3926
e.	3926
comments	3922
pal@@	3921
Afghanistan	3919
statistics	3917
revenue	3917
focuses	3916
younger	3911
ine@@	3911
our@@	3909
Ms.	3909
ow	3907
eastern	3907
Italian	3905
mix	3904
escape	3904
basin	3904
ID	3902
AS	3902
ium	3901
argument	3901
Project	3901
expand	3900
falls	3899
ne	3895
Mor@@	3894
demonstrated	3893
talent	3892
sen@@	3892
journey	3892
conduct	3888
letters	3887
golden	3887
exposed	3887
Despite	3886
forever	3884
Iran	3884
errors	3881
ening	3881
hidden	3880
regarded	3878
imagine	3878
raising	3875
ov@@	3875
layers	3875
ori@@	3874
A-@@	3874
intelligent	3873
worldwide	3871
mathematical	3871
indeed	3869
breast	3865
four-@@	3864
mouse	3862
25@@	3862
paying	3861
Next	3861
AL@@	3860
tower	3858
suggestions	3857
Will	3856
aluminum	3854
influenced	3852
feeding	3852
sensitivity	3848
comp@@	3848
wisdom	3847
Sam@@	3847
cluster	3846
windows	3845
observation	3845
difficulty	3844
form@@	3841
fabric	3840
produces	3837
tension	3835
refers	3835
sees	3832
rac@@	3832
yang	3831
Compared	3831
percentage	3829
rational	3824
railway	3824
med	3824
burning	3823
pile	3822
EC@@	3822
℃	3820
telling	3818
ier	3818
affairs	3818
protective	3816
compounds	3816
protocol	3814
utilization	3813
technological	3813
cement	3813
400	3812
ride	3811
coast	3811
holes	3810
clouds	3810
alternative	3810
vote	3808
absorption	3808
Fi@@	3807
rat	3806
wise	3805
guard	3804
diameter	3804
prior	3802
operate	3802
airport	3802
creates	3801
recognized	3800
sts	3798
MS@@	3796
i-@@	3795
Furthermore	3795
Du@@	3795
solved	3794
CP@@	3794
top@@	3792
category	3792
movies	3791
District	3791
newly	3789
Si@@	3789
cal@@	3788
Guangzhou	3788
Perhaps	3786
full-@@	3784
Wu	3782
tre@@	3781
numerous	3780
explains	3780
Festival	3778
Brazil	3778
reputation	3777
enc@@	3776
enable	3776
Office	3776
usual	3775
suffered	3775
campus	3774
targets	3773
sil@@	3773
aesthetic	3771
ink	3769
spatial	3766
symbol	3765
lit@@	3764
ast	3764
dose	3763
allowing	3763
que	3762
sons	3761
listening	3761
feedback	3761
warning	3760
casting	3760
smart	3757
cloth	3757
managers	3756
tough	3755
Pol@@	3755
ward	3753
owners	3753
connect	3751
bor@@	3751
mutual	3750
magazine	3750
ight	3750
handling	3747
mail	3746
sentence	3745
cap@@	3745
pping	3744
ME@@	3744
Ge@@	3744
solving	3743
vel@@	3742
About	3742
hearing	3740
emotional	3740
slope	3737
ke@@	3736
furniture	3736
C.	3736
coat	3735
Po@@	3734
ute	3733
tour	3733
mood	3733
filling	3733
:@@	3733
ye	3732
Spring	3732
Egypt	3732
therapeutic	3725
ok@@	3724
sad	3721
killing	3721
und@@	3719
aims	3719
Ru@@	3719
visible	3718
Games	3718
equations	3717
IBM	3716
axis	3714
participants	3712
hai	3711
tracking	3710
tail	3710
OS	3710
jiang	3708
careful	3707
accordance	3707
00	3707
picked	3706
plain	3705
telephone	3704
ji	3702
hy@@	3702
plenty	3701
Yuan	3700
covers	3698
enhanced	3697
val@@	3693
tired	3693
so-called	3693
readers	3693
returns	3692
association	3692
Time	3692
SE@@	3692
circulation	3691
eng@@	3690
ell	3690
deliver	3690
approaches	3689
IC	3689
Education	3688
Fe@@	3685
tie	3684
spiritual	3684
lift	3682
conversion	3681
egg	3680
P-@@	3679
surrounding	3678
bid	3678
losses	3676
struggle	3675
pulled	3675
Man	3675
seeds	3672
tips	3671
recommended	3669
ji@@	3669
circumstances	3668
coach	3667
moves	3665
battery	3664
ie@@	3663
stroke	3661
formal	3660
blocks	3658
likes	3657
Spain	3657
ax@@	3655
ards	3655
computing	3654
bottle	3654
extensive	3653
colour	3652
Security	3652
comment	3651
cream	3649
wonder	3646
particle	3646
tim@@	3644
keeps	3642
sections	3641
underground	3640
cuts	3640
Make	3640
summarized	3639
influences	3639
ours	3636
fac@@	3636
bul@@	3635
jet	3634
first-@@	3633
receiving	3632
visited	3630
usage	3626
supplies	3626
consistent	3626
committed	3626
ising	3624
hall	3624
fr@@	3624
crowd	3624
storm	3622
constantly	3622
narrow	3620
vector	3619
long-@@	3618
vacuum	3616
stations	3616
ole	3616
apart	3615
mes@@	3614
but@@	3614
normally	3612
eth	3612
approval	3610
fil@@	3608
closer	3607
hydrogen	3605
AI@@	3605
AM@@	3604
outer	3603
hal@@	3602
Jack	3601
Z	3600
ah@@	3598
run@@	3597
charges	3597
categories	3597
ose	3595
grid	3592
Art	3589
s—@@	3588
differential	3588
burn	3588
IS	3588
matters	3584
radar	3582
ish@@	3582
Cal@@	3582
65	3581
mi@@	3578
Mer@@	3577
ym@@	3576
criticism	3576
surprise	3575
involves	3574
watched	3571
transaction	3570
mid@@	3570
bil@@	3570
possibly	3569
regard	3568
intended	3568
extend	3568
entirely	3568
belongs	3568
prison	3566
none	3564
basically	3564
tendency	3563
Ri@@	3561
steady	3560
permanent	3559
off@@	3558
pace	3557
cra@@	3557
ata	3557
principal	3556
belief	3556
Bur@@	3556
bags	3554
PC@@	3554
ech@@	3553
/	3552
tunnel	3550
photo@@	3550
nursing	3549
dies	3548
om	3547
drilling	3546
are@@	3546
eness	3545
See	3545
chemistry	3544
Ltd	3544
rescue	3543
fail	3542
flood	3540
33	3540
horizontal	3539
F-@@	3539
Army	3538
tered	3537
guess	3537
cy@@	3537
makers	3536
serving	3535
ray	3534
Old	3533
ain@@	3532
sum	3531
partial	3531
ka	3531
hum@@	3531
tables	3530
calculate	3530
Zhou	3530
temple	3528
singing	3527
miss	3527
cooking	3527
promise	3525
ular	3524
ticket	3524
matching	3524
exhibition	3524
oxide	3523
ess@@	3523
Sichuan	3523
poverty	3521
extreme	3519
OBJECTIVE	3519
yn@@	3518
50@@	3516
engaged	3514
cheap	3514
encourage	3512
remaining	3511
DE@@	3511
smoking	3510
hybrid	3508
roads	3506
crucial	3506
chair	3506
mineral	3505
8-@@	3505
fruits	3504
ron	3503
steam	3502
awareness	3502
ths	3501
diabetes	3501
plan@@	3500
clock	3500
tone	3499
hem@@	3499
wa@@	3497
bri@@	3496
fewer	3495
replaced	3492
adjustment	3492
noticed	3491
Rec@@	3491
examined	3490
p-@@	3488
fishing	3488
birthday	3488
fy	3486
Power	3484
priority	3483
considering	3483
Mark	3483
situations	3482
Green	3482
bal@@	3480
dimensional	3479
Robert	3478
hypo@@	3476
cat@@	3474
or-@@	3473
debate	3473
nitrogen	3472
feels	3471
neither	3470
install	3470
34	3470
sized	3469
achievements	3469
robot	3468
crack	3465
fa@@	3464
channels	3464
blind	3464
Which	3464
So@@	3464
silk	3462
binding	3462
promoting	3460
household	3460
alist	3459
graph	3458
por@@	3457
angry	3457
ger	3455
smell	3454
CC@@	3451
sin@@	3450
seal	3449
federal	3449
Bu@@	3449
jump	3444
sufficient	3442
km	3442
organized	3440
alize	3440
Vi@@	3438
Im@@	3438
mature	3436
prefer	3435
parent	3435
dimension	3435
Learn	3435
Hu	3434
surgical	3433
isolated	3433
proportion	3431
destroyed	3431
Ob@@	3430
Christian	3430
shaft	3427
sorry	3424
guests	3424
ease	3424
inflation	3422
everywhere	3421
charged	3421
definitely	3420
Ba@@	3419
wi@@	3418
ids	3417
ened	3417
discovery	3417
bringing	3417
Academy	3417
thank	3415
rel@@	3415
gar@@	3414
autumn	3414
alive	3414
persons	3411
bel@@	3411
talked	3410
saved	3410
discharge	3410
adds	3409
Data	3404
specialized	3403
corn	3402
pur@@	3399
Hotel	3399
4.@@	3398
ography	3397
As@@	3397
Singapore	3396
sy	3394
artery	3394
anc@@	3394
concluded	3391
Ta@@	3391
Design	3391
leather	3389
beach	3389
star@@	3388
separated	3388
defects	3387
tight	3386
armed	3386
fellow	3384
ick@@	3383
emerging	3383
Tri@@	3383
branches	3382
Still	3382
juice	3381
Times	3381
Several	3381
pped	3380
incident	3380
furnace	3380
corrosion	3380
Ste@@	3380
-to-@@	3380
thou	3379
lunch	3377
danger	3377
bread	3377
5.@@	3375
worker	3374
construct	3374
loc@@	3370
uniform	3368
vessel	3367
elastic	3367
Women	3367
difficulties	3366
L-@@	3366
pres@@	3364
promotion	3363
ica	3363
Mary	3361
42	3361
thr@@	3360
finds	3360
fed	3360
tors	3359
papers	3358
feasibility	3358
adopt	3356
ished	3355
committee	3355
Human	3353
trace	3349
forecast	3348
Information	3348
PL@@	3347
by@@	3346
n-@@	3345
thread	3344
doors	3344
reveal	3343
contribution	3343
ric	3341
roles	3340
Black	3339
arranged	3338
tons	3336
editor	3336
dri@@	3336
attractive	3336
conversation	3335
95	3335
strike	3334
Mi@@	3334
well-known	3333
delivered	3331
6.@@	3330
heaven	3329
tries	3328
sport	3328
stri@@	3327
hol@@	3327
mirror	3326
everybody	3325
calcium	3325
Jin@@	3325
Wei	3324
loans	3323
unknown	3322
strongly	3319
pleasure	3319
San@@	3319
amounts	3317
update	3315
ac	3315
Wh@@	3314
prospect	3310
che@@	3310
ils	3309
friendship	3308
lim@@	3305
flows	3304
bly	3304
Pe@@	3303
infected	3301
container	3301
nit@@	3300
harm	3300
3D	3300
pen	3299
flu@@	3299
combining	3297
overcome	3296
PS	3296
sun@@	3295
ures	3294
import	3294
compression	3294
dealing	3293
cher	3293
DS	3291
seismic	3289
large-scale	3289
Whether	3289
Medical	3288
ethnic	3287
ack@@	3287
loaded	3286
throw	3285
capture	3285
democracy	3283
remarkable	3282
actor	3280
revolution	3274
cry	3274
stones	3273
analysts	3270
SA@@	3269
injured	3268
ai@@	3268
My@@	3267
profits	3265
terminal	3264
craft	3264
surprised	3263
psychology	3262
communities	3262
machinery	3260
Shenzhen	3260
schedule	3259
48	3259
reflects	3257
boost	3257
WHO	3257
honor	3254
CS@@	3254
Nor@@	3252
communications	3251
unable	3250
ino	3250
chairman	3250
jo@@	3249
ination	3245
damaged	3245
Prime	3245
preparing	3244
attend	3243
affects	3243
MO@@	3242
handed	3238
lighting	3237
acquisition	3236
complexity	3235
invited	3234
capabilities	3234
recognize	3233
cerebral	3233
lying	3232
Sub@@	3232
Bill	3232
7-@@	3232
Cha@@	3229
officers	3227
moisture	3227
fee	3224
wash	3223
vaccine	3223
ney	3223
civilization	3223
routine	3220
satisfied	3219
TI@@	3218
feasible	3213
algorithms	3213
Gar@@	3213
Control	3213
incidence	3212
hor@@	3211
mut@@	3210
contained	3210
GM	3210
ros@@	3209
ili@@	3209
achievement	3209
vitro	3207
of-@@	3207
ham	3207
width	3206
sick	3206
sin	3204
ome	3203
ishing	3203
fu@@	3203
fairly	3203
bin	3203
till	3201
bamboo	3201
tip	3200
researches	3200
uni@@	3199
equipped	3199
artists	3199
She@@	3199
chest	3198
camp	3198
scholars	3197
lesson	3197
eliminate	3196
coupling	3196
ited	3195
evaluated	3195
interference	3194
layout	3192
shoulder	3191
MA	3191
soup	3190
wireless	3189
squ@@	3189
Greek	3189
breath	3185
pp@@	3184
comfort	3180
poem	3178
carcinoma	3177
yes	3172
600	3172
covering	3171
optimum	3170
dedicated	3170
abilities	3170
stomach	3168
logical	3168
Study	3168
powers	3165
query	3164
bo	3164
D-@@	3164
temperatures	3162
ari@@	3162
ban@@	3160
probe	3159
cylinder	3159
aimed	3159
ums	3158
auto@@	3157
tively	3155
Wen	3155
Chang@@	3155
ware	3154
catalyst	3154
tering	3153
fifth	3152
tar@@	3151
kin@@	3151
supposed	3149
non	3149
Ros@@	3146
ions	3143
illegal	3142
38	3142
ide@@	3141
Ku@@	3141
sending	3140
Daily	3140
shadow	3137
removal	3137
UN	3136
Dong@@	3135
vital	3134
naturally	3133
mm	3133
le-@@	3133
Go@@	3133
Ap@@	3133
suffer	3131
q@@	3131
EU	3130
trained	3128
ris@@	3127
orientation	3127
mil@@	3127
Tra@@	3126
managing	3125
manufacturers	3124
OK	3124
claimed	3123
calculating	3123
sheep	3122
dam	3122
Ms	3122
struck	3121
breeding	3121
La@@	3121
hill	3120
variables	3119
recession	3119
Four	3119
totally	3118
land@@	3117
bonds	3117
Without	3117
atic	3116
Spanish	3115
chamber	3114
represented	3112
simulated	3111
reflection	3111
lowest	3111
washing	3110
reverse	3110
examine	3110
profound	3109
guys	3109
latter	3108
wor@@	3107
dam@@	3106
RO@@	3106
99	3106
,@@	3106
lion	3105
registration	3104
brands	3104
versions	3102
poems	3102
neural	3102
roots	3101
pec@@	3100
mapping	3100
high-speed	3099
purposes	3098
fatigue	3098
Would	3098
Hospital	3096
Bl@@	3095
shi@@	3094
prediction	3094
polymer	3094
opposition	3094
Dec@@	3094
magic	3093
ef@@	3093
inal	3092
dynasty	3089
requests	3088
participate	3088
zi	3085
IT@@	3085
pilot	3082
mistake	3082
legislation	3082
Did	3082
operator	3081
interior	3081
adjust	3081
marine	3078
candidate	3075
limits	3074
bre@@	3074
contribute	3072
proteins	3071
Han@@	3071
demonstrate	3070
PS@@	3070
ster@@	3069
age-@@	3069
protected	3067
rely	3066
physics	3066
break@@	3066
productivity	3065
fur@@	3065
ella	3064
understood	3062
periods	3062
execution	3062
writers	3061
supervision	3061
knife	3060
fallen	3060
pounds	3059
registered	3058
proud	3058
pregnancy	3058
luck	3058
facts	3058
reflected	3057
Mrs.	3057
intellectual	3056
any@@	3055
proposes	3054
missile	3054
40@@	3053
bath	3052
Res@@	3052
crops	3051
universal	3049
ades	3049
Gra@@	3049
religion	3048
portion	3048
researched	3046
collect	3046
sions	3045
lady	3045
elderly	3045
William	3044
temporary	3043
graduate	3043
Go	3043
tes	3042
Er@@	3042
predict	3040
Tokyo	3040
oxidation	3039
deaths	3039
auto	3039
attribute	3039
arm@@	3037
keys	3034
dle	3034
des	3034
trends	3032
85	3032
sn@@	3030
commitment	3030
100@@	3028
split	3027
desk	3026
arrangement	3026
UN@@	3026
victims	3025
universe	3023
counter	3023
allo@@	3023
varieties	3022
connections	3022
Lin@@	3022
respond	3018
oring	3017
Thank	3016
Do@@	3016
ve-@@	3015
pol@@	3015
Fu@@	3015
outcome	3014
ank@@	3014
tobacco	3012
buried	3010
Chelsea	3010
BC	3010
vice	3009
vessels	3009
instruments	3009
apartment	3007
ano	3002
childhood	3001
bing	3001
Gi@@	3001
Ber@@	3001
ao@@	3000
soci@@	2999
oid	2999
chocolate	2999
boxes	2998
bol@@	2998
D.	2998
shooting	2997
qualified	2996
Secondly	2996
Los	2996
lamp	2995
gray	2995
interpretation	2994
int@@	2994
illness	2993
embedded	2993
disorder	2993
Due	2993
knowing	2992
headed	2992
cas@@	2991
lab@@	2990
kilometers	2990
dic@@	2988
Food	2988
hardly	2987
entrance	2987
coverage	2987
performing	2985
Master	2984
hearts	2983
ha	2983
Mountain	2983
mixing	2982
packaging	2981
emissions	2981
drama	2980
finger	2979
ap	2979
Long@@	2979
synthetic	2978
OR@@	2976
sen	2974
Bay	2974
wake	2973
venture	2973
spl@@	2973
sampling	2973
migration	2973
centers	2973
Sun@@	2973
printed	2972
departments	2972
chemicals	2972
adults	2972
concerning	2971
USA	2971
gri@@	2969
ements	2968
Nan@@	2968
Australian	2968
servers	2967
attempts	2967
employee	2966
luxury	2965
Long	2965
tied	2963
swimming	2963
counter@@	2963
Being	2963
originally	2962
ini	2961
applicable	2961
Guangdong	2961
th-@@	2960
reconstruction	2959
ple	2959
é	2957
fies	2956
didn	2956
HTML	2956
TE@@	2955
banking	2954
quantitative	2953
gre@@	2953
ail@@	2952
ries	2950
intense	2950
hate	2950
beings	2950
lessons	2949
heavily	2949
acy	2949
abundant	2949
Ni@@	2949
facility	2948
assistance	2948
CH@@	2948
shear	2946
ham@@	2946
ny	2945
til@@	2943
immediate	2942
fix	2942
dominant	2942
Application	2942
unusual	2939
lists	2938
Having	2938
Big	2938
37	2938
Harry	2936
dynamics	2929
diversity	2929
answered	2929
strip	2928
Clinton	2928
displayed	2927
exciting	2926
PO@@	2925
estimates	2924
flavor	2923
brothers	2923
floating	2922
lens	2921
warned	2920
eth@@	2920
vol@@	2919
fre@@	2919
pregnant	2918
1999	2918
infrared	2917
emphasis	2917
regime	2916
shut	2915
proposal	2915
tly	2914
ged	2914
Hol@@	2914
searching	2913
sis	2912
excited	2912
burden	2912
styles	2911
cake	2911
survive	2910
Milan	2910
en-@@	2909
26@@	2909
rated	2908
performances	2908
namely	2908
combat	2908
bling	2908
Del@@	2908
processed	2906
adaptive	2906
adi@@	2905
worried	2904
regarding	2903
download	2901
ton@@	2899
screw	2899
agencies	2899
ologists	2897
elegant	2897
bilateral	2897
Ma	2897
Kim	2897
int	2896
brush	2896
au	2896
ologic	2894
flowing	2894
entertainment	2894
lands	2893
Ter@@	2892
crude	2890
criteria	2890
correctly	2890
ut	2889
chose	2889
anxiety	2889
renal	2888
euro	2888
certificate	2888
Yu	2888
festival	2887
explanation	2887
beer	2886
substance	2885
plates	2885
discover	2884
Global	2884
cap	2883
precious	2882
strict	2881
oned	2881
drying	2881
vascular	2879
sec@@	2879
ach	2878
1998	2877
tourist	2876
fo@@	2876
customs	2875
attributes	2875
PE@@	2875
ultimate	2874
primarily	2874
sti@@	2872
refused	2872
ath	2871
55	2871
shoot	2870
merely	2870
ire	2870
probability	2869
rough	2868
programme	2867
existed	2867
Chicago	2867
book@@	2866
estimation	2865
menu	2864
depending	2864
outs	2863
ologist	2863
Space	2863
HIV	2863
tal@@	2862
é@@	2861
amazing	2861
E-@@	2861
kernel	2860
habit	2860
crew	2860
air-@@	2860
wooden	2859
classroom	2859
pon@@	2858
Does	2858
cure	2857
Huang	2854
Des@@	2854
taxes	2853
span	2852
icity	2851
chart	2851
。	2850
locked	2850
rows	2849
dev@@	2849
rail	2847
IP@@	2846
Brown	2846
attended	2844
ingredients	2843
consideration	2843
assess	2841
nodes	2840
Wednesday	2840
Soviet	2839
IE@@	2837
A.	2837
manufacturer	2836
spots	2835
absolutely	2835
Open	2834
vers	2833
At@@	2833
sudden	2832
highway	2832
axial	2831
scores	2829
cavity	2829
resulted	2827
mistakes	2827
spoken	2826
stated	2825
gathered	2824
Char@@	2824
dancing	2822
sive	2821
secret	2821
deposits	2820
ases	2820
tin@@	2819
AIDS	2818
residential	2817
adult	2817
Press	2817
fees	2816
Jackson	2816
appeal	2815
innovative	2814
X-ray	2814
combine	2813
begun	2813
Ren@@	2813
favor	2812
don@@	2812
orange	2810
aside	2810
00@@	2809
bones	2808
bars	2807
app@@	2807
designer	2806
B-@@	2806
precise	2804
modes	2804
enzyme	2804
yard	2803
LE@@	2803
um-@@	2802
displays	2802
mel@@	2801
Xi@@	2801
flo@@	2800
asset	2800
regularly	2798
coding	2798
gel	2797
affecting	2797
satisfaction	2795
honest	2794
dra@@	2793
collapse	2793
union	2792
promised	2792
complications	2792
Bureau	2792
drivers	2791
crop	2789
China-@@	2789
PA	2786
journal	2785
distinct	2785
toxic	2784
processor	2784
AR	2784
resolve	2783
reduces	2783
involving	2783
yu	2782
entering	2782
ban	2781
CR@@	2781
thee	2780
ric@@	2780
displacement	2780
Society	2780
depend	2779
colleges	2778
burst	2778
passion	2777
equity	2777
ancy	2775
integral	2774
belong	2774
novels	2773
flexibility	2772
calm	2772
ion@@	2771
CE@@	2770
pipeline	2768
fingers	2768
communicate	2767
150	2767
hero	2766
Arsenal	2766
sem@@	2765
gains	2765
inch	2764
Wu@@	2764
rivers	2763
pack	2763
fusion	2763
li	2762
berg	2762
admitted	2762
80@@	2762
-like	2762
referred	2761
refer	2760
im	2760
ent-@@	2760
essay	2759
hang	2757
amine	2757
2,@@	2757
xi	2755
retail	2754
funding	2754
EM@@	2754
locations	2753
blade	2753
afford	2753
ack	2753
Trade	2753
pul@@	2752
visiting	2751
declared	2751
analyst	2751
gravity	2750
Pal@@	2750
Ed@@	2750
friction	2748
exact	2748
CEO	2748
discipline	2747
presentation	2746
somewhat	2744
rod	2744
arc	2744
dly	2742
declined	2742
SS@@	2742
43	2742
spaces	2741
directed	2740
truck	2739
restaurants	2739
diesel	2739
Jin	2739
segment	2737
enjoyed	2737
defect	2736
Third	2736
reg@@	2735
inspired	2734
harmonious	2733
harder	2732
Jo@@	2732
ran@@	2731
Social	2731
Ke@@	2731
ownership	2730
intensive	2729
To@@	2729
TS	2728
ame	2727
cam@@	2726
Population	2726
stayed	2725
geological	2723
systematic	2720
net@@	2720
continuously	2720
Facebook	2720
frequent	2719
meetings	2717
co	2716
Right	2715
0-@@	2715
nutrition	2714
stainless	2713
sy@@	2712
sted	2711
specification	2711
reporters	2711
second-@@	2710
minor	2710
Cap@@	2710
Angeles	2710
with@@	2709
Sol@@	2709
SA	2709
Later	2709
ys@@	2708
ups	2708
loads	2708
bit@@	2708
expectations	2707
Premier	2707
sword	2706
e-mail	2706
captured	2706
hoping	2705
exports	2705
bus@@	2704
Court	2704
10-@@	2704
everyday	2702
hide	2701
mud	2699
award	2699
Remember	2699
diagnostic	2698
Station	2698
navigation	2697
oneself	2696
hanging	2696
sel@@	2695
alists	2695
gro@@	2694
Non-@@	2694
organs	2693
environments	2692
accurately	2692
beneficial	2691
specifically	2690
facial	2690
Olympics	2690
tens	2688
Standard	2688
pos@@	2687
ain	2687
pursuit	2686
ass	2686
lat@@	2685
Journal	2683
tongue	2682
manual	2682
log@@	2682
kin	2682
rid	2681
pushed	2681
posted	2680
governance	2680
guest	2678
generator	2678
desert	2678
arrive	2678
tom@@	2677
settlement	2676
operative	2676
boards	2676
fever	2674
Public	2674
breakfast	2672
Windows	2672
acids	2671
Pan@@	2671
AT	2667
win@@	2666
classified	2666
valid	2664
pin@@	2664
loose	2663
lab	2663
Network	2663
reserve	2662
DB2	2662
serves	2661
flag	2661
blow	2661
rarely	2660
harmony	2660
engines	2660
colored	2659
statistical	2657
no-@@	2657
recommend	2656
operational	2656
pitch	2655
passengers	2655
injuries	2655
acquired	2655
warming	2654
scanning	2654
romantic	2654
lucky	2654
Museum	2654
Mil@@	2653
brilliant	2652
state-owned	2650
packing	2649
Roman	2649
Bas@@	2649
imported	2647
hat	2647
Add	2647
rolled	2646
integrity	2646
attracted	2645
Yan	2645
realization	2644
cultures	2644
satisfy	2642
lateral	2642
Fl@@	2642
institution	2641
ining	2641
AB@@	2641
balanced	2640
Children	2640
pulmonary	2638
intervention	2638
Gr@@	2638
unity	2637
approximately	2637
Henry	2637
compl@@	2636
aking	2636
inter-@@	2635
ceramic	2635
Hel@@	2634
habits	2632
Hy@@	2632
Bridge	2632
checking	2631
44	2631
perfectly	2630
off-@@	2630
missed	2630
preventing	2629
predicted	2629
offices	2629
ani	2629
circular	2628
intra@@	2627
ce	2627
Taking	2627
courage	2626
Star	2626
promising	2625
curriculum	2625
TR@@	2625
Qi@@	2625
optimized	2624
appreciate	2624
IR@@	2624
att@@	2623
actively	2623
P.	2623
DS@@	2622
CF@@	2622
Valley	2621
20th	2621
reserves	2620
dishes	2620
alizing	2620
replacement	2619
kidney	2619
cognitive	2619
Mac@@	2619
super	2618
bin@@	2618
Richard	2618
izes	2617
graphic	2617
shops	2616
grinding	2616
emerged	2616
NE@@	2616
topics	2615
mention	2615
Tur@@	2615
Martin	2615
Director	2615
powered	2613
confident	2613
Hor@@	2613
musical	2612
ester	2612
Economic	2612
dro@@	2611
Rel@@	2610
enting	2609
emotion	2609
cro@@	2609
vegetable	2607
spray	2607
accused	2607
surfaces	2606
assistant	2606
The@@	2605
judgment	2604
deployment	2604
candidates	2604
generating	2603
Queen	2603
yi	2602
ini@@	2602
eless	2602
ural	2601
imp@@	2601
frozen	2599
apparently	2599
IM@@	2599
mus@@	2598
doesn	2598
va	2597
molecules	2597
cen@@	2597
reactor	2595
hu	2594
earnings	2594
absolute	2594
GDP	2594
dressed	2593
def@@	2593
basketball	2593
Mother	2593
wound	2592
destroy	2592
lips	2591
sleeping	2590
destination	2590
cho@@	2590
cer@@	2590
antly	2590
sor@@	2589
nervous	2589
qualities	2588
territory	2587
py@@	2587
necessarily	2587
generations	2587
equilibrium	2587
ek	2586
39	2586
ther	2585
itation	2585
elected	2585
writes	2584
long@@	2584
fired	2584
wings	2583
reactions	2583
prominent	2583
enables	2583
roughly	2582
oph@@	2582
Firstly	2582
DO@@	2582
mill	2581
carries	2580
anywhere	2580
liked	2578
Vietnam	2578
vis@@	2577
tourists	2576
ners	2576
exam	2576
Yi	2576
qui@@	2575
abnormal	2575
Can@@	2575
800	2575
applies	2574
answers	2574
Zhao	2573
occurrence	2572
fate	2572
Jiang	2572
silicon	2570
reporting	2570
choices	2570
behaviors	2570
Bre@@	2570
tag	2569
detecting	2568
tolerance	2567
pop	2567
packed	2567
instructions	2566
diagram	2566
expanding	2565
Pri@@	2564
Industry	2564
Cre@@	2564
corruption	2563
play@@	2562
eling	2562
med@@	2561
Could	2561
ometer	2560
hospitals	2559
ous@@	2557
~@@	2556
AD	2556
potentially	2553
1997	2553
bits	2552
ading	2552
stuck	2551
alk@@	2551
synthesized	2550
ket@@	2550
Linux	2550
Administration	2550
slip	2548
god	2548
Cr@@	2548
short-term	2547
hel@@	2547
expanded	2547
specify	2546
paintings	2546
ich	2546
grand	2546
apple	2546
2012	2546
flu	2545
enormous	2544
Mat@@	2544
ette	2542
Thanks	2542
zz@@	2541
repeated	2541
Xiao@@	2541
Little	2541
46	2541
Jones	2540
talents	2539
economies	2539
51	2538
idi@@	2537
focusing	2537
Zhejiang	2537
Prince	2537
volunteers	2536
realistic	2536
LO@@	2536
representation	2535
appointed	2535
ei@@	2534
Father	2534
scored	2533
shirt	2532
mul@@	2531
ation-@@	2531
modification	2530
et-@@	2530
weapon	2529
reinforced	2529
Texas	2529
reaches	2528
comparing	2528
ined	2526
Mag@@	2526
tape	2525
asks	2525
Cam@@	2522
reader	2521
dual	2521
reveals	2520
ential	2520
earned	2520
closing	2520
texture	2519
planting	2519
combustion	2519
assigned	2519
Steve	2519
independence	2518
spec@@	2517
explosion	2517
historic	2516
ust@@	2514
flame	2514
Secretary	2514
Greece	2514
Bel@@	2514
settled	2513
Te@@	2513
passenger	2512
Commission	2512
high-quality	2511
bles	2511
Southern	2511
41	2511
pose	2510
fold	2510
clay	2509
pig	2508
movements	2506
Out@@	2506
shipping	2505
sing@@	2504
improves	2504
plot	2503
Met@@	2503
statements	2502
ese	2502
apparatus	2502
laugh	2501
directions	2501
TA	2501
boo@@	2500
proliferation	2498
defeat	2498
clinic	2498
Men	2498
zinc	2497
earn	2497
audio	2497
Ger@@	2497
lifetime	2496
gender	2496
passes	2495
memories	2495
ba@@	2495
activated	2495
alarm	2494
uan	2493
attract	2493
HI@@	2493
Force	2493
Yellow	2492
Val@@	2492
Mel@@	2492
tooth	2491
47	2491
invest	2490
gon	2490
consequences	2490
Model	2490
accumulation	2489
mate	2488
urgent	2487
metals	2487
engineers	2487
confirm	2487
surrounded	2486
super-@@	2486
silence	2486
glasses	2486
productive	2485
cultivation	2485
ultimately	2484
emotions	2484
arrival	2484
painted	2483
han	2483
Joe	2483
loves	2481
cop@@	2481
ices	2480
27@@	2480
matches	2479
fic@@	2479
tru@@	2478
dragon	2477
plat@@	2476
reviews	2474
Cur@@	2474
ises	2473
ble@@	2473
Recently	2473
eter	2472
fibers	2471
emission	2470
license	2469
financing	2469
Students	2469
Get	2469
towns	2468
responses	2468
promoted	2468
establishing	2466
Yunnan	2466
TO@@	2466
modules	2465
dying	2465
AIM	2465
instruction	2464
pursue	2463
lawyer	2463
bubble	2463
arrested	2463
alities	2463
din@@	2462
tech	2461
stand@@	2461
protecting	2461
assume	2461
vitamin	2460
threshold	2460
museum	2460
bowl	2460
black@@	2460
china	2459
chances	2459
Republic	2459
Nations	2458
ich@@	2457
blame	2457
arch@@	2457
Gen@@	2457
FC	2456
Hunan	2455
CM@@	2455
wore	2454
Indeed	2453
tonight	2452
rating	2452
passage	2452
ic-@@	2451
fitting	2451
Jing@@	2451
Everyone	2451
peaceful	2449
Sen@@	2449
zes	2448
arch	2448
Analysis	2448
operated	2446
drinks	2446
touched	2445
lessly	2445
Xia@@	2445
choosing	2444
quantum	2443
muscles	2443
behaviour	2443
kes	2440
register	2439
organ	2439
tissues	2437
hear@@	2437
pin	2436
factories	2436
amino	2435
worthy	2432
emp@@	2432
savings	2431
recording	2430
immun@@	2430
Police	2429
backed	2428
Ra@@	2428
widespread	2427
ard@@	2427
Fu	2427
elling	2426
biology	2425
scenario	2424
gifts	2424
ace	2424
Pa@@	2424
Wil@@	2423
Thee	2423
returning	2421
salary	2418
ment@@	2418
marry	2418
Sir	2418
expressions	2417
feng	2416
draft	2416
columns	2416
treatments	2415
mu@@	2415
Smith	2415
gs	2414
contracts	2414
tickets	2413
fun@@	2413
Qing@@	2413
enter@@	2412
BP	2412
ty@@	2411
determining	2411
jumped	2410
babies	2410
ulation	2409
pink	2409
microwave	2409
exception	2408
barrier	2408
Lam@@	2408
pet	2406
conservation	2406
ater@@	2406
opinions	2405
tem@@	2404
simultaneously	2404
prize	2404
ities	2404
em	2404
fertilizer	2403
moments	2402
suicide	2401
accompanied	2401
diamond	2400
Ha@@	2400
Latin	2398
ign@@	2397
presidential	2396
bet@@	2395
couples	2394
bat@@	2391
apparent	2391
Pat@@	2391
IR	2391
hard@@	2389
develops	2389
uck	2388
switching	2388
shore	2388
Charles	2388
yan	2387
60@@	2387
sorts	2386
API	2386
prospects	2385
mortality	2385
maintained	2385
cou@@	2385
pushing	2384
unemployment	2383
residual	2383
margin	2383
leg@@	2383
gastric	2383
moderate	2382
beside	2382
necessity	2381
mol@@	2381
destruction	2381
app	2381
logistics	2380
label	2378
Thomas	2378
Special	2378
NASA	2378
yp@@	2377
connecting	2377
automobile	2377
Book	2377
indexes	2376
cord	2376
Hong@@	2376
crash	2375
BO@@	2375
trillion	2374
sch@@	2373
equipments	2373
blast	2373
52	2373
reaching	2372
Five	2372
mounted	2371
functionality	2371
dried	2371
checked	2370
radical	2369
happening	2369
tumors	2367
monthly	2367
ians	2367
Yeah	2367
breaks	2365
phenomena	2364
penalty	2364
diagnosed	2364
batch	2364
port@@	2362
pole	2362
ious	2362
argue	2362
securities	2361
Studies	2361
scheduled	2360
hand-@@	2360
Xu	2360
py	2359
one@@	2359
toxicity	2358
pocket	2358
partnership	2358
ity-@@	2358
conception	2358
AM	2357
9-@@	2357
iled	2356
maintaining	2354
dates	2354
Chi@@	2354
minds	2353
ought	2351
ko	2351
compact	2351
onal	2350
meth@@	2350
disc	2350
za	2349
Young	2349
references	2348
pay@@	2347
Chongqing	2347
mas@@	2346
ills	2346
availability	2346
Shandong	2346
Foundation	2346
essentially	2345
Yan@@	2345
Thailand	2345
worship	2344
trac@@	2344
ately	2344
Barack	2344
Au@@	2344
template	2343
Come	2343
pan	2342
bases	2342
oning	2340
seats	2339
vary	2338
atomic	2337
provider	2336
operators	2336
expenses	2336
analytical	2336
st-@@	2335
she@@	2335
gun@@	2335
conf@@	2335
solvent	2334
lu@@	2334
knee	2334
duration	2334
ude	2333
dozen	2333
praise	2332
edition	2332
transparent	2331
by-@@	2331
van	2330
sheets	2330
od	2330
founder	2330
deeper	2330
acted	2330
Northern	2330
spare	2329
satisfactory	2329
ch-@@	2329
underlying	2328
dil@@	2328
Fin@@	2328
pleased	2327
hotels	2327
efficiently	2327
distant	2327
ex	2326
dioxide	2326
ruling	2325
NO@@	2325
ented	2323
Yang@@	2323
+	2323
slide	2322
tract	2321
singer	2321
Tr@@	2321
piano	2320
partly	2320
es-@@	2320
dramatic	2320
succeed	2319
it-@@	2319
dissertation	2319
twenty	2318
silent	2318
chlor@@	2318
PM@@	2318
scientist	2317
Real	2317
settings	2316
terrible	2315
villages	2314
traveling	2314
Yi@@	2314
MP@@	2314
patent	2313
PE	2313
28@@	2313
fulness	2312
Welcome	2312
Hall	2312
chi@@	2311
centuries	2311
absence	2311
ki	2310
Senate	2310
Ko@@	2309
Hollywood	2309
0.01	2309
Dra@@	2308
opens	2307
Engineering	2307
Energy	2307
mic	2306
ab	2306
Qin	2303
valley	2302
suspension	2302
rings	2302
pine	2302
gathering	2302
adapt	2302
Light	2302
Kar@@	2302
relatives	2301
wal@@	2300
Eastern	2300
sizes	2299
ram@@	2299
qing	2298
investments	2297
wastewater	2296
tran@@	2296
lin	2296
tis@@	2295
robust	2295
mothers	2295
unlikely	2294
mechanics	2294
guided	2293
entity	2292
Jane	2292
ter-@@	2291
shapes	2291
roller	2291
Tu@@	2291
somewhere	2290
Sur@@	2289
ectomy	2288
strains	2287
ental	2287
correction	2286
completion	2286
Keep	2286
Don@@	2286
somebody	2285
dy@@	2285
Tian@@	2285
electronics	2284
initiative	2283
preliminary	2282
CD	2282
tier	2281
strengthening	2281
set@@	2281
shallow	2280
let@@	2280
Nanjing	2280
nobody	2279
Democratic	2279
meets	2278
nan@@	2277
machining	2277
lovely	2277
Dar@@	2277
high-tech	2275
fu	2275
brick	2275
blo@@	2275
CN@@	2275
wind@@	2274
Xinhua	2274
-and-@@	2274
electrode	2273
password	2272
grows	2272
matic	2271
fears	2271
coastal	2271
prosperity	2270
sto@@	2269
signature	2269
rotation	2269
snow@@	2268
impression	2267
democratic	2267
adopts	2267
Xiao	2267
league	2266
fire@@	2266
deficiency	2266
St.	2266
mit@@	2265
extracted	2263
winner	2262
Don	2261
lined	2260
ces	2260
New@@	2260
Bra@@	2260
tile	2259
bean	2259
Gre@@	2259
tives	2258
curves	2258
Ir@@	2258
Manager	2256
ker@@	2255
infections	2255
War@@	2255
Royal	2255
breathing	2254
awarded	2254
mild	2253
Club	2253
Chief	2253
lac@@	2252
gener@@	2252
Grand	2252
Best	2252
landing	2251
fiscal	2251
ables	2251
Scientists	2251
ner@@	2250
captain	2250
assist	2250
SOA	2250
Florida	2250
owns	2249
Resources	2249
Early	2249
collective	2248
PR@@	2248
whenever	2247
arian	2247
dialogue	2246
SS	2246
ret@@	2245
coupled	2244
izer	2243
instant	2242
school@@	2241
removing	2241
purple	2241
M.	2241
equally	2240
sta@@	2239
sought	2239
real@@	2239
FA	2239
49	2239
designers	2238
cook	2238
tele@@	2237
gently	2237
bending	2237
excess	2236
erosion	2235
drops	2235
circles	2235
horses	2234
countryside	2234
codes	2234
coated	2234
gather	2233
clubs	2233
Wal@@	2233
DR@@	2232
mic@@	2231
mathematics	2231
aph@@	2231
Republican	2231
Federal	2231
xi@@	2230
ect	2230
ust	2229
preferred	2229
nar@@	2229
gentle	2229
adjusted	2228
person@@	2227
inated	2227
healing	2227
dispute	2227
differentiation	2227
ony	2226
crazy	2226
wan	2225
gam@@	2225
continuing	2225
CONCLUSION	2225
replied	2224
palace	2224
fiction	2224
SQL	2224
tropical	2223
98	2223
ple@@	2222
ogenic	2222
humanity	2222
collecting	2222
celebrate	2222
Na@@	2221
stretch	2220
Johnson	2220
Medicine	2219
holder	2218
rank	2217
wavelet	2216
measurements	2216
inv@@	2216
Xin@@	2216
Ocean	2215
coordinate	2214
at-@@	2214
56	2214
dating	2212
Yao	2212
mom	2211
ail	2210
Harvard	2210
islands	2209
judicial	2208
doc@@	2207
bun@@	2207
plo@@	2206
irrigation	2206
poet	2205
grace	2205
free-@@	2205
trials	2204
dear	2204
coordination	2204
Buddha	2204
aer@@	2203
iso@@	2202
Sin@@	2202
scenes	2201
inevitable	2201
ush@@	2200
punishment	2200
ford	2200
Researchers	2199
Cy@@	2199
pressed	2198
balls	2198
Manchester	2198
Feng	2198
mainland	2197
el-@@	2196
Cu@@	2196
medi@@	2195
pper	2194
ater	2194
zones	2193
stat@@	2192
Zhu	2192
Industrial	2192
AF@@	2192
initially	2191
bike	2191
vulnerable	2190
TC	2190
ports	2189
ams	2189
Super@@	2189
Centre	2189
rear	2188
uncertainty	2187
Wen@@	2187
metabolism	2186
grey	2186
duc@@	2186
Test	2186
screening	2185
provinces	2185
transactions	2184
degradation	2184
Mad@@	2184
HPLC	2184
athletes	2183
—and	2181
spinal	2181
recover	2180
popularity	2180
decoration	2180
pressing	2179
dominated	2179
24@@	2179
ith@@	2177
CC	2177
pic@@	2176
mold	2176
1996	2176
proven	2175
hot@@	2175
sign@@	2174
isolation	2174
Mike	2174
HP	2174
tide	2173
involve	2173
coronary	2173
Lev@@	2172
transformed	2171
kid	2171
summary	2170
bedroom	2170
PP	2168
ured	2167
liber@@	2167
granted	2167
excessive	2167
behalf	2167
bulk	2166
dad	2165
Indonesia	2164
Currently	2164
sunlight	2163
queue	2163
desired	2162
violent	2161
delicate	2161
Fed	2161
hood	2160
glucose	2160
care@@	2160
Ho@@	2160
pra@@	2159
Co	2159
rever@@	2158
arguments	2158
Oil	2158
neutral	2157
van@@	2156
tender	2156
concentrated	2156
finishing	2155
ki@@	2154
compete	2154
yed	2153
valued	2153
tennis	2153
rigid	2153
ultra-@@	2152
path@@	2152
exercises	2152
cut@@	2152
colorful	2152
constructing	2150
ashes	2150
Sim@@	2150
participation	2149
lining	2149
bled	2149
Da@@	2149
sensors	2148
flesh	2148
11@@	2148
peripheral	2147
needle	2147
insulation	2147
enabled	2147
usion	2146
Bal@@	2146
Mus@@	2145
E.	2145
Along	2145
engineer	2143
beneath	2143
graphics	2142
farmer	2142
ples	2141
album	2141
Trans@@	2141
Building	2141
zo@@	2140
delicious	2139
PD@@	2139
Gal@@	2139
scan	2138
quietly	2138
oil-@@	2138
cervical	2138
restore	2137
Lu	2137
sauce	2136
bow	2136
three-dimensional	2135
spreading	2134
micro	2134
ar-@@	2134
glory	2133
Tianjin	2133
speaker	2132
inate	2132
Bible	2132
simulate	2131
shed	2131
rap@@	2131
aria	2130
analyse	2130
exit	2129
coun@@	2129
berry	2129
restricted	2128
whereas	2127
hur@@	2127
forests	2127
faults	2127
wishes	2126
ty-@@	2126
ski	2126
hard-@@	2126
drew	2126
reporter	2125
i.	2125
com	2125
CS	2125
badly	2123
read@@	2122
meals	2122
Web@@	2122
53	2122
pro-@@	2121
peri@@	2121
dimensions	2121
implementing	2120
harmful	2120
flash	2120
newspapers	2119
jing	2118
atten@@	2117
Emperor	2117
specially	2116
five-@@	2116
filtering	2116
extraordinary	2116
bers	2116
Is@@	2116
ze@@	2115
populations	2115
yen	2114
shots	2114
borne	2114
mask	2113
commands	2113
cellular	2113
Ram@@	2113
AN	2113
HO@@	2112
funny	2111
aling	2111
treasure	2110
ection	2110
copies	2110
Small	2110
se-@@	2109
abuse	2109
Try	2109
influencing	2108
loving	2107
cardiac	2107
CA	2107
show@@	2106
drought	2106
`	2106
mag@@	2105
bla@@	2105
activation	2104
DB@@	2104
professionals	2103
lar@@	2103
L.	2103
starch	2102
pit	2102
heading	2102
yer	2101
mal	2101
Tre@@	2099
Corporation	2099
ro	2098
pride	2098
e-based	2097
life-@@	2096
hypertension	2096
ministry	2095
Uni@@	2095
resist	2094
Moscow	2093
ula	2092
thermo@@	2092
pled	2092
morphology	2092
locking	2092
elled	2092
beams	2092
crossing	2091
IG@@	2091
occupied	2090
northeast	2089
holy	2089
repeatedly	2088
gg@@	2088
Pen@@	2088
son@@	2087
fortune	2087
spar@@	2086
sim@@	2086
expects	2086
IF@@	2086
l-@@	2085
hair@@	2085
IA	2085
electromagnetic	2084
open-@@	2083
hoped	2083
cattle	2083
\@@	2083
Fre@@	2083
rush	2082
commodity	2081
climb	2081
art@@	2081
DM	2081
posts	2080
IB@@	2080
tab@@	2078
hungry	2078
hon@@	2078
cents	2078
Tai@@	2078
64	2078
surely	2077
iPhone	2077
developer	2077
aver@@	2077
minority	2076
headquarters	2076
bomb	2076
transferred	2075
aud@@	2075
Reg@@	2075
NA	2075
20-@@	2075
viscosity	2074
Nature	2074
trigger	2073
logging	2073
disorders	2073
considerable	2073
auto-@@	2073
MR@@	2073
bell	2072
beef	2072
Home	2072
Arab	2072
harvest	2071
antenna	2071
BS	2071
outdoor	2070
favorable	2070
chips	2070
aming	2070
paste	2069
selecting	2068
glad	2068
maps	2067
chi	2067
Ph@@	2067
vocational	2066
drove	2066
Modern	2066
funded	2065
exchanges	2065
decision-making	2065
burned	2065
pairs	2064
bitter	2062
aps	2062
Golden	2062
zi@@	2061
CL@@	2061
walks	2060
turbine	2060
fra@@	2060
Never	2060
sa	2059
gal@@	2059
BA	2059
sealing	2058
bears	2058
ied	2057
drives	2057
allocation	2057
HT@@	2057
scenery	2056
fatty	2056
cheese	2056
short-@@	2055
SD@@	2055
54	2055
sophisticated	2054
orbit	2054
eas@@	2053
58	2053
TC@@	2052
pm	2051
joining	2051
executives	2051
politicians	2050
iling	2050
hunting	2050
amed	2050
seasons	2049
curative	2049
nat@@	2048
Ham@@	2048
substantial	2047
leakage	2047
tubes	2046
time@@	2046
ici@@	2046
farming	2046
Vol@@	2046
winds	2045
substances	2045
resort	2045
anth@@	2045
1995	2045
psych@@	2044
cooperative	2044
phrase	2043
passive	2043
buyers	2043
Str@@	2043
roc@@	2042
darkness	2042
olog@@	2041
eu@@	2041
optimize	2040
suspected	2039
foam	2039
architectural	2039
portal	2038
loud	2038
combines	2038
anim@@	2038
Fr@@	2038
respiratory	2037
negotiations	2037
Daniel	2037
tures	2036
riding	2036
Put	2036
sible	2035
rou@@	2035
painful	2035
organ@@	2035
impressive	2035
700	2035
libraries	2034
GE@@	2034
oper@@	2033
wells	2032
sting	2032
Canadian	2032
Area	2032
72	2032
rejected	2031
intr@@	2031
initi@@	2031
Products	2031
kingdom	2030
drainage	2030
Shang@@	2030
LD@@	2030
tum@@	2029
summit	2029
ser	2029
rabbit	2029
macro@@	2029
Por@@	2029
Jim	2029
Rome	2028
Pr@@	2028
top-@@	2027
Gulf	2027
tends	2026
GA	2026
DM@@	2025
worn	2024
producer	2024
crimes	2024
threw	2023
sum@@	2023
six-@@	2023
propose	2023
conservative	2023
aggressive	2023
thoroughly	2022
regardless	2022
demonstrates	2022
oldest	2021
notion	2021
anniversary	2021
Within	2021
62	2019
X-@@	2018
Mas@@	2018
stressed	2017
oul@@	2017
ins@@	2017
conscious	2017
Cheng	2017
uring	2016
odd	2016
esses	2016
beans	2016
encounter	2015
bleeding	2015
melting	2014
inflammation	2014
emperor	2014
graphy	2013
firstly	2013
Wi@@	2013
Financial	2013
requ@@	2011
Rom@@	2011
lover	2010
Main	2010
III	2010
graduates	2009
flat@@	2009
ws	2008
swe@@	2008
nan	2008
capsule	2008
heated	2007
engage	2007
cabinet	2007
bon@@	2007
ala	2007
adjusting	2007
phases	2006
momentum	2006
lifting	2006
stepped	2005
outlook	2005
oste@@	2005
drill	2005
dom@@	2005
Pres@@	2005
Je@@	2005
var@@	2004
royal	2004
ided	2004
Ju@@	2004
History	2004
1000	2003
wider	2002
ake	2002
ption	2001
defence	2001
ideology	2000
bot@@	2000
Blue	2000
sentences	1999
provincial	1999
explored	1999
creatures	1999
ased	1999
Until	1999
TB	1999
Square	1999
MC@@	1999
Agency	1999
identical	1998
dirty	1998
microscope	1997
ication	1997
abstract	1996
Act	1996
schemes	1995
lonely	1994
enforcement	1994
enemies	1994
Music	1994
wei	1993
transplantation	1993
ita	1993
ex-@@	1993
criterion	1993
advances	1993
I-@@	1993
Huang@@	1993
Sil@@	1992
Ben	1992
rises	1991
payments	1991
vel	1990
specifications	1990
masses	1990
imagination	1990
flux	1990
deficit	1990
elsewhere	1989
comprises	1989
eco-@@	1988
throat	1987
stack	1987
ona	1987
elections	1987
dering	1987
textile	1986
atively	1986
acoustic	1986
TH@@	1986
Bor@@	1986
mortgage	1985
guards	1985
creativity	1985
verse	1984
ush	1984
suspended	1984
ranging	1984
exclusive	1984
defines	1984
clean@@	1984
Unlike	1984
Services	1984
ruled	1983
magnitude	1983
ues	1982
structured	1982
tablets	1981
rig@@	1981
possess	1981
Sk@@	1981
ID@@	1981
1990	1981
min	1980
cle@@	1980
act@@	1980
Over@@	1980
economist	1979
Xu@@	1979
63	1979
phen@@	1978
Town	1978
signing	1977
boats	1977
liability	1976
Ag@@	1976
66	1976
websites	1975
spinning	1975
Pur@@	1975
flew	1974
economical	1974
disappeared	1973
broadcast	1973
Cas@@	1972
vacation	1971
Server	1971
soldier	1970
attacked	1970
cats	1968
acceptance	1968
Zealand	1968
Virginia	1968
HE@@	1968
tian	1967
sends	1967
red@@	1967
Steel	1967
jade	1966
cour@@	1966
intention	1965
abandoned	1965
socialist	1964
reward	1963
petroleum	1962
Shi	1962
Organization	1962
mile	1961
itor	1961
rot@@	1960
ographic	1960
ees	1960
tivity	1959
targeted	1959
proves	1959
interval	1959
hormone	1959
divorce	1959
Language	1959
86	1959
ulated	1958
bet	1958
Treasury	1958
ultrasonic	1957
gged	1957
Pu@@	1957
shortage	1956
ger@@	1956
concentrate	1956
V-@@	1956
validity	1955
rope	1955
introducing	1955
provisions	1954
adverse	1954
smo@@	1953
nom@@	1953
informed	1953
improvements	1953
drag	1953
Theory	1953
Dan@@	1953
tiger	1952
icon	1952
delayed	1952
invasion	1951
developments	1951
contributions	1951
updated	1950
adjacent	1950
nuts	1949
Up	1949
ville	1948
repeat	1948
kick	1948
urine	1947
sole	1947
interfaces	1947
fought	1947
fat@@	1947
portfolio	1946
lit	1946
struggling	1944
yst@@	1943
verify	1943
sand@@	1943
dat@@	1943
bridges	1941
pricing	1940
motor@@	1940
Libya	1940
gli@@	1939
devoted	1939
pipes	1938
zer	1937
gran@@	1937
boiler	1937
sli@@	1936
circuits	1935
adopting	1935
Zhong@@	1935
UV	1935
Micro@@	1935
traits	1934
planes	1934
settle	1933
ounding	1933
hung	1933
math	1932
eff@@	1932
Fac@@	1932
regression	1931
ison	1931
Mount	1931
cargo	1930
1.5	1930
+@@	1930
toys	1929
inj@@	1929
welfare	1928
thi@@	1928
120	1928
eting	1927
ena	1927
elite	1927
angles	1927
Mrs	1927
Back	1927
neighbors	1926
melt	1926
viewed	1925
discussions	1925
Mul@@	1925
88	1925
rocket	1924
computation	1924
chloride	1924
bite	1924
shake	1923
honey	1923
Think	1923
Buddhist	1923
diplomatic	1922
binary	1922
tization	1921
Gold	1921
igh@@	1920
conflicts	1920
spiral	1918
ishes	1917
girlfriend	1917
fol@@	1917
appreciation	1917
adhesive	1917
m-@@	1916
lows	1916
induction	1916
ben@@	1916
SR@@	1916
Bon@@	1916
vit@@	1915
scra@@	1915
parking	1915
LED	1915
suspect	1914
sup@@	1914
recall	1914
precipitation	1914
indoor	1914
tiv@@	1913
opposed	1913
modify	1913
interactive	1913
opera	1912
tan@@	1911
get@@	1911
educated	1911
flour	1910
encouraged	1910
sits	1909
dozens	1909
executed	1908
Buddhism	1908
68	1907
soybean	1906
precisely	1906
polar	1906
motivation	1906
bacterial	1906
automation	1906
DA	1906
sake	1905
illa	1905
corporation	1905
La	1905
Bro@@	1905
victim	1904
Tim@@	1904
GPS	1904
ord@@	1903
modulation	1903
-related	1903
occasion	1902
guidelines	1902
Free	1902
Air@@	1902
tam@@	1901
inger	1901
converted	1901
minerals	1900
low@@	1900
ignored	1900
dressing	1900
Zh@@	1900
you@@	1899
ti	1899
ceiling	1899
tized	1898
graduated	1898
diffusion	1898
blank	1898
accidents	1898
thrown	1897
networking	1897
checks	1896
weakness	1895
ov	1895
mysterious	1895
diverse	1895
year@@	1894
sman	1894
separately	1893
rid@@	1893
leisure	1893
grasp	1893
accomplished	1893
Jerusalem	1893
on-line	1892
fraction	1892
N-@@	1892
vein	1891
gang	1891
Temple	1891
Give	1891
actors	1890
extr@@	1889
err@@	1889
conclusions	1889
surveillance	1888
ousness	1888
hun@@	1888
Should	1888
SD	1888
Jiang@@	1887
timing	1886
stake	1886
convenience	1886
announcement	1886
ST	1886
southwest	1884
fitness	1884
expense	1884
val	1883
test@@	1883
publishing	1883
neighborhood	1883
insulin	1883
eli@@	1882
critics	1882
10.@@	1882
basket	1881
Set	1881
Ci@@	1881
ugly	1880
shoe	1880
pun@@	1880
near-@@	1880
fermentation	1880
angi@@	1880
sensing	1879
slight	1878
aring	1878
Tong@@	1878
Hon@@	1878
staying	1877
squad	1877
hepatic	1877
crown	1877
cooked	1877
contributed	1877
animation	1877
Expo	1877
suggestion	1876
stops	1876
esis	1876
dium	1876
Yangtze	1876
sit@@	1875
shorter	1875
row@@	1875
dense	1875
Confucius	1875
privacy	1874
lasting	1874
io	1874
dare	1874
yields	1873
wrapped	1873
tracks	1873
malignant	1873
fier	1873
owing	1872
manufactured	1872
forum	1872
dian	1872
decreases	1872
bility	1872
Zheng	1872
Jiangsu	1872
shield	1871
collaboration	1870
MRI	1870
threatened	1869
stimulus	1869
organize	1869
Fer@@	1869
pigs	1868
physiological	1868
filed	1868
strictly	1867
publication	1867
permeability	1867
gotten	1867
57	1867
firmly	1866
ens@@	1866
edges	1866
TP	1866
Quality	1866
Muslim	1866
plug	1865
joints	1865
intermediate	1865
correlated	1864
Ireland	1864
trains	1863
mainstream	1863
ith	1862
demonstration	1862
poll	1861
massage	1861
rotating	1860
mesh	1860
inspiration	1860
discussing	1860
convert	1860
amid	1859
varied	1858
governor	1858
Hill	1857
varying	1856
questionnaire	1856
lig@@	1856
anyway	1856
planted	1855
deployed	1855
pharmac@@	1854
ock	1854
hi	1854
endless	1854
Poly@@	1854
Others	1854
Anti-@@	1854
submit	1853
studio	1853
freely	1853
ety	1853
G-@@	1853
narrative	1852
grains	1852
deb@@	1852
Garden	1852
Ford	1852
2.0	1851
invented	1850
g-@@	1850
besides	1850
constitution	1848
addresses	1848
Shu@@	1848
reforms	1847
integrate	1847
poses	1845
packages	1845
intake	1844
Dutch	1844
ump	1843
sediment	1843
high-level	1843
ere	1843
deputy	1843
Jobs	1843
Bob	1843
unc@@	1842
shar@@	1842
scal@@	1842
oured	1842
neurons	1842
ful@@	1842
centered	1842
plug-in	1841
cameras	1841
Atlantic	1841
ols	1840
cheng	1840
audit	1840
aches	1840
converter	1839
upgrade	1838
lesions	1838
home@@	1838
evolved	1838
tle	1837
stor@@	1837
boom	1837
1/@@	1837
Wor@@	1836
PM	1836
67	1836
rival	1835
resolved	1835
chat	1835
owed	1834
northwest	1834
gods	1834
authentication	1834
ama	1834
250	1834
1990s	1834
tire	1833
striking	1832
propagation	1832
bench	1832
Very	1832
liquor	1831
detector	1831
Hello	1831
tune	1830
them@@	1830
remembered	1830
murder	1830
left-@@	1830
hip	1830
Capital	1830
supplied	1829
sunshine	1828
High-@@	1828
Amazon	1828
enthusiasm	1827
drum	1827
cos@@	1827
2.5	1827
kiss	1826
omas	1825
nights	1825
mystery	1825
ly-@@	1825
compatibility	1825
bury	1825
servant	1823
prof@@	1823
dist@@	1823
Op@@	1823
Lakers	1823
Exchange	1823
xing	1822
Church	1822
12-@@	1822
uo	1821
serial	1820
matched	1820
Reserve	1820
Actually	1820
=	1820
personally	1819
cycles	1819
akes	1819
tang@@	1817
ri	1817
phosph@@	1817
partition	1817
methodology	1817
hills	1817
ays	1817
verified	1816
permission	1816
erg@@	1816
Ty@@	1816
CB@@	1816
2nd	1816
portable	1815
ough@@	1815
exploring	1815
Stra@@	1815
uck@@	1814
pulling	1814
add@@	1814
trap	1813
molecule	1813
invested	1813
aly@@	1813
Henan	1813
rushed	1812
representing	1812
ode	1812
buffer	1812
guns	1811
accessible	1811
Turkey	1811
Result	1811
Further	1811
96	1811
′s	1810
prototype	1810
j	1810
sho@@	1809
receptor	1809
conver@@	1809
charging	1809
thereof	1808
potassium	1808
ories	1808
night@@	1808
contest	1808
buyer	1808
viruses	1807
positioning	1807
del	1807
bathroom	1807
ax	1807
Yin	1807
Ki@@	1807
promises	1806
deck	1806
alistic	1806
Yong@@	1806
Land	1806
cit@@	1805
brake	1805
argues	1805
Francisco	1805
photographs	1804
bent	1804
Plant	1804
yarn	1803
sters	1803
part@@	1803
Series	1803
Israeli	1803
recovered	1802
rat@@	1802
panels	1802
bottles	1802
Given	1802
ep	1801
dia	1801
stro@@	1800
interactions	1800
defend	1800
check@@	1800
sectors	1799
Shen@@	1799
shoulders	1798
mines	1798
flow@@	1798
anch@@	1798
Culture	1798
1994	1798
southeast	1797
ram	1797
pulp	1797
heritage	1797
dawn	1797
timely	1796
researcher	1796
Self-@@	1796
Jud@@	1796
Hi@@	1796
Dev@@	1796
Bri@@	1796
thereby	1795
tear	1795
canal	1794
bra	1793
unexpected	1792
ops	1792
lending	1792
junior	1792
safely	1791
convinced	1790
wealthy	1789
dig@@	1789
cried	1789
IN	1789
sacrifice	1788
concert	1788
picking	1787
Program	1787
submitted	1786
human@@	1786
flap	1786
sni@@	1785
perception	1785
eries	1785
climbing	1785
Xinjiang	1785
videos	1784
lifestyle	1784
mere	1782
comparative	1782
ashed	1782
Mars	1782
Airport	1782
-1	1782
not@@	1781
monetary	1781
labour	1781
ill-@@	1781
gay	1781
backs	1781
Frank	1781
receiver	1780
divide	1780
conducting	1780
bills	1780
barrel	1780
Wuhan	1780
wheels	1779
residence	1779
ora	1779
cheaper	1779
acceptable	1779
frames	1778
fal@@	1778
soluble	1777
routing	1777
pleasant	1777
stu@@	1776
revolutionary	1776
inventory	1776
rage	1775
oms	1775
retired	1774
fractures	1774
posed	1773
inches	1773
Joseph	1773
soccer	1772
ethanol	1772
Tro@@	1772
lifted	1771
butter	1771
Chang	1771
virtue	1770
ju@@	1770
constraints	1770
mac@@	1769
featured	1769
teen	1768
ranks	1768
guilty	1768
end-@@	1768
calories	1768
associate	1768
asleep	1768
argued	1768
trick	1767
subsequent	1767
denied	1767
ce@@	1767
ada	1767
qi	1766
minim@@	1766
exploitation	1766
Tibetan	1766
imports	1765
abdominal	1765
reply	1764
metallic	1764
hepatitis	1764
grave	1764
platforms	1763
evaluating	1763
adequate	1763
tun@@	1762
itated	1762
facilitate	1762
challenging	1762
Palace	1762
PHP	1762
Hangzhou	1762
mers	1761
distinctive	1761
ventilation	1760
producers	1760
peoples	1760
nest	1760
genic	1760
Construction	1760
myocardial	1759
ights	1759
hoo@@	1759
gases	1759
anterior	1759
Champions	1759
quit	1758
ongoing	1758
limitations	1758
dictionary	1758
chang@@	1758
after@@	1758
Dragon	1758
surge	1757
supplier	1757
scripts	1757
filters	1757
Hai@@	1757
ventricular	1756
threats	1756
sul@@	1756
asis	1756
WTO	1756
Line	1756
Ban@@	1756
tale	1755
enters	1755
distinguish	1755
Different	1755
Dan	1755
Check	1755
toilet	1754
ideological	1754
Luc@@	1754
Iron	1754
torque	1753
spirits	1753
shower	1753
lecture	1753
ible	1753
fer	1753
UR@@	1753
unlike	1752
uncle	1752
retro@@	1752
otic	1752
regulatory	1751
follow-up	1751
dial	1751
Tor@@	1751
Table	1751
Mu@@	1751
Cer@@	1751
mould	1750
uro@@	1749
daughters	1749
blend	1749
arity	1749
Much	1749
tionally	1748
receives	1748
execute	1748
supporters	1747
sliding	1747
pel	1747
ologically	1747
earliest	1747
acet@@	1746
Xiang@@	1746
systematically	1745
Inc.	1745
Defense	1745
wool	1744
mann	1744
forgotten	1744
toy	1743
apoptosis	1743
—the	1742
tal	1742
quoted	1742
protest	1742
ine-@@	1742
ING	1742
witness	1741
panic	1741
enhancing	1741
cli@@	1741
19th	1741
arrange	1740
addressed	1740
Chengdu	1740
wit@@	1739
variations	1739
light-@@	1739
sealed	1738
grounds	1738
Shanxi	1738
Arts	1738
190@@	1737
tism	1736
lob@@	1736
hollow	1736
cracks	1736
cigarette	1736
accessories	1736
Tom@@	1736
Kingdom	1736
vocabulary	1735
swing	1735
countermeasures	1735
antibody	1735
valves	1734
ule	1734
nor@@	1734
ML	1734
schema	1733
assay	1733
Board	1733
surprising	1732
ren	1732
pathological	1732
limitation	1732
fake	1732
Ly@@	1732
tanks	1731
，@@	1730
strings	1730
officially	1730
boot	1730
Following	1730
prec@@	1729
influential	1729
SH@@	1729
medicines	1728
inst@@	1728
blocking	1728
bands	1728
GB	1728
virtually	1727
ands	1727
Work	1727
swim	1726
paths	1726
Zi@@	1726
Star@@	1726
weekly	1725
reads	1725
coll@@	1725
tible	1724
shelf	1724
scattered	1724
phosphate	1723
tragedy	1722
gradient	1722
arrest	1722
unified	1721
tremendous	1721
pound	1721
ara	1721
SL@@	1721
lay@@	1720
describing	1720
counter-@@	1720
alling	1720
21st	1720
sym@@	1719
eager	1719
concentrations	1719
hosts	1718
creature	1718
builds	1717
pale	1716
ility	1716
configured	1716
boring	1716
PR	1716
vir@@	1715
key@@	1715
induce	1715
voters	1714
urged	1714
offset	1714
edly	1714
drunk	1714
meaningful	1713
editing	1713
commission	1713
guiding	1712
champion	1712
bes	1712
visits	1711
ura	1711
sion@@	1711
plas@@	1711
Traditional	1711
Al	1711
num@@	1710
lor@@	1710
illi@@	1710
chains	1710
regret	1709
ignore	1709
barely	1709
rit@@	1708
photography	1708
dog@@	1708
61	1708
well@@	1707
tac@@	1707
raises	1707
insects	1707
flights	1707
directional	1707
Syn@@	1707
87	1707
brains	1706
suppliers	1705
pot@@	1705
ome@@	1705
itis	1705
blocked	1705
1:@@	1705
volatile	1704
selective	1704
pointing	1704
mates	1703
flies	1703
charm	1703
atoms	1703
phy@@	1702
mon	1702
ecology	1702
adsorption	1701
Type	1701
terrorism	1700
tant	1700
sided	1700
handsome	1700
bunch	1700
ME	1700
prov@@	1699
ola	1699
enjoying	1699
capit@@	1699
prognosis	1698
pet@@	1698
vegetation	1697
neighbor	1697
nail	1697
versus	1696
relax	1696
patch	1696
commit	1696
May@@	1696
Index	1696
DP	1696
winding	1695
sincere	1695
sam@@	1695
modernization	1695
decreasing	1695
76	1695
substitute	1694
rep@@	1694
insul@@	1694
greenhouse	1694
clip	1694
Chairman	1694
CP	1694
resume	1693
dre@@	1693
boyfriend	1693
mak@@	1692
ice-@@	1692
Swiss	1692
straw	1690
ques	1690
indicator	1690
geometry	1690
hell	1689
chaos	1689
blowing	1689
Natural	1689
coc@@	1688
Spirit	1688
Computer	1688
nurse	1687
keen	1687
stre@@	1686
gang@@	1686
convergence	1686
broad@@	1686
bis@@	1686
fierce	1685
deep-@@	1685
cave	1685
Again	1685
rotor	1684
ate@@	1684
tactics	1683
sav@@	1683
pil@@	1683
ea	1683
citizen	1683
accomplish	1683
uk@@	1682
purity	1682
proposals	1682
ille	1682
IV	1682
suits	1681
potato	1681
ophy@@	1681
Jun@@	1681
quanti@@	1680
exc@@	1680
day@@	1680
ew	1679
desktop	1679
Market	1679
Experimental	1679
subtle	1678
membership	1678
fro@@	1678
Looking	1678
si	1677
originated	1677
71	1677
simplified	1676
bic@@	1676
photograph	1675
literally	1675
conc@@	1675
bold	1675
ok	1674
hire	1674
59	1674
sir	1673
oration	1673
mount	1673
emia	1673
electr@@	1673
disputes	1673
agu@@	1673
Dam@@	1673
substrate	1672
restrictions	1672
preserved	1672
new@@	1672
Yahoo	1671
eful	1670
climbed	1670
batteries	1670
Hey	1670
Elizabeth	1669
s.@@	1668
pad	1668
cast@@	1668
mad	1667
documentation	1667
charity	1667
ashing	1667
meanwhile	1666
generalized	1666
bes@@	1666
sessions	1665
crowded	1665
actress	1665
Moon	1665
23@@	1665
lovers	1664
Sto@@	1664
skilled	1663
legend	1663
gasoline	1663
united	1662
fried	1662
emergence	1662
ally-@@	1662
Team	1662
1992	1662
worm	1661
washed	1661
viral	1661
tax@@	1661
fixation	1661
discloses	1661
beating	1661
Cat@@	1661
obesity	1660
cel@@	1660
representatives	1659
keyboard	1659
controversial	1659
conditioning	1659
chol@@	1659
admit	1659
Civil	1659
Basin	1659
tit@@	1658
researching	1658
instances	1658
elementary	1658
Mongolia	1658
whis@@	1657
pray	1657
duties	1657
da@@	1657
BBC	1657
right-@@	1656
ped@@	1656
les@@	1656
1st	1656
sor	1655
sisters	1655
requested	1655
crossed	1655
ultrasound	1654
tan	1654
uri@@	1653
semantic	1653
overhead	1653
disadvantages	1653
cracking	1653
aves	1653
FE@@	1653
sustained	1652
stupid	1652
Wei@@	1652
sells	1649
lers	1648
Local	1648
stein	1647
scri@@	1647
objectives	1647
kings	1647
glut@@	1647
dem@@	1647
CPU	1647
workshop	1646
fires	1646
fathers	1646
ts@@	1645
minimal	1645
Gl@@	1645
92	1645
secretary	1644
responsibilities	1644
fast@@	1644
sequences	1643
respective	1643
centr@@	1643
Ric@@	1643
Navy	1643
H.	1643
78	1643
premium	1642
emulsion	1642
AL	1642
zy	1641
preserve	1641
possesses	1641
iding	1641
alongside	1641
pa	1640
lem@@	1640
Democrats	1640
infants	1639
fs	1639
eaten	1639
Fujian	1639
wages	1638
journalists	1638
avoided	1638
Yun@@	1638
SW@@	1638
translated	1637
tance	1637
striker	1637
hired	1637
economists	1637
determines	1637
Clo@@	1637
aesthetics	1635
Generally	1635
Digital	1635
g.	1634
collision	1634
Wa@@	1634
beds	1633
ature	1633
omy@@	1632
NO	1632
elder	1631
tablet	1630
investor	1630
inging	1630
indicating	1630
curing	1630
chem@@	1630
Jordan	1630
-free	1630
spell	1629
oils	1629
illustrates	1629
golf	1629
appointment	1629
Executive	1629
wr@@	1628
power@@	1628
main@@	1628
lip	1628
ared	1628
achieving	1628
tured	1627
porous	1627
holders	1627
emphasized	1627
dont	1626
cell@@	1626
Holy	1626
97	1626
ual	1625
NBA	1625
Der@@	1625
org@@	1624
fails	1624
definite	1624
class@@	1624
tap	1623
suff@@	1623
oun@@	1623
orthogonal	1623
explores	1623
grades	1622
firing	1622
anymore	1622
absorbed	1622
Show	1622
primitive	1621
helicopter	1621
IL@@	1621
designated	1620
aqu@@	1620
Sum@@	1620
METHODS	1620
Especially	1620
ven	1619
Gates	1619
woods	1617
WebSphere	1617
K-@@	1617
Berlin	1617
titles	1615
rhythm	1615
oli@@	1615
ive	1615
eternal	1615
ows	1613
letting	1613
extending	1613
auction	1613
pling	1612
persistent	1612
inform@@	1612
id-@@	1612
fitted	1612
Nobel	1612
somehow	1611
neutr@@	1611
impacts	1611
deposition	1611
cross@@	1611
cache	1611
encountered	1610
agreements	1610
15-@@	1610
infinite	1609
cin@@	1609
Sweden	1609
Post	1609
1,000	1609
wounded	1608
rolls	1608
ranked	1608
fame	1608
dual-@@	1608
ache	1608
Sciences	1608
sixth	1607
ei	1607
apping	1607
actu@@	1607
NC	1607
CO	1607
1993	1607
refined	1606
stop@@	1605
reactive	1605
crying	1605
chron@@	1605
Hui	1605
70@@	1605
pharmaceutical	1604
idal	1604
assignment	1604
illustrated	1603
evident	1603
dirt	1603
cm	1603
males	1602
fantastic	1602
dependence	1602
bi	1602
rist@@	1601
globalization	1601
coatings	1600
Tony	1600
Photo@@	1600
temporal	1598
sey	1598
hardness	1598
acquire	1598
remind	1597
pumping	1597
Analy@@	1597
tar	1596
pepper	1596
graft	1596
compliance	1596
82	1596
Earlier	1595
small-@@	1594
interviews	1594
pain@@	1593
ket	1593
aut@@	1593
amplitude	1593
Systems	1593
Nothing	1593
pit@@	1592
metres	1592
folder	1592
dol@@	1592
chromatography	1592
assumed	1592
retrospectively	1591
oming	1591
mankind	1591
Village	1591
wars	1590
races	1590
purchasing	1590
modest	1590
maturity	1590
consistency	1590
Sar@@	1590
Nowadays	1590
Alex	1590
spin	1589
insisted	1589
harmonic	1589
aks	1589
accelerate	1589
Aim	1589
symbols	1588
shade	1588
recommendations	1588
nucleus	1588
databases	1588
Tao	1588
thro@@	1587
pop@@	1587
updates	1586
responded	1586
plating	1586
investigating	1586
immunity	1586
aded	1586
acupuncture	1586
IO@@	1586
HR@@	1586
Ca@@	1586
93	1586
ranking	1585
planets	1585
municipal	1585
fus@@	1585
barriers	1585
nasal	1584
expertise	1584
compatible	1584
automated	1584
On@@	1584
relating	1583
pays	1583
females	1583
alert	1583
Madrid	1583
H-@@	1583
AA	1583
jacket	1582
grow@@	1582
CO2	1582
pore	1581
clin@@	1581
brave	1581
3,@@	1581
occasionally	1580
enhancement	1580
ached	1580
absorb	1580
wax	1579
side-@@	1579
ometric	1579
hook	1579
globe	1579
scoring	1578
ough	1578
invite	1578
gauge	1578
exhaust	1578
bio-@@	1578
Taliban	1578
summarizes	1577
sof@@	1577
contrary	1577
nie	1576
nu@@	1575
commerce	1575
warehouse	1574
kn@@	1574
confused	1574
hence	1573
gross	1573
diver@@	1572
nutrients	1571
diabetic	1571
cent@@	1571
U-@@	1571
90@@	1571
talented	1570
summarize	1570
strengthened	1570
affair	1570
1980s	1570
sweat	1569
sink	1569
op	1568
imposed	1568
hist@@	1568
discount	1568
ond@@	1567
aka	1567
Cs	1567
shareholders	1566
Liang	1566
Hydro@@	1566
Conference	1566
shortly	1565
pick@@	1565
Six	1565
xia	1564
providers	1564
Wat@@	1564
pag@@	1563
ogram	1563
ate-@@	1563
hiding	1562
fled	1562
catalytic	1562
Twitter	1562
PV@@	1562
MP	1562
Jewish	1562
Create	1562
CT@@	1562
B.	1562
Andrew	1562
law@@	1561
Fund	1561
homework	1560
fications	1560
reportedly	1559
relay	1559
quantities	1559
nal	1559
dramatically	1559
dining	1559
Under@@	1559
Plan	1559
tual	1558
handled	1558
directors	1558
Award	1558
vari@@	1557
realizing	1557
naked	1557
wage	1556
shi	1556
radius	1556
profession	1556
kil@@	1556
exp@@	1556
contacts	1556
Hen@@	1556
traction	1555
tionary	1555
sharply	1555
hui	1555
Tran@@	1555
Sem@@	1555
Malaysia	1555
74	1555
edit	1554
cum@@	1554
commander	1554
Republicans	1554
Enterprise	1554
wn	1553
continent	1553
Iraqi	1553
vic@@	1552
tightly	1552
chers	1552
assisted	1552
verification	1551
pets	1551
Soon	1551
Often	1551
sia	1550
radial	1550
flooding	1550
resonance	1549
randomly	1549
icing	1549
fighter	1549
beliefs	1549
third-@@	1548
subjective	1548
graph@@	1548
ecosystem	1548
pork	1547
IM	1547
deviation	1546
acks	1546
Speci@@	1546
SI	1546
web@@	1545
threads	1545
slo@@	1545
fabrics	1545
entation	1545
compiled	1545
clever	1545
adoption	1545
tel@@	1544
sou@@	1544
fluor@@	1544
Sm@@	1544
Rem@@	1544
twenty-@@	1543
tos@@	1543
rainfall	1543
geographical	1543
dispersion	1543
diff@@	1543
tap@@	1542
odi@@	1542
gon@@	1542
empirical	1542
distortion	1542
Bul@@	1542
prayer	1541
isation	1541
ave	1541
inheritance	1540
households	1540
gas@@	1540
backup	1540
ander	1540
transmitted	1539
regulate	1539
colon@@	1539
aya	1539
aster	1539
slice	1538
laying	1538
adapted	1538
lean	1537
fare	1537
ensuring	1537
breed	1537
affection	1537
Hand@@	1537
Everything	1537
sely	1536
ington	1536
77	1536
-time	1536
transient	1535
configure	1535
tation	1534
reservoirs	1534
draws	1534
disposal	1534
chemotherapy	1534
Electric	1534
inhibition	1533
implications	1533
gn@@	1533
cultivated	1533
anti	1533
94	1533
typing	1532
serv@@	1532
reception	1532
gardens	1532
breeze	1532
altitude	1532
HD@@	1532
sh	1531
optic	1531
infarction	1531
celebration	1531
Cla@@	1531
Bol@@	1531
the-@@	1530
smiling	1530
partially	1530
heat-@@	1530
decomposition	1530
Class	1530
Chris	1530
state-@@	1529
outlet	1529
LA	1529
Ga@@	1529
refer@@	1528
packet	1528
mono@@	1528
icul@@	1528
debris	1528
Vir@@	1528
PCR	1528
Nevertheless	1528
protests	1527
prone	1527
outcomes	1527
nurses	1527
modern@@	1527
meanings	1527
Stone	1527
MM@@	1527
morph@@	1526
Ther@@	1526
texts	1525
struc@@	1525
explosive	1525
cru@@	1525
Vice	1525
Lady	1525
waist	1524
scholar	1524
realm	1524
ort	1524
marking	1524
cri@@	1524
band@@	1524
assembled	1524
Fang	1524
199@@	1524
zation	1523
scheduling	1523
red-@@	1523
indicators	1523
duct	1523
distr@@	1523
boots	1523
Software	1523
Moses	1523
streams	1522
horizon	1522
Multi-@@	1522
posterior	1521
banned	1521
asses	1521
SE	1521
Has	1521
83	1521
waited	1520
purification	1520
nationality	1520
infant	1520
cot@@	1520
competitors	1520
spectral	1519
shelter	1519
interact	1519
ective	1519
duck	1519
confusion	1519
boiling	1519
astro@@	1519
arg@@	1519
Shan	1519
84	1519
unprecedented	1518
servants	1518
ever-@@	1518
ensures	1518
dropping	1518
built-in	1518
Field	1518
1991	1518
year-old	1517
tz	1516
equality	1516
setup	1515
SC	1515
Georgia	1515
ution	1514
reflecting	1514
ero@@	1514
Total	1514
survived	1513
resident	1513
indirect	1513
crystals	1513
xes	1512
parks	1512
missions	1512
lav@@	1512
epidemic	1512
discrete	1512
chapters	1512
Van	1512
Louis	1512
Hebei	1512
placement	1511
keeper	1511
hen@@	1511
e.@@	1511
Py@@	1511
wed	1510
trauma	1510
regulated	1510
foreigners	1510
encouraging	1510
counting	1510
Tar@@	1510
Sec@@	1510
purchased	1509
operates	1509
locate	1509
jar	1509
icated	1509
pants	1508
cooperate	1508
ari	1508
hath	1507
smiled	1506
nets	1506
differently	1506
carbonate	1506
Prize	1506
Lincoln	1506
Limited	1506
BR@@	1506
raft	1505
incredible	1505
distinguished	1505
PT@@	1505
Che@@	1505
suggesting	1504
grant	1504
dairy	1504
courts	1504
cope	1504
Large	1504
screens	1503
nel	1503
defining	1503
carriers	1503
apps	1503
#	1503
speaks	1502
popul@@	1502
pigment	1502
pho@@	1502
ope	1502
mur@@	1502
lawyers	1502
ken	1502
identifying	1502
collapsed	1502
Sam	1501
suited	1500
consist	1500
bore	1500
inferior	1499
bare	1499
Philippines	1499
specialty	1498
speci@@	1498
hometown	1498
dge	1498
bronze	1498
HD	1498
sperm	1497
mutation	1497
guaranteed	1497
cow	1497
refuse	1496
organizational	1496
suc@@	1495
derivatives	1495
dered	1495
CM	1495
Bat@@	1495
utes	1494
upset	1494
Sure	1494
volcanic	1493
quarters	1493
oxy@@	1493
observations	1493
det@@	1493
containers	1493
Santa	1493
Off@@	1493
optim@@	1492
Mobile	1492
welcomed	1491
trapped	1491
mos@@	1491
grammar	1491
emerge	1491
thirty	1490
thin@@	1490
recipe	1490
acceleration	1490
Switzerland	1490
Sino-@@	1490
AF	1490
house@@	1489
ge-@@	1489
calibration	1489
Qi	1489
priest	1488
freezing	1488
woven	1487
severely	1487
ound	1487
insect	1487
consisting	1487
Anti@@	1487
Afghan	1487
user-@@	1486
sulfur	1486
inten@@	1486
interfer@@	1485
di	1485
additive	1485
acti@@	1485
viewpoint	1484
routes	1484
palm	1484
73	1484
retirement	1483
ales	1483
Scotland	1483
Family	1483
300@@	1483
whit@@	1482
outbreak	1482
avoiding	1482
accounted	1482
spectra	1481
engagement	1481
cholesterol	1481
agenda	1481
Suddenly	1481
Him	1481
Guangxi	1481
'The	1481
racing	1480
impl@@	1480
failures	1480
appliances	1480
Open@@	1480
ration	1479
Barcelona	1479
tuberculosis	1478
impressed	1478
council	1478
Bab@@	1478
symptom	1477
ress	1477
pond	1477
grams	1477
corporations	1477
attempted	1477
Product	1477
Empire	1477
rin@@	1476
LC	1476
Factory	1476
69	1476
utilized	1475
tiles	1475
rally	1475
farms	1475
far@@	1475
broader	1475
disasters	1474
certification	1474
EL@@	1474
BE@@	1474
surplus	1473
lic@@	1473
landed	1473
discrimination	1473
blasting	1473
BM@@	1472
speakers	1471
jun@@	1471
hitting	1471
hex@@	1471
fraud	1471
exceed	1471
encing	1471
valu@@	1470
perceived	1470
optimistic	1470
ision	1470
inform	1470
disturbance	1470
cultured	1470
cage	1470
throwing	1469
rob@@	1469
jec@@	1469
clusters	1469
bandwidth	1469
Tower	1469
NT	1469
preservation	1468
praised	1468
villagers	1467
uph@@	1467
profiles	1467
prescription	1467
metric	1467
asthma	1467
alliance	1467
PLC	1467
suppose	1466
performs	1466
bicycle	1466
Chemical	1466
AI	1466
edi@@	1465
yours	1464
failing	1464
enjoys	1464
Ful@@	1464
pap@@	1463
man-@@	1463
curtain	1463
tural	1462
ishan	1462
awards	1462
81	1462
stimulation	1461
sne@@	1461
cured	1461
ager	1461
Hal@@	1461
rabbits	1460
fe	1460
employers	1460
St	1460
AO@@	1460
snake	1459
itch	1459
genuine	1459
author@@	1459
akers	1459
J.	1459
Guang@@	1459
kg	1458
deadly	1458
Age	1458
tioned	1457
pumps	1457
angel	1457
R.	1457
Port	1457
plastics	1456
influenza	1456
regulating	1455
prot@@	1455
ae@@	1455
methyl	1454
fluorescence	1454
atom	1454
Islamic	1454
Hua	1454
voc@@	1453
viewers	1453
terrorist	1453
insight	1453
fragrance	1453
Summer	1453
Comp@@	1452
pass@@	1451
generous	1451
TCM	1451
NATO	1451
GM@@	1451
FS	1451
Dad	1451
Commerce	1451
tra	1450
garbage	1450
79	1450
sticks	1449
entitled	1449
Net@@	1449
investing	1448
ida	1448
green@@	1448
ecting	1448
consume	1448
ink@@	1447
infl@@	1447
hypothesis	1447
heart@@	1447
closure	1447
cited	1447
allies	1447
progressive	1446
consulting	1446
arise	1446
underwater	1445
periodic	1445
fores@@	1445
aster@@	1445
Mis@@	1445
Cold	1445
lightning	1444
jie	1444
atmospheric	1444
Den@@	1444
projection	1443
phosphorus	1443
paragraph	1443
ministers	1443
listing	1443
exten@@	1443
PD	1442
Between	1442
xin	1441
nation@@	1441
commun@@	1441
bac@@	1441
Section	1441
SP	1441
syntax	1440
relaxed	1440
rays	1440
eman	1440
cardi@@	1440
89	1440
innocent	1439
highlight	1439
ez	1439
Top	1439
volumes	1438
s…	1438
scattering	1438
episode	1438
disappear	1438
Happy	1438
ticul@@	1437
rehabilitation	1437
oven	1437
iro	1437
independently	1437
fang	1437
Yesterday	1437
Rol@@	1437
shu@@	1436
reasoning	1436
coil	1436
Mine	1436
Black@@	1436
wines	1435
steering	1435
repository	1435
downtown	1435
Guo	1435
theater	1434
patience	1434
medication	1434
chro@@	1434
approached	1434
Ken@@	1434
But@@	1434
35@@	1434
phot@@	1433
longest	1433
humidity	1433
formulas	1433
boundaries	1432
Mountains	1432
jun	1431
irrit@@	1431
Green@@	1431
Brazilian	1431
quar@@	1430
viewing	1429
stiffness	1429
sac@@	1429
magnesium	1429
humor	1429
ancestors	1429
Normal	1429
Dong	1429
transit	1428
s'@@	1428
risen	1428
piles	1428
lik@@	1428
infectious	1428
Okay	1428
Ds	1428
Ara@@	1428
itable	1427
hot-@@	1427
contrac@@	1427
thrust	1426
sulf@@	1426
marrow	1426
linking	1426
sewage	1425
etic	1425
amin@@	1425
3-D	1425
worries	1424
remarks	1424
escaped	1424
demanding	1424
PP@@	1424
Fan	1424
cir@@	1423
bladder	1423
91	1423
11.@@	1423
intestinal	1422
header	1422
Shen	1422
taxi	1421
specimens	1421
renowned	1421
los@@	1421
W.	1421
votes	1420
pursuing	1420
poetic	1420
iss@@	1420
Toyota	1420
Rather	1420
Learning	1420
stresses	1419
oo	1419
legacy	1419
differ	1419
aked	1419
Stephen	1419
MD@@	1419
Almost	1419
seller	1418
cool@@	1418
Zone	1418
Out	1418
1980	1418
expounds	1417
advised	1417
AE@@	1417
wives	1416
opponent	1416
masters	1416
grand@@	1416
jia	1415
hong	1415
coefficients	1415
wavelength	1414
permit	1414
microstructure	1414
wins	1413
wid@@	1413
stimulate	1413
rivals	1413
prince	1413
possession	1413
fur	1413
exhibit	1413
Spec@@	1413
ves@@	1412
secre@@	1412
mas	1412
magazines	1412
hydr@@	1412
gas-@@	1412
excuse	1412
economics	1412
THE	1412
Dor@@	1412
yers	1411
retain	1411
organizing	1411
formulation	1411
focal	1411
Chu@@	1411
tus	1410
missiles	1410
ots	1409
noble	1409
medal	1409
connotation	1409
FO@@	1409
CE	1409
vent	1408
spor@@	1408
atin	1408
Change	1408
slave	1407
indication	1407
in-depth	1407
grab	1407
governing	1407
defeated	1407
auxiliary	1407
Pul@@	1407
Far@@	1407
Edward	1407
transformer	1406
fancy	1406
caus@@	1406
RMB	1406
DI	1406
ston	1405
hearted	1405
anybody	1405
Islands	1405
under-@@	1404
strikes	1404
involvement	1404
illustrate	1404
human-@@	1404
bias	1404
Gao	1404
igning	1403
alg@@	1403
Tell	1403
restoration	1402
queen	1402
gen	1402
arc@@	1402
anny	1402
Jing	1402
Hence	1402
neg@@	1401
celebrated	1401
xed	1400
mess	1400
traveled	1399
tectonic	1399
mighty	1399
dosage	1399
Ten@@	1399
Poor	1399
voices	1398
regeneration	1398
hits	1398
aled	1398
abundance	1398
Wel@@	1398
Thai	1398
underwent	1397
rotary	1397
extracting	1397
exterior	1397
ele	1397
eds	1397
anchor	1397
Chinese-@@	1397
rer	1396
magnificent	1396
fle@@	1396
eliminated	1396
consumed	1396
awa	1396
Process	1396
Egyptian	1396
Cheng@@	1396
Argentina	1396
tex@@	1395
rum@@	1395
programmes	1395
parliament	1395
tournament	1394
similarity	1394
judges	1394
filtration	1394
depressed	1394
bonding	1394
out-of-@@	1393
na@@	1393
flex@@	1393
eing	1393
compressor	1393
Zhu@@	1393
was@@	1392
scenic	1392
occurring	1392
bie	1392
belonging	1392
App@@	1392
pt	1391
lipid	1391
hosted	1391
accumulated	1391
Youth	1391
Fire	1391
kle	1390
institute	1390
fog	1390
autom@@	1390
stolen	1389
shifting	1389
segments	1389
fibre	1389
div@@	1389
antibiotics	1389
Pet@@	1389
Division	1389
tain@@	1388
sion-@@	1388
placing	1388
ori	1388
laughed	1388
inherent	1388
calculations	1388
backward	1388
architect	1388
lith@@	1387
ank	1387
speeds	1386
smoothly	1386
molding	1386
linguistic	1386
conclude	1386
breakthrough	1386
wood@@	1385
prosperous	1385
predic@@	1385
float	1385
consensus	1385
zhi	1384
hop@@	1384
Aqu@@	1384
=@@	1384
volunteer	1383
purchases	1383
proc@@	1383
opol@@	1383
favourite	1383
entrepreneurs	1383
appetite	1383
aden@@	1383
Organ@@	1383
Jian@@	1383
soap	1382
oh	1382
nings	1382
multimedia	1382
hammer	1382
distinction	1382
nowadays	1381
harmon@@	1381
fru@@	1381
road@@	1380
fits	1380
cardiovascular	1380
amplifier	1380
Library	1380
sequ@@	1379
releases	1379
postoperative	1379
nam@@	1379
cab@@	1379
tensile	1378
q	1378
organisms	1378
grateful	1378
dialect	1378
civilian	1378
themes	1377
mud@@	1377
anda	1377
decorated	1376
acking	1376
steal	1375
integrating	1375
dental	1375
M-@@	1375
Jia	1375
publicly	1374
fulfill	1374
commodities	1374
calligraphy	1374
borrow	1374
Place	1374
tags	1373
quake	1373
extends	1373
Media	1373
sig@@	1372
funeral	1372
fastest	1372
competing	1372
Zhi@@	1372
residue	1371
enzymes	1371
jewelry	1370
draw@@	1370
constitute	1370
claiming	1370
b-@@	1370
Ol@@	1370
HA	1370
Flo@@	1370
Bao@@	1370
30-@@	1370
traditions	1369
publish	1369
peptide	1369
inhibit	1369
fatal	1369
contamination	1369
twin	1368
spac@@	1368
put@@	1368
generic	1368
debut	1368
blessing	1368
Pin@@	1368
Mic@@	1368
Chi	1368
succeeded	1367
slag	1367
quasi-@@	1367
departure	1367
bull@@	1367
Watch	1367
RESULTS	1367
Mom	1367
Me	1367
3rd	1367
wat@@	1366
synchronous	1366
happily	1366
aluminium	1366
Jews	1366
Coun@@	1366
trucks	1365
shine	1365
glob@@	1365
agrees	1365
utilizing	1364
tains	1364
steep	1364
shaking	1364
outline	1364
lakes	1364
definitions	1364
defensive	1364
Sports	1364
Palestinian	1364
Affairs	1364
vable	1363
unclear	1363
revised	1363
nut	1363
invasive	1363
imperial	1363
fibro@@	1363
asts	1363
touching	1362
steadily	1362
soils	1362
participated	1362
generates	1362
damages	1362
automotive	1362
Hubei	1362
considers	1361
assessed	1361
Similarly	1361
seized	1360
dyeing	1360
beaten	1360
tl@@	1359
protesters	1359
monopoly	1359
dor@@	1359
dig	1359
Zhang@@	1359
Juventus	1359
temporarily	1358
loo@@	1358
Fil@@	1358
system@@	1357
joke	1357
hunger	1357
alike	1357
reserved	1356
high-end	1356
hes@@	1356
gging	1356
ald	1356
ailing	1356
Dr@@	1356
voted	1355
pour	1355
orous	1355
expecting	1355
Whatever	1355
Senator	1355
'an	1355
udes	1354
stairs	1354
districts	1354
avi@@	1354
adventure	1354
adhesion	1354
Region	1354
holidays	1353
bend	1353
Environmental	1353
graduation	1352
billions	1352
Red@@	1352
Morgan	1352
Code	1352
stic@@	1351
plac@@	1351
mir@@	1351
K.	1351
inverse	1350
cough	1350
Kal@@	1350
minded	1349
maize	1349
kind@@	1349
hemorrhage	1349
Goldman	1349
4th	1349
sex@@	1348
peaks	1348
malaria	1348
cyclo@@	1348
buttons	1348
Low	1348
wires	1346
wan@@	1346
vivid	1346
recycling	1346
optional	1346
ight@@	1346
borders	1346
accordingly	1346
Point	1346
Bec@@	1346
vitality	1345
variance	1345
uncertain	1345
ticism	1345
react	1345
kets	1345
arians	1345
Cop@@	1345
zh@@	1344
penetration	1344
ocy@@	1344
minus	1344
buff@@	1344
Unit	1344
Pearl	1344
Dol@@	1344
porcelain	1343
full-time	1343
erous	1343
bay	1343
angu@@	1343
Sand@@	1343
wards	1342
twelve	1342
trusted	1342
symbol@@	1342
instantly	1342
grandfather	1342
fel@@	1342
astic	1342
anxious	1342
GR@@	1342
soy	1341
sentiment	1341
nickel	1341
arrow	1341
turing	1340
tel	1340
seasonal	1340
mounting	1340
isn	1340
eled	1340
cros@@	1340
Scott	1340
Read	1340
wil@@	1339
terrain	1339
aying	1339
You@@	1339
Rose	1339
physically	1338
itter	1338
floors	1338
requiring	1337
ity@@	1337
fiers	1337
dated	1337
bug	1337
sphere	1336
methyl@@	1336
kins	1336
fighters	1336
Lim@@	1336
HK	1336
AG@@	1336
stadium	1335
scenarios	1335
proto@@	1335
fertility	1335
determin@@	1335
makeup	1334
locks	1334
ligh@@	1334
laughter	1334
hierarchy	1334
geometric	1334
forecasting	1334
desperate	1334
cables	1334
airline	1334
vy	1333
ider	1333
bec@@	1333
Qingdao	1333
psycho@@	1332
elec@@	1332
continental	1332
VA	1332
CAD	1332
que@@	1331
pathy	1331
olig@@	1331
dar@@	1331
cultivate	1331
counts	1331
beloved	1331
Supreme	1331
Fun@@	1331
Cross	1331
ounds	1330
oes	1330
horn	1330
flav@@	1330
balancing	1330
Iranian	1330
Hun@@	1330
High@@	1330
GIS	1330
-in	1330
swelling	1329
polymerization	1329
explicit	1329
attraction	1329
attach	1329
aiming	1329
Men@@	1329
sacred	1328
embrace	1328
ado	1328
traded	1327
lane	1327
iter@@	1327
igg@@	1327
data-@@	1327
assure	1327
alle@@	1327
Ye@@	1327
Tea	1327
Chan	1327
Anhui	1327
spotted	1326
shocked	1326
inflammatory	1326
fossil	1326
benign	1326
alignment	1326
Irish	1326
tsunami	1325
titanium	1325
respected	1325
prevalence	1325
enced	1325
Dow	1325
triggered	1324
stopping	1324
lum@@	1324
limiting	1324
kindness	1324
entries	1324
drain	1324
Tim	1324
Multi@@	1324
onia	1323
vers@@	1322
urs	1322
omes	1322
killer	1322
gland	1322
fla@@	1322
blown	1322
bir@@	1322
scales	1321
memor@@	1321
complaints	1321
alised	1321
Works	1321
NG	1321
igu@@	1320
discourse	1320
ails	1320
Du	1320
Doppler	1320
gentleman	1319
extensively	1319
embryo	1319
ections	1319
crystalline	1319
compressed	1319
complain	1319
belly	1319
Taipei	1319
Catholic	1319
swept	1318
qualification	1318
Song@@	1318
vac@@	1317
prisoners	1317
nutritional	1317
multi	1317
shells	1316
sang	1316
liqu@@	1316
handful	1316
drug-@@	1316
Peace	1316
kit	1315
eted	1315
bow@@	1315
asphalt	1315
Tam@@	1315
meantime	1314
lime	1314
compares	1314
Chu	1314
uranium	1313
per-@@	1313
lip@@	1313
legitimate	1313
icate	1313
groundwater	1313
fixing	1313
equi@@	1313
ceramics	1313
Tai	1313
nutrient	1312
tops	1311
tery	1311
retrieval	1311
laughing	1311
jum@@	1311
jail	1311
iner	1311
Med@@	1311
Ling	1311
Es@@	1311
philosophical	1310
mediation	1310
mayor	1310
foot@@	1310
dye	1310
cone	1310
berries	1310
aunt	1310
Android	1310
liner	1309
galaxy	1309
Too	1309
HTTP	1309
Fo@@	1309
—a	1307
spacecraft	1307
simplicity	1307
asser@@	1307
Haw@@	1307
insert	1306
attacking	1306
secrets	1305
pressures	1305
thes@@	1304
surveyed	1304
specialist	1304
logo	1304
deduc@@	1304
Finance	1304
sludge	1303
promotes	1303
iously	1303
attachment	1303
arbitrary	1303
Stock	1303
supplement	1302
ski@@	1302
invisible	1302
console	1302
biomass	1302
N.	1302
transm@@	1301
obstacles	1301
educ@@	1301
altogether	1301
advertisement	1301
Saudi	1301
Direc@@	1301
tic-@@	1300
te-@@	1300
provision	1300
occupation	1300
new-@@	1300
exam@@	1300
employer	1300
carved	1300
attending	1300
Carolina	1300
Cao	1300
tended	1299
disabled	1299
Netherlands	1299
ph	1298
invitation	1298
corners	1298
approaching	1298
Forest	1298
stretched	1297
leak	1297
knees	1297
excitement	1297
clam@@	1297
Coast	1297
AG	1297
turn@@	1296
longitudinal	1296
genus	1296
De	1296
poured	1295
cutter	1295
attitudes	1295
Forum	1295
Death	1295
trunk	1294
sal	1294
je@@	1294
ball@@	1294
annually	1294
Hum@@	1294
Bos@@	1294
som@@	1293
reasonably	1293
opathy	1293
fleet	1293
bian	1293
Start	1293
Rio	1293
Inner	1293
semiconductor	1292
photographer	1292
martial	1292
lotus	1292
countless	1292
PI	1292
aviation	1291
adaptation	1291
URL	1291
Sy@@	1291
Gran@@	1291
Base	1291
Additionally	1291
tail@@	1290
replacing	1290
pollen	1290
pillar	1290
offs	1290
initiated	1290
futures	1290
ector	1290
declaration	1290
compositions	1290
Ret@@	1290
Bun@@	1290
slot	1289
shy	1289
robots	1289
polarization	1289
winners	1288
upward	1288
traders	1288
milling	1288
knocked	1288
hil@@	1288
fool	1288
Dem@@	1288
shame	1287
Steven	1287
stock@@	1286
poisoning	1286
perfection	1286
eph@@	1286
crane	1286
2015	1286
quote	1285
pig@@	1285
overnight	1285
midfielder	1285
medicinal	1285
inorganic	1285
grandmother	1285
ghost	1285
chairs	1285
cep@@	1285
Name	1285
Columbia	1285
stamp	1284
sibility	1284
scared	1284
possibilities	1284
glue	1284
s/@@	1283
remarkably	1283
physi@@	1283
emphasizes	1283
ambitious	1283
yeast	1282
pel@@	1282
minimize	1282
jin	1282
home-@@	1282
deer	1282
Ping@@	1282
non-linear	1281
marker	1281
lacking	1281
free@@	1281
dom	1281
Sydney	1281
Find	1281
shining	1280
posi@@	1280
highlights	1280
fic	1280
ems	1280
comparable	1280
validation	1279
subjected	1279
su	1279
priced	1279
fec@@	1279
fast-@@	1279
cute	1279
vapor	1278
ron@@	1278
inquiry	1278
der-@@	1278
dealt	1278
arthritis	1278
Whenever	1278
Policy	1278
McCain	1278
Employ@@	1278
that@@	1277
pathway	1277
participating	1277
materi@@	1277
distribute	1277
delete	1277
cups	1277
comedy	1277
Rob@@	1277
deploy	1276
bum@@	1276
metadata	1275
preference	1274
oda	1274
lun@@	1274
seemingly	1273
harsh	1273
disappointed	1273
Community	1273
ulate	1272
higher-@@	1272
expressing	1272
documented	1272
Ash@@	1272
theorem	1271
subway	1271
rhiz@@	1271
hat@@	1271
destructive	1271
Was	1271
Ka@@	1271
wa	1270
trail	1270
Ul@@	1270
tial	1269
short@@	1269
poison	1269
induc@@	1269
appearing	1269
IF	1269
Fab@@	1269
DV@@	1269
ling@@	1268
instability	1268
haven	1268
curious	1268
candy	1268
Southeast	1268
Son	1268
Safety	1268
warmth	1267
ship@@	1267
regards	1267
qualitative	1267
phon@@	1267
evolutionary	1267
enz@@	1267
emphasize	1267
wolf	1266
ripe	1266
releasing	1266
lively	1266
ix	1266
illing	1266
electrons	1266
closest	1266
authorized	1266
Prov@@	1266
irregular	1265
ef	1265
Suzhou	1265
Stre@@	1265
wide-@@	1264
sincerely	1264
prompt	1264
loyalty	1264
heroes	1264
eption	1264
copyright	1264
charming	1264
abol@@	1264
Oxford	1264
retention	1263
questioned	1263
curved	1263
Machine	1263
1989	1263
tai	1262
produc@@	1262
pavement	1262
aggregate	1262
Vis@@	1262
xian	1261
visa	1261
vaccines	1261
thorough	1261
consistently	1261
Usually	1261
RNA	1261
shipped	1260
liberal	1260
geo@@	1260
euros	1260
eliminating	1260
Lab@@	1260
xiang	1259
speculation	1259
markers	1259
jumping	1259
Wan@@	1259
Consider	1259
Christians	1259
upcoming	1258
sap@@	1258
for-@@	1258
acknowledged	1258
Andy	1258
voting	1257
trips	1257
tious	1257
tastes	1257
spectacular	1257
shipment	1257
romance	1257
relieve	1257
lumbar	1257
injected	1257
devil	1257
Making	1257
tility	1256
ologies	1256
lunar	1256
lamps	1256
encoding	1256
contaminated	1256
additives	1256
Confucianism	1256
vendors	1255
tomato	1255
stry	1255
extracts	1255
dot	1255
Otherwise	1255
Corp.	1255
shuttle	1254
cred@@	1254
bolt	1254
Major	1254
sle@@	1253
po	1253
insist	1253
saturated	1252
formats	1252
arti@@	1252
Xing@@	1252
Mol@@	1252
Kir@@	1252
swim@@	1251
situated	1251
nia	1251
lec@@	1251
expectation	1251
escence	1251
eding	1251
aker	1251
Dalian	1251
theoretically	1250
maintains	1250
carbon@@	1250
Simon	1250
Equ@@	1250
ER	1250
scor@@	1249
referring	1249
cow@@	1249
Wenger	1249
Ling@@	1249
insists	1248
ailed	1248
ML@@	1248
tou@@	1247
sep@@	1247
repairing	1247
jointly	1247
incentive	1247
forgive	1247
deduced	1247
tent	1246
slipped	1246
side@@	1246
nano@@	1246
maxim@@	1246
laptop	1246
inclined	1246
fting	1246
cortex	1246
chinese	1246
carpet	1246
alled	1246
sar@@	1245
mist@@	1245
listened	1245
effec@@	1245
eable	1245
competence	1245
suite	1244
nucle@@	1244
nano-@@	1244
mini-@@	1244
gul@@	1244
doctrine	1244
VE@@	1244
GO@@	1244
rey	1243
nic@@	1243
earing	1243
LCD	1243
toll	1242
queries	1242
folded	1242
employ	1242
elevation	1242
UI	1242
Tian	1242
Hope	1242
restriction	1241
entities	1241
composites	1241
clearance	1241
call@@	1241
bureau	1241
absorbing	1241
Sher@@	1241
Ker@@	1241
switched	1240
sures	1240
iteration	1240
hydrocarbon	1240
compromise	1240
colleague	1240
coalition	1240
Kat@@	1240
orbital	1239
nails	1239
lag	1239
behave	1239
Win@@	1239
Electronic	1239
probes	1238
onset	1238
midnight	1238
inherited	1238
bride	1238
bankruptcy	1238
Key	1238
urge	1237
tness	1237
reproductive	1237
mill@@	1237
geography	1237
ete	1237
aching	1237
Shu	1237
Recent	1237
CV@@	1237
4,@@	1237
tab	1236
lighter	1236
exquisite	1236
empire	1236
Sorry	1236
lic	1235
enabling	1235
color@@	1235
assumption	1235
antigen	1235
alkali	1235
Report	1235
unstable	1234
public@@	1234
phil@@	1234
fragile	1234
eous	1234
elevated	1234
Susan	1234
SEM	1234
Ping	1234
Peking	1234
GE	1234
weighted	1233
ref@@	1233
protocols	1233
asting	1233
FR@@	1233
unnecessary	1232
umes	1232
springs	1232
orth@@	1232
crum@@	1232
colours	1232
carriage	1232
Step	1232
Delta	1232
tory	1231
rant	1231
potent	1231
iller	1231
anna	1231
rendering	1230
offshore	1230
observ@@	1230
ingu@@	1230
cooled	1230
HK@@	1230
way@@	1229
sponsored	1229
merits	1229
folks	1229
Marine	1229
Christ@@	1229
positively	1228
offensive	1228
gum	1228
ected	1228
Mongolian	1228
lord	1227
brow@@	1227
Sarah	1227
Mos@@	1227
Cambridge	1227
Adam	1227
ounce	1226
motivated	1226
launching	1226
fifty	1226
utilize	1225
troubled	1225
ound@@	1225
forcing	1225
Shar@@	1225
HS	1225
Blood	1225
spo@@	1224
hunt	1224
herbs	1224
ere@@	1224
ects	1224
delivering	1224
declare	1224
cy	1224
appl@@	1224
weigh	1223
relate	1223
drift	1223
consequence	1223
burg	1223
agging	1223
Log@@	1223
practicing	1222
noodles	1222
fet@@	1222
est-@@	1222
elevator	1222
elaborate	1222
dys@@	1222
convention	1222
Support	1222
Film	1222
troubles	1221
gram	1221
garlic	1221
facies	1221
consultation	1221
Ancient	1221
ull	1220
government-@@	1220
gates	1220
Notice	1220
MB	1220
Fa@@	1220
ye@@	1219
surprisingly	1219
large-@@	1219
hazard	1219
Heart	1219
Ak@@	1219
slower	1218
eller	1218
reuse	1217
ho	1217
DB	1217
pools	1216
lightly	1216
Ask	1216
Ah	1216
-off	1216
readily	1215
profitable	1215
ladies	1215
featuring	1215
consisted	1215
Bai	1215
terror	1214
oak	1214
loyal	1214
high@@	1214
doubled	1214
colony	1214
cakes	1214
bee	1214
Ur@@	1214
revenues	1213
relaxation	1213
ree	1213
potatoes	1213
functioning	1213
Arctic	1213
sail	1212
iser	1212
direc@@	1212
chase	1212
arrangements	1212
Jun	1212
5,000	1212
throne	1211
good-@@	1211
fantasy	1211
autonomous	1211
afterwards	1211
Pakistani	1211
Kennedy	1211
：@@	1210
prevents	1210
omer@@	1210
freight	1210
finals	1210
dream@@	1210
cris@@	1210
acqu@@	1210
29@@	1210
synchronization	1209
sulfate	1209
lessness	1209
freeze	1209
ender	1209
defender	1209
competent	1209
utter	1208
uti@@	1208
uded	1208
tification	1208
stric@@	1208
rub@@	1208
prevented	1208
casual	1208
bab@@	1208
Simulation	1208
Fourth	1208
vas@@	1207
tackle	1207
seldom	1207
meditation	1207
lower-@@	1207
inous	1207
heater	1207
ffs	1207
basement	1207
Mes@@	1207
stepping	1206
smallest	1206
baseball	1206
aur@@	1206
Ying@@	1206
Reds	1206
Michigan	1206
yn	1205
worlds	1205
strive	1205
plum@@	1205
hyster@@	1205
chy	1205
apples	1205
Labor	1205
Fair	1205
un-@@	1204
semester	1204
magnet	1204
expounded	1204
decides	1204
classmates	1204
buses	1204
Kevin	1204
systemic	1203
sky@@	1203
inning	1203
foil	1203
bonus	1203
bidding	1203
accepting	1203
Working	1203
oscopy	1202
kinetic	1202
institutional	1202
explaining	1202
consecutive	1202
conductivity	1202
Rock	1202
well-being	1201
thyroid	1201
stays	1201
spite	1201
sorrow	1201
oids	1201
inations	1201
aters	1201
arithmetic	1201
appraisal	1201
urinary	1200
ure-@@	1200
tless	1200
statue	1200
limbs	1200
constraint	1200
cigarettes	1200
Wan	1200
sedimentary	1199
mother@@	1199
cows	1199
arly	1199
Captain	1199
1988	1199
there@@	1198
energy-@@	1198
contradiction	1198
bei	1198
Upon	1198
USB	1198
Super	1198
Abraham	1198
targeting	1197
myth	1197
middle-@@	1197
ishment	1197
ather@@	1197
alloys	1197
urbanization	1196
unt	1196
succession	1196
itting	1196
indic@@	1196
alleged	1196
Railway	1196
NG@@	1196
Confucian	1196
predicting	1195
oon	1195
hub	1195
fts	1195
doses	1195
chess	1195
Shakespeare	1195
thick@@	1194
Sul@@	1194
Oc@@	1194
vin@@	1193
treaty	1193
Kenya	1193
witnessed	1192
seeks	1192
acity	1192
Xiang	1192
undergoing	1191
ole@@	1191
iter	1191
experiencing	1191
cleared	1191
Intel	1191
translate	1190
stom@@	1190
prompted	1190
magne@@	1190
inlet	1190
fairy	1190
developmental	1190
abortion	1190
aboard	1190
Justice	1190
sci@@	1189
paper@@	1189
nas@@	1189
locally	1189
deemed	1189
decom@@	1189
peers	1188
origins	1188
ja	1188
cleaner	1188
cher@@	1188
Luo	1188
3.5	1188
out-@@	1187
okay	1187
kou	1187
immigrants	1187
gambling	1187
bearings	1187
Ten	1187
PVC	1187
10,000	1187
towers	1186
salad	1186
pie	1186
och@@	1186
modul@@	1186
ga	1186
us-@@	1185
tted	1185
sel	1185
reck@@	1185
pseud@@	1185
naval	1185
cyto@@	1185
Milton	1185
MT@@	1185
1970s	1185
superiority	1184
pockets	1184
importantly	1184
collector	1184
circum@@	1184
cabin	1184
Sup@@	1184
Ming@@	1184
Feng@@	1184
Cri@@	1184
monitored	1183
methane	1183
cognition	1183
analog	1183
age@@	1183
VC	1183
Lotus	1183
skirt	1182
itors	1182
guides	1182
extrac@@	1182
aqueous	1182
admits	1182
presenting	1181
lowering	1181
dict@@	1181
clustering	1181
alis	1181
Laden	1181
GC	1181
tuning	1180
spontaneous	1180
spine	1180
rison	1180
tray	1179
runtime	1179
feared	1179
VE	1179
Putin	1179
GP@@	1179
surveys	1178
drawings	1178
consuming	1178
consultant	1178
butterfly	1178
bloom	1178
aping	1178
True	1178
Rice	1178
Massachusetts	1178
Gong	1178
teaches	1177
roses	1177
permitted	1177
pathogenesis	1177
nationwide	1177
illed	1177
Williams	1177
Pap@@	1177
MC	1177
Dom@@	1177
coherent	1176
Xie	1176
sunny	1175
souls	1175
paren@@	1175
jury	1175
inserted	1175
ight-@@	1175
elephant	1175
undertake	1174
traumatic	1174
izh@@	1174
glance	1174
fence	1174
certificates	1174
bn	1174
wondering	1173
seri@@	1173
rang@@	1173
jeans	1173
hormones	1173
ammonia	1173
RT@@	1173
reproduction	1172
rations	1172
opponents	1172
impulse	1172
garment	1172
farmland	1172
benchmark	1172
Whit@@	1172
Nokia	1172
spe@@	1171
rejection	1171
premise	1171
osa	1171
gh@@	1171
conductor	1171
complained	1171
casing	1171
atro@@	1171
Tong	1171
Investment	1171
Bir@@	1171
01	1171
supermarket	1170
sively	1170
impedance	1170
han@@	1170
fluids	1170
distributions	1170
Ohio	1170
ultra@@	1169
tol@@	1169
struggled	1169
hao	1169
cycl@@	1169
continually	1169
Gor@@	1169
Clinical	1169
switches	1168
gaining	1168
e-commerce	1168
criticized	1168
aim@@	1168
Net	1168
year-@@	1167
stranger	1167
poultry	1167
notable	1167
localization	1167
founding	1167
delegation	1167
Cra@@	1167
Aff@@	1167
strongest	1166
restored	1166
occasions	1166
hiring	1166
eld	1166
ech	1166
earthquakes	1166
deserve	1166
as-@@	1166
sty	1165
separating	1165
quartz	1165
edible	1165
UT@@	1165
Rights	1165
wounds	1164
topology	1164
lasted	1164
dull	1164
Xin	1164
Sony	1164
RC	1164
Disney	1164
Appl@@	1164
Alice	1164
Advanced	1164
5th	1164
500@@	1164
wrap	1163
obligations	1163
neglected	1163
eyed	1163
Guizhou	1163
san@@	1162
counted	1162
che	1162
LP@@	1162
urg@@	1161
semi@@	1161
nec@@	1161
jud@@	1161
gym	1161
ect@@	1161
calendar	1161
accompany	1161
rich@@	1160
ranges	1160
limb	1160
breathe	1160
admission	1160
spokeswoman	1159
realizes	1159
bush	1159
Vo@@	1159
Shel@@	1159
Pass@@	1159
precip@@	1158
life@@	1158
journalist	1158
diffraction	1158
attributed	1158
artifacts	1158
Taylor	1158
Marx	1158
recalled	1157
prescribed	1157
metastasis	1157
discre@@	1157
crow@@	1157
confined	1157
circumstance	1157
bos@@	1157
appliance	1157
prey	1156
negotiation	1156
izations	1156
habitat	1156
dip	1156
GS	1156
Channel	1156
twist	1155
sty@@	1155
proceed	1155
fir@@	1155
exual	1155
extra@@	1155
ami	1155
Mac	1155
wanting	1154
secretly	1154
sculpture	1154
cant	1154
assurance	1154
Student	1154
Jia@@	1154
Haiti	1154
DE	1154
storms	1153
retreat	1153
pes	1153
owl	1153
odds	1153
ingredient	1153
frequencies	1153
forgot	1153
aren	1153
Ze@@	1153
Portugal	1153
F.	1153
Doctor	1153
Bai@@	1153
sensation	1152
monkey	1152
gly@@	1152
demanded	1152
ObjectiveTo	1152
Assembly	1152
*	1152
noon	1151
low-cost	1151
here@@	1151
dent	1151
Ple@@	1151
symbolic	1150
irs	1150
decent	1150
complication	1150
Seoul	1150
Lou@@	1150
Illinois	1150
retailers	1149
prints	1149
fetal	1149
dignity	1149
deposited	1149
capillary	1149
RS	1149
Heat	1149
gers	1148
desires	1148
amm@@	1148
alter	1148
View	1148
Snow	1148
Gil@@	1148
Dur@@	1148
teenagers	1147
bad@@	1147
Sel@@	1147
Patients	1147
tomb	1146
m.	1146
labels	1146
bble	1146
assured	1146
Wind@@	1146
Pra@@	1146
Pep@@	1146
spherical	1145
sour	1145
lowered	1145
kne@@	1145
insufficient	1145
Wol@@	1145
threatening	1144
stunning	1144
ogen@@	1144
ister	1144
documentary	1144
divine	1144
Doc@@	1144
nozzle	1143
aroma	1143
sciences	1142
ry@@	1142
pouring	1142
know@@	1142
hedge	1142
cold-@@	1142
blamed	1142
Thirdly	1142
Revolution	1142
Review	1142
O'@@	1142
Hom@@	1142
Alexander	1142
spraying	1141
peasants	1141
odes	1141
courtyard	1141
chat@@	1141
bull	1141
wel@@	1140
tain	1140
renewable	1140
lungs	1140
gy	1140
deny	1140
announce	1140
Swedish	1140
Hay@@	1140
tones	1139
orate	1139
nod@@	1139
mang@@	1139
igh	1139
durable	1139
ceas@@	1139
bel	1139
Pil@@	1139
Hi	1139
Eric	1139
Bud@@	1139
Ann	1139
polyester	1138
glow	1138
SI@@	1138
R-@@	1138
ED@@	1138
Beach	1138
venous	1137
inevitably	1137
Dream	1137
uals	1136
slab	1136
immigration	1136
homogeneous	1136
h-@@	1136
collar	1136
cane	1136
aug@@	1136
Word	1136
Tem@@	1136
Game	1136
Cho@@	1136
*@@	1136
yoga	1135
traditionally	1135
mobility	1135
incorporated	1135
idity	1135
cousin	1135
optimizing	1134
mess@@	1134
follow@@	1134
fabrication	1134
ethylene	1134
ether	1134
caring	1134
Inst@@	1134
Cham@@	1134
vent@@	1133
vely	1133
varies	1133
scrip@@	1133
ometry	1133
nearest	1133
feudal	1133
Way	1133
By@@	1133
ratings	1132
preventive	1132
incoming	1132
donor	1132
aving	1132
Sc@@	1132
Radi@@	1132
Loc@@	1132
warfare	1131
toe	1131
blessed	1131
biting	1131
alien	1131
Mit@@	1131
Current	1131
wears	1130
sinus	1130
prostate	1130
intent	1130
Heaven	1130
Credit	1130
Ali	1130
Agriculture	1130
ui	1129
polluted	1129
mutually	1129
ition	1129
confirmation	1129
clearing	1129
EN@@	1129
Cro@@	1129
Chile	1129
900	1129
tes@@	1128
reinforcement	1128
regulators	1128
luc@@	1128
leap	1128
idation	1128
ginger	1128
atives	1128
Wang@@	1128
Speaking	1128
Officials	1128
vin	1127
tings	1127
storing	1127
honour	1127
ester@@	1127
contra@@	1127
baking	1127
Xi	1127
vivo	1126
staining	1126
quan	1126
prose	1126
cherry	1126
audi@@	1126
UL@@	1126
Room	1126
Princess	1126
useless	1125
transparency	1125
pts	1125
indispensable	1125
ema	1125
bucket	1125
Max@@	1125
Agreement	1125
south-@@	1124
shadows	1124
logs	1124
Effect	1124
reservation	1123
oke	1123
north-@@	1123
handles	1123
gle@@	1123
blood@@	1123
ambition	1123
altered	1123
Training	1123
Lan@@	1123
rati@@	1122
ost@@	1122
investigations	1122
decorative	1122
collections	1122
Nobody	1122
Click	1122
1.2	1122
sleeve	1121
pher@@	1121
osphere	1121
milli@@	1121
faithful	1121
bubbles	1121
airplane	1121
Oscar	1121
sooner	1120
rooted	1120
olive	1120
floods	1120
algae	1120
aki	1120
000-@@	1120
phrases	1119
explo@@	1119
entr@@	1119
elev@@	1119
damping	1119
Kun@@	1119
Eve	1119
Dynasties	1119
Abstract	1119
000@@	1119
travelling	1118
travelers	1118
grape	1118
Mun@@	1118
Fran@@	1118
umbrella	1117
retrieve	1117
radioactive	1117
overview	1117
medium-@@	1117
gy@@	1117
collagen	1117
adver@@	1117
Yale	1117
skull	1116
pension	1116
genome	1116
foreign-@@	1116
connects	1116
beverage	1116
Production	1116
Nic@@	1116
Dun@@	1116
tened	1115
learners	1115
Hainan	1115
tribe	1114
portrait	1114
loses	1114
fron@@	1114
forestry	1114
du	1114
circulating	1114
chaotic	1114
Shaanxi	1114
Late	1114
22@@	1114
pneumonia	1113
incredibly	1113
har	1113
computational	1113
tricks	1112
shouted	1112
satisfying	1112
relational	1112
recurrence	1112
mark@@	1112
jer@@	1112
intrac@@	1112
installing	1112
formally	1112
epoxy	1112
coordinates	1112
abl@@	1112
Select	1112
Post@@	1112
LS	1112
Eclipse	1112
shu	1111
metabolic	1111
governmental	1111
figured	1111
es—@@	1111
counterparts	1111
circul@@	1111
chromosome	1111
antibodies	1111
Used	1111
rectangular	1110
posting	1110
honored	1110
SR	1110
Optim@@	1110
Mur@@	1110
Islam	1110
slept	1109
processors	1109
downs	1109
chil@@	1109
assa@@	1109
ardi@@	1109
Pan	1109
Listen	1109
Lat@@	1109
Gener@@	1109
whe@@	1108
shortcomings	1108
obtaining	1108
ests	1108
audiences	1108
ano@@	1108
Located	1108
Cancer	1108
1986	1108
weights	1107
strata	1107
scandal	1107
neo@@	1107
itations	1107
clan	1107
certified	1107
ce-@@	1107
Fine	1107
Cir@@	1107
Bet@@	1107
Az@@	1107
xy@@	1106
pac@@	1106
iss	1106
ames	1106
Paper	1106
Ah@@	1106
transmit	1105
simpler	1105
neighboring	1105
mercy	1105
mercury	1105
Top@@	1105
T.	1105
Os@@	1105
Matthew	1105
Goo@@	1105
Case	1105
severity	1104
ridge	1104
knock	1104
alkaline	1104
Protection	1104
FDA	1104
two-dimensional	1103
tling	1103
satellites	1103
obligation	1103
nerves	1103
encryption	1103
celebrity	1103
agged	1103
administrator	1103
Tang@@	1103
Tal@@	1103
Def@@	1103
zero-@@	1102
uting	1102
obstacle	1102
motors	1102
imagined	1102
destiny	1102
bi-@@	1102
ani@@	1102
Inside	1102
Cos@@	1102
11-@@	1102
scratch	1101
nur@@	1101
headache	1101
graphs	1101
bundle	1101
blogs	1101
Jeff	1101
plateau	1100
iPad	1100
catalysts	1100
assault	1100
advocate	1100
.xml	1100
ually	1099
tices	1099
slurry	1099
piston	1099
glorious	1099
dum@@	1099
campaigns	1099
bullet	1099
Ow@@	1099
Electro@@	1099
0.0@@	1099
veteran	1098
sunset	1098
offerings	1098
dead@@	1098
cham@@	1098
apped	1098
Jersey	1098
Flu@@	1098
CI@@	1098
yun	1097
yle	1097
trademark	1097
rack	1097
past@@	1097
junction	1097
cuisine	1097
computed	1097
adjustable	1097
Online	1097
Basic	1097
12.@@	1097
x-@@	1096
silly	1096
respects	1096
logy	1096
favour	1096
fan@@	1096
eral	1096
elasticity	1096
cyclic	1096
arrives	1096
Imagine	1096
yo@@	1095
strong@@	1095
seedling	1095
prohi@@	1095
power-@@	1095
his@@	1095
door@@	1095
acetate	1095
abandon	1095
á@@	1094
mit	1094
manipulation	1094
heal	1094
fri@@	1094
delighted	1094
castle	1094
Syria	1094
Sudan	1094
Jan@@	1094
Around	1094
uli@@	1093
shook	1093
interviewed	1093
earning	1093
coke	1093
appreciated	1093
Practice	1093
Pennsylvania	1093
ool	1092
interpret	1092
currencies	1092
bred	1092
appearances	1092
Someone	1092
Fol@@	1092
Euro@@	1092
transverse	1091
stag@@	1091
rics	1091
pha@@	1091
medic@@	1091
lightweight	1091
ains	1091
accommodate	1091
accelerated	1091
Night	1091
Lar@@	1091
transp@@	1090
simulating	1090
perspectives	1090
onate	1090
isms	1090
fills	1090
damaging	1090
crashed	1090
boarding	1090
after-@@	1090
Obviously	1090
Mess@@	1090
Dark	1090
A/@@	1090
16-@@	1090
relies	1089
flash@@	1089
civilians	1089
ankle	1089
HR	1089
yin	1088
theatre	1088
magical	1088
ischemia	1088
fractal	1088
endo@@	1088
echo	1088
Overall	1088
Materials	1088
yards	1087
shire	1087
screen@@	1087
envelope	1087
broadband	1087
Sales	1087
suburb	1086
startup	1086
receptors	1086
natur@@	1086
midst	1086
initiatives	1086
cylindrical	1086
brac@@	1086
bat	1086
tizing	1085
rounded	1085
pir@@	1085
lazy	1085
layered	1085
arriving	1085
Fra@@	1085
trust@@	1084
phenol	1084
manually	1084
manages	1084
bud@@	1084
ancies	1084
Cou@@	1084
Considering	1084
strengths	1083
pric@@	1083
ocytes	1083
lad@@	1083
itch@@	1083
formulated	1083
Poland	1083
Bryant	1083
mod@@	1082
cost-@@	1082
breakdown	1082
Mexican	1082
Fore@@	1082
seventh	1081
reign	1081
pearl	1081
peach	1081
honesty	1081
derivative	1081
costly	1081
considerably	1081
Miss	1081
MI	1081
Len@@	1081
Hem@@	1081
Better	1081
synchron@@	1080
isc@@	1080
hing	1080
fabricated	1080
blu@@	1080
Sab@@	1080
ylene	1079
societies	1079
rebels	1079
Military	1079
400@@	1079
traces	1078
stretching	1078
loos@@	1078
is-@@	1078
dietary	1078
conversations	1078
competitiveness	1078
ancing	1078
180	1078
regul@@	1077
occupy	1077
grip	1077
fox	1077
etry	1077
ello	1077
chang	1077
alls	1077
Fox	1077
DR	1077
0.5	1077
wondered	1076
verbal	1076
quick@@	1076
persuade	1076
list@@	1076
ira	1076
guitar	1076
grapes	1076
fascinating	1076
achi@@	1076
Work@@	1076
variant	1075
tioning	1075
then@@	1075
respondents	1075
printer	1075
nowhere	1075
lesion	1075
lap	1075
dissolved	1075
dialog	1075
MD	1075
Gam@@	1075
stems	1074
shirts	1074
orph@@	1074
median	1074
lead@@	1074
computer-@@	1074
Hawaii	1074
Fir@@	1074
1987	1074
wu	1073
ting@@	1073
identi@@	1073
fuels	1073
e-	1073
disclosed	1073
crust	1073
counties	1073
bath@@	1073
anticipated	1073
Always	1073
tric@@	1072
tled	1072
messaging	1072
lacks	1072
innov@@	1072
faculty	1072
Cli@@	1072
Chen@@	1072
Athens	1072
up-@@	1071
uation	1071
sheng	1071
secured	1071
rying	1071
rag@@	1071
part-time	1071
ni	1071
ming@@	1071
exams	1071
eps	1071
Water@@	1071
Muslims	1071
triangle	1070
socialism	1070
ruler	1070
constituents	1070
chur@@	1070
Performance	1070
Head	1070
Alan	1070
watches	1069
tracing	1069
standardized	1069
legendary	1069
farther	1069
f-@@	1069
elle	1069
Sarkozy	1069
1.1	1069
viable	1068
simplify	1068
shifted	1068
segmentation	1068
refriger@@	1068
plain@@	1068
lo	1068
fungi	1068
entary	1068
behavioral	1068
Victoria	1068
Tab@@	1068
Potter	1068
Movement	1068
Libyan	1068
tem	1067
sensi@@	1067
intact	1067
explicitly	1067
debts	1067
controversy	1067
coff@@	1067
ares	1067
appe@@	1067
analy@@	1067
ammonium	1067
Regi@@	1067
Mei	1067
saves	1066
prolonged	1066
pity	1066
interpreted	1066
goat	1066
cartoon	1066
accord	1066
Search	1066
youngest	1065
usi@@	1065
pragmatic	1065
ost	1065
hosting	1065
dust@@	1065
demo@@	1065
TE	1065
DVD	1065
tense	1064
stationary	1064
quest	1064
poets	1064
norm	1064
ence-@@	1064
dness	1064
Wilson	1064
VM	1064
Nearly	1064
vocal	1063
reduc@@	1063
incomplete	1063
feed@@	1063
combinations	1063
WS	1063
iced	1062
bal	1062
backing	1062
MB@@	1062
'We	1062
tragic	1061
ice@@	1061
grief	1061
dew	1061
bugs	1061
Ear@@	1061
Common	1061
All@@	1061
­@@	1060
ratios	1060
princess	1060
onin	1060
hyp@@	1060
comparatively	1060
boiled	1060
Boeing	1060
2020	1060
quin@@	1059
ppy	1059
pneumatic	1059
oe	1059
meg@@	1059
chuan	1059
carcin@@	1059
brid@@	1059
ary-@@	1059
Stop	1059
IL-@@	1059
livestock	1058
ero	1058
distributing	1058
Literature	1058
AE	1058
oric	1057
mented	1057
inged	1057
compensate	1057
amide	1057
WH@@	1057
Norway	1057
ials	1056
graphite	1056
dic	1056
decay	1056
criminals	1056
comfor@@	1056
Zhen@@	1056
Cultural	1056
itan	1055
eve	1055
arid	1055
Deputy	1055
undergraduate	1054
sist@@	1054
first-class	1054
e-up	1054
cooler	1054
LE	1054
FT	1054
doub@@	1053
cruel	1053
charts	1053
bombs	1053
MT	1053
Laboratory	1053
Fortunately	1053
Form	1053
Companies	1053
reb@@	1052
ordering	1052
aci@@	1052
2013	1052
rains	1051
examining	1051
TO	1051
Ps	1051
Jiangxi	1051
Ang@@	1051
1.3	1051
stil@@	1050
pilots	1050
oping	1050
heter@@	1050
diagnose	1050
bind	1050
Manhattan	1050
Exhibition	1050
Coal	1050
spi@@	1049
proxy	1049
lemon	1049
inge	1049
compiler	1049
asing	1049
asc@@	1049
analytic	1049
Eventually	1049
tool@@	1048
shaping	1048
possessed	1048
fragments	1048
feeds	1048
ek@@	1048
dynamically	1048
atom@@	1048
Vari@@	1048
NS	1048
50-@@	1048
1984	1048
ulcer	1047
ral	1047
blades	1047
architects	1047
accidentally	1047
Fish	1047
05	1047
survivors	1046
oni@@	1046
izers	1046
gger	1046
garage	1046
weaker	1045
smiles	1045
posing	1045
emulsi@@	1045
consolidation	1045
Mah@@	1045
El	1045
Effects	1045
aus@@	1044
ograph@@	1043
modal	1043
mes	1043
mentality	1043
gent	1043
faint	1043
cram@@	1043
complement	1043
thetic	1042
stir	1042
sadness	1042
righteousness	1042
rab@@	1042
mentally	1042
disciples	1042
delight	1042
angular	1042
sprin@@	1041
shut@@	1041
s.	1041
positioned	1041
fax	1041
exported	1041
escal@@	1041
ords	1040
atics	1040
Qin@@	1040
Dear	1040
ultraviolet	1039
tet@@	1039
mei	1039
classi@@	1039
Mao	1039
Formation	1039
Cul@@	1039
observing	1038
illus	1038
grav@@	1038
dismissed	1038
disciplinary	1038
collabor@@	1038
bees	1038
back-@@	1038
Wars	1038
Radio	1038
Kin@@	1038
wipe	1037
swine	1037
recovering	1037
rationality	1037
peasant	1037
mobil@@	1037
manifestations	1037
Unfortunately	1037
14.@@	1037
seven@@	1036
retar@@	1036
rein@@	1036
him@@	1036
expan@@	1036
couldn	1036
associations	1036
arteries	1036
Incre@@	1036
Combined	1036
symmetry	1035
pupils	1035
muscular	1035
ka@@	1035
ego	1035
concludes	1035
affordable	1035
Up@@	1035
Trust	1035
TD	1035
Non@@	1035
Mid@@	1035
Le	1035
trem@@	1034
ration@@	1034
owe	1034
formations	1034
folding	1034
cart	1034
bud	1034
armor	1034
Su	1034
Securities	1034
Nat@@	1034
treats	1033
restrict	1033
poorly	1033
pli@@	1033
peti@@	1033
pencil	1033
ischemic	1033
Starting	1033
PID	1033
Experts	1033
zhong	1032
uous	1032
transc@@	1032
oscope	1032
esti@@	1032
desirable	1032
belts	1032
withdrawal	1031
toes	1031
submarine	1031
silica	1031
passionate	1031
locating	1031
intimate	1031
foster	1031
ement@@	1031
convey	1031
common@@	1031
anes@@	1031
Kate	1031
Coll@@	1031
timber	1030
rs	1030
best-@@	1030
Mei@@	1030
1985	1030
weighing	1029
receipt	1029
quo	1029
patents	1029
morphological	1029
medium-sized	1029
electro-@@	1029
coordinated	1029
coins	1029
a…	1029
adhere	1029
Bot@@	1029
unhappy	1028
tribute	1028
thed	1028
seam	1028
resection	1028
recommendation	1028
neur@@	1028
leverage	1028
gig@@	1028
femoral	1028
ener	1028
ean	1028
uncomfortable	1027
stum@@	1027
resses	1027
goo@@	1027
gallery	1027
allergic	1027
C/@@	1027
Benjamin	1027
ylation	1026
tutorial	1026
solves	1026
seated	1026
ogenesis	1026
gaps	1026
esophageal	1026
dupl@@	1026
ake@@	1026
Ye	1026
Qian	1026
Mari@@	1026
36@@	1026
verbs	1025
otomy	1025
kicked	1025
implies	1025
aromatic	1025
alo@@	1025
Pre-@@	1025
Denmark	1025
Cher@@	1025
transforming	1024
rup@@	1024
priv@@	1024
humble	1024
front-@@	1024
fire-@@	1024
excitation	1024
burnt	1024
aes@@	1024
adsor@@	1024
Level	1024
typ@@	1023
sovereign	1023
pills	1023
navig@@	1023
microscopy	1023
metaphor	1023
enclosed	1023
disper@@	1023
delta	1023
blue-@@	1023
aw	1023
alternatives	1023
Phoenix	1023
I/O	1023
Christianity	1023
wo@@	1022
rental	1022
ogen	1022
hepat@@	1022
cleaned	1022
anesthesia	1022
Shenyang	1022
DF	1022
wherever	1021
sie	1021
safe@@	1021
rh@@	1021
qiao	1021
hed@@	1021
exchanged	1021
eded	1021
complaint	1021
Stat@@	1021
soda	1020
servo	1020
inver@@	1020
iah	1020
heels	1020
ells	1020
coarse	1020
blood-@@	1020
ania	1020
Mandarin	1020
Franc@@	1020
tiveness	1019
need@@	1019
intend	1019
eter@@	1019
constitutional	1019
spreads	1018
rol@@	1018
plated	1018
monster	1018
intersection	1018
globally	1018
exhausted	1018
chim@@	1018
Wales	1018
Governor	1018
punished	1017
perme@@	1017
modem	1017
handic@@	1017
dition	1017
Say	1017
Hillary	1017
Care@@	1017
reminded	1016
quo@@	1016
lymph	1016
highlighted	1016
Teaching	1016
thief	1015
theft	1015
motive	1015
forging	1015
fixed-@@	1015
dominate	1015
advise	1015
Sus@@	1015
Da	1015
spends	1014
specimen	1014
light@@	1014
lawn	1014
elimination	1014
cubic	1014
corrupt	1014
breath@@	1014
blending	1014
acies	1014
wasted	1013
sanctions	1013
preparations	1013
macro	1013
intim@@	1013
graceful	1013
followers	1013
cover@@	1013
Country	1013
tow@@	1012
tidal	1012
propag@@	1012
prin@@	1012
maternal	1012
iterative	1012
integr@@	1012
impe@@	1012
fix@@	1012
exploit	1012
enriched	1012
brightness	1012
anthrop@@	1012
Jonathan	1012
Environment	1012
organism	1011
mi	1011
lid	1011
lasts	1011
dielectric	1011
allocated	1011
Seven	1011
Land@@	1011
LP	1011
Image	1011
110	1011
worms	1010
vitamins	1010
travels	1010
sofa	1010
simultaneous	1010
pati@@	1010
pas@@	1010
oped	1010
occasional	1010
exotic	1010
ellular	1010
cad@@	1010
awake	1010
Technical	1010
SN@@	1010
Object	1010
Jean	1010
18-@@	1010
watch@@	1009
displaying	1009
Liu@@	1009
13.@@	1009
vill@@	1008
rewards	1008
labeled	1008
industri@@	1008
eck	1008
Sw@@	1008
Everybody	1008
Chil@@	1008
rust	1007
ladder	1007
establishes	1007
discrimin@@	1007
constrained	1007
ambassador	1007
Si	1007
weld	1006
usions	1006
stit@@	1006
integer	1006
gratitude	1006
colon	1006
colli@@	1006
Century	1006
cancers	1005
Imperial	1005
theor@@	1004
mat	1004
gol@@	1004
e…	1004
equals	1004
deliberately	1004
alizes	1004
ained	1004
List	1004
subsidiary	1003
ook	1003
lobe	1003
intends	1003
ather	1003
wen	1002
ules	1002
pores	1002
maid	1002
lend	1002
inversion	1002
inclusion	1002
hang@@	1002
handler	1002
ever@@	1002
CNN	1002
thumb	1001
surroundings	1001
staring	1001
len@@	1001
balloon	1001
bacterium	1001
apt	1001
Lisa	1001
Jer@@	1001
Arizona	1001
zhen	1000
propaganda	1000
fluorescent	1000
expose	1000
child@@	1000
catching	1000
arization	1000
ange	1000
Rev@@	1000
Gaza	1000
safeguard	999
ried	999
pixel	999
declining	999
decisive	999
contributes	999
comb	999
bell@@	999
Opera	999
Autumn	999
wrong@@	998
searched	998
practiced	998
patri@@	998
o'clock	998
milit@@	998
migrant	998
incentives	998
herbal	998
fluctuation	998
anks	998
acrylic	998
Descri@@	998
Compl@@	998
Card	998
icians	997
ferro@@	997
cia	997
bother	997
_	997
Agricultural	997
tetra@@	996
ovarian	996
ensis	996
diving	996
borrowed	996
approximate	996
Tiger	996
Mediterranean	996
stream@@	995
solely	995
shoots	995
overweight	995
exclusively	995
dominance	995
deadline	995
capitalism	995
acceler@@	995
Pas@@	995
Main@@	995
Hur@@	995
xy	994
transfer@@	994
reas@@	994
drank	994
burns	994
Full	994
FL@@	994
ucle@@	993
shop@@	993
overwhelming	993
fashionable	993
challenged	993
approximation	993
activists	993
Yue	993
Merc@@	993
ES	993
Colorado	993
Brow@@	993
Alaska	993
resisting	992
physician	992
SV@@	992
Photo	992
IMF	992
1979	992
vinegar	991
ritual	991
publicity	991
planar	991
modulus	991
icle	991
healthcare	991
crowds	991
attempting	991
Various	991
Reading	991
Jacob	991
Bil@@	991
vity	990
me-@@	990
mach@@	990
fall@@	990
comply	990
clause	990
bored	990
Urban	990
Money	990
HT	990
typed	989
shrimp	989
marble	989
lattice	989
fish@@	989
coin	989
canc@@	989
Stanley	989
Jap@@	989
Houston	989
understands	988
tage	988
sentenced	988
peer	988
offspring	988
obstruction	988
manifestation	988
likelihood	988
congenital	988
Us	988
Run@@	988
ISO@@	988
Gas	988
EE@@	988
Double	988
Dai	988
Burma	988
Amy	988
vor@@	987
unveiled	987
ulating	987
tia	987
spleen	987
pent@@	987
osc@@	987
oceans	987
mom@@	987
formerly	987
distress	987
delays	987
antioxidant	987
Dou@@	987
Cameron	987
two-thirds	986
tedly	986
pleas@@	986
kiln	986
exceptional	986
emo@@	986
authorization	986
adap@@	986
Bear	986
stain	985
sexy	985
scaling	985
revenge	985
puzzle	985
premature	985
porosity	985
guarantees	985
Ven@@	985
VO@@	985
Lei@@	985
obey	984
extrusion	984
None	984
Lau@@	984
thri@@	983
stal@@	983
sed@@	983
regulator	983
ply	983
master@@	983
idle	983
dresses	983
convince	983
blew	983
arterial	983
CI	983
130	983
tening	982
shelves	982
ounded	982
iles	982
hurry	982
heap	982
descriptions	982
ato	982
acres	982
Rand@@	982
Ding	982
Arthur	982
-shaped	982
weird	981
step@@	981
seedlings	981
seas	981
negotiate	981
moder@@	981
jam@@	981
inde@@	981
torn	980
seafood	980
grading	980
bid@@	980
Gol@@	980
32@@	980
0.1	980
than@@	979
rul@@	979
lah	979
donors	979
domains	979
clim@@	979
Good@@	979
Description	979
Alzheimer	979
waterproof	978
uding	978
spir@@	978
painter	978
implantation	978
gling	978
expresses	978
currents	978
coagulation	978
Sn@@	978
Live	978
Bei@@	978
Ali@@	978
Al-@@	978
upright	977
stance	977
spy	977
reject	977
nate	977
far-@@	977
continuity	977
Tan	977
Stu@@	977
NT@@	977
Gaddafi	977
:1	977
visitor	976
vigorous	976
searches	976
pal	976
engaging	976
endothelial	976
employs	976
chin	976
championship	976
Ray	976
Gordon	976
Baidu	976
ground@@	975
battles	975
Silver	975
IV@@	975
Airlines	975
saturation	974
sailing	974
doubts	974
borrowing	974
alisation	974
Unless	974
Treatment	974
SAR	974
Pic@@	974
Fri@@	974
quad@@	973
nineteen	973
inspire	973
crafts	973
Things	973
BT	973
18th	973
yu@@	972
tick	972
safer	972
pathology	972
bert	972
baseline	972
Valentine	972
Gansu	972
transferring	971
token	971
sins	971
philosopher	971
penet@@	971
ibility	971
Run	971
Ep@@	971
Diego	971
vendor	970
tox@@	970
mist	970
illusion	970
igns	970
companion	970
bile	970
benzene	970
Writ@@	970
Stadium	970
Ruby	970
Acc@@	970
teenth	969
rounds	969
practically	969
industrialization	969
has@@	969
evenly	969
Teacher	969
Northeast	969
Communication	969
workplace	968
tor-@@	968
margins	968
consult	968
conceptual	968
authentic	968
Parliament	968
Former	968
Color	968
transplant	967
revealing	967
frontier	967
cellulose	967
Indians	967
Federation	967
store@@	966
sleep@@	966
pill	966
mam@@	966
liberation	966
leaching	966
implicit	966
habit@@	966
ett	966
edema	966
flags	965
ece	965
Xi'an	965
Ukraine	965
Tan@@	965
workflow	964
violation	964
tensions	964
substantially	964
scre@@	964
rev@@	964
perf@@	964
microscopic	964
manship	964
legislative	964
gest@@	964
cosmetics	964
aided	964
advocates	964
Sing@@	964
Dubai	964
Depression	964
Above	964
trash	963
teens	963
sticking	963
smen	963
peculiar	963
macro-@@	963
lawsuit	963
exhibited	963
crushed	963
LAN	963
Concer@@	963
Boo@@	963
sustain	962
shifts	962
sco@@	962
navy	962
monkeys	962
foundations	962
encourages	962
am-@@	962
addiction	962
West@@	962
RF	962
It@@	962
wildlife	961
rhetoric	961
refining	961
recurrent	961
pending	961
hydrochloride	961
entially	961
ber-@@	961
assi@@	961
Taiwan	961
Senior	961
Nar@@	961
Fro@@	961
woke	960
twins	960
trait	960
tles	960
tist	960
spr@@	960
recommends	960
prop@@	960
aste	960
Bin	960
350	960
1.0	960
inhibitor	959
finest	959
credited	959
corrected	959
SOAP	959
Det@@	959
slaves	958
omers	958
monk	958
gorgeous	958
best@@	958
antic	958
MA@@	958
Lewis	958
Fei	958
Einstein	958
topped	957
tak@@	957
sweet@@	957
sovereignty	957
prospective	957
individu@@	957
boxing	957
addressing	957
Source	957
Order	957
Nik@@	957
suppress	956
essing	956
downturn	956
dark@@	956
Awards	956
welded	955
liberty	955
ffy	955
delivers	955
activate	955
Max	955
Expl@@	955
tester	954
strips	954
strangers	954
sors	954
senses	954
priorities	954
mum@@	954
leaf@@	954
inland	954
ila	954
forecasts	954
credibility	954
chasing	954
Stanford	954
Period	954
G.	954
volcano	953
shor@@	953
plum	953
pler	953
outlined	953
oug@@	953
mechan@@	953
inating	953
groove	953
cath@@	953
beard	953
ags	953
Van@@	953
Tak@@	953
Equipment	953
Customer	953
weaving	952
viol@@	952
responding	952
projected	952
newest	952
lied	952
journals	952
baked	952
applicants	952
Winter	952
O-@@	952
Day@@	952
Aaron	952
tonnes	951
symmetric	951
splendid	951
reluctant	951
poles	951
muc@@	951
motiv@@	951
fragrant	951
cautious	951
Plus	951
Corp	951
unexpectedly	950
una	950
tee	950
strat@@	950
microcomputer	950
folds	950
contributing	950
ateral	950
ambi@@	950
altar	950
Pop@@	950
ycl@@	949
sickness	949
shel@@	949
psychologist	949
entropy	949
dump	949
comprising	949
Liaoning	949
Howard	949
FD@@	949
Disease	949
Constitution	949
Allen	949
45@@	949
streaming	948
sensory	948
punch	948
march	948
creep	948
Tun@@	948
Hot	948
ET	948
'It	948
snack	947
rier	947
intrinsic	947
geology	947
feast	947
deciding	947
compulsory	947
Avoid	947
valuation	946
coded	946
boy@@	946
ape	946
Xia	946
Ox@@	946
Maria	946
zoo	945
wash@@	945
termin@@	945
tales	945
sanc@@	945
newly-@@	945
metallo@@	945
judged	945
embodied	945
approve	945
shark	944
scar@@	944
purely	944
pale@@	944
multipl@@	944
heart-@@	944
ession	944
epithelial	944
bricks	944
acknowledge	944
NEW	944
Motor	944
Anne	944
posture	943
hop	943
dispen@@	943
capsules	943
boil	943
arrays	943
Yuan@@	943
stove	942
spark	942
sandwich	942
protects	942
ordin@@	942
manganese	942
ili	942
gor@@	942
churches	942
UML	942
Turn	942
Pot@@	942
Gary	942
Avenue	942
warn	941
host@@	941
gluc@@	941
devi@@	941
admire	941
Xiamen	941
VI	941
Turkish	941
Store	941
Chin@@	941
Ambassador	941
1960s	941
unions	940
rupture	940
distillation	940
digestive	940
cus@@	940
consent	940
Single	940
Inc	940
Gri@@	940
renewed	939
porting	939
mond	939
mass@@	939
heav@@	939
differenti@@	939
contem@@	939
all-round	939
actic	939
EP@@	939
Brian	939
Anyone	939
white-@@	938
veri@@	938
tooth@@	938
runoff	938
ores	938
nitro@@	938
haem@@	938
compute	938
ali	938
acetic	938
37@@	938
vide@@	937
tability	937
socket	937
implementations	937
imag@@	937
forty	937
finger@@	937
fairness	937
employing	937
custom@@	937
compos@@	937
acker	937
Cour@@	937
toxin	936
suspen@@	936
proportional	936
osp@@	936
man-made	936
level@@	936
ion-@@	936
dos	936
converting	936
appreci@@	936
ant-@@	936
af	936
Pay@@	936
Except	936
Convention	936
Contin@@	936
orts	935
omed	935
newborn	935
handy	935
dock	935
broker	935
ayed	935
Political	935
outfit	934
oss	934
incision	934
graphical	934
flooded	934
ethyl	934
SF@@	934
Fle@@	934
Ari@@	934
1982	934
th-century	933
simpl@@	933
seize	933
risky	933
marsh@@	933
lions	933
griev@@	933
fav@@	933
ela	933
depend@@	933
attorney	933
ator@@	933
Born	933
：	932
work-@@	932
void	932
tracked	932
tom	932
swallow	932
smokers	932
repl@@	932
redundant	932
motorcycle	932
mantle	932
jokes	932
hed	932
energy-saving	932
compassion	932
Teachers	932
Luke	932
Commercial	932
trou@@	931
pillow	931
onom@@	931
mediated	931
dres@@	931
chickens	931
agg@@	931
Member	931
Gro@@	931
Four@@	931
DSP	931
CNC	931
AND	931
:00	931
uterine	930
luggage	930
lectures	930
knot	930
eighth	930
con	930
compres@@	930
big-@@	930
Ron	930
Jason	930
Introduce	930
stly	929
self-esteem	929
perpet@@	929
ment-@@	929
intervals	929
gastrointestinal	929
flavors	929
eti@@	929
clues	929
Ying	929
Vegas	929
Users	929
Together	929
Ji	929
Analysts	929
wrist	928
tolerant	928
thirty-@@	928
subsequently	928
six@@	928
scar	928
p.	928
orderly	928
ood	928
mortar	928
honey@@	928
forehead	928
evapor@@	928
endure	928
dysfunction	928
Taiwanese	928
Buy	928
Back@@	928
ouse	927
ocyte	927
leukemia	927
investigators	927
faction	927
excavation	927
cles	927
cheek	927
arily	927
abdomen	927
Write	927
Cle@@	927
examinations	926
benz@@	926
attracting	926
Helen	926
settling	925
evolve	925
dangers	925
comic	925
centralized	925
autonomy	925
anonymous	925
Pope	925
Deep	925
refrigerator	924
obl@@	924
meta-@@	924
issuing	924
dynasties	924
debugging	924
constructs	924
complementary	924
clicking	924
and/or	924
alter@@	924
ador@@	924
soft-@@	923
situ	923
login	923
impose	923
envy	923
emails	923
ele@@	923
elders	923
competitions	923
assign	923
Jan.	923
uted	922
sweep	922
retained	922
oilfield	922
merit	922
memorial	922
ffle	922
electrodes	922
configurations	922
careers	922
camps	922
alcohol@@	922
Years	922
Aiming	922
weighed	921
vis	921
torture	921
purified	921
oil@@	921
dep@@	921
advancing	921
Ster@@	921
FEM	921
Dynamic	921
Bio@@	921
2,000	921
15.@@	921
temples	920
secretion	920
push@@	920
obese	920
miracle	920
keepers	920
eligible	920
coloured	920
candle	920
Action	920
specializes	919
sorting	919
snacks	919
richest	919
onian	919
iti	919
ideals	919
humanitarian	919
grassland	919
eer	919
conce@@	919
cancel	919
Judah	919
DF@@	919
zip	918
rence	918
portions	918
polymers	918
pep@@	918
infer@@	918
gradual	918
fli@@	918
engineered	918
destroying	918
Week	918
Ferguson	918
voluntary	917
laundry	917
irradiation	917
hind@@	917
epic	917
econom@@	917
deter@@	917
ance-@@	917
adapter	917
TT	917
Lang@@	917
LL	917
Kan@@	917
Anfield	917
worrying	916
neat	916
gle	916
fid@@	916
euro@@	916
conditional	916
belonged	916
aperture	916
ag	916
Insurance	916
Cloud	916
twisted	915
similarities	915
nes@@	915
issu@@	915
horror	915
granite	915
bru@@	915
allow@@	915
aken	915
21@@	915
wizard	914
templates	914
itate	914
dyes	914
conductive	914
colonial	914
catalog	914
blanket	914
aquatic	914
taining	913
sson	913
rods	913
old-@@	913
gloves	913
Shang	913
Primary	913
Duke	913
seven-@@	912
rock@@	912
regularity	912
ox	912
olin	912
go-@@	912
endangered	912
divisions	912
defending	912
Produc@@	912
Jedi	912
ital	911
full@@	911
fireworks	911
excellence	911
deserves	911
Son@@	911
Lei	911
Customs	911
100-@@	911
touch@@	910
sequential	910
pledge	910
inhibited	910
condensation	910
boun@@	910
bot	910
archive	910
adviser	910
ader	910
acious	910
similarly	909
ruins	909
rest@@	909
populated	909
licensed	909
ko@@	909
interrupted	909
heel	909
expenditure	909
bulb	909
U.S	909
Number	909
verte@@	908
spill	908
recep@@	908
ptions	908
just@@	908
interfere	908
incidents	908
Soci@@	908
Delhi	908
40-@@	908
undergo	907
rite	907
rebel	907
pollutants	907
lays	907
ind	907
distances	907
despair	907
ake-@@	907
Living	907
Eight	907
Dri@@	907
yo	906
wang	906
vian	906
veins	906
sever@@	906
saf@@	906
litigation	906
iodine	906
expl@@	906
editors	906
disciplines	906
Higher	906
torch	905
sweeping	905
organisation	905
lumin@@	905
ga@@	905
farm@@	905
downstream	905
culation	905
comprehensively	905
cler@@	905
administered	905
ade@@	905
McDonald	905
Arabia	905
may@@	904
ile@@	904
arising	904
anne	904
WE@@	904
trajectory	903
subsidies	903
persistence	903
monks	903
innovations	903
PA@@	903
Not@@	903
Friends	903
DD@@	903
Bay@@	903
underneath	902
ten-@@	902
render	902
point-@@	902
pesticide	902
microbial	902
merchants	902
geographic	902
diarrhea	902
centric	902
cadres	902
16.@@	902
vil@@	901
pots	901
permits	901
numer@@	901
middle-aged	901
majors	901
athlete	901
adaptability	901
acle	901
PRO@@	901
Neither	901
8th	901
vation	900
temper	900
sulph@@	900
sional	900
revision	900
pioneer	900
guilt	900
germination	900
cookies	900
buc@@	900
alternate	900
TM	900
Islam@@	900
resting	899
pancreatic	899
maritime	899
diets	899
communic@@	899
caps	899
biom@@	899
applicant	899
Sheng	899
Philip	899
MR	899
ABC	899
suppression	898
pirates	898
nt	898
mem@@	898
leuk@@	898
frustration	898
dos@@	898
disposition	898
Samsung	898
Ot@@	898
tily	897
programmers	897
inity	897
gie	897
fiable	897
estimating	897
duction	897
coal-@@	897
Eli@@	897
COM	897
stealing	896
sp	896
seals	896
scent	896
reactors	896
professors	896
patches	896
fa	896
dled	896
deeds	896
arbitration	896
-out	896
sufficiently	895
peanut	895
omet@@	895
metabol@@	895
foolish	895
dit	895
cav@@	895
biochemical	895
Lower	895
HF	895
Cape	895
Access	895
uniformity	894
sub	894
stam@@	894
modi@@	894
harbor	894
damp	894
bed@@	894
aire	894
GF@@	894
veget@@	893
priests	893
jects	893
intro@@	893
icating	893
compile	893
classics	893
Nigeria	893
Miller	893
Meg@@	893
sintering	892
repe@@	892
liquidity	892
halt	892
downward	892
Tree	892
Thir@@	892
Dep@@	892
tractor	891
tigh@@	891
sporting	891
ported	891
lov@@	891
judging	891
devastating	891
ced	891
Cuba	891
Anna	891
suspects	890
mid	890
landslide	890
hatred	890
ethics	890
encies	890
diagrams	890
chooses	890
aceae	890
Mod@@	890
Far	890
Exc@@	890
pu	889
lenses	889
idly	889
Some@@	889
telescope	888
fulfilled	888
frog	888
fem@@	888
digging	888
constructive	888
centres	888
a.	888
Standing	888
Dre@@	888
Body	888
Ax@@	888
suction	887
stained	887
simulations	887
polishing	887
nish	887
inputs	887
event@@	887
dun@@	887
completing	887
Apache	887
1.4	887
recalls	886
poli@@	886
hygiene	886
expres@@	886
boasts	886
asted	886
accommodation	886
vain	885
unification	885
oos	885
junk	885
ician	885
assemble	885
Express	885
Communist	885
Chun@@	885
140	885
titled	884
squeeze	884
pid	884
lex@@	884
gaming	884
fond	884
disturbed	884
centrifugal	884
Machinery	884
5,@@	884
's@@	884
thers	883
sums	883
reminds	883
reac@@	883
polar@@	883
itude	883
fut@@	883
dissolution	883
disks	883
cruise	883
asia	883
Uncle	883
Sheng@@	883
Patrick	883
Experiments	883
50,000	883
1978	883
withdraw	882
vering	882
validated	882
tram@@	882
spectroscopy	882
phas@@	882
oidal	882
noisy	882
ml	882
miniature	882
mammals	882
jurisdiction	882
jam	882
descent	882
copied	882
beast	882
animated	882
Rot@@	882
PV	882
Jupiter	882
Jose	882
Jie	882
Ice	882
reli@@	881
plots	881
musicians	881
lease	881
giants	881
extinction	881
Tex@@	881
MI@@	881
Comparing	881
16th	881
sounded	880
pires	880
palate	880
iring	880
intern@@	880
ignition	880
grabbed	880
factor@@	880
e—@@	880
caution	880
Sou@@	880
Mail	880
Catherine	880
Caribbean	880
AB	880
unfair	879
ocular	879
medals	879
fam@@	879
enrolled	879
durability	879
appropriately	879
Nur@@	879
wasn	878
tribes	878
sno@@	878
rescued	878
recipient	878
land-@@	878
eigh@@	878
disrup@@	878
cryp@@	878
clarify	878
chrome	878
airlines	878
Tit@@	878
Seattle	878
Dim@@	878
terrorists	877
seepage	877
hint	877
dividing	877
diplomacy	877
comprehension	877
bottom@@	877
Marxism	877
Buffett	877
Bac@@	877
@	877
writings	876
shrinkage	876
incomes	876
genesis	876
elbow	876
conven@@	876
businessman	876
biography	876
bankers	876
Magic	876
Excuse	876
Ann@@	876
wholesale	875
slavery	875
revol@@	875
pris@@	875
pointer	875
disadvantage	875
Sri	875
locals	874
hierarchical	874
gears	874
fum@@	874
cosmic	874
ageing	874
Wind	874
trades	873
sizing	873
sellers	873
repres@@	873
recycled	873
optimism	873
liness	873
digestion	873
cation	873
atorial	873
Venus	873
Copenhagen	873
Charlie	873
won@@	872
susceptible	872
remedy	872
picks	872
overs	872
outlets	872
immer@@	872
genetically	872
enh@@	872
consum@@	872
cliff	872
analysing	872
WW@@	872
OB@@	872
Changsha	872
Benitez	872
prohibited	871
pretend	871
paradigm	871
opt	871
miners	871
frost	871
examines	871
eight-@@	871
easing	871
appealing	871
WS-@@	871
Gram@@	871
undoubtedly	870
sea-@@	870
rulers	870
remo@@	870
liz@@	870
grating	870
donated	870
depths	870
connector	870
cinema	870
blossom	870
Loo@@	870
Kur@@	870
Certainly	870
Battle	870
Automatic	870
tid@@	869
preserving	869
percep@@	869
non-	869
investigates	869
bye	869
Newton	869
Mourinho	869
Law@@	869
traced	868
retaining	868
monitors	868
inges	868
fork	868
ditch	868
conscience	868
character@@	868
ance@@	868
SU@@	868
Carlo	868
Albert	868
wis@@	867
superficial	867
shrink	867
rad@@	867
one-third	867
energetic	867
conqu@@	867
wicked	866
visibility	866
polished	866
negl@@	866
mun@@	866
ll@@	866
irre@@	866
hopefully	866
ematic	866
LD	866
HB@@	866
toughness	865
strokes	865
spot@@	865
intra-@@	865
goodness	865
galaxies	865
evaporation	865
dive	865
Gan@@	865
Clar@@	865
Call	865
zers	864
techn@@	864
solo	864
onically	864
medications	864
genre	864
cosmetic	864
clut@@	864
aning	864
SG@@	864
Joint	864
Choose	864
10-year	864
ture-@@	863
stiff	863
sper@@	863
restructuring	863
phase-@@	863
fair@@	863
fade	863
dest	863
cing	863
assuming	863
Peninsula	863
supreme	862
publications	862
mucosa	862
jan	862
ground-@@	862
filing	862
champions	862
autism	862
arose	862
Ryan	862
Pyongyang	862
Architecture	862
Apply	862
updating	861
thal@@	861
shui	861
qin	861
odic	861
interpolation	861
enhances	861
differentiate	861
cans	861
beaches	861
azole	861
asynchronous	861
Meeting	861
tribu@@	860
thor@@	860
stuffed	860
skip	860
skeleton	860
kar@@	860
itary	860
fin	860
epit@@	860
dug	860
Plat@@	860
tails	859
statistic	859
rine	859
refractory	859
public-@@	859
polite	859
mad@@	859
erc@@	859
carving	859
bypass	859
atization	859
archi@@	859
Stri@@	859
Beauty	859
Aer@@	859
viewer	858
rud@@	858
inhabitants	858
devo@@	858
credits	858
clarity	858
canvas	858
bao	858
accum@@	858
Rich	858
Nuclear	858
Half	858
Belgium	858
ol-@@	857
conjunction	857
TM@@	857
ISO	857
tum	856
programmed	856
mou@@	856
maj@@	856
ferred	856
etting	856
dealers	856
aggregation	856
Yun	856
Neuro@@	856
Las	856
Kunming	856
Kam@@	856
Bou@@	856
woo@@	855
weed	855
vine	855
sore	855
slowing	855
rainy	855
parade	855
packs	855
ke-@@	855
inducing	855
gesture	855
bear@@	855
Set@@	855
vortex	854
towel	854
tomatoes	854
roll@@	854
reinforce	854
pack@@	854
narrow@@	854
lately	854
indices	854
icks	854
gut	854
gles	854
exhibits	854
ashi	854
Thousands	854
List@@	854
y-based	853
ult	853
rit	853
ont@@	853
magnet@@	853
lamb	853
inhibitory	853
formaldehyde	853
enlightenment	853
absent	853
Ts	853
Tru@@	853
Mt	853
Mo	853
warnings	852
throughput	852
stochastic	852
specificity	852
sandstone	852
orn	852
inspect	852
hemat@@	852
enthusiastic	852
eland	852
diversified	852
deleted	852
bark	852
acu@@	852
RA	852
Qian@@	852
Mom@@	852
unchanged	851
splitting	851
sewing	851
rigidity	851
polyurethane	851
pesticides	851
intentions	851
axle	851
GB@@	851
Ever	851
triple	850
separ@@	850
optics	850
merge	850
informal	850
flora	850
feathers	850
amongst	850
Woo@@	850
AO	850
renewal	849
privilege	849
gir@@	849
evolving	849
envel@@	849
ck	849
capita	849
bbed	849
anese	849
Yin@@	849
Miami	849
Investors	849
Anderson	849
validate	848
urea	848
slices	848
mini@@	848
marginal	848
in-law	848
deepening	848
chloro@@	848
ark	848
Toronto	848
Head@@	848
Eth@@	848
Consequently	848
10th	848
workload	847
socks	847
rebuild	847
oling	847
non-profit	847
markedly	847
extrem@@	847
ench@@	847
apartments	847
illumination	846
ignorance	846
essive	846
cushion	846
Travel	846
Talk	846
vibr@@	845
thum@@	845
straightforward	845
singular	845
sick@@	845
sent@@	845
rus	845
pledged	845
omatic	845
kinetics	845
iny	845
fifteen	845
etal	845
ense	845
embodies	845
corn@@	845
Officer	845
MIT	845
textbook	844
test-@@	844
swear	844
resol@@	844
intuitive	844
infusion	844
healthier	844
frontal	844
etes	844
eline	844
corro@@	844
brass	844
Simple	844
PT	844
PN	844
Mont@@	844
Il@@	844
Gate	844
Dist@@	844
silicone	843
reversed	843
mean@@	843
indul@@	843
grocery	843
fif@@	843
coli	843
bloc@@	843
BL@@	843
stabilization	842
late-@@	842
func@@	842
erad@@	842
bler	842
administrators	842
Zheng@@	842
Nam@@	842
Football	842
tified	841
slim	841
prolifer@@	841
prisoner	841
mountainous	841
extingu@@	841
condem@@	841
Few	841
Antonio	841
verb	840
infiltration	840
fungus	840
compet@@	840
compan@@	840
arri@@	840
acked	840
abstr@@	840
Nick	840
Mayor	840
Bangkok	840
600@@	840
1970	840
vectors	839
trig@@	839
teenager	839
straigh@@	839
stimulating	839
progression	839
modifying	839
luxurious	839
angels	839
CCTV	839
strang@@	838
publisher	838
oli	838
membranes	838
een	838
commanded	838
categor@@	838
bby	838
Wit@@	838
Portuguese	838
Mir@@	838
BB@@	838
ification	837
cracked	837
Saint	837
Jac@@	837
2:@@	837
25-@@	837
2014	837
willingness	836
note@@	836
notably	836
Objectives	836
Members	836
Larry	836
Combining	836
thoracic	835
thetical	835
rigorous	835
enly	835
broadcasting	835
biopsy	835
Trump	835
Planning	835
HS@@	835
Dig@@	835
Austria	835
《@@	834
ü@@	834
theses	834
sheer	834
repaired	834
propri@@	834
poisonous	834
manners	834
kid@@	834
advantageous	834
Ethernet	834
38@@	834
160	834
vague	833
outing	833
norms	833
neglect	833
develop@@	833
corridor	833
aga	833
Separ@@	833
Phil	833
Fourier	833
Fal@@	833
word@@	832
uri	832
sinking	832
nesses	832
ican	832
assumptions	832
SB@@	832
Roger	832
IE	832
wished	831
second@@	831
horri@@	831
forbidden	831
ethical	831
contraction	831
chlorine	831
cal	831
byte	831
astronauts	831
aerial	831
Really	831
PCs	831
Lao	831
CPC	831
Bin@@	831
uce	830
tually	830
total@@	830
ted@@	830
slopes	830
polls	830
mall	830
internationally	830
dean	830
adly	830
Marketing	830
Identi@@	830
Brun@@	830
ASEAN	830
silently	829
sandy	829
legally	829
incorporate	829
grafting	829
frightened	829
flames	829
faith@@	829
enjoyment	829
construc@@	829
Lan	829
HC	829
Books	829
suspicious	828
suspicion	828
simplest	828
risk-@@	828
negoti@@	828
huang	828
extensions	828
emic	828
bytes	828
Girl	828
versi@@	827
tting	827
threaten	827
spouse	827
rists	827
rene	827
positional	827
merger	827
escent	827
comb@@	827
celebrities	827
battlefield	827
Reduc@@	827
Drug	827
registry	826
refreshing	826
pizza	826
ower	826
immense	826
fly@@	826
explor@@	826
exceptions	826
endurance	826
blended	826
Advis@@	826
100,000	826
throws	825
spra@@	825
ocyan@@	825
hazards	825
gastro@@	825
clari@@	825
alleviate	825
agile	825
Baghdad	825
Apart	825
Andre@@	825
utilities	824
trick@@	824
reforming	824
prayers	824
ouses	824
nutri@@	824
jo	824
cultivating	824
communicating	824
bloody	824
antibiotic	824
Virtual	824
User	824
Rational	824
Jiabao	824
Arch@@	824
transmitter	823
surgeon	823
slowed	823
pier	823
inspiring	823
fei	823
conceived	823
believing	823
ain-@@	823
Samuel	823
RM@@	823
I.	823
throm@@	822
ograph	822
last@@	822
ima	822
did@@	822
banana	822
year-olds	821
tech@@	821
shorten	821
pear	821
medial	821
manifest	821
jets	821
hour@@	821
happier	821
frustrated	821
existent	821
coral	821
body@@	821
Reform	821
PDF	821
Ou@@	821
Authority	821
17th	821
wonders	820
unlimited	820
specializing	820
signaling	820
politician	820
lottery	820
incid@@	820
commitments	820
cheeks	820
Tol@@	820
Professional	820
Nepal	820
Kobe	820
Hai	820
Dean	820
tren@@	819
physiology	819
ong-@@	819
maximize	819
itating	819
fry	819
forc@@	819
amy@@	819
RF@@	819
Pos@@	819
Made	819
unconscious	818
thy@@	818
supplements	818
specialists	818
scans	818
nitrate	818
modular	818
lithium	818
intravenous	818
fungal	818
costume	818
bic	818
alcoholic	818
Python	818
Kang@@	818
Alliance	818
34@@	818
supplying	817
skies	817
mini	817
hn	817
heavier	817
celebrating	817
balances	817
Somalia	817
vial	816
venue	816
translator	816
tex	816
paper-@@	816
oner	816
icky	816
bonded	816
auc@@	816
Sym@@	816
Ele@@	816
Co-@@	816
Bruce	816
Box	816
tize	815
scars	815
ria	815
rho@@	815
reson@@	815
raid	815
now@@	815
convicted	815
constitutes	815
achieves	815
Silicon	815
08	815
tig@@	814
struggles	814
owning	814
mirrors	814
mim@@	814
gateway	814
disputed	814
bon	814
Num@@	814
ud	813
tuition	813
predicts	813
ow-@@	813
exert	813
dispersed	813
ashamed	813
Nu@@	813
HC@@	813
DA@@	813
18.@@	813
17.@@	813
teenage	812
poc@@	812
observers	812
nylon	812
fi	812
essays	812
deepen	812
booking	812
blue@@	812
PET	812
Europeans	812
Eng@@	812
whales	811
slides	811
pulls	811
los	811
jar@@	811
five-year	811
defl@@	811
chef	811
cann@@	811
arthro@@	811
U.N.	811
Tw@@	811
Terry	811
J-@@	811
CR	811
Baby	811
800@@	811
screws	810
scholarship	810
pronounced	810
physic@@	810
packaged	810
ongs	810
ign	810
fragment	810
dings	810
customized	810
confronted	810
Nation@@	810
Economy	810
CL	810
wiped	809
statistically	809
gene@@	809
fertilization	809
Contract	809
vings	808
uated	808
subsidi@@	808
squares	808
ske@@	808
signi@@	808
realism	808
promptly	808
politically	808
naming	808
loneliness	808
hints	808
hall@@	808
ellip@@	808
dreaming	808
carbon-@@	808
avian	808
Kang	808
onion	807
onics	807
kills	807
homeless	807
fibrosis	807
disclosure	807
dim	807
bou@@	807
acidic	807
TT@@	807
Strong	807
PK@@	807
Ca	807
withstand	806
speeches	806
sid@@	806
refugees	806
patrol	806
masks	806
line-@@	806
lever@@	806
instructor	806
icular	806
economically	806
decoction	806
clad	806
Mand@@	806
MW	806
Lag@@	806
Knowledge	806
Animal	806
09	806
turbulent	805
packets	805
clamp	805
antagon@@	805
afflic@@	805
Survey	805
Meas@@	805
Les@@	805
Consul@@	805
vest@@	804
therm@@	804
scop@@	804
ishi	804
incar@@	804
immuno@@	804
hydrolysis	804
hen	804
encephal@@	804
eats	804
crises	804
arena	804
Tourism	804
Price	804
PB@@	804
Macao	804
transmitting	803
relaxing	803
heterogeneous	803
ested	803
entrepreneur	803
berg@@	803
advancement	803
Zhong	803
Thanksgiving	803
Scientific	803
Ray@@	803
Peng	803
Huai@@	803
Gall@@	803
Donald	803
Conserv@@	803
wear@@	802
leaning	802
inhibitors	802
implication	802
dubbed	802
awful	802
academy	802
Something	802
Property	802
Macau	802
Lily	802
view@@	801
ss	801
pest	801
garments	801
eh	801
dend@@	801
condi@@	801
Power@@	801
ulin	800
tenth	800
runner	800
peac@@	800
ord	800
match@@	800
lact@@	800
intestine	800
glo@@	800
fights	800
dough	800
conveniently	800
clone	800
breaker	800
attain	800
assessing	800
TF@@	800
Solar	800
Meng	800
wer@@	799
spike	799
sla@@	799
rebound	799
pretreatment	799
permanently	799
paradise	799
gan	799
donations	799
compelling	799
cling	799
Bell	799
3,000	799
world-class	798
visualization	798
roman@@	798
quotes	798
pandemic	798
osity	798
oom	798
model@@	798
inequality	798
exceeded	798
anatomy	798
Plateau	798
Maj@@	798
Archit@@	798
type@@	797
suring	797
successor	797
sensible	797
seis@@	797
pto@@	797
other@@	797
oscillation	797
ing-up	797
incense	797
experimentally	797
detention	797
commerci@@	797
asha	797
arities	797
Prior	797
Notes	797
1.6	797
02	797
stole	796
sati@@	796
plague	796
mutations	796
lock@@	796
infr@@	796
individually	796
inadequate	796
four@@	796
ear-@@	796
breach	796
wandering	795
start-up	795
spider	795
proving	795
ju	795
anomaly	795
Rho@@	795
Enter	795
treasures	794
stenosis	794
ruin	794
preceding	794
oti@@	794
methanol	794
mating	794
hated	794
fine-@@	794
detained	794
clash	794
chop@@	794
atable	794
US-@@	794
Ni	794
Jilin	794
Indi@@	794
D.@@	794
Cin@@	794
stratum	793
revis@@	793
outward	793
needing	793
miserable	793
ified	793
enrich	793
dh@@	793
cil@@	793
anes	793
activ@@	793
Wood	793
Person@@	793
Guide	793
7th	793
weakened	792
undergone	792
successive	792
story@@	792
roo@@	792
punish	792
font	792
eluc@@	792
electrochemical	792
early-@@	792
dling	792
dependency	792
cores	792
clutch	792
cem@@	792
browsers	792
attracts	792
Vietnamese	792
Sig@@	792
textbooks	791
rendered	791
postcode	791
policeman	791
pillars	791
jazz	791
jaw	791
curb	791
contractor	791
beg@@	791
Tech	791
Roy	791
Naz@@	791
6th	791
tained	790
ressing	790
lys@@	790
learnt	790
diagnosing	790
beads	790
aggression	790
Wong	790
Metal	790
Germans	790
AIX	790
yielding	789
wholly	789
transfers	789
some@@	789
reviewing	789
rela@@	789
pathogenic	789
nes	789
lear@@	789
dynam@@	789
cha	789
antibacterial	789
anism	789
analogy	789
Writing	789
Nas@@	789
wom@@	788
vet@@	788
treas@@	788
quer@@	788
pseudo-@@	788
proposition	788
preferences	788
mp@@	788
imperative	788
grac@@	788
goats	788
donation	788
docum@@	788
capacitor	788
buds	788
awa@@	788
Gun@@	788
twe@@	787
thly	787
prob@@	787
isolate	787
bang	787
adj@@	787
Detroit	787
Branch	787
whi@@	786
peel	786
mapped	786
isi@@	786
beats	786
XX@@	786
Pentagon	786
Hat@@	786
CCD	786
taxation	785
predictions	785
pless	785
navigate	785
greeted	785
fats	785
executing	785
cry@@	785
coats	785
advertisements	785
adic	785
Throughout	785
Squ@@	785
NET	785
Getting	785
Ev@@	785
EX@@	785
1983	785
trivial	784
rin	784
rig	784
mo	784
iv@@	784
fool@@	784
fit@@	784
excre@@	784
dragged	784
citing	784
Video	784
Studio	784
SL	784
Ok@@	784
OO@@	784
Municipal	784
Laura	784
Cel@@	784
101	784
vice-@@	783
turtle	783
standardization	783
shareholder	783
digit	783
cytes	783
cran@@	783
cott	783
airports	783
\	783
Television	783
Mass	783
Gold@@	783
Dro@@	783
upgrading	782
silic@@	782
ridiculous	782
pins	782
pause	782
mons	782
langu@@	782
iest	782
elast@@	782
digit@@	782
conv@@	782
conditioned	782
broadly	782
ben	782
amp	782
Rachel	782
Kelly	782
Iowa	782
relying	781
pod	781
hydroxy@@	781
foot-@@	781
disability	781
degeneration	781
collaborative	781
ask@@	781
ary@@	781
aped	781
ancer	781
Oriental	781
Myanmar	781
Maryland	781
unemployed	780
ulus	780
two-year	780
sounding	780
projec@@	780
portra@@	780
mour@@	780
jian	780
hats	780
fermented	780
blows	780
aligned	780
accepts	780
Scale	780
Saturn	780
Direct	780
:30	780
tos	779
ore-@@	779
landmark	779
izhou	779
intensi@@	779
imagery	779
idated	779
hostile	779
governed	779
cycling	779
cock	779
clerk	779
cabbage	779
allegations	779
O.	779
Min	779
Jian	779
Content	779
wilderness	778
tionist	778
oline	778
notebook	778
moist	778
grants	778
drums	778
controllers	778
cares	778
affinity	778
Private	778
GF	778
Founded	778
Carl	778
BMW	778
urban@@	777
thes	777
surrender	777
suffers	777
presses	777
presidency	777
phy	777
market@@	777
journalism	777
dilemma	777
conveyor	777
coaches	777
bless	777
bia	777
anyang	777
Whe@@	777
RP	777
Oracle	777
Help	777
7.5	777
will@@	776
whale	776
titude	776
sten@@	776
shout	776
sauc@@	776
relevance	776
ouring	776
hydrogen@@	776
flowering	776
Two-@@	776
Philadelphia	776
Mut@@	776
Kel@@	776
EC	776
Clean	776
succ@@	775
stoc@@	775
rang	775
racial	775
pyro@@	775
ozone	775
len	775
caffeine	775
assumes	775
answering	775
Well@@	775
Swe@@	775
Sky@@	775
Northwest	775
Material	775
Jon@@	775
Jennifer	775
Hab@@	775
Grant	775
Fur@@	775
Chiang	775
yeah	774
witnesses	774
weeds	774
watering	774
vag@@	774
submerged	774
prosecution	774
loess	774
justified	774
braking	774
booming	774
arguing	774
Silk	774
Imag@@	774
Corps	774
Care	774
trousers	773
mills	773
less-@@	773
asm	773
Gu	773
Anthony	773
upload	772
tations	772
scrap	772
redundancy	772
nick@@	772
long-distance	772
extra-@@	772
enforce	772
divides	772
curiosity	772
copy@@	772
accelerating	772
Remove	772
Lind@@	772
Lang	772
Ho	772
2.2	772
swap	771
reformation	771
openly	771
erup@@	771
elli	771
considerations	771
businessmen	771
accompanying	771
Walter	771
Villa	771
Petro@@	771
Establ@@	771
Blair	771
-oriented	771
uneven	770
subsystem	770
scape	770
pursued	770
process@@	770
pro	770
lot@@	770
dest@@	770
acne	770
View@@	770
Introduction	770
Inc@@	770
Climate	770
Ai@@	770
toast	769
teen@@	769
goose	769
crisp	769
connectivity	769
chin@@	769
Wid@@	769
Tax@@	769
Rain@@	769
Physical	769
upside	768
roof@@	768
recruitment	768
rainbow	768
passi@@	768
parti@@	768
otes	768
hr@@	768
embryonic	768
dreamed	768
delegates	768
convex	768
buo@@	768
atal	768
Zhi	768
Nan	768
substitution	767
sings	767
resolving	767
relieved	767
rants	767
publishers	767
passport	767
juvenile	767
debu@@	767
attractions	767
acr@@	767
Sue	767
Marxist	767
Hao	767
Gang	767
DI@@	767
tunnels	766
thin-@@	766
sugar@@	766
modeled	766
lur@@	766
horrible	766
heavy-@@	766
energies	766
domin@@	766
complexes	766
bag@@	766
ang-@@	766
Wenzhou	766
Tzu	766
Bing@@	766
0.2	766
specifies	765
perfume	765
insights	765
fas@@	765
exchanger	765
demon@@	765
dedication	765
arious	765
Background	765
vacc@@	764
usable	764
traps	764
shalt	764
semantics	764
replication	764
procurement	764
opic	764
noting	764
hos@@	764
heights	764
fading	764
differ@@	764
diamonds	764
crystallization	764
athletic	764
ON	764
Depending	764
terminals	763
stirring	763
shiny	763
reminder	763
postal	763
hem	763
compass	763
awesome	763
ashan	763
Solomon	763
Prot@@	763
FM	763
Buff@@	763
schem@@	762
potenti@@	762
joins	762
ert	762
dang@@	762
aca@@	762
Zen	762
Lux@@	762
4.5	762
2D	762
pests	761
niche	761
ish-@@	761
exceeds	761
diary	761
artillery	761
aromas	761
ambitions	761
RT	761
Had	761
Deng	761
unite	760
transitional	760
regi@@	760
militants	760
make-up	760
ken@@	760
dles	760
deno@@	760
copying	760
Taoism	760
Save	760
Juli@@	760
Hyper@@	760
DN@@	760
Child	760
Cab@@	760
Adv@@	760
ses@@	759
selfish	759
rub	759
residues	759
observer	759
melted	759
linkage	759
inoc@@	759
emul@@	759
educate	759
dealer	759
cathode	759
barrels	759
anxi@@	759
affir@@	759
Zhen	759
SQ@@	759
Publ@@	759
Experiment	759
vibrant	758
turnover	758
tubular	758
technically	758
state-run	758
righteous	758
las	758
implant	758
goodbye	758
bells	758
basal	758
WSDL	758
Suppl@@	758
Inf@@	758
Gui@@	758
supervisor	757
stiff@@	757
pains	757
oxidi@@	757
much-@@	757
lowing	757
lasers	757
insur@@	757
icker	757
crab	757
Left	757
198@@	757
spicy	756
sity	756
planetary	756
oblig@@	756
object-oriented	756
notification	756
metre	756
marriages	756
licensing	756
lations	756
grease	756
epi@@	756
edness	756
coal@@	756
burial	756
box@@	756
arre@@	756
aris	756
accent	756
Want	756
Associated	756
prevalent	755
nominated	755
justify	755
friend@@	755
dementia	755
conformity	755
cious	755
bolts	755
awkward	755
attribu@@	755
Rep@@	755
Dav@@	755
touches	754
soo@@	754
retinal	754
merchant	754
lords	754
even@@	754
enlarged	754
eclipse	754
differentiated	754
balcony	754
Wow	754
Lucy	754
Bao	754
Att@@	754
14-@@	754
12th	754
wed@@	753
room@@	753
info	753
heroic	753
contour	753
archae@@	753
Job	753
Carter	753
Auto	753
thouse	752
mosquito	752
melody	752
Zhuang	752
Said	752
Eff@@	752
Cooperation	752
stress-@@	751
open@@	751
ony@@	751
indigenous	751
herb	751
eration	751
conduction	751
calc@@	751
behavi@@	751
abrasion	751
Statistics	751
Moore	751
Halloween	751
EJB	751
Brothers	751
ury	750
tactical	750
sley	750
richer	750
necrosis	750
nap@@	750
lia	750
granular	750
geologic	750
eping	750
dwelling	750
campa@@	750
advocated	750
Phy@@	750
Oper@@	750
Fort	750
sticky	749
restraint	749
omorph@@	749
odor	749
lan	749
flock	749
crush	749
contracted	749
contacted	749
Franklin	749
Differ@@	749
rode	748
retailer	748
reliance	748
ras@@	748
neutron	748
kindergarten	748
feminine	748
alty	748
a.@@	748
Site	748
Sit@@	748
Prof.	748
PF	748
OR	748
Down	748
Adri@@	748
phar@@	747
motherland	747
led@@	747
glyco@@	747
gaze	747
fertile	747
exploded	747
enders	747
decon@@	747
backgrounds	747
aver	747
Workers	747
Leg@@	747
Bangladesh	747
warmly	746
ribbon	746
programmer	746
masterpiece	746
inverter	746
discovering	746
depicted	746
critic	746
assembling	746
aper	746
Wal-Mart	746
MM	746
FE	746
vest	745
sexually	745
proceeds	745
polysaccharide	745
orating	745
numbered	745
mar	745
lier	745
homeland	745
high-performance	745
clu@@	745
bering	745
U.S.-@@	745
Jimmy	745
End	745
Bloomberg	745
1981	745
ulent	744
temperament	744
neys	744
manipulate	744
fen@@	744
esh	744
electrophoresis	744
consol@@	744
collec@@	744
carb@@	744
Wikipedia	744
Operation	744
IPO	744
Guard	744
CF	744
Atlanta	744
usive	743
rown	743
readings	743
pumped	743
mushroom	743
molten	743
migrants	743
lyrics	743
jungle	743
integrates	743
icons	743
erie	743
epilepsy	743
dwell	743
dams	743
cyst	743
cheating	743
atus	743
astr@@	743
aces	743
Dance	743
125	743
wrinkles	742
trim	742
theoretic	742
qualify	742
poster	742
ontology	742
omer	742
multiple-@@	742
kinase	742
derive	742
deflection	742
airborne	742
Hot@@	742
Conclusion@@	742
transported	741
sha	741
scarce	741
knitting	741
gos	741
franchise	741
erythro@@	741
eri	741
commented	741
anced	741
smoo@@	740
nity	740
loudly	740
ku	740
fig@@	740
ffed	740
exceeding	740
cartilage	740
anian	740
V.	740
Kor@@	740
Heng@@	740
Guardian	740
Electronics	740
warmer	739
univers@@	739
surviving	739
rotate	739
respon@@	739
redness	739
modernity	739
load@@	739
fren@@	739
Romans	739
Parents	739
Ide@@	739
Bus	739
BI	739
20,000	739
11th	739
routinely	738
pane	738
lethal	738
landscapes	738
invoke	738
indirectly	738
guil@@	738
glimpse	738
eye@@	738
encouragement	738
dur@@	738
cascade	738
bbing	738
Typically	738
Pun@@	738
Lawrence	738
Gorges	738
Bing	738
￡@@	737
è@@	737
search@@	737
salvation	737
raz@@	737
fers	737
disappointment	737
deal@@	737
conditioner	737
candles	737
Pow@@	737
Multiple	737
Matt	737
Mach@@	737
Fe	737
resemble	736
rescu@@	736
ossi@@	736
myel@@	736
mandatory	736
film@@	736
dless	736
calci@@	736
Vic@@	736
Nor	736
Jiu@@	736
Gaussian	736
Finland	736
CIA	736
world-@@	735
unch	735
tha	735
snakes	735
olysis	735
lowed	735
glycer@@	735
elegance	735
directories	735
UT	735
Shan@@	735
Lebanon	735
God@@	735
15th	735
uling	734
thering	734
testimony	734
sway	734
rumors	734
rude	734
rides	734
purse	734
prestigious	734
pottery	734
plasty	734
onite	734
milestone	734
itz	734
icles	734
helicopters	734
diode	734
att	734
assignments	734
accessed	734
Vitamin	734
Value	734
Reas@@	734
How@@	734
FT@@	734
FS@@	734
EB@@	734
zo	733
udge	733
tub	733
symmetrical	733
storey	733
stere@@	733
interrup@@	733
genetics	733
ergy	733
diffuse	733
consciously	733
clue	733
basics	733
Tow@@	733
Roc@@	733
Outside	733
Heavy	733
Davis	733
Dat@@	733
Beyond	733
wouldn	732
township	732
subscri@@	732
how@@	732
footprint	732
elephants	732
deepest	732
custody	732
buys	732
build@@	732
Spr@@	732
Play@@	732
GP	732
Bes@@	732
visu@@	731
spectrometry	731
premier	731
percutaneous	731
penetrating	731
oa	731
must@@	731
memorable	731
libr@@	731
dong	731
deaf	731
carotid	731
Michelle	731
Meth@@	731
Ban	731
variability	730
spirit@@	730
riot	730
limestone	730
ius	730
hydropower	730
casualties	730
approv@@	730
affili@@	730
PG	730
vet	729
smartphone	729
sights	729
sediments	729
ritis	729
qualifications	729
prac@@	729
idi	729
exploited	729
day-@@	729
condemned	729
coma	729
backbone	729
Fred	729
weekends	728
volatility	728
veness	728
sus	728
stic	728
sack	728
hull	728
fluoride	728
aux@@	728
atur@@	728
aned	728
Xing	728
Phase	728
Labour	728
EN	728
Christopher	728
-type	728
underwear	727
timer	727
stasis	727
stalk	727
relativity	727
prescri@@	727
pelvic	727
obstruc@@	727
newer	727
inhibiting	727
enrichment	727
energ@@	727
demonstrations	727
congestion	727
beautifully	727
ED	727
19.@@	727
vior	726
urgently	726
triumph	726
plaque	726
legi@@	726
judgement	726
isha	726
helpless	726
had@@	726
excav@@	726
assing	726
Thor@@	726
Ningbo	726
Electr@@	726
Either	726
Command	726
450	726
04	726
vious	725
undertaken	725
tribal	725
stimulated	725
reflective	725
refin@@	725
polymer@@	725
ozoic	725
mortgages	725
ints	725
fingerprint	725
etta	725
correspondent	725
Version	725
Rule	725
PLA	725
Leo	725
Competition	725
Ball@@	725
3:@@	725
2.1	725
robustness	724
lan@@	724
attendance	724
analyzer	724
Vill@@	724
sterile	723
skins	723
runners	723
porters	723
ound-@@	723
ored	723
insulating	723
haw@@	723
gan@@	723
fountain	723
found@@	723
alteration	723
Records	723
2/@@	723
stared	722
staff@@	722
recruit	722
proprietary	722
motions	722
loom	722
kit@@	722
igo	722
goalkeeper	722
destined	722
bombing	722
axi@@	722
ady	722
administ@@	722
Techn@@	722
PO	722
Kit@@	722
Gib@@	722
Asi@@	722
2.4	722
ventures	721
sigh	721
oppose	721
hips	721
graded	721
gent@@	721
flaws	721
doll	721
ast-@@	721
Sept.	721
RS@@	721
Plato	721
GUI	721
English-@@	721
sue	720
stamps	720
siveness	720
schizophrenia	720
relics	720
polymorphism	720
imbalance	720
hunter	720
hardest	720
favored	720
bowel	720
Vs	720
1.8	720
wre@@	719
villa	719
ul	719
therapies	719
shoo@@	719
rog@@	719
on-site	719
liter@@	719
karst	719
inexpensive	719
cancelled	719
Wine	719
Lehman	719
Bus@@	719
wiring	718
seawater	718
rowing	718
resid@@	718
partitions	718
litter	718
larvae	718
generators	718
feder@@	718
conserv@@	718
accumulate	718
Part@@	718
H1N1	718
APIs	718
wester@@	717
turkey	717
tuned	717
nem@@	717
impairment	717
ias	717
headlines	717
grandma	717
fetch	717
earth@@	717
contradictions	717
cheat	717
bu	717
adher@@	717
Robin	717
Rad@@	717
Against	717
vinyl	716
valid@@	716
thanked	716
sorted	716
shouting	716
hurried	716
essly	716
cyte	716
conviction	716
cam	716
apologize	716
annealing	716
Qinghai	716
Plas@@	716
~	715
thunder	715
pers@@	715
museums	715
cucumber	715
armies	715
arises	715
Yam@@	715
TH	715
Rab@@	715
Nine	715
Gallery	715
Domino	715
Brit@@	715
Billy	715
wasting	714
vap@@	714
toxins	714
technics	714
sies	714
scrat@@	714
rons	714
resigned	714
prospecting	714
pend@@	714
opes	714
inqu@@	714
esty	714
dan	714
bosses	714
aroused	714
abor@@	714
Zha@@	714
USD	714
Provincial	714
Protocol	714
MDA	714
Hit@@	714
Final	714
Car	714
360	714
3000	714
vaccination	713
superb	713
shoppers	713
salts	713
reinforcing	713
neighbours	713
midfield	713
homos@@	713
eyel@@	713
eus	713
downloaded	713
divorced	713
cin	713
banquet	713
Yong	713
P/@@	713
Ill@@	713
Future	713
switch@@	712
restrained	712
pixels	712
peritoneal	712
nut@@	712
lesser	712
latent	712
grou@@	712
foul	712
fain@@	712
distal	712
desperately	712
declines	712
catalog@@	712
blow@@	712
Zi	712
Mak@@	712
wired	711
pronunciation	711
noises	711
jamming	711
halls	711
ft-@@	711
famili@@	711
dim@@	711
deser@@	711
Yo@@	711
Universal	711
Tibet	711
Southwest	711
Peru	711
Applications	711
60-@@	711
ustr@@	710
user@@	710
steak	710
rubbish	710
haz@@	710
gyn@@	710
enberg	710
embarrassed	710
differs	710
compilation	710
annoying	710
Jay	710
Iceland	710
Aud@@	710
weak@@	709
warm@@	709
virtues	709
tents	709
steamed	709
river@@	709
platelet	709
ove	709
moc@@	709
lengths	709
itted	709
imper@@	709
ence@@	709
couch	709
correspondence	709
chromium	709
capac@@	709
bap@@	709
authentic@@	709
allegedly	709
Tou@@	709
King@@	709
Julia	709
Hui@@	709
Hamas	709
Geneva	709
ELISA	709
zzle	708
tify	708
take-@@	708
soaring	708
resembles	708
obscure	708
mos	708
loops	708
interventions	708
granules	708
girder	708
easy-to-@@	708
conferences	708
bizarre	708
banner	708
acidity	708
Prevention	708
Polish	708
Personal	708
Orth@@	708
Fortune	708
Asia-Pacific	708
zer@@	707
spin@@	707
shortages	707
radio@@	707
ophthal@@	707
monot@@	707
hid	707
gour@@	707
edged	707
cyber@@	707
clum@@	707
capitalist	707
basins	707
atrial	707
aren@@	707
admired	707
Guan	707
Broad@@	707
tapping	706
sab@@	706
omni@@	706
locates	706
illary	706
episodes	706
alia	706
Rules	706
RB@@	706
O2	706
Highway	706
Cru@@	706
teachings	705
substituted	705
shoul@@	705
resignation	705
presidents	705
phic	705
openness	705
gar	705
eously	705
enduring	705
emitting	705
const@@	705
bron@@	705
aser	705
appropri@@	705
Post-@@	705
Israel@@	705
Guan@@	705
Edition	705
Defin@@	705
Close	705
yan@@	704
removes	704
lawmakers	704
constitu@@	704
cline	704
Ya@@	704
Sav@@	704
Investig@@	704
Indiana	704
CSS	704
Bow@@	704
visions	703
spindle	703
solvents	703
solubility	703
reset	703
pud@@	703
itarian	703
isa	703
footage	703
flag@@	703
fishes	703
evol@@	703
coping	703
assimil@@	703
SF	703
Regional	703
Below	703
word-@@	702
wetland	702
weaknesses	702
tigers	702
suburbs	702
ry-@@	702
rubbing	702
outputs	702
outbreaks	702
modelling	702
medieval	702
inher@@	702
illustration	702
creator	702
counseling	702
commem@@	702
Tax	702
Orleans	702
Jintao	702
Fel@@	702
Colonel	702
Cairo	702
warns	701
ushan	701
tires	701
powders	701
plun@@	701
mountain@@	701
lever	701
kissed	701
ite-@@	701
flat-@@	701
acquiring	701
accustomed	701
Mem@@	701
Jos@@	701
Jam@@	701
Bring	701
urely	700
staged	700
rim	700
photon	700
mentation	700
marvel@@	700
ightly	700
hurts	700
fort	700
feather	700
amaz@@	700
Russians	700
Ross	700
Ren	700
Pale@@	700
Ori@@	700
Darwin	700
DO	700
AU@@	700
9th	700
1960	700
tici@@	699
steril@@	699
smar@@	699
shad@@	699
parametric	699
maneu@@	699
lap@@	699
editorial	699
crushing	699
baggage	699
RE	699
telecommunications	698
self-confidence	698
ris	698
rebuilding	698
plantation	698
pad@@	698
oscopic	698
mail@@	698
istically	698
intercep@@	698
instruc@@	698
incorrect	698
icking	698
gold-@@	698
eagle	698
atical	698
ati	698
afterward	698
Zhuhai	698
Jerry	698
Dal@@	698
workforce	697
valent	697
solitary	697
slender	697
refrigeration	697
high-grade	697
frameworks	697
flush	697
emon	697
diag@@	697
descendants	697
dable	697
closet	697
aint	697
Provide	697
vs.	696
thres@@	696
stricken	696
rocky	696
quarterly	696
perceive	696
one-way	696
epo@@	696
electrolyte	696
dynamical	696
concurrent	696
be-@@	696
Summit	696
Staff	696
Guo@@	696
Class@@	696
Bar	696
Assistant	696
unfortunate	695
nois@@	695
marital	695
lest	695
gru@@	695
eruption	695
embodiment	695
embassy	695
edited	695
earns	695
chitosan	695
believers	695
arrows	695
N.@@	695
J2EE	695
IO	695
Heilongjiang	695
Gong@@	695
Cambodia	695
Brand	695
usability	694
tivism	694
thyro@@	694
thir@@	694
pilgri@@	694
nis	694
lings	694
invo@@	694
furn@@	694
dumplings	694
compartment	694
clinics	694
carbide	694
beta	694
Rod@@	694
Query	694
Mercury	694
Mass@@	694
Khan	694
JA@@	694
workshops	693
wind-@@	693
third-party	693
simulator	693
musician	693
misery	693
mineralization	693
invalid	693
intentionally	693
illumin@@	693
illegally	693
hydrate	693
enger	693
elaborated	693
deserved	693
counterpart	693
assed	693
amphi@@	693
Tel@@	693
Sky	693
Nasdaq	693
zen	692
warrior	692
temptation	692
shocks	692
rehear@@	692
p.m.	692
nasty	692
intermedi@@	692
curvature	692
ay-@@	692
alli@@	692
aldehyde	692
aids	692
advis@@	692
Rick	692
Rich@@	692
RAM	692
Hist@@	692
Ajax	692
1950s	692
uk	691
summar@@	691
quicker	691
pe-@@	691
overlap	691
movable	691
lanes	691
forty-@@	691
ept	691
calcul@@	691
Saul	691
Play	691
Mississippi	691
ype	690
vomiting	690
turbo@@	690
poin@@	690
occupies	690
fortunate	690
embryos	690
eigen@@	690
dier	690
corrup@@	690
Three-@@	690
Similar	690
Prof	690
Proc@@	690
stretches	689
stern	689
rom	689
recreation	689
periodically	689
nine-@@	689
longevity	689
jour@@	689
isol@@	689
initiation	689
identifies	689
Scen@@	689
Sachs	689
Lastly	689
Experience	689
Ec@@	689
Buil@@	689
vigor	688
spur	688
restrain	688
proceedings	688
pression	688
pavilion	688
lubrication	688
implied	688
icism	688
firm@@	688
cheerful	688
blessings	688
anti-inflammatory	688
Fifth	688
1976	688
two-way	687
tell@@	687
staple	687
sharks	687
nonsense	687
mint	687
lubr@@	687
eric	687
electrostatic	687
denom@@	687
contex@@	687
cherish	687
chap@@	687
andy	687
Tour	687
ASP	687
upstairs	686
offense	686
ications	686
encoded	686
complim@@	686
caves	686
ample	686
ambient	686
YouTube	686
Accordingly	686
waving	685
sect	685
sank	685
refuge	685
o-	685
insertion	685
idate	685
historian	685
hazardous	685
guarding	685
franch@@	685
foreground	685
ferrous	685
disturbing	685
chees@@	685
Simply	685
Scottish	685
Numerical	685
BE	685
y—@@	684
workout	684
ulous	684
susceptibility	684
scroll	684
saith	684
ro-@@	684
religions	684
recur@@	684
quantitatively	684
neph@@	684
flam@@	684
detective	684
centi@@	684
abide	684
There@@	684
Salt	684
Previous	684
Pray	684
PhD	684
Ken	684
unle@@	683
textual	683
t-based	683
stall	683
screened	683
plug-ins	683
phyto@@	683
phenomen@@	683
pens	683
multic@@	683
liquids	683
exagger@@	683
chant	683
canopy	683
accomplishment	683
Utah	683
Medi@@	683
MBA	683
HL@@	683
Ed	683
umin@@	682
ultra	682
tica	682
slow-@@	682
restoring	682
oles	682
marathon	682
malicious	682
lique@@	682
gown	682
gla@@	682
explanations	682
amic	682
alise	682
Prec@@	682
Nov@@	682
Immun@@	682
turbines	681
shrinking	681
sales@@	681
petro@@	681
nd	681
intellectuals	681
excit@@	681
complaining	681
assass@@	681
Xian@@	681
Upper	681
Shir@@	681
Less	681
Jenny	681
Hob@@	681
Gul@@	681
Grade	681
Cent@@	681
Adding	681
undertaking	680
thinner	680
spoon	680
salmon	680
saline	680
retardant	680
pulses	680
predecessor	680
panda	680
mont	680
modifications	680
hospitality	680
fresh@@	680
fixes	680
booked	680
SARS	680
Organic	680
Munich	680
Mumbai	680
Intelligence	680
EF@@	680
Consumer	680
Apollo	680
Administrative	680
AK@@	680
20.@@	680
thre@@	679
rests	679
pictured	679
mathematic	679
lofty	679
arium	679
Venice	679
Style	679
Shall	679
Mining	679
B.@@	679
t…	678
tite	678
taxpayers	678
stud@@	678
sparked	678
overlapping	678
increment	678
improper	678
axes	678
aved	678
asymmetric	678
astronomers	678
Roma	678
Protein	678
Liber@@	678
unk	677
sulfide	677
square-@@	677
metrics	677
look@@	677
issions	677
inertia	677
filtered	677
estrogen	677
certainty	677
brutal	677
Schol@@	677
Jen@@	677
HBV	677
Cad@@	677
1/2	677
ushed	676
tful	676
snap	676
slaugh@@	676
shit	676
resins	676
recruited	676
practitioners	676
notify	676
ning@@	676
mixer	676
mined	676
impaired	676
illnesses	676
great-@@	676
eye-@@	676
excluded	676
discharged	676
daytime	676
curse	676
cries	676
civilized	676
cheer	676
bies	676
bare@@	676
Story	676
Rap@@	676
Hind@@	676
FBI	676
Behind	676
usher	675
une	675
shades	675
pursu@@	675
piled	675
physicians	675
pads	675
lacked	675
kable	675
junc@@	675
jol@@	675
hopeful	675
eta	675
biodiversity	675
Structure	675
Side	675
S/@@	675
NE	675
Honda	675
Cog@@	675
wolves	674
waking	674
tosis	674
tightening	674
selectivity	674
oscill@@	674
northeastern	674
ja@@	674
foc@@	674
flourishing	674
characterization	674
Wayne	674
W-@@	674
Sor@@	674
Pavilion	674
Nit@@	674
AFP	674
world@@	673
verses	673
unreasonable	673
scary	673
salaries	673
renew	673
refres@@	673
reciproc@@	673
purchaser	673
pathways	673
omi@@	673
namespace	673
merged	673
kick@@	673
ighting	673
hr	673
forgiveness	673
fixture	673
expands	673
confusing	673
concre@@	673
comprised	673
boosting	673
atum	673
asth@@	673
Rog@@	673
Page	673
NS@@	673
IQ	673
Hundreds	673
Associ@@	673
Agile	673
Abstr	673
wastes	672
uncommon	672
reconc@@	672
rail@@	672
ionic	672
drawer	672
bikes	672
archives	672
T-shirt	672
Plan@@	672
Ess@@	672
Doctors	672
Const@@	672
Applying	672
ua	671
turbulence	671
toler@@	671
thorn	671
synerg@@	671
spice	671
rewarded	671
plains	671
nomination	671
melon	671
marketplace	671
indications	671
iler	671
fear@@	671
crimin@@	671
aments	671
Wild	671
Hold	671
Focus	671
Feb.	671
Ever@@	671
Cai	671
wild@@	670
vegetarian	670
temper@@	670
sad@@	670
referee	670
il-@@	670
homogen@@	670
fist	670
exem@@	670
NOT	670
Motors	670
Ky@@	670
GL@@	670
Criminal	670
Cook	670
Bad@@	670
till@@	669
rot	669
polic@@	669
omen@@	669
kled	669
glands	669
deco@@	669
conform	669
clud@@	669
celebrations	669
abstraction	669
above-mentioned	669
Zhou@@	669
[...]
