的	7075797
，	5891528
。	4989565
在	1460548
了	1341953
是	1133526
和	1111085
、	880712
我	618693
中	517520
他	495130
你	477674
对	469981
一个	449801
有	424878
“	421313
”	387188
我们	385049
：	350035
与	349356
上	344040
为	320462
也	300841
（	293590
）	292598
人	291417
将	290234
他们	270120
都	270104
可以	261995
就	254245
到	250021
会	247420
这	243409
说	240637
不	238733
并	229105
-	215871
进行	215510
研究	213062
被	209580
而	202136
它	195084
她	194575
；	189536
年	181639
从	178866
,	175331
时	172630
方法	171230
来	167726
但	165996
—	164667
以	164420
地	162659
或	158175
？	157039
这个	155001
没有	154470
中国	152659
及	149516
要	145908
把	145547
能	145540
着	144295
其	143172
问题	142514
一种	140196
这些	139694
很	138858
于	134504
使用	133354
后	133319
下	133263
等	132555
自己	131183
如果	130093
还	129587
可能	129570
通过	129532
用	127520
更	124339
让	121972
公司	120858
里	120033
系统	118190
该	115225
新	115178
多	114923
分析	114536
美国	113613
工作	112768
已经	110143
所	109321
但是	109000
去	107922
一些	106046
可	105736
需要	105420
影响	105044
.	102625
好	102189
提供	101578
给	100101
以及	99041
因为	96258
主要	96245
发展	95851
做	95465
个	92963
当	92881
技术	92504
！	92458
设计	90525
性	89939
》	89308
就是	88855
《	88825
最	87896
·	87006
使	86779
本文	85438
具有	85383
那	84704
时间	84282
这种	83857
您	83457
不同	83008
由	82292
大	80906
现在	79557
们	79290
目的	78613
所有	78018
开始	77882
向	76934
认为	76482
应用	76460
作为	76168
月	76010
又	75047
这样	74019
发现	73413
出	73392
其他	73234
国家	73023
提出	72191
采用	72016
得	71903
过	71826
过程	70969
结果	70894
者	69426
成为	68173
包括	67819
什么	67327
高	66709
内	66512
比	66317
时候	66278
前	65339
重要	65162
想	64900
1	64507
知道	64335
像	62915
情况	62818
大@@	62631
人们	62115
一	61406
作用	61246
世界	61156
同时	60818
介绍	60518
结构	60472
经济	59562
对于	59466
法	59235
已	58909
或者	58769
能够	58538
它们	57776
数据	57664
发生	57319
生活	56701
产品	56658
存在	56313
那些	55790
治疗	55578
控制	55507
得到	55453
必须	55102
2	55014
之	54896
方面	54889
小	54730
关系	54280
利用	53903
模型	53650
表示	53616
实现	53348
一@@	53128
非常	53013
本	52975
任何	52458
许多	51971
组织	51426
选择	51252
由于	51097
不@@	51041
服务	50845
而且	50483
然后	50436
信息	50124
因此	50048
提高	49940
探讨	49873
市场	49871
之间	49670
建立	49380
吗	49262
如何	49148
型	48787
并且	48703
企业	48636
出现	48481
政府	48385
两个	48221
生产	48178
处理	48175
应该	48156
却	47989
较	47974
很多	47914
不能	47850
产生	47845
为了	47748
所以	47710
部分	47485
理论	47412
一样	47171
要求	47136
希望	46775
日	46701
这是	46572
不会	46254
地区	46135
点	46066
其中	45936
3	45918
还是	45442
看到	45407
小@@	45358
获得	44888
社会	44879
则	44800
正在	44676
中@@	44483
只	44233
方式	44116
根据	43960
功能	43926
目前	43850
式	43780
管理	43615
基于	43313
最后	42809
孩子	42695
基础	42642
…	42280
活动	42174
再	42126
环境	42112
子	41994
项目	41962
化	41833
学生	41817
能力	41782
水	41717
计划	41673
那么	41583
之后	41224
之一	41025
增加	40907
显示	40528
你们	40511
帮助	40193
用于	40159
看	39979
支持	39956
文化	39755
岁	39478
地方	39076
有效	38957
区	38731
还有	38610
)	38561
喜欢	38324
非	38283
带	38181
安全	38165
一次	38164
一直	38155
目标	38078
(	37930
相关	37322
成	36969
有关	36931
5	36772
城市	36704
原因	36644
如	36498
形成	36443
一起	36370
比较	36318
4	36285
变化	36022
才	35995
一定	35894
/	35867
效果	35711
起来	35466
这里	35374
10	35357
中心	35252
呢	35245
实验	34814
来自	34804
传统	34704
高@@	34664
"	34617
事	34558
结论	34457
患者	34403
请	34367
只有	34168
教育	34113
用户	34060
多@@	34013
只是	34002
网络	33989
设备	33969
细胞	33931
条件	33927
及其	33894
是否	33794
大学	33580
至	33516
开发	33478
一位	33452
关于	33371
家	33090
每个	32941
无@@	32924
国际	32782
计算	32768
我国	32715
机	32701
运动	32688
因素	32678
学习	32665
?	32620
性能	32436
行为	32320
内容	32307
试验	32238
水@@	32204
东西	32195
讨论	32025
模式	32019
拥有	31944
此	31916
类	31856
之前	31736
告诉	31697
甚至	31292
导致	31264
起	31169
测试	31124
成功	31107
价值	31104
线	30990
名	30956
历史	30849
完成	30809
来说	30787
最大	30728
特点	30703
文件	30679
决定	30528
表现	30515
材料	30337
器	30253
另	30133
空间	30089
不过	30065
6	30032
道	29754
然而	29692
标准	29692
过去	29633
称	29427
英国	29341
解决	29322
量	29319
改变	29263
三@@	29192
这一	29156
每	29117
曾	29052
应	28937
吧	28906
走	28901
吃	28881
通常	28861
低	28839
正	28817
简单	28815
各种	28763
保护	28761
头	28714
人员	28690
今天	28633
质量	28581
间	28533
朋友	28511
随着	28483
作	28460
了解	28429
特别	28344
接受	28336
长	28322
比赛	28291
事情	28192
完全	28032
明显	28014
表明	28006
减少	27784
直接	27741
日本	27693
水平	27686
上@@	27663
因	27658
爱	27623
调查	27552
虽然	27540
学	27434
先生	27396
出来	27368
结果表明	27333
达到	27241
美元	27230
人@@	27157
检测	27058
车	26979
造成	26859
不要	26837
花	26835
领域	26689
特征	26684
图	26547
无	26523
运行	26481
人类	26452
健康	26451
自	26405
的话	26369
例	26272
反应	26172
意义	26157
20	26026
继续	25943
值	25935
确定	25926
均	25858
全球	25728
进入	25696
观察	25686
特性	25597
报告	25551
有@@	25504
之@@	25412
带来	25411
度	25388
率	25381
尽管	25363
语言	25239
基本	25153
那个	25134
学校	24910
整个	24902
针对	24884
体	24845
大量	24818
跟	24778
地@@	24753
T@@	24737
8	24729
状态	24605
新@@	24599
站	24564
资源	24558
考虑	24488
受到	24414
投资	24408
7	24404
算法	24395
拉@@	24364
位于	24348
外	24319
结合	24295
程序	24286
建议	24194
号	24109
形式	24089
对@@	24041
马@@	24022
约	24006
有些	23968
阿@@	23946
无法	23937
自@@	23817
觉得	23698
路	23684
机构	23658
力	23614
保持	23479
类型	23448
超过	23445
降低	23434
找到	23417
位	23360
范围	23277
住	23262
达	23240
准备	23160
即	23150
速度	23070
工艺	23066
可@@	23039
汽车	22957
没	22879
程度	22871
天@@	22868
工程	22850
一名	22810
一点	22787
一家	22770
总统	22752
网站	22727
合作	22681
引起	22647
心	22633
未来	22618
那里	22583
下@@	22553
B@@	22499
组	22477
增长	22464
行	22444
斯	22428
例如	22367
光	22366
同样	22346
银行	22328
山	22191
且	22188
一项	22153
一切	22144
钱	22108
最近	22103
西@@	22037
价格	22019
电影	21991
德	21991
建设	21988
区域	21957
一般	21954
容易	21941
金@@	21936
写	21932
市	21901
不断	21817
工具	21801
思想	21789
评价	21777
部	21759
仍	21758
参加	21687
需求	21678
参数	21655
感觉	21616
文章	21542
更加	21369
为什么	21341
压力	21315
M@@	21290
层	21288
仍然	21281
感到	21215
最终	21207
严重	21156
面	21154
书	21137
位置	21125
小时	21112
临床	21109
海@@	21099
报道	21097
专业	21053
受	21050
机会	21048
操作	21010
指出	21001
R@@	20988
期	20948
12	20933
如此	20878
其它	20866
首先	20834
白@@	20830
处	20827
业务	20825
几个	20785
事件	20782
组成	20781
天	20723
执行	20701
含量	20657
L@@	20622
最好	20574
两@@	20562
分布	20541
板	20524
注意	20519
心@@	20462
重新	20447
软件	20445
几乎	20419
客户	20374
政治	20368
拉	20361
谁	20316
也许	20303
一下	20286
动物	20238
外@@	20235
家庭	20222
内@@	20211
P@@	20179
创建	20173
双@@	20148
制度	20142
风险	20137
女性	20091
•	20061
努力	20051
N@@	20049
证明	20020
手	19992
G@@	19979
相信	19957
进一步	19946
艺术	19941
代表	19929
片	19905
表面	19875
9	19870
剂	19860
经	19857
应用程序	19848
开@@	19784
良好	19764
实际	19746
对象	19739
生命	19738
第	19688
政策	19664
叫	19643
自由	19626
场	19562
加@@	19548
从而	19548
队	19532
欧洲	19530
测量	19491
生	19470
另外	19455
F@@	19439
方案	19394
D@@	19393
真正	19386
任务	19383
流	19319
生物	19296
三个	19293
同	19288
包含	19274
检查	19248
H@@	19242
C@@	19232
快速	19225
物	19224
数	19203
解释	19202
制造	19165
描述	19151
全@@	19143
管	19119
经过	19039
单@@	19034
以来	19013
30	18987
科学	18956
变得	18947
总是	18935
神	18896
表达	18890
今年	18885
分	18882
门	18876
分@@	18862
老@@	18848
大多数	18828
种	18809
各	18802
一天	18764
发@@	18762
特	18749
装置	18737
成@@	18711
关注	18710
稳定	18657
机制	18652
四@@	18641
以@@	18641
措施	18601
说明	18580
死	18537
自然	18496
经验	18487
法律	18486
二@@	18485
热@@	18466
进	18465
疾病	18460
网	18437
据	18431
S@@	18427
方向	18417
持续	18404
温度	18367
斯@@	18367
现象	18361
当然	18350
便	18332
出@@	18317
买	18310
时期	18305
听	18289
将会	18211
米	18197
给出	18171
金	18155
个人	18089
开	18085
安@@	18056
北京	18036
现代	18030
克	18003
广泛	17965
阶段	17959
不仅	17936
资料	17912
取得	17908
分别	17904
故事	17902
运用	17858
卡@@	17800
表	17755
当时	17712
油	17702
想要	17699
世纪	17677
作品	17664
长@@	17656
身体	17654
特@@	17627
两种	17587
即使	17511
体系	17492
游戏	17480
似乎	17452
植物	17430
死亡	17387
记录	17363
气	17361
信号	17355
卡	17340
「	17337
条	17313
光@@	17299
建筑	17295
比如	17293
结束	17287
行业	17265
音乐	17261
球	17251
问	17250
经常	17199
定义	17195
使得	17155
保证	17109
印度	17103
热	17098
手术	17055
食物	17033
一条	17029
以上	17004
红@@	16992
期间	16989
自动	16988
至少	16982
安装	16973
复杂	16973
更好	16966
基因	16958
精神	16925
大家	16913
允许	16905
K@@	16898
罗@@	16891
消息	16859
打	16849
花@@	16846
概念	16812
药物	16799
理解	16790
强	16739
显著	16735
时代	16733
打@@	16717
国	16694
太	16690
工业	16674
巨大	16635
C	16566
连接	16548
改善	16517
11	16466
原理	16451
销售	16448
英语	16409
重@@	16403
才能	16376
专家	16374
德@@	16369
越来越	16350
实施	16315
图像	16310
数量	16303
知识	16289
加入	16218
A	16157
前@@	16150
」	16149
病	16136
那样	16112
15	16111
儿童	16100
成本	16093
巴@@	16048
差异	16046
满足	16029
诊断	16001
数字	15998
快	15983
P	15954
马	15919
很大	15891
曾经	15879
预测	15875
正@@	15852
权	15839
行动	15835
经历	15830
类似	15803
意味着	15802
需	15801
认识	15764
创造	15748
口	15724
正常	15721
城	15717
系	15697
生@@	15693
尤其	15686
有着	15634
代码	15631
参与	15626
错误	15589
本@@	15582
未	15545
除了	15518
E@@	15517
会议	15469
制作	15465
模拟	15463
长期	15441
亚@@	15431
医生	15421
加	15412
某些	15404
这么	15393
设置	15388
主@@	15355
真的	15346
非@@	15321
相对	15319
相@@	15312
比@@	15304
见	15288
联系	15283
每天	15277
课程	15259
食品	15253
关键	15188
那@@	15174
下降	15149
这@@	15124
制	15119
相	15113
W@@	15101
风	15096
时@@	15095
利	15095
去年	15090
加工	15088
2@@	15088
有人	15079
南@@	15079
特殊	15072
电@@	15034
色	15022
古@@	15021
一年	15012
优化	14959
方	14950
照片	14941
元素	14925
十分	14922
大约	14921
％	14906
集团	14888
国内	14875
美@@	14866
访问	14854
函数	14846
大部分	14831
电子	14811
当地	14806
如@@	14806
语	14805
上海	14802
医院	14778
以前	14776
风@@	14775
意识	14768
业	14758
正确	14751
利@@	14728
一部分	14723
协议	14716
啊	14712
最佳	14710
避免	14708
规定	14686
改进	14657
同@@	14636
万@@	14614
V@@	14592
黑@@	14588
教学	14561
一只	14552
适用	14540
元	14521
父亲	14520
主	14520
五@@	14499
段	14490
这次	14478
按	14478
指	14458
怎么	14434
气@@	14418
一份	14385
和@@	14363
策略	14353
总	14346
尔	14341
级	14339
综合	14332
这位	14331
战争	14293
以后	14290
声	14289
这项	14261
训练	14251
拿	14239
s	14224
占	14221
测定	14216
团队	14202
实践	14194
次	14176
过@@	14145
波	14135
教授	14130
鱼	14127
移动	14111
用来	14109
州	14105
交易	14103
树	14096
山@@	14078
话	14072
独立	14071
入	14069
部门	14034
母亲	14016
边	13998
反@@	13978
少	13931
找	13926
男人	13924
促进	13923
成员	13910
限制	13897
感染	13894
共同	13890
为@@	13890
布@@	13887
科学家	13865
女人	13822
称为	13812
掉	13805
法国	13800
王@@	13799
黄@@	13759
附近	13759
仅	13741
西	13727
内部	13720
一场	13710
李@@	13704
物质	13698
原则	13698
是因为	13669
J@@	13667
A@@	13662
转@@	13658
相比	13645
举行	13640
确保	13637
采取	13607
评估	13589
法@@	13582
丰富	13536
50	13514
作者	13506
员工	13503
地球	13492
病人	13491
观点	13464
变@@	13460
奥巴马	13445
组合	13441
基	13437
新闻	13429
亿美元	13417
面临	13400
购买	13394
直到	13388
低@@	13385
s@@	13377
处于	13369
第一	13367
儿子	13364
集	13361
近	13361
只要	13358
金属	13357
此外	13349
后@@	13345
力量	13336
收入	13332
寻找	13331
下来	13327
德国	13319
林	13318
分子	13285
适合	13282
人民	13243
改革	13236
角度	13221
O@@	13210
媒体	13206
其@@	13200
台	13197
服务器	13194
用@@	13193
美	13192
论文	13187
于是	13160
源	13150
相同	13142
生长	13136
平均	13134
状	13130
发	13130
a	13127
添加	13123
她们	13096
恢复	13087
科	13082
多少	13082
计算机	13074
属于	13059
重点	13050
文@@	13048
指数	13048
格	13044
我@@	13042
效应	13037
而@@	13021
石	13020
官员	13009
大型	13008
早期	12999
0	12989
新型	12967
状况	12965
阐述	12961
名字	12952
动态	12942
角	12938
基@@	12938
B	12929
别人	12907
国@@	12902
唯一	12889
文	12884
词	12876
先	12845
河	12823
变成	12818
调整	12812
放在	12796
波@@	12795
合成	12781
单	12773
加强	12771
全	12756
声音	12748
当前	12746
做出	12733
主义	12725
三	12724
3@@	12707
手@@	12702
负责	12697
塔	12684
t@@	12671
实际上	12662
委员会	12662
令	12632
平台	12630
具体	12622
飞机	12620
电话	12581
数据库	12578
回	12556
混合	12550
平衡	12545
儿	12540
包	12537
膜	12535
优势	12520
电脑	12516
子@@	12508
100	12497
危险	12486
看起来	12475
布	12474
展示	12464
试图	12458
自我	12455
病毒	12447
或是	12441
抗@@	12428
在于	12404
穿	12398
离开	12394
规则	12393
员	12392
m@@	12386
酒店	12363
蛋白	12355
头@@	12341
当@@	12339
核心	12338
涉及	12331
只能	12297
详细	12295
能量	12295
回到	12282
培养	12277
老	12269
特定	12261
构成	12259
年轻	12253
永远	12242
全国	12242
:	12239
强度	12235
相当	12232
尼	12230
发布	12222
系列	12218
家@@	12215
父母	12214
从@@	12214
最高	12195
室	12195
神@@	12189
流@@	12177
令人	12169
感	12159
可是	12159
生成	12137
T	12132
所@@	12124
几@@	12112
火@@	12111
件	12107
构建	12096
药	12087
4@@	12066
困难	12065
d@@	12059
合理	12053
性@@	12051
D	12044
酸	12035
角色	12030
背景	12000
会@@	11995
球员	11991
地震	11989
品牌	11984
变	11982
效率	11979
c@@	11976
张@@	11975
制备	11969
应当	11966
节	11960
输入	11946
配置	11944
尼@@	11936
多个	11931
不再	11930
有限公司	11920
半@@	11907
大小	11898
指标	11891
联合	11887
干	11884
根	11878
愿意	11854
分钟	11848
全部	11837
很快	11822
库	11821
版本	11819
日@@	11815
既	11815
重	11814
东@@	11804
沙@@	11796
科@@	11776
船	11773
创新	11767
人口	11767
记者	11766
门@@	11744
派	11744
石@@	11725
迅速	11708
公@@	11707
维@@	11695
担心	11687
第一个	11677
资金	11658
铁@@	11648
著名	11647
素	11644
液	11637
香港	11629
教师	11624
必要	11609
来到	11597
颜色	11595
术	11580
i	11557
分离	11539
足够	11535
经营	11520
挑战	11487
料	11441
p@@	11440
皮肤	11436
老师	11399
妇女	11398
再次	11396
岛	11388
块	11381
土地	11379
竞争	11370
身上	11364
000	11364
形	11358
5@@	11354
清@@	11352
平@@	11341
读	11337
18	11335
以下	11331
行@@	11330
版	11329
来@@	11328
商业	11317
年代	11315
纳	11312
单位	11310
论述	11301
怎样	11299
跑	11296
克@@	11279
2010	11274
25	11267
适应	11266
尝试	11255
讲	11254
骨	11237
空@@	11236
广告	11234
奥@@	11220
皮	11216
b@@	11211
视频	11202
费用	11200
俄罗斯	11198
产业	11195
通@@	11193
理想	11184
万	11180
手机	11177
皮@@	11166
每年	11153
报	11145
第一次	11138
厂	11121
e@@	11118
有时	11107
两	11107
旅游	11100
县	11095
16	11092
疗效	11090
局	11087
增强	11082
学院	11076
第二	11055
真@@	11034
电	11034
小说	11034
超@@	11031
属	11031
哈@@	11031
看见	11012
而言	11011
一系列	11003
明@@	10973
40	10973
好@@	10970
回@@	10968
每@@	10958
著	10957
里面	10951
原@@	10951
N	10941
眼睛	10937
破坏	10922
2008	10915
动	10913
清楚	10906
积极	10905
酒	10899
发表	10898
看看	10897
林@@	10893
妈妈	10886
手段	10881
受@@	10869
贸易	10864
地位	10840
多年	10837
独特	10820
上升	10820
听到	10816
不可	10811
连续	10808
反映	10803
18@@	10798
按照	10793
夫	10787
规划	10771
相应	10767
正是	10764
字	10755
六@@	10754
全面	10749
些	10741
想法	10727
海	10724
木@@	10718
空气	10709
亚	10704
画	10698
圣@@	10686
社区	10677
宣布	10672
消费者	10659
I	10651
后来	10646
活性	10642
质	10631
纤维	10631
最新	10628
装	10608
王	10603
自身	10601
事实上	10591
性质	10578
信	10578
论	10553
风格	10542
er	10532
压	10529
太@@	10485
反	10480
博士	10479
普通	10474
本身	10465
若	10464
接触	10458
百@@	10456
主题	10451
普@@	10446
亚洲	10438
房间	10432
损伤	10429
S	10428
吸引	10425
典型	10409
高度	10402
合@@	10396
房子	10391
女	10382
充满	10380
I@@	10377
机@@	10375
战略	10363
连	10360
雷@@	10358
伊@@	10348
面对	10343
依据	10337
体@@	10326
西方	10324
仅仅	10318
验证	10310
往往	10310
上面	10310
固定	10306
多种	10297
逐渐	10288
油@@	10279
压@@	10278
尔@@	10265
总@@	10262
一张	10255
现实	10235
化@@	10223
上帝	10221
达@@	10219
其实	10214
U@@	10210
八@@	10205
确实	10195
红	10191
爱@@	10189
例子	10187
狗	10178
远	10168
伦敦	10161
仿真	10161
领导	10160
趋势	10156
2009	10151
转换	10150
酶	10147
7@@	10146
污染	10141
失去	10140
晚上	10133
费	10129
F	10128
6@@	10122
电视	10120
北@@	10114
教	10113
里@@	10112
现有	10099
总结	10099
学@@	10098
放@@	10097
L	10095
界	10090
神经	10089
纽约	10085
一件	10075
威胁	10069
群	10066
化学	10066
明	10062
之中	10061
距离	10055
o	10051
完	10050
同意	10035
放	10030
飞@@	10028
阅读	10025
周围	10021
快乐	10008
事实	10005
交流	9996
十@@	9990
球队	9986
或许	9984
R	9974
搜索	9972
调@@	9969
叶	9965
突然	9960
肯定	9958
一旦	9953
传播	9945
直@@	9937
真	9936
华@@	9936
构造	9928
农业	9921
首次	9917
力@@	9916
属性	9911
打开	9909
权利	9903
科技	9861
攻击	9855
集中	9854
难	9839
回答	9827
二	9827
名@@	9824
如今	9808
存储	9804
起@@	9782
价	9782
干@@	9778
估计	9759
60	9755
开展	9744
坚持	9742
资产	9695
格@@	9682
循环	9680
危机	9680
命令	9676
指定	9675
象	9670
丝	9666
白	9660
面@@	9658
缺乏	9656
男性	9655
'	9647
下面	9646
越	9644
y	9637
双	9636
公园	9632
人士	9631
责任	9627
不到	9624
我会	9621
品	9621
座	9617
防止	9616
车@@	9616
坐在	9616
得@@	9604
美丽	9603
肿瘤	9594
说道	9558
森	9550
数@@	9550
X@@	9540
史	9535
以色列	9530
提@@	9529
某	9528
比例	9525
该@@	9517
提取	9514
享受	9512
杂志	9511
请求	9510
E	9509
文学	9506
准确	9505
制定	9500
更新	9487
深@@	9484
艾@@	9471
妻子	9469
方便	9468
粉	9467
血@@	9464
成立	9464
解	9456
指导	9455
动力	9453
基金	9452
14	9450
出口	9449
现场	9444
输出	9440
差	9439
石油	9435
安排	9435
扩展	9433
失败	9429
别	9425
塔@@	9410
人物	9408
拒绝	9406
转移	9405
症	9400
脚	9397
清单	9393
绿色	9386
定@@	9384
常见	9382
店	9375
纳@@	9370
13	9368
’	9367
连@@	9360
职业	9357
整体	9353
提升	9353
龙	9346
利益	9346
萨@@	9336
罗	9336
实例	9315
眼	9310
探索	9309
交@@	9304
年龄	9302
纸	9297
收@@	9297
年@@	9297
i@@	9285
常常	9284
盘	9280
入@@	9258
X	9256
h@@	9255
底	9253
衣服	9250
承认	9250
机械	9240
含有	9202
微@@	9194
24	9174
灯	9173
办公室	9166
道路	9165
有助于	9148
土壤	9147
合同	9143
云	9136
发出	9135
识别	9124
无论	9124
支付	9122
脱@@	9121
方@@	9121
21	9106
女孩	9096
O	9093
办法	9080
贷款	9078
免费	9077
原	9070
态度	9068
n@@	9062
翻译	9056
桥	9053
M	9052
反对	9048
项	9046
冷@@	9045
血	9042
现状	9035
规律	9034
架	9034
防@@	9031
款	9031
米@@	9002
莫@@	9001
接近	8993
遇到	8988
身	8988
合	8985
大脑	8983
送	8975
规模	8969
周@@	8969
经@@	8963
心理	8960
草	8957
包@@	8956
倒	8946
赢得	8945
符合	8941
安	8935
于@@	8933
流行	8928
工厂	8925
课	8922
通信	8916
意大利	8915
证据	8910
真实	8909
女儿	8909
创作	8906
定	8901
居民	8889
强调	8887
工@@	8873
框架	8866
族	8866
较大	8860
半	8860
以便	8853
奇	8848
恩	8843
玻璃	8842
症状	8832
曲线	8831
师	8827
千@@	8824
能源	8818
左右	8817
．	8813
g@@	8803
非洲	8801
呈	8800
投资者	8797
刺激	8796
分类	8795
开放	8781
19	8776
原料	8775
完整	8772
‘	8765
作@@	8759
体现	8756
停止	8750
工	8748
精@@	8743
完善	8740
公开	8737
先@@	8735
民族	8732
定位	8730
博@@	8725
补充	8716
早	8715
肉	8713
满	8713
应@@	8704
欢迎	8698
帮	8692
分为	8692
气体	8689
成分	8674
能@@	8673
龙@@	8663
上述	8655
约翰	8649
通	8646
点@@	8644
陈@@	8642
带@@	8639
培训	8635
各@@	8635
8@@	8632
维护	8631
姆	8629
顿	8627
l@@	8624
值得	8623
轮	8621
房	8619
进@@	8613
南	8611
大鼠	8608
形态	8605
警察	8601
收集	8594
核	8592
驱动	8591
核@@	8588
发挥	8582
土	8579
女@@	8575
名称	8573
音	8558
对比	8558
机理	8537
17	8533
排@@	8531
苹果	8527
损失	8523
抑制	8515
规范	8514
有趣	8513
口@@	8512
异常	8510
管@@	8509
立@@	8509
糖	8498
电路	8494
太阳	8485
作出	8482
申请	8479
菜	8475
常@@	8474
组件	8468
土@@	8468
贝@@	8458
意思	8451
推动	8445
分配	8440
班	8429
启动	8423
靠	8413
混凝土	8413
在线	8413
俱乐部	8411
四个	8402
结@@	8401
制@@	8400
平	8396
温@@	8394
形象	8389
明确	8381
毛@@	8378
苏@@	8376
黑	8362
帕@@	8360
双方	8355
施工	8354
战	8348
军队	8343
依然	8341
修改	8330
_	8323
2007	8320
取	8312
文档	8309
军	8297
证实	8288
圈	8280
共	8280
张	8275
兰	8274
迪	8272
应力	8270
途径	8265
实验室	8265
钢	8260
孔	8260
除	8257
一座	8252
稳定性	8250
微	8249
9@@	8249
不管	8243
星	8241
回来	8236
e	8227
伟大	8226
小组	8225
动@@	8222
抗	8216
一致	8213
离	8210
预防	8204
列	8196
火	8190
进程	8186
诺	8179
强@@	8176
还要	8172
完美	8171
明白	8170
商品	8170
不足	8167
很少	8164
主席	8159
我要	8158
伤	8156
刀	8149
图片	8138
端	8136
频率	8134
诗	8120
工人	8120
f@@	8107
伤害	8104
成长	8092
汉@@	8089
常	8084
笑	8082
省	8082
人生	8080
赛	8071
木	8068
普遍	8064
七@@	8059
盖	8055
重大	8047
党	8046
从事	8045
G	8045
预计	8043
高兴	8032
500	8031
强大	8024
梅@@	8017
引发	8013
收到	8006
提到	8003
机器	8001
吉@@	8001
到达	7995
根本	7988
y@@	7977
没@@	7974
不错	7973
逻辑	7971
乐@@	7971
周	7970
留下	7968
浓度	7967
动作	7965
曼	7964
吸收	7957
铁	7955
可靠	7954
商	7951
医疗	7951
正式	7939
缺陷	7938
失@@	7933
亦	7930
更为	7924
未@@	7917
情绪	7916
副	7915
兰@@	7914
选	7904
记忆	7900
农村	7900
环	7898
冰@@	7893
近年来	7892
预期	7882
华	7882
监测	7873
具	7871
短	7863
网@@	7856
并非	7839
实@@	7835
免疫	7834
80	7831
空	7829
物理	7828
模块	7828
意见	7824
正如	7823
信@@	7823
释放	7821
获取	7821
倍	7816
之外	7801
刚	7800
保@@	7793
他@@	7791
韩国	7780
落	7772
麽	7770
乐	7768
血管	7765
切@@	7760
人群	7758
高级	7755
生态	7753
给予	7749
死@@	7748
中间	7747
参考	7746
XML	7745
解决方案	7743
往	7742
事业	7738
求	7735
塞@@	7729
协会	7723
仪	7712
终于	7710
索@@	7710
单元	7710
对此	7699
面前	7695
等等	7695
复@@	7684
90	7673
样	7668
数值	7668
方程	7665
盐	7658
红色	7656
身@@	7655
研制	7655
那种	7652
品质	7652
标记	7648
再@@	7644
保存	7642
V	7639
巴	7633
托@@	7632
激光	7628
步骤	7627
r@@	7623
所谓	7622
叶@@	7615
思考	7612
障碍	7611
玩	7600
高效	7597
强烈	7597
洛@@	7594
有点	7591
t	7588
品种	7579
迪@@	7576
看@@	7575
幸福	7572
页面	7571
相似	7570
最@@	7569
拍摄	7563
痛苦	7562
追求	7560
情@@	7559
公布	7559
优点	7555
机场	7548
球@@	7541
来源	7541
意	7541
武器	7540
好像	7540
不想	7540
H	7534
扩大	7513
茶	7509
承诺	7509
流程	7502
冲突	7500
含	7495
引入	7492
随	7490
深	7487
军@@	7477
牌	7472
节目	7467
故障	7464
适当	7460
白色	7458
标志	7457
勒	7439
共@@	7437
像是	7437
眼@@	7434
消费	7429
基地	7425
出去	7425
鸟	7423
因@@	7420
旅行	7413
2000	7411
统一	7403
宗教	7401
图@@	7392
复合	7381
为主	7379
公共	7374
第一@@	7370
轴	7359
是从	7358
成熟	7358
声@@	7356
页	7351
维持	7351
而是	7346
先进	7337
伯@@	7333
极	7330
家里	7329
得出	7323
及@@	7317
易@@	7316
调节	7311
气候	7311
文本	7308
推@@	7305
放弃	7304
和平	7304
变形	7302
声明	7300
来看	7299
奖	7298
环@@	7296
确认	7294
表演	7293
瓦@@	7293
联盟	7291
初步	7290
青@@	7289
分享	7289
细@@	7274
考察	7269
森林	7267
丈夫	7263
传感器	7260
杯	7259
200	7257
随后	7255
记得	7253
统计	7253
湖	7252
莱@@	7251
此@@	7250
地面	7250
系数	7248
麦@@	7244
理念	7244
评论	7238
产量	7238
包装	7235
兴趣	7235
耶和华	7231
兹	7230
感受	7229
决策	7224
体验	7224
箱	7218
一块	7207
公里	7196
情	7195
目录	7185
某个	7179
澳大利亚	7176
2006	7171
想象	7170
节点	7168
密度	7167
技巧	7164
消除	7163
一套	7163
坐	7160
希@@	7158
东	7151
脸	7149
金融	7147
检验	7147
带有	7143
习惯	7142
章	7138
K	7137
案	7136
公众	7136
组@@	7134
修复	7131
w@@	7130
展开	7125
同事	7125
几年	7122
k@@	7122
蒂	7121
返回	7117
电流	7112
鼓励	7111
更@@	7109
团	7108
加拿大	7106
一部	7102
潜在	7096
互联网	7092
埃@@	7089
接@@	7086
楼	7085
喝	7082
调用	7072
香@@	7071
一半	7064
有限	7063
修@@	7052
技能	7043
响应	7042
顾客	7035
覆盖	7032
22	7032
形状	7028
观	7014
等待	7012
前景	7009
看着	7006
<	7003
朝	7001
er@@	7000
领导人	6990
转变	6989
中有	6989
作业	6986
轻@@	6985
托	6983
an	6982
理由	6973
教@@	6972
别@@	6971
相互	6970
取@@	6968
2005	6968
杆	6967
特色	6966
有机	6960
投入	6959
v@@	6955
经理	6953
欧@@	6948
寻求	6945
代@@	6941
活	6938
编辑	6937
消失	6937
设施	6936
近@@	6935
选举	6934
超	6934
份	6928
跟踪	6925
试@@	6921
墙	6921
尺寸	6915
顶	6908
飞行	6906
证	6902
机器人	6900
深入	6896
泰@@	6894
两年	6894
预@@	6891
即将	6882
错	6879
Y@@	6879
权力	6876
本书	6873
整@@	6873
推出	6866
突出	6864
学会	6862
因子	6861
70	6858
极@@	6854
非线性	6852
鲁@@	6839
阿	6838
卖	6835
农民	6833
高于	6832
由@@	6830
事故	6822
碳	6818
作家	6813
最初	6808
资本	6804
杜@@	6803
床	6803
飞	6798
细节	6796
云@@	6795
发育	6791
生存	6790
道@@	6786
观念	6786
头发	6785
英@@	6778
犯罪	6777
时刻	6772
这场	6770
诺@@	6770
部队	6768
流动	6766
域	6764
套	6762
婴儿	6760
有所	6757
装@@	6753
海洋	6751
态	6749
建造	6748
冷	6748
相反	6747
以为	6742
难@@	6739
判断	6739
日子	6738
井	6727
面积	6720
打算	6717
第三	6714
出生	6714
网上	6713
异@@	6708
安全性	6696
猫	6695
a@@	6688
模糊	6687
辐射	6686
当中	6686
村	6684
表@@	6680
梦	6675
蛋白质	6672
出发	6672
供	6672
年轻人	6671
格式	6660
充分	6657
牛@@	6656
考试	6655
路@@	6654
解@@	6654
满@@	6654
身份	6652
然	6646
星期	6645
警告	6644
娜	6638
显然	6636
一段	6620
交通	6613
怀疑	6612
建@@	6609
保留	6609
常规	6607
周期	6605
贡献	6604
费@@	6602
接口	6602
股票	6601
每次	6601
一片	6601
氏	6599
难以	6582
接下来	6575
一边	6568
雷	6565
倾向	6564
传输	6561
家人	6553
圆@@	6552
不用	6552
假设	6551
奇@@	6549
配@@	6543
中国@@	6540
易	6530
Web	6530
蒙@@	6525
合适	6523
落@@	6521
柱	6520
细菌	6517
列表	6515
步	6513
首@@	6512
冲@@	6506
磁@@	6505
松@@	6504
卫生	6504
初@@	6499
通道	6498
误差	6496
律师	6495
d	6495
华盛顿	6491
编码	6490
众多	6490
袭击	6479
传@@	6479
税	6478
梦想	6476
果	6476
物@@	6473
影片	6472
in@@	6470
卫星	6464
真是	6463
燃料	6459
虫	6457
树@@	6456
推广	6456
呈现	6456
远@@	6455
传递	6453
集@@	6451
阳光	6451
模	6444
库@@	6443
耶稣	6442
代理	6442
人数	6439
见@@	6428
英里	6425
本发明	6424
专@@	6423
变量	6417
Z@@	6417
票	6414
指@@	6412
交换	6405
列@@	6403
1@@	6403
查@@	6394
股	6393
批评	6387
精度	6385
民@@	6384
原来	6382
读者	6381
天然	6379
体育	6379
优秀	6379
线@@	6376
任	6374
男孩	6371
九@@	6369
理	6367
各个	6366
聚@@	6362
应对	6361
说@@	6360
振动	6358
江	6357
旧	6355
学者	6354
链接	6353
关闭	6353
序列	6351
鱼@@	6348
重复	6346
进展	6343
联合国	6343
求@@	6342
毛	6337
查询	6337
西班牙	6336
三种	6332
事务	6328
病例	6325
胡@@	6320
采访	6314
综述	6305
跳	6304
电子@@	6300
商店	6298
味	6296
营养	6294
老板	6292
色@@	6290
做到	6289
哲学	6287
旋转	6285
阻止	6281
后面	6277
含@@	6271
出版	6271
那时	6267
成绩	6265
切	6263
世	6257
菌	6255
草@@	6252
向@@	6250
就要	6248
运输	6244
融合	6243
接着	6243
国内外	6242
酒@@	6241
接	6241
小鼠	6241
上涨	6240
腿	6236
电压	6235
进步	6233
街	6233
本人	6232
绝对	6229
牛	6229
高速	6227
镇	6226
掌握	6226
伊拉克	6226
随机	6222
独@@	6220
食	6219
下去	6214
他人	6213
数学	6211
回家	6210
事物	6210
书@@	6208
钢@@	6207
种类	6201
一步	6199
al@@	6199
要@@	6198
观众	6197
局部	6196
运动员	6193
维	6193
转	6191
可能性	6191
电池	6190
女士	6188
香	6181
发言人	6181
急性	6178
联@@	6176
根@@	6173
成就	6170
爱情	6168
士	6162
言	6161
有用	6157
全世界	6154
0.@@	6147
河@@	6145
地址	6144
增@@	6141
u@@	6140
穿着	6138
人体	6137
产@@	6137
人才	6135
债务	6134
说话	6132
居住	6132
哪	6132
看来	6131
改造	6129
拍	6125
脑	6123
男子	6123
索	6120
横@@	6119
下午	6117
图书馆	6115
排	6112
胜利	6111
通知	6110
主体	6109
部署	6108
歌	6104
重视	6102
装饰	6102
医学	6102
代	6102
显得	6101
发射	6096
色彩	6095
洗@@	6095
协调	6093
车辆	6091
哪里	6087
专门	6086
黑色	6084
战@@	6083
雨	6071
形@@	6068
扫描	6064
事@@	6062
福@@	6053
导@@	6052
23	6051
满意	6049
刘@@	6048
关@@	6048
链	6046
颗粒	6042
罪	6040
骨@@	6030
CT	6025
干扰	6024
阿富汗	6023
世@@	6021
脂肪	6020
耐@@	6018
注册	6017
越@@	6012
禁止	6012
动力学	6012
严格	6007
立即	6003
报@@	6002
岩	6002
士兵	6001
注	6000
控制系统	6000
血液	5999
杀	5999
天气	5994
货币	5990
滑@@	5990
星@@	5990
大陆	5989
最小	5979
群体	5977
在@@	5977
卷	5974
部位	5973
咖啡	5966
前面	5965
补@@	5964
游@@	5963
三维	5958
实时	5957
过来	5956
施@@	5956
四	5956
硬件	5954
混@@	5949
紧张	5945
冲击	5945
长度	5941
保障	5939
须	5935
共享	5935
翻@@	5933
边缘	5929
古代	5928
港	5927
发动机	5926
亲@@	5922
产	5922
考@@	5921
大规模	5920
绿@@	5916
壳	5914
刚刚	5914
配合	5907
普	5905
举办	5904
担任	5899
提	5897
es	5897
糖尿病	5893
术后	5888
泵	5884
首席	5883
必@@	5882
答案	5879
什	5879
减@@	5877
沙	5871
小型	5871
活@@	5870
2004	5870
国外	5869
各国	5865
望	5862
供应	5862
不少	5858
丝@@	5857
软@@	5852
夜@@	5851
博客	5846
外部	5845
足	5841
国王	5834
看法	5833
情感	5832
走@@	5831
威@@	5831
其他人	5829
文字	5828
想到	5828
体内	5825
义	5825
成果	5821
赛季	5820
或@@	5817
雪@@	5814
出售	5813
26	5813
的确	5812
1.@@	5812
取代	5811
旨在	5810
均匀	5809
人工	5809
期望	5805
吸@@	5803
否则	5803
投@@	5800
见到	5792
精确	5792
多数	5788
病@@	5779
轨道	5775
低于	5773
少@@	5769
理@@	5768
疫苗	5762
被@@	5761
永@@	5759
集成	5758
哦	5758
感谢	5757
进口	5756
同学	5749
台@@	5748
埃及	5747
短@@	5744
壁	5744
谷歌	5740
跳@@	5739
蓝@@	5736
节@@	5735
克斯	5732
谈	5724
同步	5723
雅@@	5721
苦@@	5721
已有	5719
游客	5716
种子	5712
瓦	5711
洞	5708
收益	5708
乌@@	5707
心脏	5706
路径	5703
28	5703
结婚	5702
康@@	5700
呼吸	5700
匹配	5700
偏@@	5700
军事	5697
领@@	5691
ing	5691
下载	5690
宽	5689
依赖	5687
常用	5685
叫做	5684
耳@@	5683
报纸	5683
艺术家	5682
第二@@	5680
大学生	5679
o@@	5678
随@@	5675
英尺	5674
氧化	5673
花费	5672
管道	5671
丁@@	5668
换@@	5664
峰	5664
具备	5662
监控	5661
燃烧	5656
十年	5655
伊朗	5654
额外	5650
练习	5648
万美元	5646
铜	5645
民	5644
引@@	5638
左@@	5638
ar@@	5637
加上	5636
财富	5635
on	5634
键	5630
重建	5621
对方	5616
客	5611
斯特	5607
兄弟	5607
研发	5603
区别	5603
猪	5600
亿	5599
思维	5597
en@@	5595
袋	5593
这家	5592
损害	5592
边@@	5591
思@@	5588
冠军	5587
批准	5585
平面	5584
2011	5583
散@@	5582
离@@	5580
不久	5568
民主	5565
选@@	5564
保险	5564
梁	5563
断@@	5562
为例	5562
DNA	5559
瑞@@	5558
合并	5555
期待	5553
西部	5552
引导	5552
园	5552
商@@	5550
笔	5549
银@@	5543
南部	5543
痛	5538
化合物	5537
饮食	5536
码	5536
很@@	5535
关联	5532
记	5530
灵魂	5530
某种	5528
做法	5519
药@@	5518
巴基斯坦	5518
参@@	5518
较为	5515
角@@	5513
私人	5512
古	5508
实行	5507
胶	5505
盖@@	5500
立	5492
恩@@	5492
巴西	5491
所在	5488
U	5487
母@@	5486
从来	5485
假	5484
标签	5479
护理	5476
弹性	5476
邀请	5470
为此	5470
经典	5467
宝@@	5467
因而	5467
谱	5463
汤	5462
外国	5460
侧	5458
本质	5454
行政	5453
替代	5453
此次	5452
场景	5450
将来	5449
藏	5448
赫@@	5446
货	5445
清洁	5444
转化	5443
铁路	5442
塑料	5441
霍@@	5439
视觉	5432
本地	5429
地点	5429
不得	5428
总理	5426
移植	5424
唐@@	5423
曼@@	5421
不仅仅	5421
移民	5419
居	5419
挂	5415
联邦	5413
分析师	5409
极大	5406
敏感	5401
井@@	5401
传	5399
得以	5398
造@@	5391
智能	5388
服	5386
北部	5383
产物	5383
醇	5381
治理	5373
打击	5372
到底	5372
齐@@	5371
清	5371
棒	5370
婚姻	5368
音@@	5365
流量	5365
垃圾	5364
视	5363
300	5361
选项	5359
提示	5359
昨天	5358
待	5358
视为	5357
建	5356
中央	5354
尽	5351
所说	5349
革命	5347
磨@@	5346
天空	5344
农@@	5344
夏@@	5343
有利于	5338
单独	5338
爆炸	5336
玛@@	5334
更大	5331
信心	5331
变换	5325
官方	5324
en	5324
引用	5322
el@@	5319
很难	5314
35	5313
犯	5311
伦	5311
坏	5309
文中	5308
慢性	5308
多么	5306
最为	5305
这件	5304
好处	5304
船@@	5303
熟悉	5303
受伤	5302
瘤	5301
塞	5301
团体	5301
美国@@	5299
st@@	5299
愿	5297
矿	5296
肌肉	5294
一生	5294
枪	5292
曲	5292
板@@	5289
别的	5289
退@@	5288
组成部分	5288
黄	5286
破@@	5286
已@@	5286
通用	5284
智慧	5284
对话	5284
江@@	5282
背@@	5281
自从	5275
文明	5275
说法	5274
礼物	5274
关	5272
漂亮	5268
利润	5267
旧@@	5260
it@@	5259
in	5258
过度	5256
达成	5255
粗@@	5255
暗@@	5253
27	5253
服装	5252
控制器	5251
睡眠	5250
道德	5244
at@@	5242
爸爸	5239
算	5235
可用	5234
脑@@	5232
美好	5232
推荐	5232
家族	5232
n	5228
记住	5224
其次	5219
元@@	5217
推进	5214
教堂	5210
断	5209
做好	5209
癌症	5208
声称	5208
只@@	5208
离子	5207
博物馆	5205
画@@	5202
奥运会	5202
线性	5201
丁	5201
餐厅	5200
酸@@	5199
春@@	5198
明天	5197
早上	5196
─	5196
警方	5195
水果	5194
兵	5191
32	5191
罗马	5186
武@@	5185
信任	5184
秒	5180
提交	5180
文献	5177
照	5175
零	5172
预算	5170
假@@	5170
除非	5169
欧元	5166
对手	5165
运@@	5163
液体	5161
样品	5161
轻松	5160
结	5157
制品	5157
标@@	5150
丽	5150
队伍	5149
洛	5149
名为	5149
演员	5147
房屋	5147
on@@	5146
改@@	5145
开关	5145
院	5143
阀	5141
劳@@	5141
字@@	5137
使@@	5136
除@@	5132
到@@	5131
一支	5131
这部	5130
环保	5130
血清	5128
制造商	5128
这座	5127
噪声	5125
几种	5124
密@@	5123
部件	5120
鞋	5119
功率	5119
杨@@	5117
边界	5115
清晰	5113
前往	5111
同一	5107
睡	5105
动脉	5103
重要性	5102
种植	5102
田	5101
有时候	5101
朝鲜	5098
所示	5097
一组	5097
认知	5095
W	5094
想@@	5093
何@@	5093
原始	5092
甲@@	5089
压缩	5089
屏幕	5088
采@@	5087
蓝色	5086
汉	5085
炉	5081
男@@	5079
承担	5075
护@@	5072
快@@	5072
致力于	5071
上周	5070
蔬菜	5068
氧	5068
语@@	5067
庆祝	5067
下跌	5067
尽@@	5065
留@@	5055
甲	5052
就业	5052
那儿	5051
假如	5050
敌人	5047
高校	5046
取消	5046
史@@	5044
赛@@	5043
伯	5041
做@@	5039
要是	5037
脚@@	5036
ch@@	5034
疗法	5030
至今	5029
烟@@	5026
岩石	5025
糟糕	5024
福	5024
公民	5024
看上去	5020
在内	5020
官	5014
制成	5013
时尚	5012
马上	5007
亮	5006
阳	5005
战斗	4999
对照组	4998
及时	4995
支@@	4994
富@@	4994
唱	4994
哪些	4992
矛盾	4991
一群	4991
槽	4988
关心	4988
发送	4987
大概	4986
研究者	4984
巨@@	4983
吹@@	4983
凯@@	4983
鸡	4981
2.@@	4980
吃@@	4979
or@@	4979
排放	4976
害怕	4976
求解	4971
国会	4971
古老	4970
利率	4970
2003	4970
肝	4969
地上	4967
物种	4966
倒@@	4965
灰@@	4964
针	4963
运作	4962
松	4962
却是	4962
物品	4961
养@@	4961
以外	4961
恐惧	4956
内存	4951
调	4948
这儿	4947
日益	4947
援助	4947
三年	4945
宁	4941
争议	4940
遗传	4939
池	4936
发明	4935
欧盟	4934
邮件	4933
地图	4932
丽@@	4932
案例	4930
一类	4929
初	4926
长时间	4923
re@@	4923
烟	4919
野@@	4912
矩阵	4911
言@@	4909
脉冲	4909
大卫	4907
合金	4907
胶@@	4906
温	4900
学科	4900
取决于	4900
归@@	4899
黄金	4897
晚	4897
到来	4897
增大	4895
ad@@	4895
支撑	4892
质@@	4890
Q@@	4889
虚拟	4888
嘴	4884
超声	4881
腔	4877
延长	4875
萨	4873
程	4873
衣	4870
浮@@	4865
支	4862
深度	4860
如同	4859
游	4858
19@@	4858
今后	4856
部长	4851
伊	4851
总体	4847
深刻	4844
牙	4843
辅助	4839
广@@	4839
北	4839
几天	4837
雅	4831
宇宙	4831
不了	4830
记@@	4828
遭到	4824
夫人	4824
喷@@	4824
接收	4820
慢慢	4819
孔@@	4816
量@@	4814
粒	4814
消@@	4812
夜	4812
玉米	4811
一篇	4811
编写	4810
路上	4809
饮料	4808
超级	4808
揭示	4808
弹@@	4808
采集	4807
谈判	4807
45	4806
登	4803
粒子	4800
一辆	4799
0@@	4796
宣传	4794
首都	4792
收购	4791
始终	4791
统治	4790
分解	4790
发行	4786
an@@	4786
诱导	4784
位@@	4783
顺@@	4782
句	4782
青年	4781
不够	4780
等@@	4779
实	4778
实在	4775
鼠	4773
可靠性	4771
希腊	4769
介质	4769
速	4768
课题	4767
减轻	4767
走向	4765
界面	4765
国际@@	4764
疼痛	4763
写作	4755
富有	4753
身边	4748
计	4748
抽@@	4748
雷达	4743
公路	4743
简要	4742
艾滋病	4737
设	4735
升	4735
航空	4733
奥	4733
早@@	4731
咨询	4728
黑暗	4726
树脂	4724
透露	4722
法院	4722
佛@@	4721
这时	4718
>	4718
影	4717
遭受	4715
样子	4715
公式	4715
五	4713
案件	4711
余@@	4711
肺	4707
和谐	4705
足球	4702
脚本	4700
毕业	4700
代替	4697
删除	4696
电机	4695
热情	4695
纳米	4691
办	4691
研究所	4689
这份	4687
电力	4687
右@@	4683
观测	4682
厚	4682
弄	4681
麻烦	4679
桑@@	4671
户	4669
供@@	4669
体重	4669
微软	4667
供应商	4662
运	4660
忘记	4659
17@@	4658
保罗	4654
词@@	4653
写@@	4653
盒	4651
查看	4651
青少年	4648
从未	4648
穿过	4646
戴	4645
收	4644
持	4644
食@@	4643
聪明	4643
工程师	4642
命名	4642
桩	4641
雨@@	4638
坐@@	4636
锁	4635
弹	4632
加热	4632
馆	4628
硬@@	4628
心里	4626
月@@	4625
标	4623
16@@	4620
聚集	4619
感情	4617
小孩	4616
了@@	4616
催化剂	4615
最低	4611
复制	4611
之下	4611
各类	4610
还会	4609
湾	4607
提醒	4603
展	4603
导弹	4601
一周	4601
太空	4600
贴	4599
k	4597
久	4594
利物浦	4590
第三@@	4588
顾问	4584
降@@	4584
物体	4584
镜	4583
单一	4583
付	4583
肌@@	4581
肉@@	4581
回归	4581
编@@	4578
约束	4578
两次	4578
29	4578
示例	4573
货物	4571
并@@	4571
信仰	4570
加速	4568
换	4562
室内	4562
致@@	4561
仪式	4560
周末	4559
窗口	4556
原子	4556
渴望	4554
演讲	4553
工资	4553
起到	4548
意@@	4548
层@@	4548
若@@	4547
炎	4547
可行	4546
印	4543
谢@@	4542
防治	4540
夏天	4538
印@@	4538
软	4537
纸@@	4537
al	4537
载	4536
测@@	4536
听@@	4534
联	4533
相结合	4532
优质	4531
静@@	4530
房地产	4528
～	4526
速率	4524
认证	4524
洗	4524
停@@	4524
贵	4522
多次	4521
当代	4519
无论是	4517
设立	4516
干燥	4515
简化	4514
梅	4512
追@@	4511
行星	4506
耦合	4506
群@@	4506
民众	4501
依@@	4497
顶@@	4496
测	4496
个体	4496
现	4495
划分	4495
整合	4494
级别	4491
转向	4481
花园	4481
玩具	4481
一本	4481
观看	4476
营销	4475
用途	4473
牙@@	4473
映射	4472
日期	4472
送@@	4468
试	4468
防	4466
玉@@	4466
底@@	4465
各自	4465
自动化	4464
彼此	4463
补偿	4462
高温	4460
煤	4460
两人	4460
感@@	4457
仪器	4457
沟通	4455
层面	4450
更改	4449
教会	4445
扮演	4445
轮@@	4444
受欢迎	4438
藏@@	4436
不好	4436
j@@	4436
监管	4435
条@@	4434
芯片	4433
麻@@	4432
激励	4432
距	4431
获	4431
届	4430
一段时间	4430
盘@@	4427
教练	4426
密码	4426
3.@@	4426
命	4425
硬	4423
卢@@	4422
外面	4421
焊接	4420
可行性	4420
沉积	4419
危害	4419
休息	4418
升@@	4416
喜爱	4415
监督	4411
期@@	4411
样本	4409
茶@@	4404
p	4404
加以	4399
成像	4398
光学	4398
曲@@	4395
思	4394
降	4388
协助	4388
交	4388
立法	4387
客人	4385
依靠	4383
层次	4382
债券	4380
东部	4379
卖@@	4372
氮	4369
养	4369
公平	4369
投票	4368
现代化	4366
控制@@	4366
味道	4366
紫@@	4364
么	4364
沃@@	4362
对待	4361
社会@@	4358
年前	4356
英	4355
尊重	4355
围绕	4354
班@@	4353
印象	4351
度@@	4350
地下	4348
圆	4347
z@@	4346
甘@@	4344
激烈	4344
女子	4342
兴@@	4342
舞	4341
简@@	4341
由此	4341
钙	4340
零@@	4334
电子邮件	4334
骨折	4333
种@@	4333
修	4333
墨西哥	4332
果@@	4325
尾	4323
微笑	4321
买@@	4321
注射	4317
与其	4316
话题	4314
远程	4313
穆@@	4312
老人	4311
尾@@	4309
威	4309
舒适	4308
符号	4308
矿@@	4308
主任	4305
蓝	4302
冰	4299
月份	4297
自行车	4293
玛	4291
折@@	4291
h	4289
第二个	4282
爆发	4282
奇怪	4282
对策	4281
般	4279
毒	4279
吉	4279
心中	4275
杂@@	4274
湿	4273
首	4272
私@@	4272
灵@@	4269
另一方面	4268
权@@	4267
巴黎	4267
10@@	4267
诗歌	4266
明星	4266
校@@	4265
设定	4263
铜@@	4261
31	4261
℃	4260
建模	4253
鉴定	4251
诸如	4251
旁边	4251
海外	4249
承@@	4247
彻底	4244
讲述	4240
升级	4240
5%	4238
宝	4231
还@@	4230
剂量	4225
装备	4224
架构	4222
尚未	4222
一句	4222
不必	4219
散	4218
互@@	4217
烧@@	4216
材	4216
扩散	4216
而成	4215
弱	4215
地质	4215
片@@	4214
体制	4214
陷入	4212
象征	4209
碱	4206
英雄	4204
中文	4204
设计师	4201
反馈	4201
强化	4199
冲	4198
广场	4197
人民币	4194
可见	4193
啦	4192
志@@	4190
沿着	4189
五个	4189
太阳能	4185
佩@@	4185
陆@@	4183
年度	4183
观@@	4181
堂	4181
朝@@	4180
高压	4179
额	4175
足@@	4172
惊@@	4172
紧	4171
然@@	4168
小心	4168
势	4167
之上	4167
回应	4165
配	4164
韩@@	4163
衣@@	4159
杰克	4159
盛@@	4158
x@@	4158
参观	4156
升高	4156
超越	4155
学家	4155
回收	4155
五年	4154
网络@@	4152
活力	4152
主管	4151
米兰	4150
社交	4149
临@@	4145
两者	4145
视@@	4142
封@@	4142
盆地	4141
全新	4139
am@@	4138
夫妇	4136
葡萄酒	4135
但@@	4134
朱@@	4133
治	4132
可爱	4132
愤怒	4130
邦	4129
意外	4129
恶@@	4126
呆	4125
铝	4124
忙	4123
圣	4122
c	4122
一对	4120
前提	4119
路线	4118
去@@	4118
静脉	4117
羊	4116
面向	4115
校	4114
20@@	4110
类@@	4109
授权	4109
克服	4109
负	4107
知@@	4107
此基础	4107
阴@@	4104
耳	4103
修正	4103
电源	4102
破	4100
场所	4100
周二	4100
患	4099
工作人员	4098
劳动	4098
守@@	4097
网页	4094
ri@@	4094
本周	4093
菲@@	4092
新鲜	4092
纯@@	4091
浆	4091
查	4089
乳@@	4089
经济@@	4088
英文	4086
煤@@	4084
直	4083
丹@@	4081
迷@@	4080
灵	4075
干预	4074
巧克力	4074
毒@@	4073
般的	4071
家具	4071
现金	4070
进化	4069
谢谢	4069
哈	4068
任意	4068
牛奶	4067
对应	4065
400	4063
谈论	4061
善@@	4061
主人	4061
演出	4059
火车	4058
职位	4057
左	4057
com	4057
缘	4054
雪	4053
财产	4051
伤@@	4050
l	4050
英格兰	4049
有个	4049
暴力	4046
想起	4042
汉语	4038
周一	4038
论坛	4037
此时	4037
欣赏	4036
通讯	4033
削减	4033
胸@@	4031
盐@@	4027
更是	4026
伦@@	4026
绝@@	4024
辛@@	4023
肌	4023
15@@	4023
空中	4022
地说	4022
关节	4021
2002	4021
刺@@	4019
逐步	4018
照@@	4018
聚	4017
领袖	4015
街道	4013
寿命	4012
伴随	4012
房@@	4011
蛋	4009
幅	4007
名叫	4007
针@@	4006
叙述	4006
即可	4004
紧@@	4000
IBM	3998
所述	3996
糖@@	3995
对抗	3994
以此	3991
2001	3988
景观	3987
戴@@	3987
胺	3986
歌曲	3985
]	3975
目	3973
模板	3973
―	3971
法庭	3970
当局	3969
住宅	3968
ro@@	3966
总部	3964
厚度	3961
国家@@	3960
*	3960
模@@	3959
归	3959
法案	3958
感兴趣	3958
酮	3955
粉@@	3954
放松	3954
停	3954
篇	3951
瑞	3951
致	3950
便宜	3949
残@@	3948
维生素	3947
一台	3946
后者	3945
斗争	3943
争论	3943
探@@	3941
抱怨	3941
等级	3937
一体	3937
日常	3936
以往	3935
容器	3934
前后	3932
透过	3931
例@@	3931
一颗	3931
影像	3927
回顾	3927
弗@@	3924
领先	3921
消耗	3918
性别	3918
印刷	3917
em@@	3916
乔治	3915
听说	3914
景	3913
实用	3913
[	3913
结果显示	3912
病变	3912
吸附	3912
扩张	3911
一款	3911
沉@@	3909
海军	3907
反射	3907
所有人	3905
流体	3904
瓶	3903
情形	3903
堆	3903
问@@	3899
并发症	3898
脱	3895
心灵	3895
气候变化	3892
移@@	3891
影@@	3887
母	3885
IT	3885
垂直	3884
抗议	3883
即便	3883
联赛	3882
讲@@	3881
禁@@	3875
登@@	3875
公寓	3874
能否	3872
整理	3872
题	3871
主动	3869
负荷	3867
J	3864
目@@	3863
打电话	3862
el	3862
阿尔@@	3861
石头	3861
城@@	3861
图形	3861
减小	3860
屋	3857
优@@	3857
二十@@	3854
轻	3853
射@@	3853
这张	3852
着@@	3852
固@@	3852
财政	3849
副@@	3848
幸运	3846
透明	3844
夏季	3844
高中	3839
着重	3839
娱乐	3839
堡	3838
丹	3837
基本上	3836
法官	3835
灾难	3829
议会	3828
1000	3826
签署	3824
每周	3824
运营	3823
手中	3822
那天	3821
g	3818
薄膜	3817
溶液	3815
一道	3815
支出	3813
抓住	3813
一面	3812
尽可能	3811
水泥	3810
躺	3809
持有	3809
命运	3809
重量	3808
呀	3807
引擎	3806
5.@@	3806
南方	3804
一把	3804
任何人	3802
洋@@	3799
婚礼	3799
我能	3797
马克	3796
黄色	3794
x	3794
广泛应用	3793
神秘	3792
证书	3791
体积	3791
慢	3790
加快	3790
茨	3789
妮	3789
注入	3788
与此同时	3788
负@@	3787
可怕	3786
代谢	3785
剩下	3782
Y	3782
卷@@	3780
背后	3778
乱@@	3777
名单	3776
光谱	3776
父	3775
缺少	3774
潜力	3774
汁	3774
杰@@	3774
海岸	3773
36	3770
魅力	3769
社会主义	3768
癌	3768
光纤	3768
请@@	3766
岩@@	3766
展现	3766
旁	3765
透@@	3764
谷	3764
虚@@	3764
氯@@	3764
有没有	3764
隐藏	3761
系@@	3761
作物	3759
老鼠	3758
断裂	3757
找出	3757
打破	3757
资格	3756
灵活	3756
大气	3756
大众	3756
摩@@	3754
侧@@	3752
ab@@	3752
处理器	3751
过滤	3749
食用	3747
急@@	3747
厨房	3746
互相	3745
痛@@	3744
莉	3743
刚@@	3742
轴@@	3741
步@@	3736
面包	3735
活跃	3734
市@@	3734
货@@	3733
党@@	3733
指示	3730
英寸	3729
上市	3729
绿	3728
照顾	3722
Ch@@	3722
而已	3721
往@@	3721
剧	3721
靠近	3720
讲话	3720
要素	3720
天然气	3720
近期	3719
立刻	3717
陶瓷	3716
液@@	3716
乡	3716
混乱	3715
宫	3715
药品	3714
勒@@	3713
偷@@	3713
1%	3713
警@@	3712
圣经	3712
各地	3712
候选人	3712
到处	3711
饼	3710
贵@@	3709
冷却	3709
附@@	3708
自主	3708
泡沫	3708
拍@@	3708
编程	3706
小麦	3706
定量	3706
ed	3706
CA@@	3706
采购	3705
航	3705
视图	3704
缓慢	3703
借鉴	3701
微生物	3700
按钮	3696
走进	3694
品@@	3693
病理	3692
锻炼	3691
嘉@@	3691
蒙	3689
愉快	3689
乱	3689
田@@	3687
纯	3686
珠	3686
留	3685
师@@	3685
et@@	3685
回忆	3684
贴@@	3681
股市	3681
司机	3681
St@@	3681
推导	3680
抱	3679
乔@@	3679
9.@@	3679
展@@	3678
器官	3677
用品	3676
约@@	3674
操作系统	3672
戈@@	3668
异	3667
友好	3666
诗@@	3665
几何	3665
竞选	3663
股价	3662
学术	3662
存@@	3662
内涵	3662
排名	3660
顺序	3659
思路	3659
写道	3659
理性	3658
梁@@	3658
差@@	3658
实体	3657
击@@	3657
替	3655
扎@@	3655
注意力	3653
季节	3652
大会	3650
叶片	3648
选手	3646
购物	3646
缓解	3646
对照	3646
封	3645
中学	3645
75	3645
新加坡	3644
隐@@	3643
站点	3643
啤酒	3643
审查	3642
围@@	3641
义@@	3639
豆@@	3638
束	3638
语音	3637
指控	3634
博	3634
兴奋	3634
汤姆	3632
词汇	3630
家长	3630
优于	3628
新兴	3627
开心	3627
临时	3626
自信	3625
服用	3624
客户端	3623
响	3623
救	3622
场@@	3622
li@@	3622
线路	3621
任@@	3621
语法	3620
露	3619
呼吁	3619
交通@@	3619
布什	3617
一个月	3615
温暖	3614
担忧	3614
客@@	3614
吴@@	3614
度过	3609
背	3605
球迷	3604
浪费	3604
0.05	3604
出色	3603
有限元	3602
两位	3602
砂	3601
短期	3600
手指	3600
th@@	3599
监狱	3598
容量	3598
助@@	3598
亲	3598
明年	3597
喜@@	3597
出席	3597
优良	3596
14@@	3596
现@@	3595
金属@@	3594
筛选	3593
蛇	3591
最早	3591
隆	3590
有效性	3589
平等	3588
相关性	3587
容	3587
论@@	3585
必然	3585
PC	3585
饰	3584
射	3584
世界各地	3584
as@@	3583
省@@	3582
民主党	3582
每日	3581
橡胶	3581
友	3581
元件	3581
拿@@	3580
34	3580
体外	3578
遭遇	3577
专利	3576
诗人	3574
乘客	3574
阳@@	3573
脸上	3573
隧道	3572
疲劳	3571
钱@@	3570
舒@@	3569
解析	3566
剑	3566
银	3565
太太	3564
薄	3561
影响力	3561
南非	3561
复苏	3560
此前	3559
插入	3559
潮	3557
并未	3557
建筑物	3555
单词	3555
农场	3554
诉讼	3552
立场	3552
生物学	3552
分散	3551
犬	3550
内在	3550
滤@@	3547
李	3543
地板	3543
弯曲	3542
ic@@	3542
惊讶	3541
幼@@	3540
留在	3537
一层	3537
ar	3537
差别	3536
un@@	3536
m	3536
帝国	3535
男	3534
条款	3534
会员	3531
=	3531
读@@	3530
个@@	3530
行情	3528
忽略	3528
形势	3527
进而	3526
棉@@	3525
即@@	3521
证券	3520
承受	3520
型@@	3519
促使	3518
利比亚	3517
点击	3516
遵循	3515
菜@@	3515
回报	3515
厅	3513
指责	3512
抗体	3511
主张	3511
生理	3510
放置	3510
力学	3509
用作	3504
低温	3504
彩@@	3501
油田	3498
此类	3497
非法	3496
胃	3496
发病	3495
一间	3495
闭@@	3492
为何	3492
官@@	3491
素质	3489
基督	3488
经济学家	3486
前进	3486
镜头	3485
后果	3485
迁移	3483
突破	3481
发展中国家	3481
无线	3480
腐蚀	3479
礼	3478
尔斯	3477
区@@	3477
负载	3476
股份	3475
伙伴	3474
过于	3473
荷兰	3473
舞蹈	3473
焦虑	3472
居@@	3471
负责人	3470
玩家	3468
4.@@	3468
零件	3466
酯	3466
导演	3466
资助	3464
算@@	3463
治@@	3463
书籍	3463
河流	3462
专用	3462
波动	3461
尚	3460
笔@@	3459
戏	3459
财务	3458
密封	3457
招@@	3456
青	3455
选用	3455
f	3451
进来	3447
杰	3447
必	3446
化学@@	3446
露@@	3445
灯@@	3444
无疑	3444
帽	3444
哪个	3444
谈话	3443
疯狂	3443
杀死	3443
鼓@@	3442
暴露	3441
插@@	3441
多样性	3441
不停	3441
失望	3440
交叉	3440
考	3438
摆@@	3435
尖@@	3435
酒吧	3433
定制	3429
早晨	3428
储存	3427
清除	3425
末	3425
耶@@	3424
滚@@	3423
雄@@	3422
负担	3422
莱	3422
保	3421
认可	3420
顺利	3419
艰难	3419
集合	3418
内心	3417
竹@@	3416
右	3415
维修	3414
鸡@@	3411
第二天	3411
社	3411
细	3409
航@@	3408
电极	3408
寒@@	3407
存	3407
驻	3406
配方	3404
这名	3403
晶体	3399
与@@	3399
红外	3397
周五	3397
受体	3397
鼻@@	3396
胜	3394
曼联	3394
迹象	3392
王子	3392
息	3391
诸多	3390
远远	3389
泰国	3389
进球	3386
季	3385
端@@	3383
相互作用	3383
CD@@	3383
惠@@	3381
退休	3380
秋@@	3379
赋予	3378
排除	3378
乐观	3376
知	3374
模具	3374
布朗	3374
认真	3373
熊	3373
技术@@	3370
延伸	3369
世界杯	3369
发酵	3368
中国政府	3368
救@@	3367
600	3367
柜	3366
谈到	3365
基金会	3365
大多	3363
柯@@	3361
有力	3360
志	3359
干净	3359
夫@@	3358
暗示	3357
再生	3357
淡@@	3354
提前	3351
清洗	3349
探测	3349
繁荣	3348
作战	3348
轴承	3344
垫	3344
le@@	3344
10%	3342
击	3341
广州	3340
布局	3338
u	3338
迈克尔	3337
框	3336
某@@	3336
携带	3336
乡村	3336
举	3336
一根	3336
代价	3335
il@@	3335
氧@@	3333
功@@	3333
富	3331
吊@@	3331
政@@	3330
is	3330
磅	3329
投	3329
浅@@	3327
速@@	3326
远离	3325
积累	3325
创意	3324
登记	3323
灰色	3323
~	3323
他会	3321
精	3319
有益	3319
磷	3317
区分	3317
焦点	3316
加州	3316
司	3315
终@@	3314
出于	3314
金钱	3312
至于	3312
摘要	3311
IP	3311
容@@	3309
评@@	3308
穿@@	3308
北方	3308
钠	3307
上去	3307
插件	3304
之内	3300
聚合物	3298
继承	3298
撒@@	3298
激发	3296
仔细	3296
摄影	3294
饭	3292
瑞士	3291
水中	3291
绘画	3290
不知	3290
不但	3288
追踪	3286
洪@@	3285
斜@@	3284
个性	3284
重组	3282
节能	3281
领	3280
当今	3280
周四	3280
芯	3279
舞台	3279
要么	3278
飘@@	3277
墨@@	3277
静态	3276
热量	3276
引进	3276
佛	3276
进去	3274
一所	3274
延@@	3273
较@@	3271
跨@@	3271
昂贵	3271
驾驶	3269
时光	3267
人会	3267
订单	3266
囊	3266
苦	3264
素@@	3264
简直	3263
置	3261
众	3261
翼	3259
纹	3259
泥	3259
莫	3258
准	3258
控	3257
相当于	3255
将要	3255
极端	3254
数目	3254
刀@@	3254
卫@@	3252
火山	3251
效益	3249
之类	3249
附加	3248
高达	3245
城镇	3245
营	3244
斑	3243
将@@	3243
臂	3239
造	3237
就@@	3237
许可	3236
严@@	3236
念	3235
举@@	3235
套@@	3232
33	3232
害	3231
定期	3231
当作	3230
值@@	3230
数学模型	3229
足以	3227
铝@@	3226
充@@	3226
付出	3226
织物	3225
贝	3224
真空	3224
桌子	3224
至@@	3223
撞	3223
韦@@	3222
融资	3222
只会	3219
称@@	3217
竞争力	3216
白宫	3216
年间	3216
湖@@	3215
利亚	3215
成型	3213
难题	3212
豆	3212
信贷	3211
之所以	3209
索引	3207
民间	3207
检索	3207
少数	3206
哭	3206
激活	3205
150	3205
职	3204
滑	3204
玛丽	3203
无需	3203
钟	3201
怎么样	3201
安全@@	3201
鬼	3200
证@@	3200
不可@@	3200
维尔	3198
本来	3196
+	3196
粮食	3195
扬@@	3195
实力	3195
长大	3194
积@@	3194
寻@@	3194
家伙	3194
游泳	3193
订@@	3190
发起	3190
笔者	3189
如下	3189
士@@	3189
沟	3188
字符	3188
魔@@	3187
遵守	3187
欲	3187
Q	3184
生物@@	3183
网格	3182
菲	3181
赤@@	3180
大幅	3178
务	3178
频繁	3177
贾@@	3177
锌	3176
肌肤	3176
洛杉矶	3176
主义者	3176
齿	3175
莎	3175
公	3175
跨	3174
画面	3173
义务	3172
税收	3170
心情	3170
划@@	3170
共有	3169
生意	3166
球场	3166
湿@@	3166
优先	3166
诸@@	3165
该国	3165
沿	3164
尸体	3164
齐	3161
客观	3160
输@@	3159
泥@@	3159
地层	3159
加载	3159
守	3158
毒性	3157
港口	3156
节日	3155
最优	3155
什么样	3155
is@@	3155
心理学	3154
涂料	3153
主流	3152
穆斯林	3150
互动	3148
涂@@	3146
天线	3145
ap@@	3145
毫无	3144
极其	3144
彼得	3143
爬	3141
乐队	3141
动机	3140
火箭	3138
部@@	3136
家中	3135
司法	3135
中部	3135
聚会	3134
哥	3133
农	3133
未能	3131
20%	3131
拖@@	3129
宣称	3129
汤@@	3128
氢	3128
忘	3128
随时	3127
易于	3124
庞大	3123
移	3122
分化	3120
分析方法	3117
2%	3117
造型	3116
籍	3116
播放	3116
拿到	3116
广阔	3116
航空公司	3115
状@@	3115
大于	3114
称之为	3113
止@@	3113
弄@@	3113
38	3113
队员	3110
究竟	3110
据说	3110
成形	3109
Sh@@	3109
需@@	3108
载体	3108
碎	3106
东京	3106
紧急	3105
孙@@	3105
字符串	3104
价@@	3103
粘@@	3102
48	3101
默@@	3100
川	3100
日志	3099
ST@@	3098
SP@@	3098
第四	3097
MS	3096
简便	3095
各项	3094
尿@@	3093
图案	3092
器件	3091
苏联	3090
搞	3090
占据	3090
亲爱	3089
阻碍	3088
激素	3088
水分	3088
去除	3088
舱	3087
出血	3087
共和党	3087
6.@@	3087
%	3087
自由@@	3086
展览	3086
便@@	3086
载@@	3085
它会	3085
铺@@	3083
ol@@	3083
不安	3082
视角	3081
基础设施	3081
切除	3081
缺点	3079
冬天	3079
餐馆	3078
蒂@@	3078
忽视	3078
击败	3078
今日	3078
琳	3077
9%	3077
宝宝	3076
吸引力	3076
这会	3075
注重	3074
乘	3074
频	3072
灰	3072
清理	3072
直径	3071
7.@@	3070
尤@@	3069
专注	3068
id@@	3068
8.@@	3068
胆@@	3067
坡	3067
医@@	3067
两国	3067
机关	3064
寄@@	3064
借@@	3064
过渡	3063
晚@@	3061
切尔西	3061
便是	3060
你@@	3060
呼@@	3059
纪录	3057
狂@@	3057
浸@@	3057
摆脱	3057
好好	3057
赢	3056
地理	3056
地带	3056
ag@@	3056
65	3054
船舶	3053
良@@	3052
创@@	3052
不愿	3052
4%	3052
硅@@	3049
彩色	3049
渠道	3048
株	3048
佳@@	3047
不变	3045
苏	3044
宽@@	3044
闻	3043
至关重要	3043
固体	3043
海滩	3042
去世	3042
列出	3042
冒险	3042
屋顶	3041
那位	3040
密切	3039
译	3038
救援	3037
暂时	3036
对称	3036
询问	3035
厚@@	3034
铺	3032
拯救	3031
完@@	3031
裂	3030
窗户	3029
桥@@	3028
舍	3026
泡	3026
惊人	3024
分裂	3024
准则	3024
浏览	3019
桥梁	3019
审美	3019
下滑	3018
路透	3017
物流	3017
无限	3017
凝@@	3017
摩擦	3014
合法	3014
密	3013
人权	3013
一大	3013
黑人	3012
剪@@	3012
触@@	3010
API	3009
春天	3007
康	3006
衡量	3005
葡萄	3004
差不多	3004
六	3004
狼	3003
磁	3002
志愿者	3002
欢@@	3000
干细胞	3000
$	3000
餐	2998
将军	2998
怀孕	2997
反复	2997
信用	2997
AS@@	2997
性格	2996
待@@	2996
兴	2996
脂	2993
尺度	2992
同一个	2992
销	2991
演	2988
施	2988
乔	2988
筒	2987
淀粉	2985
梦@@	2985
改性	2985
静	2983
浪漫	2983
挂@@	2983
扣	2983
不幸	2983
积分	2981
心脏病	2981
周日	2981
令人@@	2980
悬@@	2979
尖	2979
洪水	2977
政	2977
基督教	2976
热点	2972
填@@	2972
Google	2972
进攻	2971
贫困	2971
刺	2971
环节	2968
纪念	2967
系统@@	2967
必需	2967
争@@	2966
外观	2965
等于	2964
硅	2964
分支	2963
42	2963
质疑	2962
太平洋	2962
有利	2961
r	2961
功	2960
节省	2959
收缩	2958
55	2958
骑	2957
变异	2956
800	2956
詹姆斯	2955
麦	2954
错@@	2954
越南	2953
底部	2953
团@@	2953
谨慎	2952
树木	2952
暴@@	2952
送到	2951
术语	2950
很小	2949
炉@@	2948
罐	2946
间@@	2945
诞生	2945
显@@	2945
从中	2945
中期	2944
兵@@	2943
隔@@	2942
撒	2941
位移	2941
服务@@	2940
依	2940
东方	2940
抓	2939
传说	2938
空调	2937
扬	2937
肾	2936
牙齿	2936
纵@@	2935
胃@@	2934
玫瑰	2934
宁@@	2934
周六	2934
吨	2934
二维	2933
初始	2932
误@@	2931
亿@@	2931
不锈钢	2931
准@@	2928
支架	2927
紧密	2925
改	2924
扎	2924
故@@	2922
告@@	2922
ut@@	2922
报导	2921
委	2921
垂@@	2921
秀	2920
ID	2920
8%	2920
钉	2919
激@@	2919
天使	2919
缩短	2918
渗透	2918
不论	2918
高血压	2917
子宫	2917
议员	2916
政治@@	2915
延迟	2915
分区	2915
两名	2915
表格	2910
综合征	2910
种族	2909
37	2909
恒@@	2908
自杀	2907
砖	2906
召开	2906
征@@	2905
邻居	2904
荧光	2904
检@@	2904
旋@@	2904
3%	2903
科学@@	2902
看出	2901
带领	2901
处在	2901
友谊	2901
列车	2901
缝	2900
够	2899
搭配	2898
爱尔兰	2897
中药	2897
复合材料	2895
es@@	2895
演变	2893
抵达	2893
扫@@	2892
威廉	2892
ur@@	2892
精力	2891
杰克逊	2890
浅	2889
吸烟	2889
会计	2889
震@@	2888
懂	2887
宠物	2886
迭代	2885
极为	2885
大豆	2885
默认	2884
智@@	2883
夹@@	2883
向前	2883
冬@@	2883
7%	2883
告知	2881
股东	2880
吃饭	2880
范@@	2879
春	2878
戏剧	2878
患有	2877
&	2877
肠	2876
这方面	2875
概述	2875
提议	2875
安静	2875
单个	2875
群众	2874
潜@@	2874
1999	2874
肥胖	2873
姆@@	2872
b	2872
线程	2871
似的	2871
适宜	2870
海水	2870
变革	2870
隔离	2869
膨胀	2869
菜单	2868
放到	2868
约会	2866
光线	2866
50%	2866
真理	2864
徐@@	2864
调度	2863
被迫	2863
脉	2863
论证	2862
广大	2862
参与者	2862
一处	2862
美学	2861
否认	2860
北京@@	2860
弯@@	2859
计算方法	2856
泰	2856
翻	2855
饭店	2853
液压	2853
料@@	2852
平静	2849
不如	2849
大师	2848
谈@@	2847
导航	2847
尽量	2846
切割	2846
怪	2845
夜晚	2844
持久	2843
四年	2843
激情	2841
暖@@	2841
卫生@@	2841
–	2841
冬季	2840
一方面	2840
希	2839
商业@@	2839
计@@	2838
酒精	2837
次@@	2837
予以	2837
护士	2835
一同	2835
汽车@@	2834
怕	2834
新闻@@	2833
闪@@	2832
钻@@	2832
宋@@	2831
营@@	2830
祝福	2830
制约	2830
开支	2829
商人	2829
控@@	2828
开采	2827
爆@@	2826
演示	2826
推	2826
带到	2826
z	2826
土耳其	2823
开发人员	2822
son	2822
村庄	2818
净	2818
决@@	2818
入侵	2818
虎	2817
知名	2817
老年	2815
桶	2815
催化	2814
弗	2813
选取	2811
逃@@	2810
破产	2810
流域	2810
校园	2810
分割	2805
皆	2804
曾@@	2804
信息@@	2804
窗	2802
得知	2801
差距	2801
导向	2801
指南	2800
填充	2800
玩@@	2799
当年	2799
仿佛	2799
乙@@	2797
主机	2797
肠@@	2796
更换	2795
夏	2795
高速公路	2794
审判	2794
一百@@	2794
沙漠	2793
毕竟	2793
神经元	2792
唱@@	2792
ou@@	2792
罗伯特	2789
坦@@	2789
磨损	2788
比尔	2786
12@@	2786
表达式	2785
自然@@	2785
螺旋	2784
档案	2784
概率	2783
微波	2782
ir@@	2782
柔@@	2780
设有	2779
武装	2779
交互	2779
赫	2778
礼@@	2778
睡觉	2778
煮	2776
精神@@	2774
少量	2774
阿森纳	2772
编制	2772
sh@@	2772
齿轮	2771
健@@	2771
气氛	2770
尼亚	2770
象@@	2768
皇家	2768
开车	2768
发电	2768
舍@@	2767
棉	2767
恒星	2767
集体	2766
乳	2766
凡	2765
含义	2764
玉	2763
抢@@	2763
当天	2763
高质量	2762
菌@@	2762
目前为止	2761
排列	2761
砂@@	2760
回去	2760
ed@@	2760
Z	2760
指令	2759
DB2	2759
并用	2758
雇员	2757
政权	2757
录	2757
历@@	2757
变更	2756
分开	2756
一会儿	2756
大大	2755
语义	2753
狭窄	2753
课堂	2752
享有	2752
衰退	2751
泛@@	2751
退出	2748
生日	2748
森@@	2748
坛	2748
签名	2746
碰撞	2746
一声	2746
税@@	2745
栏	2745
听见	2745
二次	2745
手工	2744
协作	2743
依赖于	2743
us	2743
走出	2742
致命	2741
住房	2740
主意	2740
所得	2738
吹	2738
op@@	2736
应变	2735
宪法	2735
夹	2735
艺术@@	2734
罗斯	2734
帕	2734
收藏	2733
损坏	2733
罩	2732
1998	2732
炸弹	2731
基本@@	2731
杀@@	2730
分数	2730
缺@@	2729
答	2729
茎	2728
席	2727
字母	2727
处@@	2727
监视	2726
交谈	2726
ation	2726
赶@@	2725
太多	2725
体育@@	2724
预	2723
既然	2722
数据@@	2722
职@@	2721
客户机	2721
姑娘	2721
集群	2720
备@@	2720
电视台	2719
阳性	2718
拔@@	2718
人格	2718
打印	2717
失	2717
染色	2715
众@@	2715
电缆	2714
脱离	2713
只不过	2713
京@@	2713
相机	2712
上午	2712
困扰	2711
违反	2710
温和	2710
芝加哥	2708
渣	2708
流感	2707
为期	2707
胜@@	2706
苗	2705
甜@@	2705
链@@	2704
蛋糕	2704
稿	2702
瑞典	2702
检	2701
复	2701
嗯	2701
倾@@	2701
月球	2700
效	2699
持@@	2698
失业	2698
初期	2698
极限	2695
困境	2695
演@@	2694
幕	2694
哪@@	2692
迹	2691
SA@@	2691
使用者	2690
漆	2689
床上	2688
om@@	2688
腐败	2687
标题	2687
务@@	2687
避@@	2686
祂	2686
溶剂	2686
上来	2686
演化	2685
把握	2685
卡车	2685
渐渐	2684
略	2683
派@@	2683
广	2682
年底	2681
肯	2680
后期	2680
木材	2679
支持者	2679
帽子	2679
杆菌	2678
无关	2677
布置	2677
一门	2677
6%	2677
虎@@	2676
野	2674
肺@@	2674
愿望	2674
牵@@	2673
踢	2672
海上	2671
偶@@	2671
认@@	2670
ac@@	2669
崩溃	2668
今晚	2668
次数	2667
按@@	2666
资	2665
讨厌	2664
战胜	2664
染色体	2663
朗@@	2663
生气	2662
教学@@	2662
广播	2662
适@@	2661
昆虫	2661
公正	2660
市民	2659
百万	2658
看作	2657
找@@	2657
克林顿	2657
尺	2656
办理	2656
署	2654
扔	2654
二氧化碳	2654
肥	2653
烧	2653
勇气	2652
封闭	2651
两组	2651
选择性	2650
透	2649
CS@@	2649
久@@	2648
肾@@	2647
水稻	2647
鉴别	2646
落后	2646
裂缝	2645
羊@@	2645
休@@	2645
阵	2644
收获	2644
实质	2644
鸡蛋	2642
话@@	2642
苏格兰	2642
会谈	2641
AP@@	2641
硫@@	2640
钢琴	2639
胸	2639
沿@@	2639
鼻子	2638
就算	2638
场合	2638
商务	2637
亨利	2637
美联储	2636
交给	2635
胶囊	2634
斗	2634
占@@	2634
一个@@	2632
险	2631
离婚	2631
六个	2631
Al@@	2631
谢	2630
挺	2630
薄@@	2629
牺牲	2629
HTML	2629
振@@	2628
Linux	2628
罕见	2627
生于	2627
彩	2627
;	2627
耳朵	2625
叫@@	2625
丰@@	2625
航班	2624
个人@@	2624
略@@	2623
每月	2623
熔@@	2622
外交	2622
毕业生	2621
欧	2620
原本	2620
溶@@	2619
宫@@	2619
台湾	2619
限@@	2618
稳@@	2618
新生	2618
惩罚	2618
怀@@	2618
大楼	2618
伴侣	2618
尽快	2617
全球化	2616
斑@@	2615
季@@	2615
ot@@	2614
民族@@	2613
ay@@	2613
动画	2611
再也	2611
秘密	2610
决赛	2608
蒸汽	2606
烟草	2605
分泌	2605
ia	2605
绘制	2604
善	2604
向上	2603
慢@@	2602
信念	2602
阻@@	2601
繁殖	2601
汇@@	2598
指挥	2598
破裂	2596
若干	2595
小学	2595
冠@@	2595
终止	2592
收费	2592
地铁	2592
锅	2591
摇@@	2591
肩@@	2589
供给	2589
it	2589
油气	2587
熟	2586
废水	2585
组分	2583
碳@@	2583
恶化	2583
原油	2583
2012	2583
难道	2582
局面	2582
天堂	2582
该文	2581
均衡	2581
启@@	2581
祈祷	2580
矿物	2580
账户	2578
配件	2576
劳动力	2576
争取	2576
39	2576
奥运	2575
摧毁	2574
刻	2574
一头	2574
矿床	2573
放入	2572
狗@@	2571
无数	2571
几十年	2570
头脑	2569
ig@@	2568
凝胶	2567
运转	2565
埃	2565
降解	2564
也就是说	2564
CD	2564
资讯	2563
认同	2563
置@@	2563
氢@@	2563
朗	2563
很长	2563
发光	2563
减	2563
拟	2561
圣诞节	2561
氯	2560
lo@@	2560
送给	2559
行走	2559
弯	2559
演奏	2558
没什么	2558
at	2558
电子商务	2557
早已	2557
休闲	2557
le	2557
im@@	2556
著作	2555
间接	2554
机遇	2554
拼@@	2554
近代	2553
抵抗	2553
丧失	2550
管理系统	2549
面板	2548
辩论	2548
故	2548
已知	2548
源@@	2547
景@@	2547
得分	2547
净@@	2547
俩	2547
et	2547
铅	2546
发生率	2546
业@@	2545
信用卡	2544
迫使	2542
突@@	2542
种种	2542
短暂	2542
烤@@	2541
手里	2541
创始人	2541
街@@	2540
抵押	2540
胰岛素	2539
尚@@	2539
聚合	2538
歌手	2538
法规	2537
职责	2536
一幅	2535
照明	2534
涂层	2534
径	2534
隆@@	2533
正交	2533
债	2533
95	2533
鲜@@	2532
猛@@	2532
显	2532
IS	2532
舒服	2531
绕	2531
最具	2531
卡尔	2531
先前	2531
望@@	2530
攻@@	2530
赵@@	2529
早餐	2529
日前	2529
势@@	2529
选民	2528
椅子	2528
将近	2528
甚@@	2527
工作者	2526
鲍@@	2525
笑@@	2525
烤	2525
泽@@	2525
合作伙伴	2525
44	2524
单纯	2523
优雅	2523
部落	2522
贫穷	2522
设想	2522
跟着	2521
焦@@	2521
or	2519
64	2519
顺	2518
霜	2517
决心	2517
兼	2516
um@@	2515
枪@@	2514
销量	2513
级@@	2513
课@@	2511
晓@@	2511
麦克	2510
第四@@	2510
旅馆	2510
儿@@	2508
一流	2507
大厦	2506
调制	2505
神经网络	2505
滴@@	2505
敏	2503
抓@@	2503
交往	2503
神圣	2502
果实	2502
腹@@	2501
深圳	2501
焊@@	2500
模仿	2500
一杯	2500
OS	2499
陶@@	2498
悲剧	2498
幻想	2498
什@@	2498
金融危机	2497
第二次	2497
源于	2497
比如说	2497
文化@@	2497
化石	2497
乐趣	2497
三分之一	2497
发达	2495
遗憾	2493
奖励	2492
超出	2491
晚期	2491
顶部	2490
歌@@	2490
头上	2490
晶@@	2489
不满	2489
滤波器	2488
岸	2488
受害者	2488
示	2487
恐怖	2487
眼镜	2486
炮	2486
康复	2486
围	2486
指向	2485
威尔	2484
双重	2484
打造	2483
为止	2483
确立	2482
加大	2482
裂纹	2481
率@@	2481
饲料	2480
开启	2479
钾	2478
量子	2478
许@@	2478
氨基酸	2478
单击	2478
磨	2477
总裁	2475
其余	2475
佛教	2475
ate	2475
as	2474
这条	2473
规@@	2473
戈	2472
偶尔	2472
七	2472
之际	2471
电阻	2470
泽	2470
律	2468
两天	2468
上个月	2468
仁	2467
群岛	2466
来源于	2465
截@@	2465
小镇	2465
好莱坞	2465
and	2464
99	2464
面试	2462
精彩	2462
可怜	2462
导	2461
外科	2461
高层	2460
第二章	2460
妹妹	2459
谷@@	2457
混	2457
正好	2457
宽度	2457
主导	2457
配套	2456
属@@	2456
恋	2453
火焰	2452
墙上	2452
总线	2451
灭	2450
汽@@	2449
机组	2449
借	2449
AR@@	2449
30%	2449
欲望	2448
明亮	2448
保守	2448
均@@	2447
全身	2447
1997	2447
脸@@	2446
缩	2446
and@@	2445
直升机	2443
浓@@	2443
喝@@	2443
扣@@	2442
割@@	2442
风景	2441
管理@@	2441
历史@@	2441
龄	2440
科技@@	2440
防御	2439
厂商	2438
跑步	2437
粗	2437
环境@@	2437
教育@@	2437
婚@@	2437
同性恋	2437
各种各样	2437
提名	2435
ent@@	2435
老年人	2434
欲@@	2434
本次	2434
改良	2434
免@@	2434
队列	2433
图书	2432
第三章	2430
净化	2430
肝@@	2429
所致	2429
卡扎菲	2429
一人	2429
标识	2428
前言	2428
从不	2428
荣@@	2427
缩@@	2426
磁场	2426
珠@@	2426
建成	2426
创	2426
鼓	2425
研究成果	2425
特有	2425
座@@	2425
年来	2425
双手	2425
世界@@	2424
类别	2423
导出	2423
腰	2422
狂	2422
早些时候	2421
SOA	2421
付款	2419
一代	2419
AC	2419
挖掘	2418
秩序	2417
以至于	2417
of	2417
座位	2416
优	2416
灵感	2415
楼@@	2415
一批	2415
51	2414
野生	2413
调控	2413
肽	2413
漏@@	2413
星系	2413
干旱	2413
尿	2413
冒@@	2413
斗@@	2412
德尔	2412
史密斯	2412
52	2412
永久	2411
葛@@	2410
牧师	2410
泄漏	2410
发作	2409
逮捕	2407
蚀	2407
火星	2407
勘探	2407
刻@@	2406
汇率	2405
窝	2404
秦@@	2404
有害	2404
今@@	2404
柳@@	2403
抽象	2403
睡@@	2402
加密	2402
豪@@	2401
46	2400
退	2399
猪@@	2399
上下	2399
大声	2398
话语	2397
咱们	2397
发展趋势	2397
勇敢	2397
郑@@	2396
涂	2396
雾	2395
犹太人	2395
原型	2395
增殖	2394
几周	2394
带给	2393
机械@@	2392
器@@	2392
播	2391
包裹	2391
中毒	2391
执行官	2390
补	2389
研究进展	2389
直线	2389
目光	2389
白天	2389
冠	2389
人为	2389
一遍	2389
鬼@@	2388
苯@@	2388
坑	2387
郡	2386
麻	2385
ers	2385
餐@@	2384
百分之@@	2384
宾@@	2384
在家	2384
兔	2384
服@@	2383
微观	2383
量化	2382
运算	2382
父@@	2382
ul@@	2382
上网	2381
汽油	2380
手法	2380
帮@@	2380
内核	2380
何时	2380
现行	2378
接种	2378
伏	2377
中场	2377
阻力	2374
阶层	2374
苷	2374
擦	2374
练	2373
死亡率	2373
哥哥	2372
入口	2372
佳	2372
伴	2372
川@@	2371
赚	2370
拜@@	2370
�	2369
屈@@	2368
不良	2368
马丁	2367
门口	2367
征	2367
奶	2367
不同于	2367
锁@@	2366
萃取	2364
的@@	2364
伯格	2364
篇文章	2363
排序	2363
传送	2363
遗@@	2362
碎片	2362
任命	2362
神话	2361
参议员	2361
坚定	2360
鲁	2359
胚胎	2359
眼前	2359
制造业	2359
鸟@@	2358
语句	2358
磁盘	2358
最多	2358
战士	2358
切换	2355
三次	2355
轨	2354
度假	2354
小小的	2353
储备	2353
近日	2352
贝尔	2352
脆弱	2352
借助	2352
世卫	2352
所用	2351
侵犯	2351
偏	2350
节奏	2349
防护	2348
编译	2348
积	2348
助理	2348
AC@@	2348
还原	2347
晚餐	2347
教室	2347
例外	2347
一架	2347
北美	2346
丙@@	2346
悲@@	2345
中方	2345
走过	2344
专辑	2344
仙@@	2343
输送	2342
成年	2342
缓存	2341
正义	2341
插	2341
签@@	2340
竞争对手	2339
审计	2338
视野	2337
祖@@	2337
简	2336
用以	2336
折	2336
查找	2335
档	2334
微型	2333
仅@@	2333
挑选	2332
境	2332
金融@@	2331
程@@	2331
液相	2331
枝@@	2331
期刊	2331
碗	2330
敏@@	2330
大门	2330
壁@@	2330
驻@@	2329
说服	2329
1990	2329
王国	2328
潮@@	2327
气味	2327
廉价	2327
汗	2325
滴	2324
山区	2323
悲伤	2322
备	2321
色素	2318
回复	2318
八	2318
行政@@	2317
颈	2316
唐	2316
业绩	2316
ak@@	2316
Re@@	2316
预后	2315
拿出	2315
市长	2314
历程	2313
跑@@	2312
氟@@	2312
钟@@	2311
蜂@@	2311
菲律宾	2311
办@@	2311
授予	2310
阻	2309
间隔	2309
47	2309
坐标	2308
向量	2308
前锋	2308
霉素	2307
聊天	2306
豪华	2305
火灾	2305
有权	2305
假期	2305
13@@	2304
董事会	2303
枝	2303
头部	2303
倾斜	2303
上方	2303
man	2303
鉴于	2302
丢失	2302
纷纷	2301
锡@@	2300
特异性	2299
尔德	2299
仁@@	2299
莉@@	2298
余	2298
想想	2297
场地	2297
跌	2296
杨	2296
研究生	2295
登录	2295
月亮	2295
兽	2295
纽@@	2294
乙醇	2294
幅度	2293
创立	2293
锅炉	2291
替换	2291
主持	2291
预报	2290
配备	2290
句子	2290
储@@	2290
体系结构	2290
顶级	2289
雇主	2289
抗原	2289
相互@@	2288
摆	2288
大使	2288
回顾性	2288
剩余	2288
43	2288
依旧	2287
AD@@	2287
鼻	2286
迈@@	2286
英语@@	2286
缅甸	2286
家乡	2286
说出	2285
医师	2285
保险@@	2285
乘@@	2285
潮流	2284
上班	2284
凡@@	2283
统计学	2282
漏	2282
末@@	2282
懂得	2282
寒冷	2282
刷	2282
风暴	2281
柱@@	2281
01	2281
遭	2280
表情	2279
毫无疑问	2279
校长	2279
展望	2279
辆	2278
猎@@	2278
抛@@	2278
绝	2277
暗	2277
大街	2277
转会	2276
荷@@	2276
键盘	2275
平板	2275
规格	2274
性状	2274
冻@@	2274
范畴	2273
二者	2273
纱	2272
泉	2272
多元	2272
迷人	2271
轮胎	2271
式@@	2271
奶@@	2271
AT@@	2271
41	2271
程序@@	2270
失效	2270
PS	2270
突变	2269
腰@@	2267
美国政府	2267
载荷	2266
鸟类	2265
记载	2265
成年人	2265
发动	2265
几次	2265
这句	2264
永恒	2264
占有	2263
协同	2263
面部	2262
资@@	2262
杆@@	2262
ent	2262
见面	2261
华尔街	2261
等到	2260
村@@	2260
断层	2260
精密	2259
泡@@	2258
帐户	2258
命@@	2257
用量	2256
潘@@	2256
州市	2256
少年	2256
充足	2256
ra@@	2256
荷载	2255
水库	2255
染料	2255
晶	2255
人家	2255
GDP	2255
迷	2254
美味	2254
电视@@	2254
酱	2253
购	2253
行驶	2253
给@@	2253
轨迹	2251
真相	2251
描绘	2251
千万	2251
﹐	2250
阐明	2250
神经@@	2250
条约	2250
接到	2249
宣@@	2248
对不起	2247
道理	2246
ES@@	2246
觉	2245
荣誉	2245
确切	2245
片段	2245
近似	2244
起源	2244
碰到	2244
甜	2244
境内	2244
错过	2243
调试	2243
各位	2243
每当	2242
不敢	2242
神奇	2241
男女	2241
圆形	2240
CO@@	2240
遮@@	2239
沮丧	2239
难以@@	2238
数字@@	2238
吸	2238
发达国家	2238
兹@@	2238
保健	2238
锡	2237
福利	2236
相位	2235
教训	2235
敬@@	2234
增多	2234
市场@@	2233
会见	2233
编	2232
绝大多数	2232
坚@@	2231
胎	2230
标准@@	2230
放大	2230
上下文	2230
IS@@	2230
这点	2229
肝脏	2229
热爱	2229
毒品	2228
反而	2228
阴影	2227
镍	2227
离散	2227
女王	2227
四周	2226
刚才	2226
中断	2226
默	2224
几	2224
言论	2223
呈现出	2223
搭@@	2222
屏	2222
孤独	2222
塑造	2222
鞋@@	2221
传奇	2221
高科技	2220
融入	2220
协@@	2219
us@@	2219
势力	2218
刮@@	2218
公主	2218
交付	2218
三十@@	2218
铸@@	2217
日电	2217
＂	2216
镁	2216
凋亡	2216
热带	2215
搬	2215
愚蠢	2215
采	2214
扩@@	2214
一番	2214
终端	2213
捕获	2212
小于	2212
午餐	2212
PS@@	2212
床@@	2211
册	2211
85	2211
奠定	2210
\	2210
益@@	2209
恶	2209
干涉	2209
穿越	2208
太阳@@	2208
SE@@	2208
街头	2206
结晶	2206
星球	2206
工程@@	2206
pl@@	2206
分成	2205
警	2204
望远镜	2204
有名	2204
轻易	2203
统@@	2203
竞赛	2203
画家	2203
效力	2203
心理@@	2203
东北	2203
血压	2202
符	2202
祷告	2202
洞@@	2202
显著性	2202
频@@	2201
中等	2201
矢量	2200
延续	2200
己	2200
防守	2199
瓣	2199
序	2199
公斤	2199
不利	2199
绑定	2198
看待	2198
继@@	2196
煤矿	2196
拓展	2196
必要性	2196
耶	2195
公共@@	2195
80%	2195
辉煌	2193
吻	2193
企业家	2193
膜@@	2192
第十@@	2192
码头	2192
剧@@	2191
竟然	2190
幽默	2190
实用新型	2190
价值观	2190
设法	2189
帮忙	2189
判决	2188
伪@@	2188
邪恶	2187
皇帝	2187
竹	2186
主权	2186
生活@@	2185
文件系统	2185
化疗	2185
体会	2184
众人	2184
期限	2183
学到	2183
原有	2183
修建	2183
阵列	2182
染	2182
辊	2181
认定	2181
正面	2180
星期五	2180
强劲	2180
共和国	2180
院校	2179
恰当	2179
言语	2178
战场	2178
对外	2178
阿拉伯	2177
读书	2177
摩	2177
ic	2177
生涯	2176
逊	2175
劲	2175
两家	2175
绳	2174
标本	2174
尊敬	2173
120	2173
构件	2172
秀@@	2171
温室	2171
而来	2170
飞行员	2169
DS	2169
测试@@	2168
哥@@	2168
RS	2168
端口	2167
急	2167
定性	2167
释@@	2166
这类	2166
解决问题	2166
边境	2165
噪音	2164
伊斯兰	2164
败@@	2163
频道	2162
闲@@	2162
毁	2162
杰出	2162
姿态	2162
股权	2161
美军	2161
沥青	2161
累	2160
大地	2160
鞋子	2159
重新@@	2159
经济效益	2158
创伤	2158
Facebook	2158
策划	2157
旅客	2157
外界	2157
中东	2157
预定	2156
旁@@	2156
从前	2156
府	2155
钻	2154
着手	2154
轿车	2153
管理员	2153
创业	2153
Windows	2153
重力	2152
寺	2152
做成	2152
IN@@	2152
谴责	2150
强制	2150
发现自己	2150
厘米	2150
街上	2149
节约	2149
库存	2149
700	2149
电动	2148
凭	2148
停留	2148
莫斯科	2147
岛屿	2147
涨	2146
日常生活	2146
操纵	2146
育@@	2145
育	2144
剪切	2144
稍@@	2143
号@@	2143
脂@@	2142
琴	2142
按摩	2142
媒介	2142
化工	2142
缩小	2141
智力	2141
斜	2140
拆@@	2140
减肥	2140
鹰	2138
设@@	2138
滤波	2138
口袋	2138
吐@@	2137
分歧	2137
1996	2136
乳腺癌	2135
熊@@	2134
权威	2134
刑	2134
图表	2133
丢	2133
水面	2132
使命	2132
49	2132
长期以来	2131
碱@@	2131
冬	2129
一体化	2129
宗	2128
入手	2128
舞@@	2127
纹@@	2127
音乐@@	2126
情报	2126
传动	2126
运动@@	2125
叶子	2125
企图	2125
qu@@	2124
金额	2123
职员	2123
灯光	2123
40%	2122
定价	2121
卓越	2121
半导体	2121
评级	2120
艇	2120
样式	2118
微小	2118
周边	2118
一阵	2118
一度	2118
组装	2117
对付	2117
损	2116
便于	2116
纪	2115
比率	2115
高性能	2114
柔软	2114
柏@@	2114
新年	2114
校正	2113
两周	2113
感激	2112
宝贵	2112
预先	2110
克隆	2110
狮子	2109
复杂性	2109
兴起	2109
耐心	2107
超市	2106
搜索引擎	2106
成千上万	2106
四种	2106
关键技术	2106
零售	2105
醒	2105
骄傲	2104
消化	2104
拜	2103
伸@@	2103
冒	2102
独自	2101
未经	2101
庆@@	2101
难度	2100
助	2100
之地	2100
随意	2099
镇@@	2096
深深	2096
总会	2096
圈@@	2096
分析法	2096
高等教育	2095
弟弟	2095
峰会	2095
制剂	2095
申@@	2093
后卫	2093
著@@	2092
意图	2092
颗	2091
拖	2091
乘坐	2091
生产商	2090
卧室	2090
启用	2089
艺	2088
提取物	2088
虽	2087
植@@	2087
迎@@	2085
腹	2085
多糖	2085
地形	2085
阿根廷	2084
问卷	2084
逆@@	2084
租@@	2084
职业生涯	2083
季度	2083
许	2082
破碎	2082
开发者	2082
介入	2082
胎儿	2080
本土	2080
履行	2080
寒	2080
实证	2080
噢	2080
爵士	2079
炎症	2079
宜@@	2079
草地	2078
毒素	2078
便利	2078
齿@@	2077
感知	2077
宏观	2077
加固	2077
邻@@	2076
手臂	2076
国有	2076
童@@	2075
死去	2075
平原	2075
都@@	2074
抑郁	2074
一级	2074
遥远	2072
福特	2072
磷@@	2072
滩	2072
最快	2072
子女	2072
隔	2071
要点	2071
战术	2071
SO@@	2071
...	2071
酚	2068
示@@	2068
监@@	2068
抗生素	2068
存款	2068
一首	2067
盯	2066
焦	2066
椅	2066
AP	2066
横向	2065
怪@@	2065
精英	2064
毫米	2064
九	2064
芬	2063
泪@@	2063
司@@	2062
古典	2062
爬@@	2061
一行	2061
财@@	2059
祝	2059
瓜@@	2059
假定	2059
简称	2058
富含	2058
血浆	2057
数字化	2057
功效	2057
船只	2056
四川	2056
人性	2056
藻	2055
缺损	2055
坏@@	2055
人民@@	2055
香味	2054
西北	2054
SQL	2054
周年	2053
72	2053
返@@	2052
纳入	2052
受益	2052
前来	2052
付@@	2052
成因	2051
译者	2050
出版社	2050
空白	2048
开设	2048
坦	2048
污水	2047
早就	2047
推理	2047
孔子	2047
占领	2047
总经理	2046
州@@	2046
一笔	2046
比起	2045
转型	2044
某人	2044
一致性	2044
酸性	2043
疏@@	2042
济@@	2042
探测器	2042
孤@@	2042
像@@	2042
人人	2042
确信	2041
伏@@	2041
白人	2040
水资源	2040
合格	2040
题目	2038
估算	2038
仰@@	2038
新生儿	2037
钥匙	2035
秋天	2035
瓜	2035
1995	2035
鱼类	2034
恨	2034
广义	2034
千年	2034
艾	2033
爱好者	2033
润@@	2033
欢乐	2033
搅拌	2033
00@@	2033
转基因	2032
购@@	2032
添加剂	2032
氨酸	2032
恐怕	2032
PA	2032
86	2032
简介	2031
希尔	2031
IC	2031
锁定	2029
计量	2029
生产线	2029
壮@@	2029
跌@@	2028
崇拜	2028
批判	2027
53	2027
试着	2026
是@@	2026
情景	2025
ay	2025
莲	2024
闻名	2023
苯	2023
考验	2023
渗@@	2023
覆@@	2022
澳洲	2022
多重	2022
震惊	2021
逐@@	2021
筋	2021
生态系统	2021
欺骗	2021
凸@@	2021
亲自	2021
英国人	2020
撞@@	2020
鹿	2019
起诉	2019
瑟	2019
拉斯	2019
似	2019
姐姐	2018
央行	2018
自行	2017
目的地	2017
星期一	2017
坝	2017
新西兰	2016
堆@@	2016
乡@@	2016
融@@	2015
灾害	2015
ie	2015
平行	2013
鲜明	2012
工作@@	2012
种群	2011
牛肉	2011
亮@@	2010
肥@@	2009
形容	2009
锦@@	2008
魔法	2007
市场经济	2007
宗@@	2007
陈	2006
海盗	2006
密切相关	2006
举措	2006
250	2006
探究	2005
分布式	2005
商标	2003
56	2003
蛋@@	2001
梯度	2001
无人	2001
奇迹	2001
号码	2001
切除术	2001
武	2000
文件夹	2000
评	1999
触发	1999
样@@	1999
昆@@	1999
不像	1997
饱和	1996
水下	1996
姓名	1996
线索	1995
甚	1995
本月	1995
顿@@	1994
队长	1994
富裕	1994
圣诞	1994
钻石	1993
推测	1993
工业@@	1993
上学	1993
述	1992
激动	1992
绩效	1991
第一章	1991
委托	1991
咬	1991
中是	1991
经济体	1990
活着	1990
培育	1990
产品@@	1990
置于	1988
科研	1988
洲	1988
斯特@@	1988
挤@@	1988
中央@@	1988
诚@@	1987
一艘	1987
强迫	1986
储层	1986
俗	1986
AL@@	1986
项@@	1985
习	1985
轻轻	1984
赔偿	1984
合约	1984
光滑	1984
多层	1983
iPhone	1983
54	1983
跳舞	1982
招聘	1981
截面	1981
学位	1981
大海	1981
一方	1981
尽管如此	1980
地域	1980
擦@@	1979
感应	1979
间隙	1978
启示	1978
千	1978
高频	1977
该项	1977
根源	1977
君	1976
虫@@	1975
整	1975
口味	1975
光明	1975
波兰	1974
束@@	1974
参见	1974
诚实	1973
稀@@	1973
此事	1973
佐@@	1973
荣	1972
村民	1972
宗旨	1972
哪儿	1972
南京	1972
穷@@	1971
婚	1971
凭借	1971
全局	1971
过分	1970
读取	1970
英镑	1970
多久	1969
意愿	1968
燃@@	1967
西南	1966
步行	1966
两倍	1966
5000	1966
玻璃@@	1965
怒	1965
帧	1965
审@@	1965
团结	1965
这片	1964
输	1962
表单	1962
尘	1962
铃	1961
盒子	1961
拉伸	1961
迎接	1960
签证	1960
弹簧	1960
军方	1960
转动	1959
股@@	1959
盆	1959
教材	1959
夫妻	1959
pro@@	1959
陆地	1958
铸造	1958
直至	1958
意志	1958
备份	1958
灌注	1957
撰写	1957
推行	1956
家园	1956
绕@@	1955
织@@	1955
钩	1954
物料	1954
参议院	1954
3D	1954
腹部	1953
缺失	1953
止	1953
真诚	1952
两只	1952
院@@	1951
枚	1951
屋@@	1951
安慰	1951
书写	1951
钢筋	1950
邮@@	1950
衫	1950
罪@@	1950
搭	1950
挤压	1950
卧@@	1950
美食	1949
答应	1949
烹饪	1949
据@@	1949
谋	1948
纯粹	1948
猜测	1948
海域	1948
灵活性	1947
AM@@	1947
雄	1946
重构	1946
累@@	1946
百	1946
游行	1946
缸	1945
基质	1945
一是	1945
oo@@	1945
普尔	1944
传达	1944
中说	1944
解除	1943
真菌	1943
注释	1943
时机	1942
工会	1942
山脉	1942
型号	1942
勇@@	1942
过后	1941
祖先	1941
甲基	1941
波长	1941
结构@@	1940
敏捷	1940
摩托车	1940
挤	1940
填写	1940
预处理	1939
提及	1939
外表	1939
优美	1939
装配	1938
盛	1938
拍卖	1938
兼@@	1938
健身	1938
98	1938
敏感性	1937
埋@@	1937
限度	1936
软件@@	1936
盈利	1935
涵盖	1934
戒@@	1934
当选	1933
郊区	1932
电网	1932
挑@@	1932
把@@	1932
肯@@	1931
老化	1931
浪@@	1931
大自然	1931
大胆	1931
自豪	1930
栽培	1930
信道	1930
巨头	1929
女生	1929
格局	1928
大西洋	1928
讽刺	1927
讯	1927
硬度	1927
现代@@	1927
灌@@	1927
漫长	1927
桌	1927
创造性	1927
阀门	1926
中医	1926
折磨	1925
努@@	1925
道歉	1924
法则	1924
广东	1924
溶	1923
旗@@	1923
帐	1923
存活	1923
妊娠	1923
验@@	1922
沈@@	1922
权限	1922
决议	1922
俄@@	1922
Mar@@	1922
一股	1921
订	1920
皇@@	1920
天赋	1920
仓库	1920
血糖	1919
百姓	1919
氟	1919
安娜	1919
大桥	1919
am	1919
62	1919
开发@@	1918
66	1918
63	1918
看过	1916
口腔	1916
劳	1916
AS	1916
88	1916
窗@@	1915
挺@@	1915
绝望	1914
第四章	1914
平稳	1914
导入	1914
外国人	1913
港@@	1912
字节	1912
不确定性	1912
裂@@	1911
耶路撒冷	1911
电梯	1911
传统@@	1911
仿@@	1911
跟随	1910
坐下	1910
遇	1909
研究员	1909
气息	1909
坎@@	1909
老虎	1907
灭@@	1907
法测定	1907
惨@@	1907
定理	1907
LED	1907
谋@@	1906
报价	1906
办公	1906
三天	1906
ad	1906
瞬间	1905
杂交	1905
掌@@	1904
0.01	1904
烈@@	1903
汀	1903
不可避免	1903
od@@	1903
管理者	1902
来讲	1902
描写	1902
熟@@	1901
总量	1901
弥补	1901
培@@	1901
变性	1901
凯	1901
高档	1900
一路	1900
os@@	1900
担保	1899
扑@@	1898
气温	1897
跟@@	1896
电信	1896
或者说	1896
重庆	1895
立体	1894
新疆	1894
密钥	1894
宾	1894
基准	1894
既有	1893
恶劣	1893
天下	1893
习@@	1893
丹麦	1893
铬	1892
艺@@	1892
发放	1892
预言	1890
雇佣	1890
耐	1890
工件	1890
冰箱	1890
售	1889
显微镜	1888
胎@@	1887
界定	1887
最有	1887
散射	1887
建筑@@	1887
一眼	1887
2.0	1887
见证	1886
腐@@	1886
忍@@	1886
埋	1886
不住	1886
氛围	1885
局@@	1885
北约	1885
ry	1885
直流	1884
洁@@	1883
否定	1883
单片机	1883
阶	1882
植入	1882
摄影师	1881
录@@	1880
补贴	1879
高精度	1878
芽	1878
概括	1878
构@@	1878
多人	1878
登上	1877
获@@	1876
第五	1876
海底	1876
旗	1876
发电机	1876
大厅	1875
名人	1875
耗@@	1873
徒	1873
归纳	1873
张力	1873
废@@	1873
夜间	1873
加剧	1873
ev@@	1873
58	1873
继	1872
TA	1872
颇	1871
枯@@	1871
教导	1871
国务院	1871
AN@@	1871
90%	1871
贸易@@	1870
美妙	1870
精子	1870
格林	1870
基本原理	1870
哈利	1870
自我@@	1869
基督徒	1869
北韩	1869
偏差	1869
评定	1868
盆@@	1868
无效	1868
并行	1868
顾@@	1867
限	1867
勾@@	1867
05	1867
轻微	1864
全体	1864
版@@	1863
放电	1863
干部	1863
孟@@	1863
销@@	1862
解读	1862
救助	1862
变动	1862
屑	1861
伤口	1861
之处	1861
聚焦	1860
另@@	1860
包围	1860
乐器	1860
挖@@	1859
平民	1859
定律	1859
路由	1858
宏@@	1858
变为	1858
凉@@	1858
GPS	1857
较强	1856
职工	1856
粮	1856
祖	1856
烦恼	1856
污染物	1856
岭	1856
分层	1856
ru@@	1856
国民	1855
祖国	1854
搜寻	1854
兑	1854
给定	1853
地毯	1852
后续	1852
陪	1851
阵@@	1851
沉重	1851
暂停	1851
痕	1850
灾	1850
不起	1850
沃	1849
喜	1849
瑟@@	1848
海关	1848
建构	1848
丸	1848
过多	1847
繁@@	1847
此后	1847
收益率	1847
地表	1847
产品质量	1847
沟@@	1846
告	1846
后代	1845
分析表明	1845
CE@@	1845
鸭	1844
海啸	1844
管理局	1843
棚	1843
军事@@	1843
仆人	1843
乔布斯	1843
适应性	1842
站@@	1842
the	1842
硫	1841
俄国	1841
际	1840
溶解	1840
条例	1840
手册	1840
坦克	1840
68	1840
领导者	1839
粉丝	1839
房价	1839
请问	1838
不已	1838
腺	1837
粉末	1837
畸形	1837
珍贵	1837
爱好	1837
射线	1837
奉@@	1837
一副	1837
答@@	1836
残留	1836
弱@@	1836
射击	1836
ter	1836
词语	1835
诉	1835
凉	1835
从此	1835
饥饿	1834
芬@@	1834
租	1834
只好	1834
草原	1833
膏	1833
植被	1833
动物园	1833
似@@	1833
PE@@	1833
跨越	1832
荣耀	1832
成效	1832
喂	1832
迄今为止	1831
辛	1831
治愈	1831
染@@	1831
严肃	1831
桃@@	1830
变暖	1830
印尼	1830
分辨率	1830
几分钟	1830
X射线	1830
散步	1828
庄	1826
墙@@	1826
时空	1825
奔@@	1825
不易	1825
零售商	1824
衬衫	1824
旅程	1824
令@@	1824
三大	1824
盖茨	1822
庭	1822
那边	1821
董事	1821
脖子	1821
生产力	1821
钢铁	1820
自定义	1820
奴隶	1820
一双	1820
ov@@	1820
遇见	1819
评分	1819
舌@@	1819
洋	1819
友@@	1819
代表性	1819
IP@@	1819
CPU	1819
里斯	1818
敢	1818
娅	1818
隐	1817
随之	1817
秋	1817
洁	1817
水晶	1817
拟合	1817
麻醉	1816
敌	1816
弃	1816
妈	1816
幕@@	1815
叙事	1815
ard	1815
用药	1814
生育	1814
柄	1814
有望	1814
方言	1814
肺癌	1813
管制	1813
票@@	1813
内置	1813
陷	1812
迁@@	1812
板块	1812
云南	1812
一员	1812
eg@@	1812
猜	1810
裔	1809
行李	1809
粒@@	1809
城堡	1809
译@@	1808
胆固醇	1808
心态	1808
审	1808
几率	1808
电磁	1807
水准	1807
采样	1806
诱惑	1806
血流	1806
吻合	1806
ow@@	1806
age	1806
50@@	1806
故意	1805
劳动@@	1805
硬化	1804
氮@@	1804
斯坦	1804
辉	1802
转子	1801
慈善	1801
总数	1801
具@@	1801
你好	1801
25%	1801
弦	1800
高端	1799
显示器	1799
峰值	1799
生态环境	1798
保护@@	1798
水质	1797
拓扑	1797
视网膜	1796
碧@@	1796
愈合	1796
恶性	1796
刚度	1796
伟	1796
赏@@	1795
氏@@	1795
未知	1794
政党	1794
执@@	1794
塔利班	1794
设在	1793
更具	1793
卵	1793
镜@@	1792
蒸@@	1792
源代码	1792
公元前	1792
拥抱	1791
如图	1791
靠@@	1790
遍	1790
航行	1790
精致	1790
毁灭	1789
嵌入	1789
地下水	1789
依照	1789
翅膀	1788
稳	1788
念@@	1788
家庭@@	1788
叙利亚	1788
sp@@	1788
金色	1787
违@@	1787
唯@@	1787
受损	1787
PC@@	1787
当事人	1786
取出	1786
两大	1784
ER@@	1784
策	1783
怒@@	1783
准确性	1783
ip@@	1783
替@@	1782
曲面	1782
变迁	1782
os	1782
计画	1781
沙发	1781
柴油	1781
姿势	1781
前期	1781
买家	1781
过滤器	1779
表征	1779
树立	1779
光电	1779
不让	1779
长达	1778
氧化@@	1778
景象	1778
扶@@	1778
年纪	1778
喀@@	1778
人口@@	1778
轮廓	1777
碎@@	1777
复发	1777
辞职	1776
唱片	1776
资本主义	1775
室@@	1775
信息化	1775
三角	1775
签订	1774
不太	1774
!	1774
法对	1773
基因组	1773
一口	1773
通风	1772
竟	1771
机体	1771
郭@@	1770
缓@@	1770
消灭	1770
托马斯	1770
iv@@	1770
ec@@	1770
57	1770
标准化	1769
副作用	1769
露出	1768
逃	1768
渔@@	1768
四分之一	1768
缝@@	1767
漫@@	1767
跃@@	1766
稍微	1766
研@@	1766
不清	1766
鸣	1765
州长	1765
尘@@	1765
失业率	1765
危@@	1765
半岛	1765
76	1765
混合@@	1764
搞@@	1764
受力	1764
15%	1764
职务	1763
穷人	1763
深层	1763
赛事	1762
情节	1762
DE@@	1762
牌@@	1761
底层	1761
对阵	1761
队友	1760
注@@	1760
成份	1760
感动	1760
电脑@@	1759
特质	1759
惊奇	1759
蔓延	1758
条目	1758
训	1757
竞@@	1757
医药	1757
做些	1757
账	1756
综合性	1756
民主@@	1756
BP	1756
紫色	1755
用到	1755
爆破	1755
柏林	1755
星期二	1755
宜	1755
免	1755
PHP	1755
镜子	1754
漆@@	1753
淋@@	1753
应有	1753
币	1753
侵蚀	1753
普及	1752
批@@	1752
困惑	1752
刑事	1752
ex@@	1752
SS@@	1752
饮	1751
1994	1751
累积	1750
戏@@	1750
发布会	1750
马来西亚	1749
苗@@	1749
照射	1749
棒@@	1749
音译	1748
电器	1748
炼@@	1748
抱歉	1748
尾巴	1748
题@@	1747
脉@@	1747
用水	1747
浪	1747
推迟	1747
招	1747
手动	1747
酸钠	1746
桂@@	1746
敌@@	1746
扭曲	1746
开来	1746
视力	1745
喊	1745
主持人	1745
ion	1745
钛	1744
窄	1744
淡	1743
尽力	1743
卸@@	1743
险@@	1742
华丽	1742
96	1742
迈克	1741
杀害	1741
操@@	1741
国家队	1741
偶然	1741
人文	1741
奶奶	1739
深受	1738
效@@	1738
多功能	1738
探	1737
性感	1737
CA	1737
钢板	1736
激光器	1736
RE@@	1736
风味	1735
动词	1735
予	1735
骑士	1734
那条	1734
这块	1734
滥用	1734
囊@@	1734
充分利用	1734
瘦@@	1733
开口	1733
学期	1733
艘	1732
相处	1732
电厂	1732
划	1732
串	1732
Pro@@	1732
组建	1731
收取	1731
换句话说	1731
铅@@	1730
辉@@	1730
知识产权	1730
星星	1730
眼泪	1729
强有力	1729
宿@@	1729
姜@@	1729
大道	1729
经济衰退	1728
短信	1728
幽@@	1728
六个月	1728
亿元	1728
40@@	1728
30@@	1728
这笔	1727
塑料@@	1727
附件	1726
疑@@	1726
旗下	1726
捕捉	1726
岁月	1726
赚钱	1725
播@@	1725
摄入	1725
挣扎	1725
驱动器	1724
杂	1724
优惠	1724
中介	1724
专业@@	1724
饮@@	1723
第三方	1723
掌	1723
哀@@	1723
克里斯	1723
二战	1723
获利	1722
反应器	1721
乃至	1721
始@@	1720
简洁	1719
撞击	1719
诚信	1718
葡萄牙	1718
充电	1718
高峰	1717
相连	1717
伟@@	1717
co@@	1717
装修	1716
海地	1716
大致	1716
双向	1716
外形	1715
塑@@	1715
厕所	1715
中性	1715
饭@@	1714
阻塞	1714
猴	1714
政治家	1714
披露	1714
姓	1713
一点点	1713
外壳	1712
纷@@	1711
福音	1711
旧金山	1711
同志	1711
一次性	1711
批	1710
应付	1710
岗位	1710
首选	1709
礼貌	1709
普通@@	1709
扇	1709
仓	1709
CC	1709
路面	1708
签	1708
墙壁	1708
向下	1708
青春	1707
无可@@	1707
拟@@	1707
住@@	1707
鼠标	1706
骨髓	1706
盗@@	1706
介@@	1706
浴@@	1705
智	1705
供应链	1705
产出	1705
走上	1704
碰@@	1704
MP	1704
败	1703
汇	1703
冷冻	1703
IM@@	1703
首要	1702
注射液	1702
审核	1702
葡萄糖	1701
自制	1701
公元	1701
67	1701
计算结果	1700
等离子体	1700
棉花	1700
有效率	1700
支配	1700
穴	1699
复方	1699
分组	1699
减弱	1699
身后	1698
裁判	1698
多媒体	1698
两条	1698
天津	1697
商务@@	1697
70%	1697
遇@@	1696
宾馆	1696
候@@	1696
此项	1695
心肌	1695
严厉	1695
群落	1694
生态@@	1694
有毒	1694
奋斗	1694
城市@@	1694
吉姆	1694
SC@@	1694
隐私	1693
转让	1693
蒸发	1693
胚@@	1693
美洲	1693
昨晚	1693
味@@	1693
步伐	1692
才@@	1692
存放	1692
嫩	1692
农药	1692
撕@@	1691
亚马逊	1691
时会	1690
尼克	1690
举动	1690
串@@	1690
电台	1689
加盟	1689
角膜	1688
渡@@	1688
平时	1688
同行	1688
出场	1688
都市	1687
油价	1687
水性	1687
总监	1687
削弱	1687
篮球	1686
桌面	1686
服饰	1686
无力	1686
斯基	1686
CP@@	1686
踏@@	1685
管理器	1685
更高	1685
拨@@	1685
BS	1685
筹@@	1684
空军	1684
百分点	1684
度量	1684
娃	1684
亲密	1684
腾	1683
瑜伽	1683
录像	1683
60%	1683
藤	1682
电位	1682
鸣@@	1681
软骨	1681
掩@@	1681
启发	1681
十	1681
共同@@	1681
箭	1680
棕色	1680
截至	1680
童	1679
序@@	1679
雕刻	1678
拔	1678
我用	1678
像素	1678
通往	1677
解剖	1677
纵向	1677
无比	1677
忠诚	1677
市中心	1677
交际	1677
／	1676
雌@@	1676
钢管	1676
词典	1676
第三个	1676
码@@	1676
猫@@	1676
总之	1676
奔	1676
剖析	1676
end@@	1676
营造	1675
查尔斯	1675
擅长	1675
成员国	1675
力度	1675
ine	1675
100%	1675
诱@@	1674
听众	1674
风机	1673
粘	1673
挪威	1673
愿@@	1673
抑郁症	1672
导管	1672
大城市	1671
ey	1671
预订	1670
通胀	1669
现今	1669
汗@@	1669
扭@@	1669
协定	1669
勃@@	1668
3000	1668
规	1667
喜剧	1667
约翰逊	1666
电荷	1666
沉默	1666
有意思	1666
支票	1666
帝	1666
何	1666
众所周知	1666
不行	1666
CS	1666
测验	1665
地基	1665
纠纷	1664
历	1664
高品质	1662
脂肪酸	1662
显微	1662
手上	1662
夸@@	1662
多元化	1662
魔	1661
炮@@	1661
振	1661
尔特	1661
住院	1661
1.5	1661
气流	1660
极度	1660
捐赠	1660
口感	1659
议题	1658
姐妹	1658
功能@@	1658
候	1658
资深	1657
贾	1657
新颖	1657
光子	1657
先后	1657
鼠@@	1656
CR@@	1656
镀@@	1655
某种程度	1655
映@@	1655
操作@@	1655
户外	1655
解放	1654
水流	1654
1980	1654
角落	1653
脑袋	1653
紧紧	1653
痕迹	1653
煤炭	1653
灵敏度	1653
日圆	1653
放大器	1653
户@@	1653
多名	1653
车站	1652
色谱	1652
消毒	1652
架@@	1652
很棒	1652
随访	1651
态@@	1651
反弹	1651
使人	1651
ch	1651
纠正	1650
稀土	1650
益	1650
最长	1650
图标	1650
修饰	1650
董事长	1649
沙滩	1649
欧元区	1649
愈	1649
制动	1649
上次	1649
骗	1648
量表	1648
第一步	1648
生产@@	1648
59	1648
赴	1647
胖	1647
电视节目	1647
派对	1647
洛克	1647
效能	1647
战役	1647
废	1647
奶酪	1647
使用寿命	1647
万人	1647
设计方案	1646
奈@@	1646
七个	1646
贫@@	1645
砖@@	1644
理查德	1644
宝石	1644
狄@@	1643
灾@@	1643
段时间	1643
不见	1643
第五@@	1642
浩@@	1642
我方	1642
协商	1642
赖@@	1641
胆	1641
琼斯	1641
1992	1641
是非	1640
肺炎	1639
星期三	1638
忧虑	1638
取向	1638
丰田	1638
一时	1638
湖泊	1637
新华社	1637
刑@@	1637
源性	1636
提起	1636
抛弃	1636
扰	1636
墨	1636
再度	1636
全都	1636
主观	1636
TE@@	1636
粒度	1635
数组	1635
山上	1635
韵	1634
拥挤	1634
分量	1634
附	1633
醒来	1633
管理人员	1633
实习	1633
安置	1633
主教练	1633
计算公式	1632
泰勒	1632
光源	1632
被动	1631
深远	1631
曝光	1631
摘@@	1631
崛起	1631
哮喘	1631
事项	1631
之旅	1631
art@@	1631
心理学家	1630
维度	1629
皮革	1629
本赛季	1629
城区	1629
待遇	1628
变压器	1628
左边	1627
营养@@	1626
美的	1626
温柔	1626
饮用	1625
结局	1625
纪@@	1625
算是	1625
眼中	1625
树林	1625
暂@@	1625
力学性能	1625
衍射	1624
苏丹	1624
旅@@	1624
快捷	1624
71	1624
雕塑	1623
不去	1623
骨头	1622
深入研究	1622
并发	1622
WebSphere	1622
雅虎	1621
许可证	1621
褐色	1621
粘度	1621
盐酸	1621
时说	1621
函	1621
鹿@@	1620
陈述	1620
赞@@	1620
本国	1620
拜访	1620
固	1620
下次	1620
赖	1619
清醒	1619
应急	1619
平安	1619
兔子	1619
箱@@	1618
雷斯	1617
蜜@@	1617
网球	1616
消极	1616
气管	1616
87	1616
装有	1615
脊髓	1615
涉@@	1615
奖金	1615
投影	1614
奎@@	1614
名词	1614
to	1614
行程	1613
漂@@	1613
海湾	1613
Ma@@	1613
车间	1612
生化	1612
引	1612
尴尬	1612
刊	1612
1993	1612
精心	1611
戒	1611
定向	1611
袭	1610
职业@@	1610
焊	1610
烧结	1610
右边	1610
凌@@	1610
钻井	1609
误解	1609
思想@@	1609
它@@	1609
这使	1608
语文	1608
浏览器	1608
欠	1608
希拉里	1608
实验@@	1608
深处	1607
广告@@	1607
卓@@	1607
82	1607
香气	1606
音频	1606
融化	1606
联合@@	1606
挡	1606
尔顿	1606
61	1606
舌	1605
灭绝	1605
流通	1605
概况	1605
国债	1605
即时	1605
顾	1604
碱性	1603
星期六	1603
奇异	1603
伊丽莎白	1603
Th@@	1603
直观	1602
混沌	1602
抑制剂	1602
司法@@	1602
航空@@	1601
浓缩	1601
水量	1601
奥斯卡	1601
牧@@	1600
叠	1600
精华	1599
米尔	1599
生产工艺	1599
炸@@	1599
摩西	1599
中将	1599
世上	1599
色谱法	1598
材质	1598
宽带	1598
喜悦	1598
韦	1597
闹	1597
溜@@	1597
沿海	1597
资源@@	1596
葬	1596
氨@@	1596
首相	1595
食品@@	1595
菌株	1595
彭@@	1595
参考资料	1595
辞@@	1594
沉降	1594
来临	1594
80@@	1594
职能	1593
短缺	1593
正当	1593
楼梯	1593
抑制作用	1593
忍受	1593
固化	1593
修订	1593
仍旧	1593
近来	1592
虾	1592
终结	1592
析	1592
小儿	1592
身材	1591
责	1591
湿地	1591
点燃	1590
源自	1590
汉字	1590
权益	1590
执政	1590
品尝	1590
吸入	1590
丰	1590
金牌	1588
混合物	1588
小女孩	1588
园林	1588
合成@@	1588
七年	1588
信徒	1587
Ar@@	1587
增生	1586
ist@@	1586
销售额	1585
造影	1585
谋杀	1585
字体	1585
领土	1584
结石	1584
流动性	1584
恋爱	1584
Sch@@	1584
西亚	1583
肚子	1583
小男孩	1583
失踪	1583
信赖	1583
买卖	1583
中心@@	1583
ff@@	1583
裁@@	1582
船上	1582
脏	1582
疟疾	1582
岗	1582
塑	1582
化妆品	1582
诱发	1581
摄@@	1581
客房	1581
运送	1580
诊所	1578
冲动	1578
贯穿	1577
萎缩	1577
终	1577
好奇	1577
反思	1577
盲@@	1576
帐篷	1576
商场	1576
军人	1576
二人	1576
驱@@	1575
模特	1575
摄像机	1575
碰	1574
问道	1573
卵@@	1573
创造力	1573
耗	1572
笑话	1572
昌	1572
善良	1572
供电	1572
居然	1571
少女	1571
剧本	1571
病情	1570
核武器	1570
想像	1570
浦@@	1569
很强	1569
IL	1569
问卷调查	1568
苍@@	1568
法律@@	1568
怎么办	1568
魏@@	1567
马克思主义	1567
浴	1567
别墅	1567
公认	1567
无线电	1566
工作室	1566
境界	1566
堤	1566
负面	1565
纺织	1565
泪	1565
所有权	1565
基层	1565
出租车	1565
优异	1565
淋巴细胞	1564
水域	1564
契约	1564
堂@@	1564
哲学家	1564
92	1564
骨骼	1563
茶叶	1563
童年	1563
平方米	1563
兼容	1563
个性化	1563
ud@@	1563
百年	1562
孕妇	1562
ell	1562
时常	1561
市区	1561
己@@	1561
工业化	1561
增	1560
一封	1560
瘦	1559
开源	1559
委员	1559
保险公司	1558
CP	1558
起初	1557
年初	1557
队@@	1556
财政@@	1556
物资	1556
平均@@	1556
勤@@	1556
PO@@	1556
吓	1555
冰川	1555
荒@@	1554
案@@	1554
手套	1554
带宽	1554
不适	1554
上课	1554
一枚	1554
第一位	1553
氧气	1553
患儿	1553
年级	1553
会话	1553
xml	1553
薪水	1552
范	1552
原材料	1552
事先	1552
雨水	1551
少数民族	1551
单体	1551
儿童@@	1551
一顿	1551
HIV	1551
2.5	1551
肿	1550
巡@@	1550
ity	1550
CT@@	1550
罪犯	1549
平常	1549
各方	1549
PP	1549
10.@@	1549
飓风	1548
车队	1548
坡@@	1548
休	1548
马克思	1547
连接@@	1547
计数	1547
约定	1547
园@@	1547
卫	1547
长江	1546
蜜蜂	1546
生效	1546
生命周期	1546
比较@@	1546
放下	1546
损耗	1546
孔隙	1546
储蓄	1546
逃离	1545
贵族	1545
英国@@	1545
热门	1545
怀	1545
子弹	1545
国产	1545
判定	1545
凹@@	1545
内外	1545
八个	1545
船长	1544
流传	1544
波特	1544
对面	1544
子系统	1544
事务所	1544
78	1544
狼@@	1543
毫无@@	1543
搬@@	1543
半径	1543
券	1543
ew@@	1543
远处	1542
贪@@	1542
联络	1542
恐龙	1542
宁静	1542
大臣	1542
不止	1542
CEO	1542
新建	1541
ob@@	1541
WS	1541
逆	1540
深化	1540
接头	1540
开销	1540
原谅	1540
分级	1540
偏见	1540
MA	1540
肯尼亚	1539
王朝	1539
特里	1539
处罚	1539
登陆	1537
澳门	1537
夺@@	1537
增长率	1537
罚	1536
克莱@@	1536
上海@@	1536
防水	1535
酵母	1535
渐@@	1535
同期	1535
医	1535
获胜	1534
肩膀	1534
遗址	1533
从来不	1533
DC	1533
诠释	1532
生动	1532
湖人	1532
尼斯	1532
黛@@	1531
通货膨胀	1531
喉@@	1531
东北部	1531
高原	1530
局限性	1530
上市公司	1530
一堆	1530
池@@	1529
机票	1529
军官	1529
非凡	1528
纤@@	1528
科尔	1528
多余	1528
审视	1527
区间	1527
辞	1526
萧条	1526
电话@@	1526
报酬	1525
饲养	1524
闭	1524
忽然	1524
宇航员	1524
新娘	1523
径@@	1523
屋子	1523
核电站	1522
抢	1522
蜡	1521
温家宝	1521
巴勒斯坦	1521
下游	1521
est@@	1521
阶级	1520
莎@@	1520
祭司	1520
原发性	1520
除此之外	1519
过敏	1519
走廊	1519
俗@@	1519
多普勒	1518
前者	1518
军团	1518
个别	1518
FS	1518
程序员	1517
溪	1517
浴室	1517
封装	1517
付费	1517
两侧	1517
题材	1516
遗传算法	1516
绞@@	1516
绝缘	1516
敬	1516
成都	1516
恐怖主义	1516
共识	1516
低成本	1516
DS@@	1516
雄性	1515
遗产	1515
起点	1515
沉淀	1515
无聊	1515
建筑师	1515
局势	1515
吃惊	1515
五月	1515
一新	1515
燃油	1514
水解	1514
工序	1514
大国	1514
凯特	1514
ID@@	1514
84	1514
醚	1513
展出	1513
蜡@@	1512
消费@@	1512
十二@@	1512
六年	1512
胸部	1511
放射性	1511
岛@@	1511
价格@@	1511
途中	1510
连锁	1510
窑	1510
善于	1510
发病率	1510
参	1510
乐意	1510
章@@	1508
祭	1508
灌溉	1508
添@@	1508
不良反应	1508
韩	1507
醉	1507
裸@@	1507
礼品	1507
杰夫	1507
四处	1507
赞同	1506
尊@@	1506
咬@@	1506
具体@@	1506
IC@@	1506
漫画	1505
浮	1505
庆	1505
失误	1505
伸出	1505
议	1504
脏@@	1504
经纪人	1504
梨	1504
支援	1504
网路	1503
稻@@	1503
朝着	1503
Server	1503
闻@@	1502
舰	1502
确@@	1502
悬挂	1502
膝盖	1501
日本@@	1501
无论如何	1501
放进	1501
感冒	1501
难以置信	1500
闹@@	1500
第@@	1500
山谷	1500
外出	1500
坚强	1500
马尔@@	1499
病因	1499
接待	1499
哥伦比亚	1499
1991	1499
膀胱	1498
唑	1498
亭	1498
野外	1497
这篇	1497
电场	1497
扭转	1497
叠@@	1497
卡片	1497
MO@@	1497
CM@@	1497
运营商	1496
精美	1496
植株	1496
杭州	1496
剑@@	1496
麦克@@	1495
学员	1495
唱歌	1495
农业@@	1495
亏损	1495
专	1495
锯@@	1494
转速	1494
苹果公司	1494
并购	1494
岛上	1494
况	1494
锥@@	1493
赞美	1493
编辑器	1493
电影@@	1493
喝酒	1493
人力资源	1493
se	1493
疑问	1492
景色	1492
旱@@	1492
地狱	1492
加利福尼亚	1492
刀具	1492
养殖	1492
额@@	1491
经济学	1491
淹没	1491
碟	1490
石油@@	1490
瓷	1490
献@@	1490
拨	1490
心血管	1490
雾@@	1489
阐释	1489
红细胞	1489
珍珠	1489
征服	1489
骑@@	1488
锐@@	1488
猴子	1488
巧妙	1488
备受	1488
剧院	1488
00	1488
致使	1487
箱子	1487
星期四	1487
分辨	1487
珍	1486
投资@@	1486
仪@@	1486
鲨鱼	1485
试试	1485
衰老	1485
行为@@	1485
胡锦涛	1485
缘@@	1485
数年	1485
戒指	1485
总共	1485
午@@	1485
SS	1485
83	1485
烂	1484
伪	1484
81	1484
阈值	1483
工况	1483
以期	1483
以免	1483
if@@	1483
艾伦	1482
粗糙	1482
活化	1482
下列	1482
id	1482
这本	1481
极化	1481
巴士	1481
多样	1481
古怪	1481
铝合金	1480
虚	1480
甲烷	1480
口服	1480
An@@	1480
饼干	1479
键@@	1479
抱@@	1479
帅	1479
固定@@	1479
世人	1479
等效	1478
旋	1478
三角洲	1478
妙@@	1477
争夺	1477
结核病	1476
看不到	1476
燕@@	1476
烷	1476
桌上	1476
89	1476
铸	1475
爱德华	1475
修理	1475
习俗	1475
临界	1475
困@@	1474
GB	1474
选出	1473
走路	1473
当成	1473
塞尔	1473
厂@@	1473
书面	1473
ing@@	1473
骂	1472
订阅	1472
桑	1472
极具	1472
歧视	1471
弓	1471
巩固	1471
卡路里	1471
企业@@	1471
严峻	1471
花朵	1470
捷@@	1470
头痛	1470
ell@@	1470
绒	1469
时钟	1469
导师	1469
副本	1469
芳@@	1468
留给	1468
爷	1468
洁净	1468
总额	1468
帆	1468
嵌入式	1468
四十@@	1468
发言	1468
伴@@	1468
退化	1467
精细	1467
有序	1467
改为	1467
变化规律	1467
写下	1467
先知	1467
74	1467
酷@@	1466
蛇@@	1466
磁性	1466
欣@@	1466
护	1466
底下	1466
东南亚	1466
识	1465
美分	1465
等候	1465
珠宝	1465
注定	1465
楚@@	1465
中风	1465
NET	1465
销售@@	1464
抹	1464
大象	1464
避开	1463
落实	1463
天生	1463
同类	1463
人造	1463
MS@@	1463
肖@@	1462
浙江	1462
洞穴	1462
功能性	1462
租赁	1461
现已	1461
水管	1461
宏	1461
大坝	1461
花粉	1460
肾脏	1460
浆@@	1460
敲@@	1460
兰德	1460
77	1460
笑容	1459
山羊	1459
增添	1459
售价	1459
卡拉	1459
医学院	1459
物理学	1458
有意	1458
哪怕	1458
Twitter	1458
Car@@	1458
羽毛	1457
石墨	1457
密集	1457
多达	1457
人力	1457
不堪	1457
飞船	1456
缓冲	1456
年期	1456
v	1456
集中@@	1455
这款	1455
颈部	1454
环绕	1454
流入	1454
报警	1454
意象	1454
宇	1454
始于	1454
趋@@	1453
暖	1453
嘴唇	1453
切片	1453
94	1453
役	1452
污@@	1451
散发	1451
坚信	1451
信息技术	1451
丑闻	1451
身高	1450
游离	1450
前途	1450
73	1450
理论依据	1449
新一代	1449
偶像	1449
不当	1449
79	1449
所能	1448
当初	1448
陌生人	1447
诊	1447
纤维素	1447
掉@@	1447
娃娃	1447
赐	1446
抽	1446
席@@	1446
两类	1446
难点	1445
简历	1445
清新	1445
最少	1445
积极@@	1444
弥@@	1444
容纳	1444
增益	1444
反向	1444
叉	1444
不该	1444
PCR	1444
好友	1443
史上	1443
卵巢	1443
化学成分	1443
采取行动	1442
交易所	1442
降水	1441
英超	1441
美观	1441
编织	1441
当下	1441
嘴@@	1441
听力	1441
上演	1441
93	1441
边坡	1440
科比	1440
山东	1439
六月	1439
丹尼尔	1439
业务@@	1439
黏@@	1438
涌@@	1438
此刻	1438
奶油	1438
俄	1438
下方	1438
触及	1437
痰	1437
收敛	1437
操	1437
寻常	1437
学术@@	1437
凤@@	1437
传来	1437
仲裁	1437
香料	1436
纹理	1436
小区	1436
白血病	1435
半个	1435
预示	1434
索马里	1434
电视机	1434
段@@	1434
旅游业	1434
抗菌	1434
天上	1434
医学@@	1434
锰	1433
缺	1433
化学物质	1433
重用	1432
茨@@	1432
良	1432
稍	1432
震动	1431
难民	1431
荡	1431
水位	1431
抵@@	1431
好多	1431
奉	1431
AR	1431
转换成	1430
翼@@	1430
流场	1430
情人	1430
喷	1430
呼	1430
史蒂夫	1430
制药	1430
Sp@@	1430
香港@@	1429
多方面	1429
PT@@	1429
NBA	1429
滑坡	1428
殿	1428
昨日	1428
处方	1428
创办	1428
附属	1427
甲状腺	1427
智能手机	1427
智利	1427
拳	1427
古巴	1427
中华	1427
阔@@	1426
胡子	1426
格尔	1426
折叠	1426
处理@@	1426
野生动物	1425
酷	1425
柴@@	1425
FC	1425
降落	1424
裤	1424
浇@@	1424
束缚	1424
摩尔	1424
技	1424
受过	1424
冷静	1424
八年	1424
①	1424
嘲笑	1423
克尔	1423
仍@@	1423
林肯	1422
伍@@	1422
鲜花	1421
篮	1421
礼服	1421
电容	1421
汞	1421
就让	1421
姿	1421
穗	1420
涌	1420
恐慌	1420
大选	1420
利用率	1420
69	1420
面料	1419
粉碎	1419
社@@	1419
每股	1419
术@@	1419
同伴	1419
所作	1418
战斗机	1418
带动	1418
宝贝	1418
孙	1418
DI	1418
高出	1417
菲尔德	1417
晨@@	1417
厌恶	1417
加重	1417
倾听	1417
CN@@	1417
研讨会	1416
ME@@	1416
音乐会	1415
稳态	1415
氧化物	1415
毕@@	1415
有过	1415
手表	1415
废物	1415
一刻	1415
金刚石	1414
那次	1414
尔曼	1414
停下来	1414
一线	1414
表皮	1413
吐	1413
免疫系统	1413
之道	1413
丢@@	1413
一小	1413
郎	1412
明智	1412
ib@@	1412
运气	1411
剥@@	1411
切断	1411
面上	1410
铵	1410
海拔	1410
97	1410
邓@@	1409
瀑布	1409
卡特	1409
血栓	1408
晋@@	1408
执法	1408
带上	1408
不及	1408
肩	1407
老婆	1407
皮质	1407
润滑	1407
广西	1407
娘	1407
可达	1407
轴向	1406
爆	1406
政客	1406
长久	1405
肉类	1405
简述	1405
峰@@	1405
大赛	1405
热水	1404
弓@@	1404
世界卫生组织	1404
霸@@	1403
醋	1403
虐待	1403
日报	1403
好事	1403
前任	1403
AB@@	1403
香蕉	1402
让@@	1402
羽@@	1402
排队	1402
选票	1401
肉体	1401
冻	1401
阻抗	1400
坚固	1400
邻近	1399
能源@@	1399
指望	1399
奖项	1399
大片	1399
下周	1399
裤子	1398
薪酬	1398
艺术品	1398
梯@@	1398
健全	1398
二是	1398
世博会	1398
AM	1398
被捕	1397
歌唱	1397
实测	1397
出口@@	1397
装载	1396
经销商	1396
星期天	1396
提倡	1396
授@@	1396
冻结	1396
SA	1396
确诊	1395
犯罪@@	1395
法语	1395
截止	1395
名义	1394
藤@@	1393
自动@@	1393
流失	1392
没错	1392
捕@@	1392
反对派	1392
不出	1392
LO@@	1392
金矿	1391
草坪	1391
理事会	1391
堵塞	1391
又@@	1391
URL	1391
鲸	1390
阿里	1390
细致	1390
树枝	1390
果汁	1390
想着	1390
主教	1390
不明	1390
饱@@	1389
迎来	1389
菲尔	1389
烈	1389
植物@@	1389
商业银行	1389
血症	1388
线圈	1388
矿石	1388
电气	1388
死刑	1388
柔和	1388
挖	1388
奖@@	1388
坚决	1388
主场	1388
硫酸	1387
行使	1386
路透社	1385
摸	1385
固有	1385
咳嗽	1385
光束	1385
赞成	1384
脚步	1384
纯化	1384
紫外线	1384
承载	1384
必将	1384
徒@@	1384
吞@@	1384
可视化	1384
PL@@	1384
看似	1383
爱人	1383
溃疡	1383
成品	1383
巧@@	1383
倡导	1383
银行业	1382
赠@@	1382
申请人	1382
大批	1382
土壤@@	1382
侧面	1382
革@@	1381
银行@@	1381
盲	1381
影子	1381
开拓	1381
厂家	1381
勤	1381
中起	1381
HTTP	1381
轰@@	1380
谷物	1380
笔记本	1380
树上	1380
教程	1380
功夫	1380
关怀	1380
机床	1379
MC	1379
蛋白酶	1378
臭	1378
自治	1378
胞	1378
研究院	1378
文学@@	1378
彼@@	1378
弗兰克	1378
三月	1378
糖果	1377
抗氧化	1377
好消息	1377
单身	1377
传染病	1377
一棵	1377
逼	1376
蓄@@	1376
电视剧	1375
把手	1375
常数	1375
双层	1375
厨师	1375
内膜	1375
一千@@	1375
首位	1374
逃避	1374
残酷	1374
打败	1374
针对性	1373
胡	1373
硬盘	1373
桌@@	1373
ep@@	1373
运输@@	1372
肝癌	1372
硬币	1372
进出口	1371
疼	1371
数学@@	1371
配有	1370
存储@@	1370
垄断	1370
哭@@	1370
列入	1370
中产阶级	1370
DM	1370
黎@@	1369
蝴蝶	1369
犹如	1369
折扣	1369
传媒	1369
不可思议	1369
震	1368
集会	1368
用户界面	1368
本体	1368
公债	1368
全是	1368
超声波	1367
狂热	1367
物理@@	1367
意味	1367
女孩子	1367
前所未有	1367
偷	1367
all@@	1367
方针	1366
克里@@	1366
东南	1366
世界银行	1366
雕像	1365
血小板	1365
末端	1365
侵入	1365
重叠	1364
赛车	1364
罢工	1364
经济危机	1364
热处理	1364
油脂	1364
尤	1364
女友	1364
ET	1364
醉@@	1363
生殖	1363
格斯	1363
寄	1363
占用	1363
助手	1363
人心	1363
iz@@	1363
芯@@	1362
症@@	1362
帝@@	1362
偶	1362
借口	1362
伤心	1362
SD	1362
访谈	1361
女朋友	1361
刊登	1361
书店	1361
上空	1361
一月	1361
列举	1360
CO	1360
部份	1359
经由	1359
灿烂	1359
滑动	1359
施加	1359
陷@@	1358
晒	1358
新增	1358
剩	1358
CH@@	1358
蜡烛	1357
炒@@	1357
永不	1357
款@@	1357
房产	1357
庙	1357
制裁	1357
冗余	1357
伞	1357
优越	1357
上传	1357
敦促	1356
排斥	1356
凶@@	1356
裁决	1355
eb@@	1355
MRI	1355
锤	1354
统	1354
糊@@	1354
淋巴结	1354
停车	1354
DA	1354
醛	1353
议@@	1353
触	1353
覆	1353
癌@@	1353
我家	1353
忘@@	1353
伍	1353
不必要	1353
试验@@	1352
联邦政府	1352
经费	1352
孕@@	1352
夏威夷	1352
服从	1351
叔叔	1351
壶	1350
柔性	1349
更长	1349
挥@@	1349
催@@	1349
倍@@	1349
一轮	1349
见解	1348
浓郁	1348
欠@@	1348
打扮	1348
密封@@	1348
多家	1348
温泉	1347
武汉	1347
模态	1347
腔@@	1346
斯蒂@@	1346
坐落	1346
骗@@	1345
馀	1345
过量	1345
业主	1345
aw@@	1345
Ad@@	1345
谎言	1344
设计@@	1344
悬浮	1344
冲洗	1344
能耗	1343
衍生	1342
比利时	1342
促	1342
Cl@@	1342
违约	1341
无机	1341
开玩笑	1341
孢子	1341
波形	1340
辣椒	1339
语境	1339
磷酸	1339
植	1339
救济	1339
我来	1339
恰@@	1339
屏@@	1339
坊	1339
冠状动脉	1339
伸展	1339
任期	1339
ore	1339
计算机@@	1338
薪	1338
版权	1338
分发	1338
0.0@@	1338
预应力	1337
青睐	1337
现任	1337
条纹	1337
抑@@	1337
患上	1337
91	1337
09	1337
琴@@	1336
吉他	1336
十二	1336
自愿	1335
抗性	1335
征收	1335
众议院	1335
香烟	1334
弃@@	1334
免疫@@	1334
一丝	1334
颜料	1333
切口	1333
MP@@	1333
续@@	1332
生病	1332
遥感	1331
气动	1331
惊喜	1331
宴会	1331
Sc@@	1331
高管	1330
联想	1330
手续	1330
地处	1330
匠	1330
900	1330
身为	1329
瓦斯	1329
潮湿	1329
显现	1329
庞@@	1329
奴	1329
充当	1329
二级	1329
乾@@	1329
不上	1329
08	1329
递@@	1328
耐药	1328
称赞	1328
剧烈	1328
芳香	1327
线条	1327
纽约时报	1327
精灵	1327
大学@@	1327
合理性	1327
再见	1327
首歌	1326
现年	1326
高位	1325
肠道	1325
注视	1325
填料	1325
土豆	1325
信件	1325
何种	1325
份额	1325
羟基	1324
湖南	1324
推翻	1324
战略@@	1324
幻@@	1324
室外	1324
发掘	1324
内阁	1324
麦凯恩	1323
路边	1323
潜艇	1323
既@@	1323
创下	1323
中午	1323
IT@@	1323
驶@@	1322
醇@@	1322
詹@@	1322
胞@@	1322
看电视	1322
奉献	1322
县@@	1322
臭@@	1321
氨	1321
本科	1321
反抗	1321
二十世纪	1321
辩	1320
莎士比亚	1320
统治者	1320
殖民地	1320
填	1320
途	1319
衰竭	1319
烫	1319
强壮	1319
长远	1318
辩护	1318
豹	1318
祝贺	1318
剥夺	1318
须@@	1317
谈谈	1317
腾@@	1317
科学技术	1317
直觉	1317
数控	1317
字典	1317
声誉	1317
切削	1317
院子	1316
躲	1316
财务@@	1316
所知	1316
人均	1316
进度	1315
此举	1315
杯子	1315
拘@@	1315
忽@@	1315
开辟	1315
外套	1315
加深	1315
凭@@	1315
一分钟	1315
院长	1314
闪烁	1314
沃尔@@	1314
学说	1314
垂	1314
做过	1314
CM	1314
长城	1313
矩形	1313
番茄	1313
城市化	1313
农田	1313
蚂蚁	1312
相邻	1312
有何	1312
录音	1312
国有企业	1312
人间	1312
赞助	1311
螺@@	1311
美术	1311
爪	1311
梳理	1311
掩盖	1311
追逐	1310
实用性	1310
多样化	1310
复合@@	1310
址	1310
厉害	1310
崭新	1309
光栅	1309
误	1308
帖	1308
临近	1308
宿舍	1307
国防	1307
一身	1307
起步	1306
编号	1306
笔记	1306
秋季	1306
润	1306
受访者	1306
全球性	1306
皮瓣	1305
湿度	1305
榜	1305
国际化	1305
中世纪	1305
BA	1305
2015	1305
青岛	1304
除去	1304
聊@@	1304
特权	1304
更能	1304
与众不同	1304
订购	1303
螺旋@@	1303
芳	1303
芬兰	1303
前方	1303
充斥	1303
人工@@	1303
ack@@	1303
PE	1303
灌	1302
担@@	1302
客厅	1302
台上	1302
业界	1302
要说	1301
眼球	1301
提案	1301
地产	1301
诸	1300
柴油机	1300
息@@	1300
急剧	1300
完全@@	1300
动荡	1300
高分子	1299
重型	1299
育种	1299
烯	1299
水体	1299
树叶	1299
忠@@	1299
增高	1299
乌克兰	1299
ass@@	1299
颁发	1298
贺@@	1298
翁	1298
涨@@	1298
栓塞	1298
公约	1298
这门	1297
反应堆	1297
争	1297
四月	1296
满意度	1295
数码	1295
宽松	1295
仪表	1295
与否	1295
RT	1295
LE@@	1295
结构设计	1294
清晨	1294
检查@@	1294
无所@@	1294
斯塔	1294
巨型	1294
小狗	1294
冯@@	1294
高等	1293
滚	1293
摩根	1293
强力	1293
John	1293
En@@	1293
纱@@	1292
模拟@@	1292
梳@@	1292
恶魔	1292
孤立	1292
加权	1292
上海市	1292
材@@	1291
引人注目	1291
化物	1291
风力	1290
这支	1290
没法	1290
控件	1290
意识形态	1290
吓@@	1290
可谓	1290
门户	1289
锅@@	1289
胳膊	1289
美容	1289
接触@@	1289
恶心	1289
PD@@	1289
赤字	1288
现存	1288
温格	1288
没能	1288
多于	1288
发音	1288
低压	1288
Bl@@	1288
金融机构	1287
气象@@	1287
族@@	1287
吩咐	1287
不然	1287
讯息	1286
蜘蛛	1286
看不见	1286
用法	1286
熏@@	1286
测井	1286
US@@	1286
鼓舞	1285
章节	1285
嘿	1285
依法	1285
ack	1285
狮	1284
杂质	1284
晚会	1284
开发商	1284
丛	1284
一倍	1284
顶端	1283
铀	1283
蜂蜜	1283
花钱	1283
洋葱	1283
预备	1282
辈	1282
贤	1282
称作	1282
妨碍	1282
臣	1281
灰尘	1281
服装@@	1281
搜@@	1281
电动机	1280
猪肉	1280
指引	1280
应激	1280
台阶	1280
减缓	1280
会面	1280
高强度	1279
颈@@	1279
雅典	1279
长长的	1279
摇	1279
天文学家	1279
壮	1279
囊肿	1279
ah@@	1279
配偶	1278
起床	1278
店@@	1278
场面	1278
光泽	1278
藉	1277
簿	1277
抹@@	1277
塘	1277
十个	1277
豪	1276
训@@	1276
禁	1276
数百万	1276
揭@@	1276
抵制	1276
恒	1276
局长	1276
呼叫	1276
参照	1276
北极	1276
RT@@	1276
DVD	1276
禁令	1275
碘	1275
七月	1275
DP	1275
阿拉@@	1274
玄@@	1274
演说	1274
日记	1274
振荡	1274
口号	1274
卖出	1274
代表团	1274
一贯	1274
排出	1273
得不到	1273
当做	1273
巨人	1273
娱乐@@	1273
填补	1273
哺乳动物	1273
仓@@	1273
高盛	1272
赞扬	1272
罐@@	1272
牢@@	1272
洒	1272
整数	1272
学习者	1272
出台	1272
事宜	1272
辣	1271
简易	1271
男士	1271
天天	1271
二十年	1271
闸	1270
掌控	1270
引力	1270
就此	1270
修补	1270
LD@@	1270
衍生物	1269
炎@@	1269
消防@@	1269
梯	1269
月底	1269
报表	1269
律@@	1269
娶	1269
坏死	1269
缓	1268
综合症	1268
纳税人	1268
犹太	1268
暴雨	1268
原子@@	1268
光芒	1268
释	1267
自由基	1267
系统地	1267
第一天	1267
稍后	1267
炒	1267
og@@	1267
Qu@@	1267
高大	1266
集装箱	1266
考核	1266
用户@@	1266
浓	1266
敲	1266
患@@	1266
小孩子	1266
CF@@	1266
结核	1265
烟雾	1265
点儿	1265
忙@@	1265
妥协	1265
外来	1265
三分之二	1265
sc@@	1265
漏洞	1264
春季	1264
握	1264
下一代	1264
一词	1264
II	1264
羊毛	1263
渡	1263
处置	1263
阴	1262
间谍	1262
较差	1262
虚假	1262
简短	1262
攻	1262
微量	1262
伴有	1262
110	1262
随便	1261
车子	1261
烧伤	1261
油漆	1261
布什总统	1261
好几个	1261
印度尼西亚	1261
劳工	1261
马车	1260
时分	1260
寡@@	1260
吕@@	1260
道德@@	1259
沙拉	1259
携手	1259
回避	1259
割	1259
上场	1259
魔鬼	1258
驾@@	1258
外语	1258
制订	1258
信息系统	1258
中小企业	1258
MI	1258
残余	1257
显而易见	1257
因特网	1257
回路	1257
和平@@	1257
利息	1257
凹陷	1257
写出	1257
典	1257
侵@@	1257
一日	1257
辐射@@	1256
身穿	1256
色调	1256
测定方法	1256
杀手	1256
忠实	1256
售@@	1256
乌	1256
乃	1256
ML	1256
随机@@	1255
波浪	1255
摸@@	1255
巧	1255
员@@	1255
仔	1255
万物	1255
面具	1254
逢	1254
辩@@	1254
眉@@	1254
法定	1254
水源	1254
气象	1254
扯	1254
十六@@	1254
勇	1254
劝	1254
刚性	1254
代数	1254
180	1254
自觉	1253
应用@@	1253
寿@@	1253
对冲	1253
油画	1252
处境	1252
喷射	1252
降雨	1251
越过	1251
维多利亚	1251
硕士	1251
昌@@	1251
扑	1251
11.@@	1251
铁矿	1250
莲@@	1250
花生	1250
相比之下	1250
益处	1250
民间@@	1250
彻@@	1250
Ex@@	1250
膝	1249
经营@@	1249
精神病	1249
百度	1249
欣	1249
黑洞	1248
高潮	1248
迟@@	1248
盾	1248
燃	1248
滨@@	1248
损@@	1248
惟一	1248
山顶	1248
姐	1248
到期	1248
判@@	1248
GA	1248
终身	1247
界限	1247
拐@@	1247
抽取	1247
遗传@@	1246
径向	1246
当地人	1246
大力	1246
oc@@	1246
试样	1245
滑雪	1245
廷	1245
威尔士	1245
克拉	1245
低估	1245
交替	1245
车上	1244
概@@	1244
昏@@	1244
安妮	1244
临	1244
稻	1243
熵	1243
培养基	1243
剖面	1243
再现	1243
il	1243
1989	1243
130	1243
面包@@	1242
技@@	1242
忙碌	1242
宁愿	1242
陌生	1241
起源于	1241
紊乱	1241
眼里	1241
废弃	1241
区内	1241
雌性	1240
阶@@	1240
讲座	1240
舟	1240
肢体	1240
好看	1240
ge	1240
ang@@	1240
调研	1239
懒@@	1239
平滑	1239
墓	1239
信誉	1239
访	1238
被称作	1238
烦@@	1238
拱	1238
奋@@	1238
北京市	1238
会长	1238
会上	1238
乐园	1238
杜	1237
悠久	1237
嘴里	1237
决策@@	1237
关税	1237
依次	1237
霞	1236
辽@@	1236
趣	1236
联合会	1236
眼光	1236
爷爷	1236
支气管	1236
布尔	1236
增进	1236
刷@@	1236
邻	1235
番	1235
惹@@	1235
内地	1235
船员	1234
籽	1234
城里	1234
发展前景	1234
十足	1234
万亿美元	1234
RP	1234
鲜	1233
高新技术	1233
纸张	1233
砂岩	1233
德斯	1233
刑法	1233
起飞	1232
脚下	1232
收回	1232
捐@@	1232
囚犯	1232
命令行	1232
BBC	1232
选定	1231
适配器	1231
脊柱	1231
糟	1231
烂@@	1231
训练@@	1230
蒙古	1230
ley	1230
裙子	1229
盘子	1229
所处	1229
延	1229
亨@@	1229
ice	1229
饰@@	1228
隙	1228
贪婪	1228
妙	1228
不规则	1228
黑客	1227
追	1227
谐波	1227
游览	1227
法治	1227
解雇	1226
瞧	1226
环境保护	1226
特纳	1226
涅@@	1226
比重	1226
引领	1226
剪	1226
公共汽车	1226
促@@	1226
不动	1226
畅@@	1225
在外	1225
健康状况	1225
诉@@	1224
罪行	1224
毫不	1224
有钱	1224
必不可少	1224
尤文	1224
富人	1224
天地	1224
升起	1224
ath@@	1224
TP	1224
戊@@	1223
右侧	1223
分娩	1223
交易@@	1223
up@@	1223
踩	1222
沉	1222
惠	1222
微粒	1222
坯	1222
双眼	1222
邦@@	1221
福德	1221
党派	1221
不足以	1221
通信@@	1220
这段	1220
衰减	1220
紫外	1220
管理层	1220
法学	1220
屋里	1220
奖学金	1220
域名	1220
黄金@@	1219
耕@@	1219
第六@@	1219
利斯	1219
重申	1218
升值	1218
分形	1218
事儿	1218
障	1217
离子@@	1217
相干	1217
海豚	1217
不定	1217
1988	1217
诚	1216
视线	1216
愈@@	1216
奇妙	1216
场上	1216
典@@	1216
CAD	1216
篮@@	1215
笼	1215
叠加	1215
南北	1215
人来	1215
镇痛	1214
过时	1214
起伏	1214
脱水	1214
稳定@@	1214
疑	1214
用地	1214
放缓	1214
德拉	1214
妹	1214
周刊	1214
厄@@	1214
前沿	1214
列为	1214
革	1213
静电	1213
软件开发	1213
语言学	1213
男生	1213
排水	1213
庭@@	1213
完整性	1213
后悔	1213
刘	1213
韧性	1212
脆	1212
电站	1212
巢	1212
害@@	1212
困	1212
四大	1212
君@@	1212
DB	1212
预估	1211
薇	1211
腺@@	1211
红军	1211
符合@@	1211
用例	1211
物理学家	1211
来回	1211
开创	1211
年内	1211
办事处	1211
0%	1211
陷阱	1210
服务员	1210
接入	1210
公告	1210
丧生	1210
铸铁	1209
本能	1209
整整	1209
开端	1209
庄@@	1209
带走	1209
多项	1209
临床表现	1209
下调	1209
营业	1208
牠	1208
整天	1208
妻	1208
压迫	1208
凝	1208
AD	1208
螺栓	1207
激	1207
恐怖分子	1207
形态学	1207
开头	1207
大幅度	1207
呼吸道	1207
冰淇淋	1207
与非	1207
all	1207
观赏	1206
西安	1206
气相	1206
教徒	1206
播出	1206
指挥官	1206
幼儿园	1206
今	1206
亚历山大	1206
热烈	1205
斯顿	1205
改革开放	1205
屏蔽	1205
子公司	1205
断面	1204
怪物	1204
以致	1204
享用	1204
零部件	1203
有史以来	1203
微妙	1203
大笑	1203
上诉	1203
04	1203
普京	1202
传热	1202
霍	1201
透镜	1201
论点	1201
表述	1201
良性	1201
大面积	1201
各级	1201
分校	1201
紧缩	1200
比喻	1200
正规	1200
嫁给	1200
图象	1200
传承	1200
高山	1199
指甲	1199
尊	1199
人能	1199
鸟儿	1198
遗忘	1198
辨@@	1198
车道	1198
月初	1198
景点	1198
旋律	1198
嘛	1198
同情	1198
健	1198
赶到	1197
肢	1197
示威	1197
严	1197
tr@@	1197
LC	1197
疫情	1196
炭@@	1196
木头	1196
另有	1196
亲戚	1196
里克	1195
萧@@	1195
胀	1195
称呼	1195
挽救	1195
学界	1195
复活	1195
咸@@	1195
副总裁	1195
ug@@	1195
返	1194
罚款	1194
广东省	1194
左侧	1194
奥地利	1194
国度	1194
压制	1194
初始化	1194
For@@	1194
金融市场	1193
汉堡	1193
梭@@	1193
所有者	1193
多孔	1193
压缩机	1193
价钱	1193
BO@@	1193
隐喻	1192
钱包	1192
迄今	1192
舌头	1192
生物学家	1192
晕@@	1192
散文	1192
培	1192
ian	1192
药材	1191
牵引	1191
澄清	1191
1500	1191
错误@@	1190
蜂	1190
疾@@	1190
玩耍	1190
济	1190
指纹	1190
发热	1190
丧@@	1190
锋	1189
祭@@	1189
百分比	1189
气质	1189
惠普	1189
ler	1189
绳子	1188
痒	1188
电力@@	1188
奇特	1188
三角形	1188
间距	1187
裙	1187
环形	1187
沉积物	1187
射频	1187
封面	1187
复兴	1187
分手	1187
全方位	1187
假装	1187
黄油	1186
雕	1186
拱@@	1186
技术人员	1186
发射@@	1186
初级	1186
关节炎	1186
保温	1186
伊斯兰教	1186
东南部	1186
RO@@	1186
液晶	1185
夜里	1185
祖父	1184
漫步	1184
学费	1184
基体	1184
肺部	1183
无知	1183
块@@	1183
东亚	1183
Pl@@	1183
诺基亚	1182
短语	1182
天体	1182
伸	1182
淡水	1181
仙	1181
主角	1181
难过	1180
耕地	1180
维斯	1180
油藏	1180
弧@@	1180
发展@@	1180
二元	1180
RNA	1180
齐全	1179
逆转	1179
演唱	1179
愚@@	1179
制服	1179
企@@	1179
车型	1178
流产	1178
泥土	1178
晒@@	1178
峡谷	1178
农作物	1178
ick	1178
欧洲@@	1177
套管	1177
十五@@	1177
业务流程	1177
ub@@	1177
ST	1177
渗	1176
天花板	1176
发生变化	1176
不时	1176
az@@	1176
石英	1175
横	1175
议案	1174
聚类	1174
看成	1174
大火	1174
基底	1174
博弈	1174
兆	1174
MB	1174
陆	1173
辣@@	1173
表中	1173
繁忙	1173
祖母	1173
冈	1173
信号@@	1173
伯特	1173
面孔	1172
电磁@@	1172
时髦	1172
阻尼	1171
一书	1171
IE@@	1171
靶	1170
赞	1170
营地	1170
肯尼迪	1170
容忍	1170
委会	1170
冈@@	1170
全年	1170
光盘	1170
钢铁@@	1169
菊	1169
示范	1169
涛	1169
挪@@	1169
尤为	1169
天主教	1169
可惜	1169
伐@@	1169
不远	1169
一维	1169
ot	1169
PLC	1169
Le@@	1169
鼎@@	1168
这套	1168
柳	1168
陆军	1167
遍布	1167
抚@@	1167
丛@@	1167
高水平	1166
高低	1166
钙@@	1166
金斯	1166
气球	1166
映	1166
旅	1166
扰动	1166
布鲁@@	1166
哭泣	1166
发给	1166
内战	1166
GP@@	1166
面粉	1165
疯@@	1165
桃	1165
不算	1165
降临	1164
援	1164
市场份额	1164
共和党人	1164
iPad	1164
色泽	1163
穿刺	1163
甘	1163
滚动	1163
撤销	1163
凝固	1163
赌@@	1162
褐@@	1162
幸存者	1162
匿名	1162
加利福尼亚州	1162
之路	1162
io	1162
ach@@	1162
这部分	1161
翠@@	1161
癫痫	1161
瓶颈	1161
洪	1161
每位	1161
报复	1161
崔@@	1161
学术界	1161
妥	1161
共振	1161
org	1161
骨架	1160
降到	1160
荷	1160
绑架	1160
献给	1160
数据源	1160
性行为	1160
地被	1160
击中	1160
八月	1160
傻@@	1160
丘	1160
IR	1160
驾驶员	1159
银行家	1159
融	1159
独一无二	1159
柏	1159
摊@@	1159
废除	1159
原先	1159
九月	1159
闪	1158
酰胺	1158
裁员	1158
珍@@	1158
沿岸	1158
名声	1158
俊@@	1158
亚伯拉罕	1158
丑	1158
ner	1158
飞往	1157
鞭@@	1157
辨识	1157
有所@@	1157
仲@@	1157
Mc@@	1157
赌博	1156
牢	1156
外侧	1156
国旗	1156
一向	1156
阴性	1155
腹泻	1155
美金	1155
罪恶	1155
刚好	1155
公司@@	1155
ash@@	1155
验	1154
颁布	1154
逻辑@@	1154
水力	1154
嫉妒	1154
太大	1154
兽@@	1154
表示@@	1153
葡萄@@	1153
缺血	1153
纺	1153
矫@@	1153
哈里	1153
停车场	1153
上部	1153
转身	1152
覆盖@@	1152
糊	1152
矿山	1152
睡着	1152
派遣	1152
每种	1152
提问	1152
岩体	1152
垫@@	1152
去过	1152
之情	1152
投诉	1151
席位	1151
书中	1151
葬礼	1150
获奖	1150
艰苦	1150
晕	1150
侵袭	1150
三名	1150
重返	1149
美联社	1149
米勒	1149
朵	1149
推销	1149
投资人	1149
恭@@	1149
布里@@	1149
出自	1149
体育场	1149
一共	1149
车轮	1148
构	1148
最大化	1148
唐代	1148
三位	1148
ph@@	1148
顺便	1147
长得	1147
详尽	1147
茅@@	1147
苏珊	1147
择@@	1147
哈佛	1147
ok@@	1147
逼近	1146
运河	1146
赞赏	1146
解决办法	1146
航天	1146
揭露	1146
全文	1146
表层	1145
董@@	1145
瓶@@	1145
淘汰	1145
唇@@	1145
哈佛大学	1145
卢	1145
一会	1145
高斯	1144
阵容	1144
贝克	1144
解答	1144
竞技	1144
相近	1144
春节	1144
捕	1144
嵌@@	1144
头顶	1144
地中海	1144
公顷	1144
伐	1144
Eclipse	1144
违背	1143
男友	1143
抄@@	1143
成矿	1143
好象	1143
台北	1143
保养	1143
IB@@	1143
赶	1142
自然界	1142
编译器	1142
滞后	1142
扁@@	1142
叫声	1142
偿还	1142
PM@@	1142
肥料	1141
浸	1141
拳@@	1141
女神	1141
呆@@	1141
买下	1141
au@@	1141
07	1141
尼日利亚	1140
好转	1140
大都	1140
备用	1140
ill@@	1140
沃尔玛	1139
克鲁@@	1139
偏好	1139
不高	1139
遏制	1138
西南部	1138
袖@@	1138
扫	1138
岁@@	1138
好评	1138
偏离	1138
争吵	1138
The	1138
聆听	1137
粘土	1137
玉米@@	1137
武术	1137
施行	1137
呈@@	1137
一期	1137
02	1137
门将	1136
追溯到	1136
聚氨酯	1136
比分	1136
器材	1136
向导	1136
光照	1136
75%	1136
蕾	1135
礼拜	1135
激进	1135
十五	1135
通用汽车	1134
纽约市	1134
海边	1134
毫不@@	1134
乳液	1134
终点	1133
污泥	1133
氨基	1133
抗议者	1133
仅为	1133
选中	1132
认	1132
触摸	1132
西北部	1132
时段	1132
摘	1132
小波	1132
评判	1131
构想	1131
品味	1131
公务员	1131
一般来说	1131
饮酒	1130
重现	1130
路易斯	1130
玲	1130
几位	1130
ind@@	1130
腹腔镜	1129
现实生活	1129
最高法院	1129
排放量	1129
托尼	1129
发型	1129
会晤	1129
飞行器	1128
生产总值	1128
独立@@	1128
晚些时候	1128
幼儿	1128
亮度	1128
一带	1128
麦当劳	1127
际@@	1127
计算@@	1127
续	1127
筒@@	1127
笔记本电脑	1127
男朋友	1127
犯@@	1127
演习	1127
指针	1127
如是说	1127
地向	1127
十分@@	1127
阳极	1126
货币政策	1126
评述	1126
皮层	1126
瓶子	1126
湘@@	1126
幼虫	1126
商学院	1126
十月	1126
前列腺	1126
冠心病	1126
不论是	1126
突	1125
现实意义	1125
河道	1125
无意	1125
争端	1125
三十	1125
靶@@	1124
皱@@	1124
牛仔裤	1124
微机	1124
宣言	1124
GC	1124
画廊	1123
潜水	1123
哇	1123
几百@@	1123
丝毫	1123
舰@@	1122
空气@@	1122
抽样	1122
变质	1122
体型	1122
驾车	1121
组织@@	1121
紫	1121
爽	1121
漂浮	1121
恶性肿瘤	1121
微弱	1121
配置文件	1120
那场	1120
迈	1120
警报	1120
脱落	1120
者@@	1120
绒@@	1120
白细胞	1120
狱@@	1120
款式	1120
情愿	1120
孙子	1120
黄河	1119
鸡肉	1119
文物	1119
据此	1119
心理健康	1119
开放式	1119
几点	1119
界@@	1118
河南	1118
小屋	1118
还给	1117
楚	1117
握@@	1117
愉悦	1117
包装@@	1117
劫@@	1117
写入	1117
首个	1116
花岗岩	1116
甲醛	1116
宿	1116
会计@@	1116
上游	1116
珍惜	1115
邮政编码	1114
迫@@	1114
负债	1114
衰@@	1114
硒	1114
滞@@	1114
海峡	1114
攀@@	1114
劝@@	1114
ow	1114
蟹	1113
太过	1113
做事	1113
二进制	1113
饰演	1112
棒球	1112
患病	1112
塑性	1112
园区	1112
农产品	1112
侦@@	1112
迪拜	1111
涡轮	1111
活性剂	1111
局限	1111
导电	1111
4000	1111
访@@	1110
相遇	1110
游泳池	1110
托管	1110
亡	1110
五十	1110
AN	1110
逃跑	1109
苦难	1109
脾气	1109
缠@@	1109
宿主	1109
分光	1109
全美	1109
限定	1108
系列产品	1108
开花	1108
差分	1108
夸张	1108
减压	1108
保密	1108
ite	1108
洒@@	1107
法国人	1107
忧@@	1107
全国@@	1107
佛罗里达	1107
ue	1107
SP	1107
面貌	1106
活泼	1106
抛	1106
尸@@	1106
劲@@	1106
俯@@	1106
机能	1105
凯瑟琳	1105
低下	1105
350	1105
03	1105
魂	1104
绿化	1104
有所不同	1104
捐款	1104
慷慨	1104
律法	1104
一页	1104
140	1104
第一部	1103
牛顿	1103
爱心	1103
两边	1103
DB@@	1103
颇@@	1102
锂	1102
近几年	1102
蔡@@	1102
法令	1102
斜坡	1102
尼尔	1102
对立	1102
大米	1102
办公@@	1102
分公司	1102
伍德	1102
able	1102
食谱	1101
食管	1101
这台	1101
螺纹	1101
肘	1101
称号	1101
偿	1101
佐	1101
黄酮	1100
陵	1100
阴谋	1100
氯化@@	1100
栅	1100
攀升	1100
优越性	1100
yn@@	1100
ure	1100
up	1100
GIS	1100
重度	1099
身处	1099
移除	1099
搭建	1099
拍照	1099
对系统	1099
同位素	1099
低收入	1099
京	1099
HT@@	1099
1986	1099
逾	1098
矫正	1098
火车站	1098
栋	1098
最高@@	1098
廉@@	1098
充分@@	1098
以南	1098
NA	1098
脾	1097
网友	1097
浑@@	1097
收率	1097
愤@@	1097
巷	1097
岩浆	1097
尊严	1097
大人	1097
加速度	1097
ant@@	1097
Bar@@	1097
锦标赛	1096
轧@@	1096
自由度	1096
祝@@	1096
格雷	1096
并联	1096
召唤	1096
不禁	1096
上限	1096
谱@@	1095
试剂	1095
电话号码	1095
深厚	1095
此种	1095
促成	1095
WTO	1095
雇用	1094
跳跃	1094
没想到	1094
摔@@	1094
押@@	1094
国务卿	1094
舱@@	1093
簇	1093
空间@@	1093
开发利用	1093
关键问题	1093
先天性	1093
借贷	1093
一章	1093
矿区	1092
疯	1092
林业	1092
打印机	1092
平衡@@	1092
啥	1092
儒家	1092
促销	1092
不应	1092
财	1091
甜蜜	1091
柠檬	1091
年里	1091
地貌	1091
丽莎	1091
for	1091
纲	1090
知识@@	1090
旺	1090
各大	1090
从小	1090
AA	1090
电化学	1089
方位	1089
一节	1089
造就	1088
贮@@	1088
草案	1088
狐狸	1088
椭圆	1088
整齐	1088
改编	1088
宣告	1088
宇@@	1088
USB	1088
2013	1088
马达	1087
闪电	1087
识@@	1087
胁迫	1087
特区	1087
此处	1087
宫殿	1087
地下@@	1087
SD@@	1087
起始	1086
货车	1086
行事	1086
背部	1086
而后	1086
交联	1086
馆@@	1085
门徒	1085
西斯	1085
报名	1085
手持	1085
宣传@@	1085
唤醒	1085
一侧	1085
cl@@	1085
穆	1084
知觉	1084
眼神	1084
无情	1084
探针	1084
宽容	1084
原文	1084
动态@@	1084
佛罗里达州	1084
上皮	1084
频谱	1083
锚	1083
金字塔	1083
寂寞	1083
商品@@	1083
酶@@	1082
炭	1082
昂@@	1082
出门	1082
不断@@	1082
2020	1082
预警	1081
评审	1081
统计分析	1081
祥	1081
海滨	1081
工艺流程	1081
个案	1081
薄层	1080
胃癌	1080
泉@@	1080
普遍存在	1080
挑	1080
姚明	1080
con@@	1080
迦@@	1079
结尾	1079
相关联	1079
甲醇	1079
布莱@@	1079
妆	1079
兼职	1079
专栏	1079
NASA	1079
06	1079
限于	1078
赶上	1078
至上	1078
稀释	1078
私有	1078
数月	1078
恩斯	1078
弧	1078
中以	1078
石化	1077
水泵	1077
期权	1077
昂	1077
品位	1077
前端	1077
优选	1077
从没	1077
空间站	1076
磺@@	1076
硼	1076
推移	1076
届时	1076
娇@@	1076
人选	1076
饮用水	1075
钓鱼	1075
里奥	1075
适于	1075
赶紧	1075
绣	1075
数十@@	1075
拒@@	1075
所在地	1075
情侣	1075
出演	1075
一看	1075
防范	1074
罢了	1074
秒钟	1074
活塞	1074
沐浴	1074
歌剧	1074
af@@	1074
颜@@	1073
荣幸	1073
欺@@	1073
欧美	1073
拉克	1073
抛光	1073
免受	1073
亲切	1073
ik@@	1073
SOAP	1073
矮@@	1072
樱桃	1072
期货	1072
慈@@	1072
充填	1072
三明治	1072
租借	1071
水肿	1071
奥尔@@	1071
奈	1071
临床意义	1071
We@@	1071
筛@@	1070
硝@@	1070
矿井	1070
畅销	1070
海洋@@	1070
朴@@	1070
挡@@	1070
弟	1070
巾	1070
In@@	1070
通向	1069
缩减	1069
同等	1069
化学品	1069
亚当	1069
乎	1069
不合理	1069
弦@@	1068
天才	1068
PA@@	1068
示威者	1067
拥@@	1067
护照	1067
大事	1067
不肯	1067
解放@@	1066
袋子	1066
苹果@@	1066
结肠	1066
海报	1066
存储器	1066
决定性	1066
公共卫生	1066
依赖性	1066
二极管	1066
买方	1066
上校	1066
Michael	1066
概念@@	1065
方差	1065
援@@	1065
情境	1065
安德鲁	1065
右手	1065
凸	1065
不能@@	1065
艾滋病毒	1064
炼	1064
活动@@	1064
泵@@	1064
数据处理	1064
搜集	1064
成本低	1064
加油	1064
分隔	1064
住宿	1064
不佳	1064
ton	1064
ce	1064
黏膜	1063
身着	1063
贼	1063
语言@@	1063
幸@@	1063
嫩@@	1063
妳	1063
荡@@	1062
据悉	1062
手下	1062
布拉@@	1062
翅	1061
村子	1061
更少	1061
时间@@	1061
抵消	1061
布里	1061
中华民族	1061
上层	1061
SI@@	1061
PI	1061
配制	1060
秘@@	1060
礼仪	1060
理智	1060
正确性	1060
大大提高	1060
主人公	1060
ard@@	1060
证人	1059
矮	1059
瞩目	1059
电力系统	1059
形貌	1059
弱点	1059
建于	1059
回头	1059
倒塌	1059
侠	1059
不顾	1059
ter@@	1059
门前	1058
肚@@	1058
眉	1058
消	1058
MR@@	1058
米歇尔	1057
离去	1057
弟兄	1057
多态性	1057
外交部	1057
匆匆	1057
何处	1057
亲吻	1057
事务@@	1057
非政府	1056
阻挡	1056
柯	1056
察@@	1056
唇	1056
信用证	1056
进食	1055
观光	1055
统计数据	1055
混淆	1055
泄@@	1055
拘留	1055
情报@@	1055
尖叫	1055
媒体报道	1055
Ed@@	1055
1987	1055
音乐家	1054
纺@@	1054
浸泡	1054
每人	1054
斯科特	1054
坚实	1054
厂房	1054
万名	1054
钉@@	1053
羞@@	1053
接管	1053
挫折	1053
全家	1053
代理人	1053
辅@@	1052
轻度	1052
虚拟@@	1052
拉德	1052
平面@@	1052
周期性	1052
呕吐	1052
决策者	1052
一圈	1052
1970	1052
躲@@	1051
贯@@	1051
流行病学	1051
汪@@	1051
新人	1051
处理程序	1051
下令	1051
甲板	1050
数百@@	1050
感官	1050
小伙子	1050
宋	1050
固态	1050
卤@@	1050
乳腺	1050
1984	1050
硫酸@@	1049
泛	1049
气泡	1049
废墟	1049
射流	1049
契@@	1049
举例来说	1049
丘@@	1049
警官	1048
线性@@	1048
瞄准	1048
激起	1048
渣@@	1048
毁坏	1048
CB@@	1048
请参阅	1047
索尼	1047
电能	1047
温馨	1047
回事	1047
响@@	1047
双胞胎	1047
克拉@@	1047
一九@@	1047
IA	1047
胚	1046
缓和	1046
矿物质	1046
电线	1046
猜@@	1046
布满	1046
分段	1046
会为	1046
一到	1046
NO@@	1046
纤维@@	1045
筑	1045
电子书	1045
正向	1045
著称	1044
茜	1044
聊	1044
绑	1044
南海	1044
全自动	1044
首领	1043
辅导	1043
尽头	1043
制冷	1043
几十@@	1043
街区	1042
矿业	1042
燃气	1042
溢	1042
淮@@	1042
撤@@	1042
抬@@	1042
宗教@@	1042
好运	1042
好吃	1042
壮观	1042
反演	1042
冷战	1042
一下子	1042
95%	1042
过高	1041
迁	1041
脊	1041
能为	1041
皱	1041
浦	1041
榜样	1041
棍	1041
提供者	1041
承	1041
录制	1041
凌晨	1041
辛格	1040
设计者	1040
狗狗	1040
源头	1040
妇@@	1040
合伙人	1040
优先级	1040
三人	1040
MT@@	1040
阻断	1039
脱硫	1039
罚@@	1039
缺氧	1039
睾丸	1039
烃	1039
激光@@	1039
标定	1039
悟	1039
勒斯	1039
关键因素	1039
TR@@	1039
贤@@	1038
爱因斯坦	1038
池塘	1038
水池	1038
欺诈	1038
本性	1038
忠	1038
午饭	1038
万个	1038
泊@@	1037
星座	1037
推断	1037
异步	1037
在我看来	1037
压缩@@	1037
一号	1037
驱动程序	1036
重心	1036
虽@@	1036
臂@@	1036
监禁	1036
泄露	1036
本章	1036
曹@@	1036
纺织品	1035
棋	1035
刊@@	1035
典礼	1035
产权	1035
乙烯	1035
门外	1034
责@@	1034
衣物	1034
莱特	1034
窝@@	1034
厌@@	1034
丝绸	1034
上周五	1034
ick@@	1034
1985	1034
这颗	1033
绝不	1033
笼@@	1033
窗外	1033
恶意	1033
富集	1033
奎	1033
咖啡因	1033
一整天	1033
ra	1033
酸盐	1032
签约	1032
比特	1032
承载力	1032
大连	1032
储量	1032
下雨	1032
HA	1032
AF@@	1032
重症	1031
迪克	1031
行人	1031
烦	1031
泪水	1031
波导	1031
曼哈顿	1031
慕@@	1031
念头	1031
往来	1031
圣灵	1031
参赛	1031
仿	1031
乙	1031
ase	1031
革新	1030
递	1030
绵@@	1030
禽流感	1030
碳水化合物	1030
旅途	1030
微分方程	1030
如果说	1030
养分	1030
互相@@	1030
SL@@	1030
马德里	1029
霍尔	1029
课程@@	1029
脊@@	1029
留意	1029
极性	1029
打包	1029
怎	1029
姆斯	1029
可用性	1029
一夜	1029
草莓	1028
是否是	1028
举起	1028
鸭@@	1027
髓	1027
通路	1027
抗震	1027
恋@@	1027
衡@@	1026
皱纹	1026
病患	1026
整洁	1026
巴拉克	1026
堆积	1026
驴	1025
练@@	1025
电气@@	1025
尘埃	1025
垃圾@@	1025
国民@@	1025
内衣	1025
马路	1024
这边	1024
犹大	1024
沾@@	1024
死者	1024
教皇	1024
强硬	1024
enn@@	1024
160	1024
随即	1023
这辆	1023
莱斯	1023
星云	1023
五十@@	1023
st	1023
礁	1022
查阅	1022
斯坦@@	1022
感性	1022
坟墓	1022
坎	1022
口语	1022
再说	1022
一瓶	1022
1.0	1022
驰	1021
面向对象	1021
装满	1021
综@@	1021
洽谈	1021
歌声	1021
学派	1021
嗪	1021
嗨	1021
雕@@	1020
战后	1020
山地	1020
合作@@	1020
主演	1020
中外	1020
两项	1020
高尔夫	1019
镶嵌	1019
范例	1019
歌词	1019
放心	1019
尸	1019
土地利用	1019
传导	1019
脑部	1018
牲畜	1018
江苏	1018
枢纽	1018
故障诊断	1018
妇人	1018
咖啡@@	1018
传输@@	1018
int	1018
静止	1017
陪伴	1017
重金属	1017
违法	1017
舰队	1017
自发	1017
掺@@	1017
干什么	1017
坚果	1017
图中	1016
喷发	1016
Mon@@	1016
靴	1015
耐用	1015
海面	1015
朱	1015
抵御	1015
嘉	1015
不受	1015
浙江省	1014
概要	1014
彻	1014
巴菲特	1014
小时候	1014
嗜@@	1014
发票	1014
医疗@@	1014
出名	1014
上映	1014
通量	1013
评论家	1013
矿工	1013
堵@@	1013
合资	1013
加沙	1013
三层	1013
IF@@	1013
肝炎	1012
结算	1012
第七@@	1012
派出	1012
机车	1012
投标	1012
悉尼	1012
同胞	1012
斑点	1011
撤离	1011
传入	1011
1979	1011
香水	1010
饿	1010
科学研究	1010
知识分子	1010
熟练	1010
收音机	1010
叹	1010
台风	1010
体操	1010
伽@@	1010
邮报	1009
研	1009
拆除	1009
我院	1008
应答	1008
岸@@	1008
发誓	1008
串联	1008
个子	1008
顶尖	1007
藉由	1007
经受	1007
灶	1007
恢复@@	1007
对话框	1007
农村@@	1007
假日	1007
亦@@	1007
PID	1007
Android	1007
记录@@	1006
神经系统	1006
砍@@	1006
炸	1006
潜能	1006
污	1006
朴	1006
时代@@	1006
摄像头	1006
小鸟	1006
封信	1006
卧	1006
佩	1006
优缺点	1006
鹰@@	1005
邻国	1005
结实	1005
残忍	1005
指导意义	1005
押	1005
鸿@@	1004
钻孔	1004
苏州	1004
珊	1004
本品	1004
姬	1004
失调	1004
UI	1004
黎明	1003
警惕	1003
美德	1003
清代	1003
庭院	1003
咽@@	1003
反恐	1003
重大@@	1002
自尊	1002
窦	1002
相等	1002
熊猫	1002
波段	1002
少于	1002
寸	1002
孝@@	1002
适量	1001
有效途径	1001
想象力	1001
弥尔顿	1001
子孙	1001
举止	1001
CL@@	1001
身体健康	1000
算子	1000
砸	1000
文件@@	1000
彩虹	1000
学业	1000
以人为本	1000
主办	1000
ee	1000
风景@@	999
科研@@	999
涨幅	999
挤出	999
扇@@	999
傻	999
任职	999
HPLC	999
里程碑	998
约瑟夫	998
病害	998
演绎	998
书法	998
AT	998
鲍勃	997
第五章	997
省份	997
皇后	997
病房	997
留学生	997
氰@@	997
服役	997
开门	997
带回	997
全面@@	997
二十	997
丰厚	997
SE	997
难得	996
资源管理	996
舞会	996
欢呼	996
完毕	996
太空@@	996
在场	996
低迷	996
负面影响	995
祸	995
灯泡	995
收拾	995
支护	995
搅@@	995
接地	995
悠@@	995
奥林匹克	995
告别	995
南瓜	995
势头	995
转而	994
缘故	994
票房	994
澳@@	994
慧@@	994
座椅	994
传到	994
阳台	993
袋@@	993
蚊子	993
态势	993
工艺@@	993
取样	993
削	993
虚构	992
累计	992
指着	992
披@@	992
屏障	992
外资	992
回合	992
四季	992
冰岛	992
其后	992
est	992
雅各	991
肿胀	991
福建	991
猎人	991
抨击	991
总有	991
奏	991
信托	991
腹腔	990
烷@@	990
妖@@	990
Con@@	990
高铁	989
长寿	989
赋@@	989
细小	989
禽	989
盟友	989
留学	989
海马	989
更强	989
抢劫	989
戴尔	989
恰好	989
吉尔	989
厌倦	989
凑@@	989
不太可能	989
一辈子	989
ang	989
AI@@	989
适度	988
绘@@	988
时装	988
和解	988
青年@@	987
质地	987
蘑菇	987
接纳	987
定居	987
大使馆	987
辛苦	986
绍@@	986
有待	986
后方	986
典范	986
一点儿	986
铅笔	985
织	985
田野	985
夺得	985
碘@@	984
海鲜	984
河水	984
检察官	984
杀虫剂	984
学习@@	984
单调	984
专题	984
de	984
陪@@	983
阁	983
芭@@	983
航线	983
第三次	983
珊瑚	983
浪潮	983
安东尼	983
克里	983
二月	983
下属	983
Be@@	983
阳市	982
第一批	982
特尔	982
热力学	982
炸药	982
休克	982
im	982
租金	981
犬@@	981
奢华	981
十字架	981
一事	981
一个个	981
ace	981
蜜	980
献	980
犹@@	980
灵敏	980
惯例	980
去掉	980
便捷	980
uc@@	980
鉴@@	979
轧制	979
起着	979
萨拉	979
粮@@	979
煤气	979
日元	979
平坦	979
国际贸易	979
一连串	979
餐饮	978
进口@@	978
讨@@	978
行列	978
缺席	978
粉红色	978
着陆	978
支柱	978
定量分析	978
大腿	978
刮	978
侯@@	978
被告	977
率领	977
灌木	977
津	977
放射	977
岳@@	977
坑@@	977
迟	976
边上	976
效率高	976
大理石	976
复位	976
增值	976
地为	976
受试者	976
发电厂	976
介于	976
中文@@	976
200@@	976
谨@@	975
社会保障	975
生长因子	975
流速	975
喜好	975
了不起	975
乃是	975
一团	975
问问	974
身份验证	974
趋于	974
袍	974
直播	974
煎	974
校准	974
数额	974
性爱	974
完备	974
可信	974
身子	973
调速	973
该类	973
肤色	973
纠缠	973
奥斯@@	973
全职	973
中子	973
下肢	973
PVC	973
驰@@	972
马拉松	972
溪@@	972
曼城	972
整体@@	972
小岛	972
DO@@	972
Ab@@	972
里亚	971
维奇	971
洗涤	971
毁@@	971
开幕	971
升至	971
US	971
CI	971
语用	970
纯度	970
相片	970
滨	970
批量	970
手势	970
思念	970
13.@@	970
闪光	969
真空@@	969
武士	969
智能化	969
地理位置	969
哲@@	969
卖掉	969
不育	969
一小部分	969
12.@@	969
这幅	968
石膏	968
特殊性	968
学历	968
位点	968
三倍	968
ast@@	968
雀@@	967
陶	967
纪律	967
撑@@	967
纪录片	966
电量	966
本届	966
○	966
UML	966
高密度	965
衬@@	965
站立	965
相对@@	965
班级	965
正常人	965
杯@@	965
女演员	965
复杂度	965
取得成功	965
笑声	964
有机@@	964
承包商	964
尽情	964
TO@@	964
越大	963
绝大部分	963
瑞克	963
尝@@	963
可变	963
削@@	963
Open@@	963
躲避	962
螺钉	962
虔诚	962
膳食	962
探险	962
工商@@	962
崩@@	962
婚姻@@	962
冥想	962
位数	962
亮相	962
one	962
贝拉	961
网民	961
田间	961
寻	961
夏日	961
南极	961
刹车	961
产能	961
高速@@	960
遭@@	960
跌幅	960
空心	960
步入	960
动摇	960
低频	960
ern@@	960
跨度	959
跑道	959
认出	959
自体	959
熟知	959
援引	959
感恩	959
尼泊尔	959
多岁	959
背上	958
绝地	958
溢@@	958
棘手	958
时才	958
日渐	958
教学模式	958
尤文图斯	958
吸血鬼	958
农夫	958
共同努力	958
保安	958
web	958
um	958
DSP	958
6000	958
同比	957
口径	957
前人	957
使者	957
丛林	957
14.@@	957
＜	956
高级@@	956
镉	956
铲@@	956
迷你	956
聚乙烯	956
灾区	956
情人节	956
山西	956
国防部	956
儿女	956
人际关系	956
高职	955
颜	955
问候	955
议程	955
泼@@	955
毛巾	955
模块化	955
摆在	955
妇	955
发挥作用	955
仇恨	955
而出	954
综合@@	954
窒息	954
短时间	954
渴	954
挑战性	954
只用	954
历史学家	954
剧场	954
Ac@@	954
自然资源	953
瘫痪	953
格里@@	953
数十年	953
据称	953
喂养	953
便携式	953
目睹	952
欧文	952
招募	952
巨额	952
工作效率	952
传真	952
韧带	951
荣获	951
税率	951
秘鲁	951
申报	951
照亮	951
气压	951
开枪	951
吸收@@	951
否	951
千米	951
入学	951
供水	951
以内	951
锥	950
金正日	950
极好	950
慌@@	950
事后	950
雌激素	949
红酒	949
秃@@	949
社会学	949
电影院	949
执行@@	949
害虫	949
压电	949
压抑	949
件@@	949
ess@@	949
ect@@	949
黑莓	948
钴	948
持续时间	948
二世	948
w	948
em	948
阁下	947
闷	947
透析	947
透明度	947
近乎	947
规范化	947
纤维化	947
粘膜	947
瓷@@	947
猎物	947
海绵	947
暴风雨	947
开发区	947
垒	947
在世界上	947
侍@@	947
魔术	946
转录	946
绵羊	946
消防	946
款项	946
木星	946
抽烟	946
屁股	946
天然@@	946
另一@@	946
半年	946
交流@@	946
中学生	946
上将	946
足迹	945
月光	945
拥	945
亲人	945
ir	945
经验丰富	944
盈@@	944
每隔	944
梢	944
极了	944
拿下	944
多大	944
地去	944
卖方	944
充实	944
鲜艳	943
记忆@@	943
自由主义	943
珀@@	943
水电站	943
徘徊	943
同盟	943
人道主义	943
三条	943
一幕	943
#	943
独	942
摄取	942
嘴巴	942
化学反应	942
上赛季	942
Web@@	942
转化成	941
跨国	941
腿@@	941
肮脏	941
澳	941
滞	941
枕@@	941
数千	941
吊	941
乐于	941
露天	940
附着	940
踢@@	940
耳机	940
羽	940
眠	940
和谐社会	940
发觉	940
五种	940
上司	940
GF	940
阿拉斯加	939
退火	939
衰落	939
缴	939
组织者	939
照相机	939
正直	939
查理	939
杀人	939
明代	939
斥	939
图像@@	939
黎巴嫩	938
骨质	938
连同	938
耶稣基督	938
精品	938
筑@@	938
率为	938
庄园	938
寺庙	938
ix	938
饱	937
贫血	937
管理工作	937
特曼	937
旦	937
搭档	937
市场营销	937
寿	937
察	937
好坏	937
喷涂	937
卷入	937
侵害	937
鹅	936
首发	936
风光	936
鞍@@	936
迷惑	936
粥	936
巴斯	936
山坡	936
家属	936
养成	936
九个	936
一朵	936
1982	936
解开	935
蒸馏	935
细化	935
相似性	935
法制	935
水手	935
影像学	935
尺@@	935
古希腊	935
光度法	935
两张	935
不可或缺	935
ks	935
附带	934
西雅图	934
祝愿	934
痘	934
惩@@	934
悦	934
恰恰	934
归功于	934
尖锐	934
够@@	934
革命@@	933
曼谷	933
旅行者	933
摄氏度	933
戴着	933
店里	933
始	933
好玩	933
勉强	933
出租	933
身心	932
蝶@@	932
薄弱	932
终极	932
炎热	932
杉	932
时报	932
城乡	932
危险性	932
利亚@@	932
其间	932
三十年	932
CO2	932
钼	931
走势	931
贬值	931
签下	931
窦@@	931
烟气	931
烘@@	931
柏拉图	931
数个	931
手枪	931
外交@@	931
反驳	931
充分发挥	931
经皮	930
纳粹	930
精神分裂症	930
竞争者	930
硫化	930
涩	930
我爱你	930
实物	930
傍晚	930
ary	930
ann@@	930
黄瓜	929
过剩	929
畜@@	929
玻@@	929
海藻	929
景区	929
断言	929
德国人	929
姑@@	929
DR@@	929
青蛙	928
逃脱	928
背叛	928
穷	928
滋@@	928
欧洲人	928
日后	928
平凡	928
内侧	928
ah	928
TS	928
FDA	928
阅	927
菜肴	927
纯洁	927
留下来	927
点钟	927
滥@@	927
拉姆	927
怀特	927
Par@@	927
@	927
谁@@	926
苍白	926
残疾	926
斯科	926
撕裂	926
中旬	926
ion@@	926
飙升	925
项链	925
胜过	925
现实主义	925
商家	925
可调	925
原位	925
不利于	925
上调	925
om	925
PR@@	925
GS	925
雄厚	924
降温	924
连接器	924
轻轻地	924
胡萝卜	924
置换	924
经济性	924
所得税	924
布兰@@	924
山东省	924
出版商	924
体温	924
不妨	924
ran@@	924
这时候	923
裹	923
荒谬	923
腕@@	923
民事	923
棵	923
崇@@	923
对流	923
便会	923
赋	922
行者	922
社团	922
盎司	922
球星	922
液化	922
杠	922
新工艺	922
敞开	922
惯@@	922
德曼	922
坚硬	922
主帅	922
遥@@	921
送往	921
身旁	921
球形	921
海里	921
枪手	921
旺@@	921
崇高	921
凝聚	921
兴建	921
保持@@	921
传播@@	921
魂@@	920
问及	920
贮存	920
财政部	920
必定	920
卫生部	920
再生能源	920
FO@@	920
Bu@@	920
驱逐	919
迟到	919
车厢	919
赐给	919
质量@@	919
觉@@	919
袜子	919
煎@@	919
旗帜	919
控制台	919
挨@@	919
快餐	919
弗格森	919
尼龙	919
客车	919
呼吸@@	919
反射@@	919
光辉	919
防火	918
迫切	918
该区	918
虚弱	918
萨尔	918
用餐	918
握手	918
拼命	918
打断	918
总的来说	918
奶牛	918
大衣	918
外围	918
图谱	918
吃掉	918
〉	918
ory	918
op	918
NO	918
Am@@	918
肇@@	917
管线	917
病症	917
点火	917
成功率	917
孕育	917
大夫	917
住所	917
砷	916
比亚	916
棱@@	916
拆	916
大麻	916
企	916
高分辨率	915
酸奶	915
距@@	915
详细分析	915
览	915
臀部	915
法是	915
反击	915
停下	915
专业化	915
不曾	915
一个多	915
质谱	914
维基	914
索赔	914
穗@@	914
皮特	914
猛烈	914
牛仔	914
渲染	914
渠	914
星际	914
开裂	914
尿道	914
会计师	914
也门	914
丙烯酸	914
高产	913
香草	913
长江@@	913
美术@@	913
窃@@	913
福克斯	913
用力	913
标志性	913
控股	913
抬头	913
所属	913
平方公里	913
可观	913
关键字	913
这首	912
管理模式	912
残	912
庆典	912
企鹅	912
上扬	912
血脂	911
瞬@@	911
牢固	911
战机	911
连结	910
线粒体	910
盛行	910
母语	910
根系	910
单向	910
责备	909
蒸	909
经理人	909
电镀	909
柜台	909
增量	909
升温	909
匈牙利	909
倘若	909
作风	909
仗	909
湿润	908
数据类型	908
巡逻	908
嫌疑人	908
复用	908
可疑	908
刑事@@	908
交配	908
ust@@	908
这才	907
跨国公司	907
译文	907
缴纳	907
极少	907
机动	907
更进一步	907
推广应用	907
打发	907
总能	907
奔跑	907
土星	907
国民经济	907
卒	907
动员	907
Tr@@	907
CV@@	907
这样的话	906
费城	906
江苏省	906
无尽	906
怨@@	906
喇叭	906
人格@@	906
PM	906
逝	905
巨星	905
四肢	905
命题	905
听觉	905
冰冷	905
九年	905
阳离子	904
转换器	904
赛场	904
耗费	904
税务	904
电子产品	904
牧场	904
清水	904
毛发	904
寄生	904
外长	904
圆柱	904
午夜	904
保护区	904
ment	904
管理体系	903
烯@@	903
抗肿瘤	903
乳化	903
两岸	903
一切都是	903
黄土	902
首尔	902
述@@	902
觉醒	902
获益	902
流变	902
更糟	902
操控	902
快要	902
冶金	902
作文	902
世间	902
不准	902
DM@@	902
重重	901
逼@@	901
适	901
贮藏	901
详@@	901
粉煤灰	901
程式	901
涉嫌	901
浮动	901
栖息地	901
映像	901
奶粉	901
均值	901
十字	901
区域@@	901
决	901
侦查	901
T恤	901
金子	900
解剖学	900
荷尔蒙	900
砍	900
生命力	900
摇滚	900
帐@@	900
市政府	900
尝	900
封锁	900
大战	900
参考价值	900
力矩	900
初次	900
兄	900
ma@@	900
EM@@	900
Br@@	900
高炉	899
随著	899
猜想	899
清真寺	899
权重	899
未曾	899
复习	899
两端	899
oh@@	899
盟@@	898
焊缝	898
水印	898
杠杆	898
普通人	898
晓得	898
辰	897
细腻	897
棋@@	897
掩饰	897
拦@@	897
急需	897
忍	897
廊	897
实践证明	897
孕	897
克莱	897
伸缩	897
人民法院	897
霉	896
车手	896
诱人	896
肖	896
枕头	896
排行榜	896
戈尔	896
当日	896
客观@@	896
太阳系	896
外交政策	896
互补	896
乙酸	896
货运	895
表面@@	895
羡慕	895
穿透	895
柴	895
射手	895
史诗	895
可笑	895
医疗保险	895
EC	895
镶@@	894
针刺	894
背面	894
磨削	894
猛	894
某一	894
末期	894
木质	894
换成	894
投票@@	894
屠杀	894
实验性	894
坐落于	894
吴	894
凤凰	894
产品类别	894
维拉	893
流出	893
欢	893
时要	893
摆动	893
宴	893
亏	893
雀	892
遣@@	892
精制	892
电报	892
格拉	892
株@@	892
柬埔寨	892
时间表	892
州立大学	892
小学生	892
夫斯基	892
口气	892
中来	892
业余	892
美术馆	891
科学依据	891
番@@	891
有无	891
敬畏	891
效用	891
力气	891
箭@@	890
物件	890
气道	890
树种	890
外汇	890
交织	890
风扇	889
蒋@@	889
缴@@	889
格鲁吉亚	889
巴格达	889
审理	889
体育馆	889
享	889
上皮细胞	889
ong	889
除外	888
老式	888
第六	888
打出	888
戏剧性	888
帽@@	888
家庭成员	888
劫	888
高阶	887
购物中心	887
致病	887
碳纤维	887
盲目	887
深海	887
星期日	887
时所	887
惹	887
大蒜	887
可溶性	887
举个	887
】	887
1978	887
飘	886
细微	886
特许	886
波斯	886
本例	886
捣@@	886
安定	886
召回	886
二阶	886
预料	885
非正式	885
遗迹	885
赔@@	885
膏@@	885
络	885
环球	885
民主党人	885
杖	885
晓	885
倒闭	885
一分	885
q@@	885
ort@@	885
EJB	885
集体@@	884
铃@@	884
达尔	884
讲解	884
解密	884
脸部	884
旅游@@	884
开出	884
店铺	884
帆船	884
巴塞罗那	884
产业@@	884
亡@@	884
our@@	884
蚊	883
疮	883
没人	883
无奈	883
愁	883
孟买	883
厨	883
动人	883
内皮细胞	883
个人电脑	883
三星	883
门诊	882
视频@@	882
无线@@	882
敞@@	882
成本@@	882
安德@@	882
作曲家	882
里奇	881
采矿	881
软化	881
珍妮	881
思潮	881
半数	881
再用	881
内镜	881
临床试验	881
一口气	881
非常高兴	880
非常简单	880
醋酸	880
计划@@	880
英特尔	880
艳@@	880
流向	880
椎@@	880
无辜	880
却@@	880
伤病	880
买入	880
阴极	879
钓@@	879
邮政	879
衰	879
每秒	879
强势	879
喂@@	879
哥本哈根	879
同步@@	879
制止	879
傲慢	879
亲属	879
360	879
25@@	879
说起	878
袖	878
穿孔	878
破坏性	878
测量@@	878
标注	878
最先	878
平均值	878
小朋友	878
句@@	878
倾	878
人有	878
int@@	878
饱受	877
集成电路	877
社会化	877
皂	877
渔业	877
更快	877
剥离	877
人中	877
饰品	876
面条	876
这起	876
蹦@@	876
粘贴	876
琪	876
注明	876
比利	876
来得	876
喷嘴	876
合一	876
印第安人	876
产地	876
骤@@	875
经典@@	875
病灶	875
朝鲜@@	875
拖延	875
找个	875
回国	875
剃@@	875
债@@	875
交错	875
之作	875
不在乎	875
门票	874
账单	874
粪便	874
渊源	874
海伦	874
斯克	874
年份	874
外国@@	874
垢	874
喻	874
哑@@	874
发送到	874
加仑	874
传染	874
令人满意	874
高中@@	873
银河	873
虹@@	873
自称	873
膝关节	873
答复	873
新近	873
播放器	873
拓@@	873
喷雾	873
咽	873
人称	873
TC	873
祈求	872
深圳市	872
海岸线	872
最强	872
文艺@@	872
寨	872
坝@@	872
发生器	872
先锋	872
35%	872
那座	871
永久性	871
机电	871
宽恕	871
售后服务	871
反过来	871
半小时	871
2014	871
踢球	870
赢@@	870
经文	870
爽@@	870
劳动者	870
偏移	870
风情	869
被判	869
坪	869
万圣节	869
铂	868
输尿管	868
胰@@	868
渗流	868
杀菌	868
无穷	868
岗@@	868
导游	868
威尼斯	868
墓地	868
世俗	868
ER	868
鸽子	867
酿造	867
达尔文	867
较长	867
踏上	867
笛	867
瓦尔	867
特拉	867
涂抹	867
活检	867
段落	867
杰拉德	867
数据结构	867
往常	867
依托	867
万吨	867
NI@@	867
闭合	866
身影	866
赵	866
罕	866
格外	866
族群	866
惊	866
思想家	866
乐团	866
中西部	866
Op@@	866
高效率	865
项目管理	865
解脱	865
美景	865
生长发育	865
牛排	865
燕	865
松弛	865
敬拜	865
打扰	865
介	865
上衣	865
三相	865
ct@@	865
1960	865
英文@@	864
猎	864
狐@@	864
犯人	864
新世纪	864
开幕式	864
图像处理	864
那一刻	863
萨克	863
艺人	863
绝对@@	863
研究@@	863
测量方法	863
日至	863
插值	863
少见	863
妮@@	863
公爵	863
值得注意	863
之心	863
IR@@	863
镇压	862
邪@@	862
那年	862
蚕@@	862
英亩	862
维他命	862
硕士学位	862
核算	862
最佳@@	862
扫描电镜	862
外伤	862
分子量	862
几家	862
公开@@	862
傻瓜	862
低廉	862
仑	862
专用@@	862
三角@@	862
app@@	862
转变成	861
萍	861
理化	861
海平面	861
求得	861
橙色	861
折射	861
传给	861
亮点	861
BC	861
鲸鱼	860
退役	860
趋向	860
药剂	860
继电器	860
经营者	860
皇马	860
病理学	860
疲惫	860
滑稽	860
泳@@	860
家居	860
堕落	860
可不	860
参考@@	860
历来	860
【	860
Gre@@	860
霸	859
霉@@	859
进一步提高	859
航天飞机	859
浓厚	859
微博	859
微分	859
博士学位	859
人生@@	859
贝尼特	858
说来	858
腰椎	858
现阶段	858
此地	858
地壳	858
噪	858
响起	858
发性	858
双语	858
亚特兰大	858
ence	858
绿茶	857
百分@@	857
扶	857
喔	857
咖啡馆	857
利用@@	857
分析家	857
修剪	857
ef@@	857
马铃薯	856
稳固	856
皇室	856
生机	856
法师	856
欧冠	856
室温	856
动性	856
伪造	856
衬	855
腓@@	855
耀@@	855
添	855
智商	855
政府部门	855
手机@@	855
屡@@	855
在意	855
乏味	855
首饰	854
通气	854
调查结果	854
诅咒	854
营业@@	854
绳@@	854
狩猎	854
殖民	854
文人	854
教学方法	854
差点	854
好比	854
大气层	854
前行	854
兔@@	854
俄亥俄州	854
HP	854
生命@@	853
悲哀	853
弗吉尼亚	853
季节性	853
借用	853
侮辱	853
佩戴	853
掷	852
布莱克	852
动物@@	852
分明	852
全力	852
一大堆	852
长期@@	851
花园里	851
耐药性	851
留言	851
犹豫	851
爱上	851
摊	851
摆放	851
截然不同	851
帖子	851
垮	851
co	851
IG@@	851
ES	851
鳄鱼	850
高点	850
骗子	850
课堂教学	850
膜炎	850
罗斯福	850
科目	850
昭@@	850
忌@@	850
叛@@	850
办学	850
信号处理	850
450	850
高空	849
连续性	849
被誉为	849
潘	849
淘@@	849
模样	849
拉登	849
心率	849
并行@@	849
出身	849
龟@@	848
路程	848
贫困@@	848
有种	848
师傅	848
啉	848
历经	848
刑罚	848
共存	848
严密	848
绩	847
润滑油	847
比值	847
橘@@	847
框@@	847
打死	847
心跳	847
很多年	847
婆	847
套房	847
国家级	847
Un@@	847
EC@@	847
驱	846
相符	846
生殖@@	846
枫@@	846
无人机	846
播种	846
延缓	846
喘	846
你方	846
采纳	845
遗传学	845
聘请	845
牛津	845
渍	845
淋巴	845
流行@@	845
召@@	845
危及	845
传闻	845
re	845
SI	845
顺着	844
郎@@	844
轨@@	844
蒲@@	844
致死	844
肉瘤	844
粮食@@	844
窗帘	844
盟	844
甩@@	844
流水	844
埃尔@@	844
判	844
严谨	844
东盟	844
res@@	844
铸件	843
营养不良	843
淋巴瘤	843
油墨	843
橡木	843
智能@@	843
喉	843
哲	843
农民工	843
入选	843
侵略	843
休假	843
一世	843
get	843
GE	843
Col@@	843
递交	842
缠绕	842
组和	842
签字	842
溴@@	842
浸润	842
开挖	842
封建	842
媒	842
奢侈品	842
作一	842
以防	842
不宜	842
一一	842
VM	842
101	842
饲@@	841
铁路@@	841
邮票	841
遍@@	841
谜	841
散布	841
撑	841
拉丁美洲	841
客机	841
下车	841
震撼	840
重塑	840
近年	840
路由器	840
花卉	840
自旋	840
盒@@	840
捧	840
布料	840
奢侈	840
头盔	840
历史性	840
匹	840
凯文	840
保卫	840
传染性	840
DR	840
颇为	839
超重	839
贿赂	839
贷@@	839
补丁	839
自私	839
端的	839
玩笑	839
推向	839
按时	839
拷贝	839
寄生虫	839
夸大	839
大叫	839
化妆	839
兑换	839
保湿	839
主页	839
黑白	838
骆驼	838
采取措施	838
透视	838
贵方	838
贞@@	838
葛	838
绘图	838
纳斯	838
纪念@@	838
竟@@	838
烧烤	838
点心	838
控制策略	838
守护	838
基因@@	838
分流	838
光亮	838
倍体	838
中年	838
‧	838
ASP	838
龟	837
防护@@	837
起重机	837
缆@@	837
矩	837
相变	837
特异	837
晴@@	837
廷@@	837
左手	837
工作量	837
小船	837
哈哈	837
判别	837
关上	837
SR@@	837
高尚	836
钳	836
解码	836
蕴含	836
聚丙烯	836
美女	836
深深地	836
方法论	836
多点	836
图形@@	836
器具	836
售出	836
哈特	836
卜@@	836
出行	836
内蒙古	836
中应	836
两点	836
世界级	836
一栋	836
name	836
绅士	835
痉挛	835
残疾人	835
戴维斯	835
开着	835
开会	835
家用	835
字段	835
关键在于	835
俊	835
伙伴关系	835
井下	835
世代	835
降至	834
配比	834
这事	834
蒙德	834
股票市场	834
源泉	834
海南	834
洗澡	834
宅	834
双边	834
侵权	834
不全	834
12%	834
1.2	834
镜像	833
银河系	833
迈阿密	833
软组织	833
软弱	833
皇	833
火鸡	833
无法@@	833
敷	833
拉斯维加斯	833
执照	833
审批	833
口中	833
友善	833
一队	833
一家人	833
SC	833
PD	833
递归	832
质子	832
蝙蝠	832
点球	832
沉浸	832
日程	832
掀起	832
ISO	832
锯	831
芽@@	831
癌细胞	831
疏松	831
晶粒	831
收养	831
搏@@	831
已久	831
厨@@	831
半决赛	831
out	831
豆腐	830
禅@@	830
着迷	830
眠@@	830
演唱会	830
死后	830
明显提高	830
摄影@@	830
吡@@	830
入睡	830
空闲	829
永	829
小偷	829
娘@@	829
风速	828
肋	828
研磨	828
洗净	828
机密	828
服务业	828
数据中心	828
手腕	828
悬崖	828
巨大@@	828
切开	828
全息	828
交货	828
一例	828
3.5	828
预防措施	827
钞票	827
自助	827
维亚	827
纳税	827
掺杂	827
扁	827
尔森	827
娜@@	827
后台	827
可口可乐	827
全过程	827
一届	827
get@@	827
高尔夫球	826
难忘	826
金黄色	826
过早	826
贷	826
评为	826
自然保护区	826
罪名	826
缺口	826
汽	826
拢	826
抬起	826
忧郁	826
可知	826
古典@@	826
ME	826
HO@@	826
闷@@	825
连续@@	825
诊@@	825
被困	825
芬芳	825
眼下	825
特别@@	825
循@@	825
开办	825
宝马	825
勺	825
信封	825
中华@@	825
严格@@	825
丢弃	825
电容器	824
狂欢	824
点子	824
液态	824
泳	824
杭@@	824
捷	824
戳	824
从根本上	824
下巴	824
飞翔	823
雷曼	823
赌场	823
谣言	823
萤@@	823
电解	823
生产率	823
横跨	823
栓	823
文体	823
多伦多	823
内分泌	823
做饭	823
风筝	822
疗	822
梨@@	822
导体	822
天主	822
器械	822
吞噬	822
仰	822
中立	822
下班	822
追赶	821
轻型	821
躯体	821
行之有效	821
脂质	821
篮子	821
秘书长	821
汇报	821
得主	821
小肠	821
大大的	821
克拉克	821
人行道	821
1.1	821
驾	820
车身	820
询	820
笼罩	820
甜美	820
潜	820
游艇	820
构思	820
晶体管	820
旅行社	820
敏锐	820
岩溶	820
回落	820
不便	820
一匹	820
表达@@	819
栅@@	819
松散	819
有机物	819
故乡	819
才华	819
怪异	819
客体	819
召	819
动物模型	819
兽医	819
下个月	819
HD	819
Fre@@	819
野蛮	818
调解	818
肝硬化	818
禁用	818
根本@@	818
施肥	818
接收机	818
归来	818
张开	818
就象	818
亩	818
面对面	817
西红柿	817
萌发	817
科学院	817
方程组	817
惯性	817
得出结论	817
就职	817
四川省	817
TCP	817
CNN	817
颤抖	816
颅内	816
酚@@	816
知情	816
电邮	816
本着	816
投射	816
弟子	816
容积	816
实地	816
宏伟	816
前线	816
th	816
集团公司	815
资金@@	815
贫	815
责任@@	815
误导	815
规矩	815
粒径	815
水溶性	815
巴萨	815
大方	815
图画	815
哨	815
关键@@	815
位居	815
PR	815
Har@@	815
FT	815
轰炸	814
沈阳	814
曲折	814
旳	814
家禽	814
哈马斯	814
内陆	814
仔@@	814
范式	813
甲状@@	813
流感病毒	813
汉族	813
杏仁	813
抽出	813
恐@@	813
幻灯片	813
对准	813
向往	813
十四@@	813
过渡@@	812
河北省	812
板材	812
新书	812
执行长	812
宋代	812
力图	812
入住	812
伺服	812
鲁棒性	811
顶点	811
车祸	811
角度看	811
瑞斯	811
梦境	811
无声	811
富豪	811
地下室	811
减速	811
伞@@	811
邪	810
膝@@	810
百分之	810
溜	810
无形	810
揭开	810
录取	810
凤	810
人文@@	810
东北@@	810
一则	810
鳍	809
精油	809
水上	809
剖@@	809
关系@@	809
两层	809
起义	808
该市	808
纯净	808
滋味	808
掘@@	808
换热器	808
大雨	808
历时	808
劳伦斯	808
不下	808
log@@	808
NP	808
黑夜	807
陪审团	807
缓冲区	807
细分	807
环境污染	807
槽@@	807
枣	807
文化遗产	807
候选	807
三者	807
∶	807
wor@@	807
PG	807
16.@@	807
防卫	806
邮箱	806
进取	806
这天	806
聘	806
纶	806
竖@@	806
碎石	806
水里	806
本法	806
推力	806
声学	806
勤奋	806
加里	806
全程	806
充	806
ber@@	806
马拉	805
防腐	805
计算机辅助	805
皮带	805
流畅	805
泊	805
极高	805
夺取	805
召集	805
分配@@	805
出错	805
中为	805
AIX	805
高手	804
道教	804
迷失	804
迁徙	804
走私	804
蓬勃发展	804
荫	804
箭头	804
生态学	804
油井	804
楼上	804
校园@@	804
最受	804
想念	804
弊端	804
天文	804
地球化学	804
入境	804
125	804
绝不会	803
独有	803
溢出	803
涌入	803
振幅	803
拦截	803
布拉	803
射门	803
先是	803
两国关系	803
专业人士	803
上半年	803
ive	803
Ph@@	803
1950	803
钾@@	802
贝尔@@	802
该法	802
试点	802
步进	802
就业机会	802
失眠	802
动手	802
低点	802
西瓜	801
画像	801
扩充	801
戴维	801
厄	801
博览会	801
医药@@	801
冷漠	801
8000	801
逊@@	800
输给	800
英语教学	800
胜任	800
背包	800
检出	800
感恩节	800
恳求	800
开通	800
奏@@	800
外周血	800
听听	800
卫生保健	800
老朋友	799
拆卸	799
抗氧化剂	799
打入	799
墩	799
刻画	799
切实	799
分析仪	799
公交车	799
促进作用	799
乙方	799
Apache	799
越高	798
贵州	798
穆罕默德	798
热闹	798
棚@@	798
心思	798
境地	798
儒@@	798
之王	798
鞘	797
釉@@	797
这话	797
辨别	797
起身	797
肥皂	797
焚烧	797
沼泽	797
柔	797
教科书	797
并不需要	797
威力	797
回升	797
凝结	797
下部	797
15.@@	797
顶峰	796
诊治	796
胶质	796
考生	796
粘性	796
空洞	796
磁带	796
特种	796
抵	796
扭	796
得益于	796
归咎于	796
工作岗位	796
小提琴	796
完好	796
共生	796
长沙	795
锚@@	795
语气	795
秘诀	795
日趋	795
新一轮	795
斯科@@	795
拾@@	795
导线	795
孔径	795
妄@@	795
口头	795
十七@@	795
加工@@	795
一端	795
ker	795
LA	795
黄昏	794
颠覆	794
里昂	794
达斯	794
誉	794
结节	794
指标体系	794
拿走	794
应是	794
安迪	794
低价	794
造价	793
跨文化	793
获得成功	793
胡椒	793
王后	793
熔融	793
煤层	793
小行星	793
临界@@	793
不管怎样	793
不久前	793
Python	793
1981	793
驱使	792
精度高	792
笨	792
研讨	792
波音	792
木板	792
普通话	792
境外	792
吉利	792
乃@@	792
WSDL	792
Ev@@	792
缺省	791
移位	791
瘾	791
煮@@	791
滋润	791
涡@@	791
桨	791
拼	791
微量元素	791
底特律	791
屈服	791
安德森	791
契	791
侦察	791
体力	791
之久	791
东方@@	791
LP	791
黑猩猩	790
麻疹	790
貌	790
该书	790
茂@@	790
结构化	790
热心	790
注意事项	790
暴	790
接枝	790
勇士	790
制片人	790
全国性	790
SW@@	790
青春期	789
陕西	789
近距离	789
素质教育	789
登记@@	789
壁画	789
另一边	789
卡通	789
出国	789
TV	789
领带	788
领导@@	788
领取	788
预见	788
非营利	788
虚拟化	788
纽约州	788
相继	788
甲酸	788
琼	788
球赛	788
渔民	788
御@@	788
屠@@	788
小子	788
小吃	788
劣@@	788
但愿	788
五岁	788
・	788
鹦鹉	787
野兽	787
通话	787
转矩	787
账@@	787
裸体	787
耐磨	787
络@@	787
粪	787
矢@@	787
目击者	787
拽	787
彗星	787
协	787
今年夏天	787
之初	787
per@@	787
1983	787
防火墙	786
阀@@	786
铜矿	786
金星	786
菲利普	786
现状及	786
显式	786
改动	786
拿来	786
怡	786
布鲁斯	786
市场化	786
天鹅	786
冕	786
光临	786
偷偷	786
人造@@	786
三分	786
途@@	785
调和	785
蠢@@	785
落下	785
组织学	785
等离子	785
疏散	785
炫耀	785
激怒	785
次级	785
施用	785
广州市	785
培养@@	785
减排	785
舆论	784
聚糖	784
离心	784
泥沙	784
河南省	784
斯托克	784
懒	784
思索	784
幼	784
受精	784
内皮	784
公牛	784
优秀@@	784
为本	784
GM	784
CI@@	784
饥@@	783
行进	783
航母	783
眼部	783
理论@@	783
狐	783
火炬	783
忙于	783
布莱尔	783
山水	783
夷@@	783
壳聚糖	783
可编程	783
卫星@@	783
加纳	783
到位	783
删@@	783
不吃	783
系统性	782
新高	782
新闻报道	782
教义	782
心电图	782
国会议员	782
喉咙	782
刃	782
充满活力	782
仅次于	782
are	782
Ruby	782
高地	781
考古	781
洛斯	781
民族主义	781
废料	781
幸存	781
工艺品	781
口音	781
历史悠久	781
十六	781
关爱	781
假说	781
仁慈	781
亏@@	781
之物	781
Ro@@	781
Pr@@	781
首府	780
餐桌	780
里根	780
肝细胞	780
盛大	780
甘油	780
格兰@@	780
巴拉	780
屋子里	780
喘@@	780
君主	780
取而代之	780
乔丹	780
不成	780
集成@@	779
阅@@	779
递给	779
等价	779
知晓	779
皆@@	779
痴呆	779
用心	779
无损	779
扣除	779
医疗保健	779
以太网	779
人力资本	779
世行	779
he@@	779
陶瓷@@	778
闪亮	778
铭	778
译注	778
老年@@	778
白内障	778
毛病	778
排气	778
换热	778
大宗	778
复制到	778
互利	778
中止	778
高昂	777
配料	777
详细信息	777
葱	777
莎拉	777
艳	777
湖北	777
栏目	777
服务器@@	777
明显改善	777
常识	777
嫁	777
口腔@@	777
又称	777
倡议	777
不相@@	777
一月份	777
一手	777
ator	777
DI@@	777
荒	776
股骨	776
紧凑	776
管子	776
率先	776
深部	776
机型	776
时尚@@	776
斩@@	776
外交官	776
南美	776
介导	776
高雅	775
锋@@	775
粉色	775
沙特	775
幼苗	775
年长	775
夹克	775
天性	775
兆@@	775
传记	775
丑@@	775
ost@@	775
ill	775
der	775
HD@@	775
里德	774
裁定	774
系统对	774
安菲尔德	774
妆@@	774
声波	774
垂体	774
出路	774
郁	773
过得	773
盈	773
狭@@	773
熔	773
海浪	773
河边	773
时装@@	773
微米	773
带入	773
头衔	773
大肠杆菌	773
匀@@	773
努力@@	773
出价	773
写成	773
j	773
85%	773
预约	772
硝酸	772
真实性	772
疲倦	772
控制技术	772
PV@@	772
DT@@	772
酒体	771
潭	771
毫@@	771
极力	771
感染者	771
咀嚼	771
呼唤	771
卑@@	771
光年	771
伪装	771
中度	771
ode	771
颇具	770
非常适合	770
长途@@	770
绑@@	770
筛	770
破损	770
病毒@@	770
游说	770
测试方法	770
暴发	770
斯蒂芬	770
撒谎	770
师生	770
委内瑞拉	770
失衡	770
多项式	770
堵	770
国民党	770
亲近	770
之多	770
一大@@	770
yp@@	770
骑马	769
这样一来	769
走到	769
自家	769
胺@@	769
现代性	769
晨	769
时域	769
新手	769
投降	769
并存	769
岸边	769
外星人	769
堪称	769
在乎	769
半球	769
动漫	769
追随者	768
西方人	768
残骸	768
敢@@	768
托盘	768
戒烟	768
怕@@	768
异议	768
市场竞争	768
对称性	768
威廉姆斯	768
嚼	768
光荣	768
ress	768
餐具	767
隐蔽	767
营运	767
自闭症	767
绿色@@	767
科夫	767
监督@@	767
照料	767
沉思	767
抽屉	767
开业	767
套件	767
坚	767
叛军	767
厦门	767
卡拉@@	767
万元	767
解放军	766
蝇	766
蓬	766
缝合	766
终生	766
甲方	766
热衷于	766
消化道	766
果树	766
无视	766
敷@@	766
原创	766
高浓度	765
钨	765
萝卜	765
脲	765
胰腺	765
筋@@	765
疏	765
男女@@	765
演进	765
歇	765
昔	765
时应	765
家务	765
分型	765
例行	765
菊@@	764
肾病	764
深夜	764
流逝	764
橙@@	764
栗	764
极小	764
山峰	764
分期	764
凡是	764
体质	764
严重@@	764
ss@@	764
ash	764
MB@@	764
陈列	763
蒂斯	763
致电	763
腐烂	763
脉动	763
畸变	763
民俗	763
橡胶@@	763
捉@@	763
拿破仑	763
抚养	763
往返	763
就读	763
就是说	763
函@@	763
偿@@	763
PDF	763
J2EE	763
表现形式	762
缺血性	762
细胞@@	762
纬度	762
祛@@	762
用处	762
涵@@	762
浆果	762
核能	762
宫颈	762
外加	762
处处	762
切成	762
共创	762
倒入	762
体育运动	762
24@@	762
短路	761
橙	761
核心@@	761
开放性	761
就业@@	761
宗教信仰	761
最差	760
微微	760
古城	760
务必	760
停滞	760
二手@@	760
乍@@	760
高等@@	759
骑兵	759
链路	759
菌素	759
航天@@	759
精通	759
磷脂	759
环氧	759
抗炎	759
抑或	759
恒定	759
塔尔	759
交通工具	759
ial	759
缩写	758
磋商	758
盗版	758
生物量	758
燃料电池	758
流派	758
有限责任	758
外科手术	758
型式	758
嗜	758
史学	758
代理商	758
不太@@	758
花瓣	757
脚趾	757
算例	757
真实@@	757
监测@@	757
漂移	757
温度场	757
正确@@	757
斯塔@@	757
收录	757
打交道	757
怨	757
循环@@	757
幕后	757
夺	757
匀	757
制得	757
ean	757
ai	757
防线	756
调动	756
突发	756
生存@@	756
琼@@	756
江西	756
核酸	756
晚宴	756
斯托	756
急救	756
大奖	756
地质@@	756
准确度	756
储	756
不容@@	756
三岁	756
监护	755
用电	755
步枪	755
暖和	755
招待	755
司令	755
加压	755
Mat@@	755
页@@	754
跃	754
纸板	754
河北	754
梵@@	754
机率	754
无意识	754
城墙	754
听从	754
压力@@	754
初中	754
公义	754
交叉@@	754
中央银行	754
西班牙语	753
臭氧	753
腐	753
胖@@	753
肾功能	753
粤@@	753
立体@@	753
畏惧	753
控制权	753
土地@@	753
商会	753
减税	753
之力	753
主导地位	753
不用说	753
麻痹	752
铁矿石	752
造纸	752
血统	752
粉尘	752
无须	752
支承	752
恐怖@@	752
怜悯	752
巴里	752
尾部	752
唯有	752
吵@@	752
劣	752
内有	752
ance	752
Net@@	752
锦	751
繁华	751
灰度	751
混杂	751
橄榄@@	751
悄悄	751
性生活	751
客场	751
基本概念	751
剑桥	751
出土	751
anc@@	751
ab	751
逸	750
罐头	750
特工	750
每桶	750
平壤	750
多地	750
地平线	750
医用	750
出版物	750
配对	749
追寻	749
路基	749
起动	749
科医生	749
睁@@	749
显示屏	749
掌管	749
园艺	749
力求	749
冲压	749
五分钟	749
高龄	748
阻滞	748
阵营	748
阅读器	748
谈及	748
彩票	748
弗吉尼亚州	748
姿@@	748
远方	747
贡	747
见过	747
疑虑	747
注册@@	747
毛细管	747
机翼	747
指明	747
想过	747
平和	747
外交部长	747
在此之前	747
印花	747
创造@@	747
保障@@	747
低速	747
银色	746
赌	746
计时	746
电泳	746
理学	746
指导@@	746
技艺	746
打扫	746
怎样才能	746
大为	746
协调@@	746
催化@@	746
传言	746
LS	746
Di@@	746
陀螺	745
钢结构	745
遍历	745
通行	745
芦@@	745
缠	745
电影节	745
栖@@	745
未必	745
最小化	745
摔	745
关键词	745
传球	745
上任	745
mp@@	745
ly	745
ak	745
DD	745
高涨	744
酗酒	744
肤	744
爆炸@@	744
温州	744
昔日	744
摇摆	744
括号	744
打着	744
悲观	744
全民	744
ht@@	744
镀层	743
试用	743
特殊@@	743
捕鱼	743
拉特	743
小说家	743
小事	743
变频	743
功课	743
冲浪	743
侦探	743
高素质	742
遵从	742
辅	742
翘@@	742
约瑟	742
第一家	742
离不开	742
拨款	742
拉里	742
基石	742
地步	742
可选	742
ew	742
顽@@	741
需求量	741
起草	741
肿块	741
老是	741
游戏@@	741
活性炭	741
氯化	741
披	741
德里	741
君子	741
克劳@@	741
中所@@	741
net	741
霍华德	740
转为	740
苏格拉底	740
胎盘	740
罹患	740
繁多	740
海龟	740
法国@@	740
星级	740
拳击	740
可口	740
华尔街日报	740
传出	740
人性化	740
高级官员	739
问到	739
美化	739
细胞膜	739
推崇	739
抗病毒	739
投机	739
愁@@	739
悲惨	739
怀念	739
形体	739
并不知道	739
失落	739
国防部长	739
叹@@	739
危	739
化工@@	739
别忘了	739
健身房	739
会儿	739
Per@@	739
食品安全	738
隐形	738
致密	738
维克	738
瞎@@	738
沸腾	738
有点像	738
暑假	738
文学史	738
忧伤	738
巴尔	738
定时	738
军用	738
僵尸	738
仇@@	738
之夜	738
中称	738
专利@@	738
货架	737
说谎	737
档@@	737
攀登	737
拼写	737
我刚	737
彰显	737
已婚	737
履@@	737
国有@@	737
占地	737
分散@@	737
伸手	737
上年	737
要花	736
芝	736
脑海	736
离心@@	736
比拟	736
毅	736
服务器端	736
传感	736
一再	736
醒@@	735
载波	735
车库	735
贸	735
让步	735
舟@@	735
生产者	735
片中	735
法老	735
沙子	735
更深	735
晚饭	735
探寻	735
技术支持	735
家兔	735
宰@@	735
各界	735
各个方面	735
债权人	735
侯	735
不开	735
自治区	734
脾@@	734
维也纳	734
疑惑	734
正当@@	734
救生@@	734
捡	734
套装	734
多维	734
堕胎	734
嘉宾	734
印刷@@	734
一笑	734
运动会	733
输电	733
腊@@	733
肾上腺	733
竭力	733
离体	733
消化@@	733
山市	733
小规模	733
吸取	733
两者之间	733
ale	733
DE	733
1200	733
装入	732
美国宇航局	732
绒毛	732
神经细胞	732
石灰	732
案子	732
拉美	732
大熊猫	732
基因型	732
地震@@	732
前列腺癌	732
两场	732
不大	732
一旁	732
HS	732
赫尔@@	731
缓缓	731
木制	731
心爱	731
局限于	731
就行了	731
大气@@	731
多为	731
图纸	731
史蒂芬	731
充气	731
佬	731
五金	731
乳酸	731
Sam@@	731
酰@@	730
远端	730
特拉@@	730
泌@@	730
日内瓦	730
慕	730
忧	730
德克萨斯州	730
园林@@	730
品牌@@	730
咪	730
含水量	730
后裔	730
助剂	730
光合	730
估值	730
we@@	730
by	730
脸颊	729
烟囱	729
模拟器	729
有限元法	729
无菌	729
开阔	729
建设@@	729
年末	729
市场需求	729
工具@@	729
展现出	729
害羞	729
凸显	729
体检	729
一切@@	729
驼@@	728
钛@@	728
软件设计	728
脓@@	728
灾难性	728
海豹	728
气化	728
机上	728
指挥@@	728
应用软件	728
年龄段	728
小小	728
前一天	728
Cont@@	728
视作	727
肌腱	727
相容性	727
泛滥	727
新陈代谢	727
斯里兰卡	727
增幅	727
冰冻	727
主动脉	727
不平	727
Or@@	727
CCD	727
魄	726
锤@@	726
精选	726
筛查	726
空前	726
白酒	726
无缝	726
携@@	726
卡罗	726
二年	726
争执	726
之用	726
H1N1	726
马萨诸塞州	725
钠@@	725
适用范围	725
裂解	725
螺	725
禅	725
河口	725
某种意义	725
无人@@	725
按键	725
担当	725
徵@@	725
径流	725
姜	725
好人	725
壳体	725
墨水	725
填满	725
垃圾邮件	725
回收率	725
各有	725
关掉	725
丑陋	725
CR	725
鹏	724
防空	724
解体	724
移动电话	724
片刻	724
津巴布韦	724
永生	724
栏@@	724
杂草	724
昆明	724
斋@@	724
扩增	724
彩色@@	724
密集型	724
安宁	724
否决	724
各州	724
凉爽	724
ke	724
Gu@@	724
过热	723
耐力	723
第一种	723
电解质	723
水泥@@	723
斑块	723
挣	723
异性	723
平息	723
墓@@	723
号召	723
右翼	723
一时期	723
ett@@	723
IO@@	723
高度重视	722
高危	722
躁	722
该病	722
肖像	722
耸@@	722
耗尽	722
纠@@	722
盗	722
火力	722
湍流	722
手掌	722
当今世界	722
幽灵	722
布雷	722
另一半	722
一九九@@	722
EP	722
17.@@	722
饥荒	721
过往	721
绝缘@@	721
环氧树脂	721
激酶	721
浑身	721
曰	721
挣@@	721
尼奥	721
十二月	721
两部	721
23@@	721
骚扰	720
露西	720
逸@@	720
迫切需要	720
迦	720
轧机	720
轧	720
西装	720
联邦@@	720
编码@@	720
王室	720
招标	720
实用价值	720
孤儿	720
大树	720
商用	720
可乐	720
务实	720
余年	720
伊尔	720
万亿	720
Act@@	720
雪花	719
遇难	719
规避	719
艰巨	719
盼望	719
畅	719
浮现	719
架子	719
村落	719
抗拒	719
戏曲	719
厌	719
出版@@	719
亚利桑那州	719
He@@	719
CSS	719
陪同	718
跳动	718
趁@@	718
资本@@	718
认真@@	718
补助	718
绝佳	718
粥样	718
涵	718
捍卫	718
怀着	718
尖端	718
吸毒	718
GUI	718
CL	718
魔力	717
武力	717
橄榄油	717
日军	717
恩典	717
广播@@	717
少许	717
增速	717
四次	717
全能	717
不怕	717
Mor@@	717
Ap@@	717
问世	716
软件包	716
离合器	716
相爱	716
火花	716
滤	716
欢喜	716
林地	716
来访	716
惜	716
志愿	716
心目	716
德勒	716
帆@@	716
复仇	716
双侧	716
些许	716
鉴	715
质性	715
衔接	715
稀有	715
浪费时间	715
格式化	715
恋人	715
大酒店	715
复原	715
交换机	715
三点	715
万年	715
Se@@	715
18.@@	715
锋利	714
钻头	714
近几年来	714
触摸屏	714
脑子	714
结构性	714
管辖	714
用户名	714
珀	714
武装@@	714
挥舞	714
帕克	714
学问	714
天花	714
哈尔	714
保管	714
MR	714
26@@	714
鸭子	713
约合	713
糟@@	713
糕	713
磁共振	713
用语	713
球菌	713
烹调	713
海军陆战队	713
根基	713
收盘	713
安徽	713
女郎	713
厉@@	713
单层	713
关键性	713
共鸣	713
信噪比	713
伙	713
人事@@	713
争辩	713
主轴	713
中学@@	713
高风险	712
隐性	712
蛙	712
素食	712
枕	712
服务质量	712
技术创新	712
惧怕	712
当场	712
多级	712
人事	712
sh	712
Lotus	712
闲	711
过大	711
身亡	711
谭@@	711
诈	711
讲究	711
编排	711
独立性	711
汇集	711
替代@@	711
数据传输	711
接受@@	711
悲痛	711
引流	711
呼声	711
先驱	711
低位	711
UN@@	711
2500	711
鹤	710
赏	710
蒙特	710
穿梭	710
磺酸	710
相一致	710
玻璃纤维	710
水文	710
档案@@	710
可可	710
卫队	710
动力@@	710
剧中	710
住院@@	710
令人兴奋	710
丢掉	710
三项	710
一顶	710
170	710
遥控	709
自然环境	709
玛利亚	709
烘烤	709
有罪	709
基线	709
回转	709
咳	709
向外	709
各向异性	709
内部@@	709
五金@@	709
临床@@	709
45%	709
铬@@	708
莱德	708
茂	708
老公	708
翅@@	708
美国银行	708
特征@@	708
民用	708
普斯	708
数据模型	708
失控	708
地理@@	708
同性	708
变色	708
凭证	708
共聚物	708
ert@@	708
联网	707
纽	707
米饭	707
笼子	707
磷酸@@	707
看好	707
灭亡	707
毗邻	707
抢救	707
慧	707
岩性	707
埋葬	707
固然	707
吞	707
友情	707
出任	707
ers@@	707
BT	707
靴子	706
静静地	706
霉菌	706
钦@@	706
达成协议	706
车里	706
质量标准	706
葱@@	706
治安	706
栅栏	706
拐	706
抬	706
学士学位	706
存有	706
地里	706
周三	706
向着	706
只得	706
berg	706
SF@@	706
边界条件	705
转运	705
统计@@	705
潜意识	705
演讲@@	705
气孔	705
扎克	705
哲学@@	705
厚厚的	705
印度人	705
卫生间	705
切尔	705
出发点	705
冯	705
修辞	705
不朽	705
骚乱	704
音响	704
那段	704
碳酸@@	704
男孩子	704
泥浆	704
民意调查	704
桔@@	704
柱子	704
有意识	704
废弃物	704
十大	704
人才@@	704
产业化	704
中型	704
DF	704
遗留	703
积极性	703
省级	703
皂@@	703
湖南省	703
替代品	703
方便@@	703
掠	703
忍不住	703
延误	703
大纲	703
卫报	703
公关	703
0.5	703
隐含	702
镇静	702
还原@@	702
结合@@	702
纪念碑	702
灵性	702
法兰	702
本田	702
未见	702
扰乱	702
打进	702
悦@@	702
性命	702
寂静	702
妻@@	702
堡垒	702
取胜	702
预设	701
腺癌	701
活性@@	701
暮@@	701
拇指	701
平方	701
名牌	701
化肥	701
IPO	701
De@@	701
.@@	701
钢材	700
迈出	700
深色	700
江南	700
柜@@	700
找寻	700
巢@@	700
太小	700
在实践中	700
围岩	700
只见	700
六方会谈	700
予@@	700
三峡@@	700
Domino	700
驳	699
香肠	699
零食	699
阵地	699
谐振	699
誓言	699
蓬@@	699
蓄电池	699
罗马尼亚	699
秉@@	699
滋养	699
泻	699
晚间	699
客户服务	699
壮大	699
国立	699
商业化	699
陆续	698
逝世	698
贯彻	698
腰带	698
没收	698
描@@	698
恐怖袭击	698
宽阔	698
宣扬	698
婴幼儿	698
出示	698
Ros@@	698
Rational	698
陀@@	697
进军	697
规程	697
蒙古@@	697
草药	697
洛夫	697
核苷酸	697
所学	697
孩童	697
威尔逊	697
多变	697
各异	697
匆忙	697
MT	697
迷信	696
福岛	696
矿产	696
烷基	696
氧化铝	696
杰作	696
放射@@	696
僵局	696
五角大楼	696
乾	696
RA	696
销售量	695
转发	695
筹集	695
瑞德	695
机动车	695
或多或少	695
巴尔@@	695
奖杯	695
下沉	695
镀	694
说服力	694
纽约@@	694
窑@@	694
架构师	694
日语	694
敦@@	694
怡@@	694
应用领域	694
工程学	694
地段	694
国土	694
光彩	694
产区	694
书记	694
三类	694
El@@	694
阻燃	693
重要环节	693
涅	693
浩	693
教学法	693
德利	693
微风	693
引出	693
展会	693
告诫	693
叮@@	693
养老金	693
偏振	693
交通事故	693
und@@	693
man@@	693
逐年	692
行长	692
窖	692
激增	692
步兵	692
放疗	692
搬运	692
捆绑	692
懒惰	692
对数	692
媒@@	692
奴@@	692
外科医生	692
围着	692
十一月	692
ina	692
enc@@	692
Sim@@	692
MM	692
高贵	691
韵@@	691
适用性	691
规划@@	691
蛾	691
藻类	691
舒	691
经验@@	691
碳纳米管	691
相匹配	691
监察	691
淡化	691
次序	691
德州	691
委@@	691
域@@	691
变化趋势	691
万一	691
17%	691
贯	690
芒	690
素材	690
河谷	690
每晚	690
替补	690
明清	690
斌	690
换取	690
成功@@	690
慎@@	690
小心翼翼	690
围巾	690
回想	690
中央政府	690
马里@@	689
风俗	689
音节	689
遗体	689
而定	689
穆里尼奥	689
离职	689
爱丽丝	689
浊@@	689
歇@@	689
标识符	689
戴上	689
总体@@	689
徽@@	689
压机	689
出手	689
ML@@	689
CE	689
验收	688
马拉@@	688
雷诺	688
这为	688
贞	688
评选	688
秉承	688
构架	688
无毒	688
小路	688
墙体	688
回流	688
低调	688
At@@	688
AI	688
饱满	687
过失	687
裂隙	687
确	687
画作	687
独家	687
方形	687
并于	687
定为	687
可控	687
化剂	687
不怎么	687
选择@@	686
见图	686
蔗糖	686
蓝天	686
票据	686
疾	686
漂白	686
无处不在	686
数以千计	686
建设性	686
完工	686
刷新	686
刀片	686
主编	686
中共	686
不带	686
ana	686
220	686
闸@@	685
落入	685
绣@@	685
熙	685
沙特阿拉伯	685
无害	685
挑剔	685
快递	685
安慰剂	685
存取	685
团聚	685
喊@@	685
勃勃	685
ibm	685
︰	684
诺贝尔奖	684
誓@@	684
胆囊	684
相识	684
求职者	684
榜首	684
宽敞	684
头来	684
兰花	684
鸡尾酒	683
薄壁	683
耀眼	683
盗窃	683
熔化	683
灼@@	683
干活	683
寡妇	683
复合物	683
善意	683
韩国@@	682
锭	682
能级	682
纺织@@	682
生产能力	682
流器	682
急于	682
名片	682
主力	682
两座	682
JSP	682
锈@@	681
钢丝	681
野心	681
重启	681
轩	681
褶皱	681
脑梗死	681
精明	681
照相	681
毛衣	681
格里	681
有机质	681
无用	681
拉开	681
必备	681
季后赛	681
两党	681
一扇	681
ult@@	681
Mac	681
1976	681
风险投资	680
锌@@	680
金刚	680
重要途径	680
走近	680
责任感	680
被控	680
纪念品	680
浸出	680
枪支	680
族人	680
总和	680
得来	680
影院	680
强制性	680
实验组	680
国际货币基金组织	680
国籍	680
回波	680
世纪末	680
q	680
UR@@	680
Fl@@	680
首批	679
趋	679
诺夫	679
营救	679
粘结	679
盐水	679
犯下	679
民事@@	679
歧@@	679
期盼	679
日落	679
拉尼	679
实际@@	679
塑料袋	679
坠毁	679
发行@@	679
卸载	679
人用	679
习惯于	679
乐曲	679
中小型	679
IM	679
防御@@	678
重新启动	678
轴线	678
轮子	678
舒缓	678
美国国会	678
罐子	678
稽@@	678
深水	678
深入@@	678
欧洲央行	678
战斗@@	678
开罗	678
宾客	678
多层次	678
发芽	678
借助于	678
信中	678
佩林	678
IMF	678
高跟鞋	677
馈@@	677
锐	677
遍及	677
跑车	677
诗学	677
虚拟机	677
类化合物	677
神秘@@	677
甜点	677
有线电视	677
恨@@	677
弗兰@@	677
幅@@	677
尿素	677
寄存器	677
圣诞老人	677
制导	677
偏远	677
修养	677
便士	677
人类学	677
丹尼	677
上下@@	677
〈	677
7000	677
长久以来	676
遂	676
赛道	676
贡@@	676
警察局	676
茅斯	676
而行	676
纪念日	676
空袭	676
着眼于	676
渔船	676
德里@@	676
宠	676
好几@@	676
商务部	676
听证会	676
名誉	676
发烧	676
写信	676
估@@	676
丰满	676
不饱和	676
ini	676
MA@@	676
Gr@@	676
苍蝇	675
立面	675
祥@@	675
甸	675
浴缸	675
椒	675
构筑	675
德罗	675
庸@@	675
大功率	675
大体	675
后退	675
双腿	675
叉@@	675
分析@@	675
军事行动	675
作响	675
上门	675
长官	674
聘用	674
网上@@	674
私	674
此人	674
快速增长	674
失真	674
型机	674
十九世纪	674
动植物	674
凯利	674
冲刷	674
内尔	674
价格上涨	674
迪士尼	673
知名度	673
理财	673
梅尔	673
惟@@	673
工党	673
公交	673
僧	673
驾驶@@	672
音调	672
邮寄	672
追随	672
输入@@	672
疲软	672
球面	672
梦幻	672
扯@@	672
我司	672
弹药	672
应为	672
尽早	672
宾夕法尼亚州	672
多巴胺	672
外衣	672
坠@@	672
变化@@	672
let	672
阿拉伯@@	671
赶快	671
表决	671
荫@@	671
芒@@	671
着色	671
村里	671
救灾	671
后院	671
历代	671
ext	671
Res@@	671
高考	670
阿波罗	670
铺设	670
迷宫	670
著名@@	670
联接	670
甲酯	670
津@@	670
永磁	670
梭	670
校验	670
旷野	670
大通	670
增加@@	670
付给	670
act@@	670
锥形	669
辙	669
走来	669
螨	669
脚踝	669
法拉利	669
朵@@	669
新奇	669
得起	669
得意	669
声响	669
吸烟者	669
冰块	669
五分之一	669
一排	669
邓	668
薄荷	668
脂蛋白	668
羟@@	668
糖浆	668
看做	668
疹	668
曲率	668
显出	668
时而	668
干燥@@	668
巷道	668
哑	668
修道院	668
为什	668
颅	667
霜@@	667
雾化	667
逐步@@	667
路德	667
蝶	667
薛@@	667
端点	667
珥	667
物价	667
橄榄球	667
奉行	667
圣地	667
动量	667
动用	667
乒乓球	667
之手	667
ear@@	667
100@@	667
道琼斯	666
莲花	666
色散	666
聚酯	666
篇章	666
童话	666
百万美元	666
棕@@	666
意向	666
店主	666
巴克	666
场馆	666
图书@@	666
停顿	666
偏爱	666
也好	666
主宰	666
不至于	666
项目@@	665
走开	665
符@@	665
着力	665
概率@@	665
平均水平	665
备忘录	665
佛罗伦萨	665
产后	665
二次@@	665
下层	665
Man@@	665
镇上	664
耗时	664
硅谷	664
百万富翁	664
检修	664
机身	664
提要	664
延期	664
可逆	664
升降	664
做个	664
余额	664
中枢	664
专心	664
一束	664
ook	664
itt@@	664
ire	664
Mo@@	664
缺乏@@	663
玛丽亚	663
溅	663
本厂	663
支持率	663
抽象@@	663
庇护	663
太高	663
增长速度	663
国情	663
参量	663
危险@@	663
储藏	663
下颌	663
三国	663
颈椎	662
萝@@	662
节制	662
翩@@	662
维修@@	662
现实@@	662
淬火	662
扭矩	662
建材	662
平滑肌	662
寥@@	662
孵@@	662
奖牌	662
太好了	662
刻意	662
举足轻重	662
MW	662
1975	662
螺丝	661
老太太	661
样机	661
插图	661
平整	661
凶手	661
ut	661
ex	661
ain	661
落叶	660
营收	660
脉冲@@	660
等同于	660
神学	660
祈@@	660
新德里	660
教养	660
拌	660
奔驰	660
唤起	660
周期@@	660
刊物	660
会令	660
产品开发	660
一滴	660
mon@@	660
3G	660
隔壁	659
贸@@	659
该机	659
虾@@	659
罗西	659
福布斯	659
瘢痕	659
特制	659
物性	659
林斯	659
摇晃	659
搭乘	659
慕尼黑	659
市政	659
化身	659
劣势	659
劈@@	659
冷水	659
COM	659
CF	659
通讯@@	658
腺瘤	658
砂浆	658
画出	658
拓宽	658
德国@@	658
守卫	658
听取	658
去年同期	658
保守派	658
使徒	658
oun@@	658
香槟	657
申	657
清澈	657
来电	657
星巴克	657
强烈@@	657
太快	657
嚷	657
剔除	657
伤亡	657
中美	657
领地	656
葡萄园	656
网关	656
糊涂	656
积雪	656
短片	656
生长@@	656
淡淡的	656
涌现	656
求职	656
毕	656
析@@	656
斐@@	656
希腊@@	656
察觉	656
埃尔	656
圣地亚哥	656
以求	656
mm	656
ile	656
1972	656
面团	655
重复性	655
耀	655
突尼斯	655
瘘	655
用手	655
昏迷	655
成形术	655
对接	655
宝座	655
凶	655
低级	655
ind	655
ara	655
AO@@	655
针灸	654
适中	654
身体@@	654
谐@@	654
蜂窝	654
瞬态	654
热情@@	654
温哥华	654
氢气	654
布莱恩	654
巴特	654
差异性	654
埃塞俄比亚	654
产率	654
二个	654
之日起	654
高度@@	653
锻@@	653
逆向	653
迈进	653
论者	653
腐蚀性	653
第一件	653
欢迎您	653
弥漫	653
孢@@	653
圈子	653
向来	653
十三	653
劫持	653
冥@@	653
会议室	653
价位	653
丹尼斯	653
ast	653
UV	653
风雨	652
辨认	652
输出@@	652
贝克汉姆	652
访问@@	652
螺杆	652
英国政府	652
自然灾害	652
神父	652
痊愈	652
沾	652
水溶液	652
批发	652
工地	652
宫廷	652
亦可	652
X光	652
Fran@@	652
适应@@	651
病毒感染	651
漫游	651
有如	651
最坏	651
投掷	651
意想不到	651
底线	651
帝国主义	651
姚@@	651
墨西哥湾	651
加州大学	651
习得	651
中欧	651
etc	651
HT	651
EA	651
高价	650
重写	650
迪斯尼	650
远期	650
转到	650
赖特	650
说明书	650
火山岩	650
无家可归	650
数周	650
总局	650
性能指标	650
和尚	650
互换	650
lin@@	650
TM	650
魏	649
高层次	649
补给	649
胶原	649
粗鲁	649
畔	649
电信@@	649
渗漏	649
淋	649
水电	649
揉	649
悔	649
心智	649
应许	649
各式各样	649
前身	649
利于	649
亚太地区	649
三周	649
一角	649
高高的	648
路过	648
询@@	648
网络化	648
电动@@	648
理想@@	648
消息人士	648
有线	648
实质性	648
听器	648
各组	648
不小	648
隆起	647
这有	647
譬如	647
老百姓	647
猿	647
爱国	647
深层次	647
标普	647
原生	647
保姆	647
一年一度	647
TO	647
鹤@@	646
食欲	646
造血	646
迎合	646
航海	646
美好@@	646
第八@@	646
濒危	646
林中	646
朝向	646
山姆	646
宇宙@@	646
塑胶	646
埋藏	646
咕@@	646
合法性	646
Ne@@	646
Lin@@	646
ED	646
Co@@	646
911	646
针织	645
轮椅	645
转弯	645
费力	645
航运	645
纬	645
稀	645
畏@@	645
熙@@	645
法典	645
沙丘	645
检测器	645
数据挖掘	645
救赎	645
投放	645
执教	645
德育	645
室内@@	645
吉斯	645
反对党	645
十八@@	645
低密度	645
云南省	645
Wh@@	645
货币@@	644
自有	644
网址	644
禽@@	644
直肠	644
比方说	644
弗洛伊德	644
富兰克林	644
容许	644
宴@@	644
减低	644
颤@@	643
靠着	643
股票@@	643
环流	643
暑	643
招生	643
布鲁克林	643
实时性	643
办事	643
俱@@	643
风险管理	642
辨	642
该片	642
西蒙	642
美洲@@	642
网状	642
统一@@	642
笨拙	642
托雷斯	642
心肌梗死	642
庄子	642
左翼	642
在生活中	642
冶炼	642
高清	641
误诊	641
记忆力	641
观察@@	641
胶带	641
耦	641
祸@@	641
生物体	641
工作站	641
境@@	641
国人	641
间歇	640
过期	640
葬@@	640
艾米	640
稀少	640
私营	640
硕@@	640
文斯	640
文学作品	640
控告	640
幻	640
局域网	640
嫁@@	640
北朝鲜	640
北京大学	640
出产	640
东海	640
不同寻常	640
22@@	640
键入	639
裙@@	639
装甲	639
蜿蜒	639
紧急@@	639
看望	639
盼	639
燃煤	639
歪@@	639
摄入量	639
掌声	639
打动	639
所见	639
慈爱	639
咆哮	639
前夕	639
Met@@	639
Group	639
EN@@	639
酿	638
谓	638
读过	638
袜	638
菩萨	638
脂质体	638
约旦	638
橄榄	638
晴	638
晋	638
捕食	638
捕捞	638
基点	638
冰雪	638
兜@@	638
不尽	638
col@@	638
FPGA	638
颗粒@@	637
颌@@	637
近视	637
身份证	637
贩@@	637
解释@@	637
臣@@	637
老实	637
短短	637
特朗普	637
毫克	637
样式表	637
施工@@	637
戈登	637
当地政府	637
引诱	637
工程设计	637
反叛	637
决不	637
兑现	637
乌干达	637
14%	637
釉	636
裤@@	636
虫病	636
紧接着	636
类药物	636
第二种	636
笨@@	636
空缺	636
痴@@	636
法人	636
婆@@	636
多元@@	636
圣诞@@	636
前列	636
php	636
ica	636
60@@	636
2016	636
18%	636
颈动脉	635
配送	635
秤	635
炮弹	635
满是	635
渐进	635
毯	635
核磁共振	635
延时	635
四天	635
喷气	635
口岸	635
以供	635
以东	635
书本	635
ure@@	635
ps	635
A型	635
鲁迅	634
高能	634
邀	634
迴	634
这所	634
趣味	634
详	634
英雄@@	634
维基百科	634
精湛	634
格林@@	634
根本原因	634
有幸	634
微处理器	634
如意	634
受众	634
养老	634
克罗@@	634
估价	634
今天下午	634
乘法	634
三元	634
IN	634
闽@@	633
钦	633
诗篇	633
粒细胞	633
破解	633
涡流	633
校区	633
捐助	633
总计	633
印度@@	633
十多年	633
创面	633
一岁	633
一封信	633
音符	632
震荡	632
遇上	632
超临界	632
赢家	632
舞蹈@@	632
纳德	632
紧迫	632
点缀	632
深入分析	632
浮选	632
时速	632
提炼	632
掠@@	632
持续性	632
市值	632
巫师	632
安全感	632
回声	632
加速器	632
公安@@	632
免费视频	632
健壮	632
借此	632
专制	632
下台	632
一粒	632
PP@@	632
饮水	631
顽固	631
迪亚	631
越是	631
赠	631
美国公司	631
略有	631
次要	631
标明	631
机器@@	631
教育部	631
放映	631
探头	631
批评家	631
异构	631
平方英尺	631
帐号	631
嵌	631
家电	631
婴	631
外层	631
前瞻性	631
典雅	631
免于	631
一如既往	631
13%	631
飞速发展	630
配电	630
辐照	630
趟	630
说完	630
生理学	630
犯规	630
敢于	630
向性	630
双臂	630
剩@@	630
借款	630
人气	630
乔纳森	630
art	630
UNIX	630
Exp@@	630
降低成本	629
附上	629
酒店@@	629
硫酸盐	629
石块	629
瓷器	629
洗衣机	629
椎体	629
多夫	629
品格	629
加斯	629
代理@@	629
主导@@	629
Nasdaq	629
GA@@	629
16%	629
青铜	628
计算机科学	628
蜥蜴	628
舵	628
腿部	628
石材	628
椭圆形	628
松树	628
情绪@@	628
尼亚@@	628
夺冠	628
咒	628
参加者	628
党内	628
做梦	628
他家	628
五百	628
三是	628
一百	628
ock@@	628
颠@@	627
陡@@	627
阳性率	627
避	627
见于	627
裁	627
萎@@	627
苑	627
绿洲	627
绕过	627
相间	627
帕尔@@	627
尿液	627
大风	627
多长时间	627
塌@@	627
匪@@	627
北极@@	627
伯爵	627
产品设计	627
饮品	626
长短	626
跪	626
自治@@	626
翔	626
绳索	626
经济体制	626
电感	626
瑞士@@	626
理所当然	626
烧毁	626
流化床	626
昔@@	626
抉择	626
急诊	626
很久以前	626
形容词	626
喷泉	626
合剂	626
共用	626
任何@@	626
乙酰@@	626
MDA	626
MBA	626
顶上	625
资产阶级	625
蔽@@	625
竹子	625
物质@@	625
爷@@	625
洗手	625
时有	625
数据分析	625
干脆	625
夸	625
圣洁	625
四十	625
叶轮	625
厌烦	625
单宁	625
准时	625
克莱斯勒	625
上级	625
ect	625
逛	624
窜	624
甫	624
狱	624
层层	624
存货	624
嫌	624
团伙	624
回味	624
哼	624
体细胞	624
人质	624
XP	624
Bo@@	624
酬@@	623
软体	623
超细	623
谎@@	623
肩上	623
联合国@@	623
纽带	623
纵	623
砍伐	623
看守	623
热忱	623
求助	623
有源	623
日光	623
敬意	623
抛出	623
投资银行	623
巴比伦	623
定型	623
十四	623
包容	623
修正案	623
付诸@@	623
se@@	623
bu@@	623
PET	623
青光眼	622
较少	622
诺斯	622
视频剪辑	622
荆@@	622
良心	622
肾上腺素	622
肺结核	622
扔掉	622
手术@@	622
底座	622
墙面	622
堪@@	622
嗅觉	622
出院	622
减去	622
仕	622
BR	622
鳞@@	621
纱线	621
榴@@	621
时效	621
征税	621
层级	621
寸@@	621
室友	621
大众@@	621
培训@@	621
十岁	621
化解	621
准确率	621
偏心	621
低音	621
SAR	621
11%	621
颤	620
阿尔	620
超人	620
负相关	620
蚁	620
翻转	620
第二季度	620
狮@@	620
流利	620
栖息	620
提供商	620
归类	620
弄清楚	620
安全可靠	620
孤单	620
夹具	620
关系密切	620
克利	620
供选择	620
人工智能	620
三家	620
jar	620
郊	619
葡萄球菌	619
缕	619
米亚	619
筹备	619
法术	619
气候@@	619
奸@@	619
多媒体@@	619
回忆起	619
句法	619
博格	619
偏向	619
交互式	619
不信	619
1.4	619
蕾@@	618
翻译成	618
簇@@	618
第二次世界大战	618
禁忌	618
白云@@	618
民营	618
毕业@@	618
朋@@	618
巴德	618
地用	618
南美洲	618
乡下	618
MD	618
750	618
麦克风	617
郁@@	617
西北@@	617
经济社会	617
知识经济	617
熄灭	617
热潮	617
火腿	617
津贴	617
毁灭性	617
正值	617
模糊@@	617
楼层	617
手提@@	617
威士忌	617
多发性	617
医治	617
匮乏	617
凝血	617
书面@@	617
之美	617
上瘾	617
RC	617
Mac@@	617
19.@@	617
铭@@	616
辱	616
豪华@@	616
落到	616
自律	616
绽放	616
级数	616
略微	616
消融	616
无常	616
往事	616
变换器	616
加氢	616
分担	616
公会	616
bean	616
Application	616
麻木	615
遵@@	615
车程	615
考古学家	615
罗杰	615
继承人	615
红外线	615
精准	615
矩@@	615
电子设备	615
生计	615
瑕疵	615
灭火	615
油层	615
毫升	615
新药	615
攻击@@	615
急速	615
心力衰竭	615
威尔@@	615
失利	615
坏消息	615
卡卡	615
互	615
丝网	615
钻进	614
输卵管	614
该死	614
译本	614
萨科齐	614
航道	614
笔下	614
种植@@	614
祭祀	614
爵士乐	614
水星	614
普遍认为	614
旺盛	614
收割	614
接替	614
振兴	614
慈善机构	614
官僚	614
大力@@	614
吉米	614
十八	614
副产品	614
凹	614
下个	614
1977	614
轻柔	613
胫骨	613
相差	613
滩@@	613
正要	613
布利	613
已故	613
刨@@	613
出新	613
兄弟姐妹	613
风能	612
顽强	612
闪耀	612
边际	612
超高	612
西伯利亚	612
蒂姆	612
致敬	612
膨胀@@	612
线上	612
粘连	612
报刊	612
抗癌	612
悉	612
工作组	612
坏事	612
关押	612
侧向	612
两相	612
HI@@	612
颂@@	611
颂	611
逗@@	611
足球@@	611
貌似	611
谣	611
经纪	611
电动汽车	611
淋浴	611
汉代	611
杏@@	611
心头	611
德森	611
开朗	611
头疼	611
多种@@	611
喊道	611
啤酒@@	611
剂@@	611
凋@@	611
克制	611
以至	611
人要	611
不动产	611
od	611
闭环	610
财政部长	610
表扬	610
薪资	610
苦苦	610
第七	610
着火	610
热带@@	610
波束	610
毁掉	610
梗	610
最优化	610
文艺	610
拜登	610
德语	610
巫@@	610
发送给	610
兼顾	610
阶梯	609
解散	609
耍	609
稀疏	609
每一	609
搜查	609
尘土	609
多肽	609
内毒素	609
代人	609
不良@@	609
万辆	609
Cor@@	609
陈旧	608
闻到	608
起码	608
证券@@	608
衔	608
自来水	608
脑卒中	608
福建省	608
电波	608
珍珠@@	608
涡	608
有点儿	608
斯利	608
埃里克	608
在职	608
反应@@	608
华北	608
十一	608
动态变化	608
俯瞰	608
低碳	608
shell	608
db@@	608
难受	607
阿斯	607
阔	607
闯入	607
连锁店	607
负债表	607
稿@@	607
百合	607
溃@@	607
暗杀	607
排水@@	607
扔@@	607
打球	607
彬@@	607
废气	607
布鲁塞尔	607
区域性	607
加油站	607
光伏	607
伯明翰	607
上星期	607
ron@@	607
ABC	607
鹅@@	606
连通	606
这艘	606
诞@@	606
西欧	606
美人	606
缝隙	606
第一场	606
瓦特	606
法在	606
橡树	606
格子	606
掠夺	606
挥发	606
指派	606
归属	606
富于	606
声望	606
地道	606
创纪录	606
之声	606
业内	606
ich	606
Ajax	606
......	606
迪斯	605
访客	605
装运	605
细胞核	605
粘附	605
篮板	605
甩	605
深感	605
汁@@	605
梗阻	605
标语	605
数码@@	605
控制算法	605
挂钩	605
基础@@	605
在校	605
反正	605
偏低	605
使馆	605
举例	605
中途	605
一幢	605
OR@@	605
Mark	605
馏@@	604
饵	604
长老	604
通用@@	604
诊断@@	604
肤@@	604
穆巴拉克	604
瞬时	604
督@@	604
相色谱	604
清爽	604
洗衣@@	604
权衡	604
授课	604
拉丁	604
建国	604
寄给	604
宪	604
安德烈	604
后世	604
压实	604
初学者	604
凿@@	604
使用方便	604
oo	604
html	604
Sal@@	604
鸽	603
间质	603
轮流	603
蹲	603
踏	603
语篇	603
胶片	603
肋@@	603
联结	603
笋	603
立法@@	603
空气污染	603
渐	603
消费品	603
毯子	603
母细胞	603
模型试验	603
构造@@	603
星体	603
斑马	603
找回	603
截	603
帘	603
宁波	603
壳@@	603
塞尔@@	603
出卖	603
内科	603
为生	603
串行	603
中日	603
DD@@	603
1945	603
鲁尼	602
过氧化物	602
虹	602
蓝图	602
药用	602
红十字会	602
电阻率	602
甘草	602
牛津大学	602
片子	602
樱@@	602
数据流	602
扶轮	602
怎么回事	602
存档	602
嘎@@	602
十分钟	602
凸轮	602
内斯	602
事业@@	602
之战	602
中间@@	602
Paul	602
DF@@	602
避孕套	601
自如	601
置入	601
更多地	601
按下	601
意大利@@	601
基本特征	601
四分之三	601
同种	601
制取	601
体积小	601
乡镇	601
专家@@	601
一代人	601
骑车	600
馅饼	600
老客户	600
第三季度	600
碑	600
真心	600
相传	600
瓦解	600
渊@@	600
法学院	600
明显降低	600
撤出	600
扶轮社	600
幸福感	600
岭@@	600
咸	600
另一只	600
反对者	600
匙	600
骇@@	599
马里	599
钒	599
蓝牙	599
营养成分	599
苯胺	599
素养	599
空格	599
短裤	599
相对论	599
玛格丽特	599
点头	599
滔@@	599
文件名	599
招致	599
库克	599
宠物@@	599
定论	599
天气@@	599
夕	599
右键	599
养护	599
人大	599
不解	599
pr@@	599
HC	599
DV@@	599
面试官	598
限额	598
逃走	598
赠送	598
观光@@	598
自动控制	598
腮@@	598
耶鲁大学	598
编剧	598
突起	598
突触	598
碳钢	598
病菌	598
方块	598
斯堡	598
挡住	598
抗争	598
快照	598
序列化	598
年老	598
尤为重要	598
商贸	598
动脉瘤	598
功能障碍	598
傅@@	598
两步	598
两国@@	598
下半年	598
一两个	598
EP@@	598
AB	598
99%	598
雷德	597
蜗@@	597
英勇	597
脑缺血	597
第一夫人	597
空中@@	597
白云	597
心想	597
微不足道	597
并列	597
好奇心	597
大洋	597
夜空	597
司令部	597
分之一	597
丰富多彩	597
两份	597
AG	597
1968	597
送来	596
走动	596
许多年	596
蠕虫	596
耕	596
秸秆	596
生境	596
甘肃	596
灵顿	596
消退	596
张贴	596
密切关系	596
宅@@	596
会以	596
中小学	596
不来	596
上时	596
log	596
ins	596
ap	596
RF@@	596
Inc	596
Data	596
11@@	596
龙虾	595
骨髓@@	595
跌倒	595
谚语	595
离线	595
牙医	595
热能	595
文凭	595
扬声器	595
平方@@	595
妖	595
匹@@	595
凯尔特人	595
信用@@	595
保守党	595
体制改革	595
买进	595
ord@@	595
eh@@	595
1.3	595
迎	594
超微结构	594
谜@@	594
耐受	594
类型@@	594
申请表	594
清扫	594
格雷@@	594
无私	594
文书	594
散热	594
放牧	594
撒哈拉	594
地方@@	594
后勤	594
前去	594
其一	594
九十年代	594
丰盛	594
一株	594
ext@@	594
cont@@	594
Sa@@	594
高中生	593
衬衣	593
节水	593
竭	593
盛名	593
盘旋	593
界线	593
意境	593
女士们	593
大王	593
大屠杀	593
外人	593
复活节	593
土体	593
动能	593
公益	593
克雷@@	593
催眠	593
修行	593
中所	593
James	593
聋@@	592
简约	592
私人@@	592
睹	592
根除	592
样条	592
旅游者	592
新泽西州	592
斯汀	592
攻击者	592
改革@@	592
投篮	592
幻觉	592
大家庭	592
嘧啶	592
卢比	592
先秦	592
住处	592
人脸	592
ies	592
MV@@	592
1973	592
阴离子	591
迹@@	591
血肿	591
薪@@	591
脑子里	591
绵	591
纬@@	591
直流电	591
栓@@	591
数据包	591
打工	591
实务	591
墨尔本	591
器皿	591
周到	591
内脏	591
亿年	591
一列	591
27@@	591
页岩	590
面向@@	590
阿司匹林	590
豫@@	590
补偿@@	590
蕊	590
蒙特@@	590
茵	590
罗马@@	590
究@@	590
看书	590
监	590
的黎波里	590
疫@@	590
湖北省	590
涉	590
沫	590
沪	590
没用	590
时间段	590
斯说	590
斯坦福大学	590
敌意	590
恐吓	590
弹头	590
姊妹	590
土层	590
叛乱	590
受限	590
功耗	590
剧情	590
健康@@	590
且@@	590
ip	590
还好	589
能量@@	589
耕作	589
稳健	589
硕	589
海运	589
最大值	589
晋升	589
教师@@	589
捆	589
埃德@@	589
反感	589
劝说	589
冤@@	589
关切	589
人民政府	589
云层	589
乖@@	589
wh@@	589
for@@	589
VC	589
门槛	588
长着	588
遥	588
选拔	588
脑组织	588
肚	588
纤维细胞	588
种质	588
疗@@	588
理工大学	588
现代人	588
物业	588
溶性	588
栖	588
旅行@@	588
教学质量	588
改装	588
府@@	588
席卷	588
巴巴	588
工业生产	588
山西省	588
婚纱	588
基团	588
吼	588
双脚	588
免疫力	588
亿万富翁	588
之星	588
不知不觉	588
TE	588
1974	588
隐瞒	587
醋@@	587
证件	587
记号	587
见识	587
芝@@	587
艺术作品	587
碳酸	587
盆栽	587
澡	587
沃尔特	587
正文	587
本杰明	587
展览会	587
吾	587
兼容性	587
令牌	587
乌鸦	587
loc@@	587
ens@@	587
SEM	587
饱和度	586
阿布@@	586
逆变器	586
考试@@	586
病原体	586
电弧	586
生平	586
灯具	586
溴	586
已然	586
工业区	586
小姑娘	586
太久	586
堆栈	586
哄@@	586
副教授	586
减退	586
修女	586
例程	586
不得@@	586
飞行@@	585
远距离	585
谦@@	585
蜘蛛@@	585
绿地	585
硝基	585
眉毛	585
放出	585
挽@@	585
打赌	585
心室	585
师范大学	585
外貌	585
嘶@@	585
半夜	585
万分	585
LDAP	585
贝壳	584
联用	584
结识	584
策@@	584
礼拜@@	584
支撑@@	584
揽	584
拉动	584
开火	584
帘@@	584
审讯	584
地主	584
发展史	584
参观者	584
人才培养	584
SOD	584
105	584
运动学	583
踩@@	583
谱分析	583
西尔	583
蒜@@	583
继而	583
时滞	583
时不时	583
救治	583
帕特里克	583
审议	583
失稳	583
分工	583
先天	583
休斯顿	583
不难	583
ich@@	583
CDMA	583
警示	582
被忽视	582
莉莉	582
腹膜	582
脱颖而出	582
胶原蛋白	582
线虫	582
系统分析	582
精炼	582
熔体	582
热器	582
法分析	582
民调	582
旷@@	582
执着	582
心律失常	582
微创	582
形式@@	582
当晚	582
幸	582
希腊人	582
凯西	582
几小时	582
佣金	582
一趟	582
port	582
ost	582
GT@@	582
行	581
黄素	581
销毁	581
郊@@	581
苔	581
色彩@@	581
职场	581
绘	581
篇@@	581
看不@@	581
检出率	581
普罗@@	581
时节	581
文艺复兴	581
整治	581
拼接	581
形变	581
小腿	581
外贸	581
喝水	581
压器	581
出资	581
养育	581
例证	581
之争	581
专题@@	581
Service	581
SF	581
33%	581
1971	581
高处	580
道格拉斯	580
电动车	580
献上	580
湖人队	580
政体	580
捉	580
按揭	580
手柄	580
弗朗@@	580
干酪	580
对齐	580
前置	580
全市	580
侨@@	580
产妇	580
专业知识	580
ant	580
马桶	579
陡峭	579
野餐	579
配体	579
警卫	579
节食	579
膨@@	579
生产成本	579
特里@@	579
灌输	579
棘@@	579
根部	579
最深	579
早先	579
无助	579
据估计	579
挥发性	579
拖拉机	579
打下	579
心房	579
弄清	579
尼克松	579
实业	579
天真	579
塞尔维亚	579
坠落	579
噻@@	579
凄@@	579
农户	579
使用权	579
为首	579
Manager	579
贝利	578
血红蛋白	578
莓	578
苦恼	578
花瓶	578
绕组	578
科斯	578
着装	578
核桃	578
引爆	578
君王	578
同性恋者	578
叔	578
判处	578
切实可行	578
做生意	578
会议@@	578
仅限于	578
edia	578
魔术师	577
预测@@	577
酿酒	577
那会	577
赛跑	577
赖斯	577
证券市场	577
英俊	577
花儿	577
耶鲁	577
精髓	577
环状	577
渡过	577
月经	577
普利	577
忍耐	577
忌	577
庄稼	577
密码@@	577
前额	577
内向	577
信奉	577
传动@@	577
亚太	577
下半场	577
un	577
serv@@	577
ood	577
DOM	577
Comm@@	577
饺子	576
阿姨	576
直立	576
疣	576
甲苯	576
滑移	576
沉没	576
模量	576
更佳	576
晶片	576
思绪	576
吉祥	576
参赛者	576
十几岁	576
面纱	575
赴@@	575
血性	575
蚕	575
网络安全	575
筷子	575
登场	575
没事	575
树干	575
新品种	575
整流	575
捏	575
庄严	575
居家	575
小节	575
孵化	575
呃	575
同名	575
千万@@	575
Wal@@	575
Robert	575
马修	574
项目经理	574
随之而来	574
追溯	574
象是	574
茧	574
美国市场	574
窄@@	574
游荡	574
日出	574
文化背景	574
撤退	574
提取液	574
巨噬细胞	574
小猫	574
四名	574
合力	574
反转	574
加以@@	574
切入点	574
几分	574
一碗	574
SV@@	574
BI	574
这组	573
计划生育	573
角落里	573
莫尔	573
缩水	573
深信	573
有益于	573
新奥尔良	573
很漂亮	573
多多	573
基尔	573
型材	573
圣人	573
吞吐量	573
ig	573
除尘	572
钓	572
趁	572
试件	572
脸色	572
肝病	572
窗子	572
用具	572
梅德韦	572
核实	572
捞@@	572
承包	572
徐	572
安全带	572
大白@@	572
增压	572
在此期间	572
国防@@	572
各不相同	572
另一端	572
刚果	572
全体@@	572
光环	572
乙型肝炎	572
下行	572
一站	572
一对一	572
University	572
240	572
预制	571
韧@@	571
钢笔	571
详情	571
羞愧	571
罗恩	571
空隙	571
盖子	571
灶@@	571
液压@@	571
根管	571
枣@@	571
掺	571
控制中心	571
建筑设计	571
宪@@	571
安理会	571
名列	571
华为	571
刘易斯	571
冠军联赛	571
亚麻	571
之子	571
Gen@@	571
CH	571
99.@@	571
7.5	571
鼎	570
门上	570
谈起	570
调味	570
计数器	570
解析器	570
艰辛	570
脑海中	570
盛开	570
爸	570
沙龙	570
次生	570
松鼠	570
本拉登	570
德克萨斯	570
康德	570
密性	570
定位@@	570
哨@@	570
公益@@	570
亨	570
ome	570
My@@	570
28@@	570
飞过	569
雪橇	569
降压	569
闯@@	569
长发	569
遮蔽	569
送入	569
迭@@	569
该校	569
芙	569
科特	569
禁区	569
照看	569
烯烃	569
测序	569
油炸	569
毫无意义	569
杂货店	569
扶持	569
憎恨	569
影视@@	569
崇尚	569
对人	569
孤独症	569
天内	569
喃@@	569
叹息	569
优劣	569
五大	569
丙	569
ish	569
SH@@	569
转过	568
谱仪	568
艰@@	568
肘@@	568
类比	568
第一年	568
税务@@	568
盟军	568
球蛋白	568
环路	568
灾民	568
最能	568
放慢	568
握住	568
捕捉到	568
抖动	568
归还	568
工作台	568
天文台	568
剪纸	568
几张	568
倒下	568
乙酰	568
中原	568
VEGF	568
除草剂	567
造访	567
读完	567
裸	567
装饰品	567
系列@@	567
移交	567
牧	567
测器	567
流血	567
新车	567
斯通	567
文献资料	567
整形	567
敦	567
得名	567
影视	567
常年	567
工作面	567
孟加拉国	567
奴隶制	567
大大降低	567
加勒比海	567
产业结构	567
交换@@	567
亚里士多德	567
亚伦	567
rip@@	567
AX	567
链条	566
解法	566
薯条	566
考量	566
缔@@	566
籽粒	566
睡衣	566
有太多	566
工资@@	566
岩层	566
大部份	566
坐标系	566
回报率	566
咨询@@	566
原始@@	566
办公桌	566
伊朗@@	566
任务@@	566
五天	566
专家系统	566
不足之处	566
IF	566
3.0	566
陵@@	565
袁@@	565
葵	565
联系人	565
考虑一下	565
罢	565
组中	565
来往	565
日本政府	565
无功	565
新浪	565
抛售	565
喷雾@@	565
合同@@	565
前缀	565
偷走	565
倾角	565
什叶派	565
习性	565
专为	565
ey@@	565
ents	565
Query	565
Ob@@	565
NS	565
Co	565
鲨	564
轨道交通	564
赚取	564
缓冲@@	564
精矿	564
散发出	564
插座	564
持有人	564
拳头	564
拨打	564
工程项目	564
大山	564
圣诞树	564
印记	564
傅里叶	564
位列	564
Ag@@	564
铲	563
迅@@	563
胃口	563
美元兑	563
缅@@	563
榨@@	563
惑@@	563
左室	563
屁	563
小溪	563
宏大	563
国家标准	563
压强	563
印度洋	563
共同体	563
不同之处	563
ics	563
F1	563
马里兰州	562
迷恋	562
赤道	562
虫子	562
航天器	562
胸腺	562
胸腔	562
羊群	562
综合利用	562
粮农组织	562
穿戴	562
瘫	562
灌浆	562
泥石流	562
栽@@	562
新式	562
增产	562
圆盘	562
冷藏	562
传授	562
三聚氰胺	562
一回	562
SN@@	562
非对称	561
雏@@	561
运移	561
试管	561
烘干	561
核准	561
服务中心	561
接收@@	561
拉齐奥	561
抚摸	561
归于	561
安抚	561
多种多样	561
同仁	561
借着	561
东南@@	561
set@@	561
SSL	561
CAM	561
酱油	560
较弱	560
籍@@	560
氧化酶	560
晃@@	560
方程式	560
新郎	560
搏	560
挫败	560
患病率	560
恼	560
开放@@	560
回调	560
即刻	560
动向	560
刹@@	560
再造	560
伙计	560
京都	560
两块	560
不许	560
一万@@	560
1969	560
趣@@	559
豚鼠	559
荒凉	559
约翰@@	559
禄	559
破灭	559
疗程	559
油菜	559
止血	559
榜单	559
施工工艺	559
数位	559
摸索	559
捐献	559
并称	559
层状	559
变种	559
下垂	559
一条@@	559
霍乱	558
钳@@	558
越发	558
装在	558
而生	558
罢@@	558
稻草	558
看重	558
看一看	558
猴@@	558
流泪	558
污水处理	558
棺材	558
果然	558
本组	558
无条件	558
描述符	558
并不一定	558
巴赫	558
导数	558
学年	558
吵	558
写给	558
公平@@	558
乘以	558
乌龟	558
不景气	558
ook@@	558
默多克	557
风化	557
面子	557
金融业	557
通讯社	557
连任	557
远古	557
该行	557
自传	557
绪	557
筹划	557
稠	557
皮毛	557
环境影响	557
玫瑰花	557
热点问题	557
灭菌	557
日益@@	557
方向@@	557
收据	557
所要	557
恐	557
呵呵	557
告终	557
古董	557
受理	557
发行版	557
发售	557
众生	557
tp@@	557
采购商	556
进制	556
读写	556
血腥	556
蒂尔	556
肢@@	556
缸@@	556
纸币	556
等国	556
第九@@	556
盈余	556
皮尔@@	556
消极@@	556
杀伤	556
新任	556
抑菌	556
抄	556
所罗门	556
很感兴趣	556
强行	556
多位	556
堤@@	556
垒@@	556
噩梦	556
喷出	556
吱@@	556
可为	556
发送@@	556
全场	556
产卵	556
不快	556
aj@@	556
1949	556
集市	555
量子@@	555
远比	555
超大	555
该软件	555
衣柜	555
萨姆	555
芙@@	555
系统工程	555
粉红	555
热稳定性	555
民营企业	555
挤满	555
性关系	555
布尔@@	555
学生@@	555
契机	555
夹杂	555
大麦	555
几句	555
两支	555
不胜@@	555
不断扩大	555
iss@@	555
VO@@	555
CAN	555
雷尔	554
重庆市	554
选型	554
讯@@	554
让你在	554
簧@@	554
硝酸盐	554
直肠癌	554
模拟计算	554
有氧	554
曲子	554
无线网络	554
改正	554
战绩	554
十二指肠	554
创业@@	554
免费@@	554
使用@@	554
价值@@	554
ier	554
OO@@	554
EL@@	554
CG@@	554
ANSYS	554
露面	553
阿曼	553
选项卡	553
连线	553
过敏性	553
赛后	553
袋鼠	553
表型	553
神情	553
直接@@	553
盲人	553
犯错	553
本科生	553
时延	553
搬家	553
挑衅	553
我花	553
情结	553
急切	553
外来@@	553
国际性	553
叫作	553
发泡	553
卡尔@@	553
中非	553
两岁	553
ans	553
钙化	552
这周	552
软硬件	552
谋求	552
许诺	552
衣着	552
结婚@@	552
立方	552
秀丽	552
碑@@	552
电源@@	552
烘焙	552
涤纶	552
欣慰	552
无序	552
摩根士丹利	552
我敢	552
惊恐	552
彭	552
店员	552
小丑	552
妹@@	552
保证@@	552
事例	552
Bur@@	552
65%	552
顺应	551
载人	551
葫芦	551
羊肉	551
罗德	551
维特	551
磷酸盐	551
癖	551
激动人心	551
没关系	551
操作符	551
插管	551
宠@@	551
妥@@	551
即兴	551
努	551
冒犯	551
保住	551
作弊	551
伊特	551
亚洲@@	551
Spring	551
Comp@@	551
麻省理工学院	550
谨	550
讲师	550
苯酚	550
脆@@	550
而过	550
羞辱	550
病毒性	550
灯笼	550
水剂	550
旱	550
无罪	550
摩托罗拉	550
搭载	550
所指	550
战线	550
应用服务器	550
崖	550
尚无	550
外墙	550
商界	550
叶绿素	550
凯蒂	550
几条	550
余地	550
亚地区	550
中要	550
东欧	550
一无所知	550
一千	550
SAP	550
Bro@@	550
金发	549
递增	549
赦免	549
褪色	549
老妇人	549
管内	549
神庙	549
破旧	549
狡猾	549
狠狠	549
搬迁	549
批评者	549
成败	549
感觉@@	549
归档	549
弱势	549
布鲁克	549
大有	549
多米@@	549
同源	549
叔@@	549
令人震惊	549
买来	549
file	549
钉子	548
酋长	548
迫	548
达拉斯	548
豌豆	548
调谐	548
角逐	548
自行@@	548
自大	548
肺动脉	548
编程语言	548
生死	548
漩涡	548
最美	548
数千@@	548
拉尔	548
成交	548
发球	548
产于	548
五星级	548
之意	548
ya	548
La@@	548
LD	548
领先地位	547
青藏高原	547
钩@@	547
重生	547
苜蓿	547
苛刻	547
洗礼	547
求婚	547
椭@@	547
检察@@	547
果子	547
李先生	547
成岩	547
忘掉	547
州政府	547
层楼	547
奥秘	547
外汇@@	547
壁炉	547
圣保罗	547
养殖@@	547
入路	547
交会	547
low	547
IE	547
ELISA	547
金融服务	546
通报	546
车载	546
豪斯	546
维系	546
纳米@@	546
第二年	546
田地	546
环保@@	546
洲@@	546
欢迎@@	546
本位	546
承接	546
度假村	546
唾@@	546
变体	546
卵子	546
占地面积	546
凳	546
几千年	546
五千	546
丙烯酰胺	546
万事@@	546
丁香	546
一季	546
land	546
C++	546
22%	546
102	546
龄@@	545
鲜血	545
风貌	545
阴暗	545
长相	545
赞誉	545
虚伪	545
耐磨性	545
社会效益	545
磁铁	545
热线	545
检查和	545
日起	545
成瘾	545
怨恨	545
底板	545
妈@@	545
人则	545
不休	545
上周末	545
do@@	545
LCD	545
音量	544
隐患	544
镀锌	544
过敏@@	544
转入	544
蠕变	544
纸质	544
眷@@	544
相适应	544
牙膏	544
济南	544
检疫	544
朦胧	544
教育家	544
排球	544
捷克	544
指示@@	544
抵押@@	544
审计@@	544
夹层	544
大块	544
壁垒	544
各式	544
双赢	544
共计	544
侏罗@@	544
仆	544
乞丐	544
丰收	544
三只	544
if	544
ED@@	544
顶层	543
零售@@	543
重回	543
迫害	543
轻而易举	543
言辞	543
虐	543
胆管	543
结构特征	543
磁盘@@	543
研究课题	543
现成	543
测算	543
月饼	543
断路器	543
掩护	543
想得到	543
性化	543
归因于	543
坤	543
土著	543
千人	543
医保	543
傲	543
你家	543
低声	543
不感兴趣	543
sch@@	543
额度	542
颅脑	542
阳性@@	542
钞	542
舒张	542
稻田	542
积极参与	542
病态	542
用车	542
珊瑚礁	542
汽轮机	542
毡	542
望去	542
明朗	542
抱负	542
异化	542
塞进	542
哈利波	542
后处理	542
劳拉	542
八十年代	542
作业@@	542
中枢神经	542
一波	542
4.5	542
酰	541
贩卖	541
莫斯	541
美国国务院	541
米拉	541
空运	541
石榴	541
洼@@	541
橡皮@@	541
末尾	541
招待会	541
扩建	541
喀布尔	541
争斗	541
不列颠	541
ram@@	541
高技术	540
驻扎	540
韦尔	540
辆车	540
软管	540
质感	540
财物	540
行车	540
菇	540
联军	540
第一季度	540
生物碱	540
火炮	540
极佳	540
有效期	540
持久性	540
抚	540
性情	540
宽广	540
各处	540
台词	540
厚重	540
则@@	540
克莱尔	540
光度	540
伯克	540
事实证明	540
之神	540
专项	540
XSLT	540
TF	540
ESB	540
AL	540
青年人	539
避难所	539
进出	539
超强	539
胶体	539
电平	539
电子显微镜	539
注水	539
林木	539
更新@@	539
感谢您	539
德黑兰	539
天国	539
古人	539
勋	539
共轭	539
从那时起	539
lin	539
LE	539
飞快	538
造林	538
芒果	538
红花	538
秦	538
矿化	538
珠海	538
烤箱	538
水利	538
机械化	538
未成年人	538
木瓜	538
暴跌	538
昧	538
投影@@	538
意在	538
悬	538
幸福@@	538
巨	538
宵	538
定罪	538
大帝	538
复出	538
商业模式	538
吗啡	538
印有	538
加倍	538
免除	538
保佑	538
供热	538
代谢@@	538
ro	538
长距离	537
金价	537
邮局	537
躺@@	537
观赏@@	537
覆盖率	537
西岸	537
筹资	537
票价	537
甲壳@@	537
棕榈	537
有效@@	537
无穷@@	537
常见@@	537
处理过程	537
坦白	537
唔	537
口服液	537
化为	537
冲击波	537
公民@@	537
做点	537
不通	537
不好意思	537
一年@@	537
ov	537
HR@@	537
GB@@	537
EM	537
Cre@@	537
重重@@	536
软件系统	536
诗意	536
纤	536
社会科学	536
海内外	536
显性	536
扁平	536
悬浮@@	536
微球	536
工艺技术	536
女巫	536
喜乐	536
启蒙	536
向东	536
十九@@	536
匪	536
冶@@	536
入狱	536
马特	535
隔热	535
随处可见	535
附加@@	535
逆行	535
赚@@	535
西门子	535
表现@@	535
落地	535
腰部	535
紧急情况	535
疝	535
理会	535
潮汐	535
流浪	535
沧@@	535
无能	535
微孔	535
彼得@@	535
哩	535
哈勃	535
同一时间	535
十字@@	535
分支机构	535
兰人	535
依法@@	535
享@@	535
主题@@	535
不介意	535
NG	535
20.@@	535
饮食习惯	534
雨林	534
选育	534
轻便	534
象牙	534
装饰@@	534
蛮@@	534
联手	534
石蜡	534
特意	534
浮游@@	534
汇款	534
楼下	534
曼彻斯特	534
新英格兰	534
四岁	534
卡罗尔	534
凿	534
出口商	534
倾倒	534
低功耗	534
交易商	534
不成@@	534
不息	534
高额	533
顿时	533
获得者	533
耐久性	533
窃	533
瘟疫	533
电力公司	533
演奏@@	533
溶胶	533
波尔	533
比赛@@	533
晾@@	533
断裂带	533
师范@@	533
学过	533
吸气	533
合资企业	533
另一名	533
个州	533
RPC	533
NC	533
2.4	533
1.6	533
面体	532
除以	532
选区	532
适时	532
这群	532
老龄化	532
经济损失	532
疫	532
特徵	532
火柴	532
激进分子	532
滞留	532
泻@@	532
毛虫	532
有效成分	532
敌军	532
掏出	532
必要条件	532
强盗	532
坠	532
嗓音	532
发电机组	532
北极熊	532
中等@@	532
不稳定性	532
上主	532
越来越少	531
美容@@	531
细心	531
祢	531
相伴	531
瘤@@	531
消亡	531
河床	531
沉淀@@	531
桁架	531
撇@@	531
掏@@	531
手稿	531
实用@@	531
定子	531
多边	531
四条	531
嗅@@	531
反之	531
募集	531
军舰	531
免疫组化	531
元首	531
体面	531
人际	531
世界纪录	531
上台	531
ions	531
ass	531
Kar@@	531
马力	530
镇定	530
貌@@	530
艾尔@@	530
细长	530
粪@@	530
畅销书	530
犹太教	530
深切	530
淑@@	530
液晶@@	530
污染@@	530
桂	530
架飞机	530
挥发油	530
恋情	530
少年@@	530
对非	530
审判@@	530
唤	530
各种因素	530
卡斯	530
减慢	530
内特	530
一心	530
一律	530
SQ@@	530
陀	529
超导	529
诈骗	529
荒野	529
科罗拉多州	529
生产厂家	529
理事	529
水汽	529
查明	529
朴素	529
木乃伊	529
晶状体	529
明珠	529
措辞	529
尊贵	529
后现代	529
伤痛	529
产值	529
config	529
RSS	529
0.5%	529
频域	528
贡献@@	528
计量@@	528
芦荟	528
自已	528
膦	528
竞争性	528
盯@@	528
登山	528
畏	528
民歌	528
每一件	528
殿@@	528
检视	528
揉@@	528
挽回	528
折射率	528
愈伤	528
嵌套	528
山庄	528
头皮	528
坚称	528
十分之一	528
冷却@@	528
伊斯	528
以北	528
中空	528
不懈	528
Pat@@	528
ET@@	528
髓@@	527
隶属于	527
重创	527
这要	527
转化率	527
记下	527
老兵	527
第一条	527
稍稍	527
矿体	527
焚@@	527
清朝	527
汲取	527
殷@@	527
根深蒂固	527
枯	527
旨	527
搁置	527
抖@@	527
战略性	527
情报局	527
快点	527
建设项目	527
底盘	527
在线@@	527
印度教	527
动式	527
会场	527
mail	527
ds	527
饶@@	526
阿瑟	526
钨@@	526
金融体系	526
透射	526
迫不及待	526
轻质	526
西班牙人	526
猎犬	526
河里	526
气囊	526
松动	526
最高点	526
时序	526
斯卡	526
提出@@	526
接著	526
惨	526
庸	526
库中	526
屈	526
同居	526
凝视	526
仔细@@	526
中叶	526
两国人民	526
世博	526
ire@@	526
AIG	526
320	526
那块	525
诈@@	525
织机	525
空虚	525
疤痕	525
熟练@@	525
深渊	525
法制@@	525
栗@@	525
星光	525
持股	525
拟定	525
抬高	525
戏剧@@	525
屈曲	525
壮丽	525
哈里斯	525
侦测	525
余下	525
份@@	525
二百@@	525
中国日报	525
RA@@	525
Mer@@	525
KB	525
非常复杂	524
降级	524
转过身	524
越南@@	524
览@@	524
碾@@	524
电镜	524
玩游戏	524
正统	524
枪击	524
扫描仪	524
外汇储备	524
商讨	524
升华	524
分部	524
冰山	524
儿科	524
他于	524
亚热带	524
ne	524
HS@@	524
雇@@	523
附有	523
阿姆斯特丹	523
该州	523
视察	523
茅	523
花旗	523
类固醇	523
碗@@	523
瘀	523
海洛因	523
戴安娜	523
悖论	523
师父	523
奥斯汀	523
埃德	523
坦桑尼亚	523
做起	523
代表@@	523
人意	523
人参	523
二醇	523
额头	522
连接起来	522
输掉	522
轮船	522
诽谤	522
薯	522
蓄	522
聚物	522
签发	522
砸@@	522
甘地	522
满足@@	522
测试用例	522
汇总	522
椎间盘	522
极强	522
昆	522
无误	522
感到@@	522
尼罗河	522
夫曼	522
天后	522
分子筛	522
儒学	522
亚当斯	522
per	522
ger	522
Su@@	522
鲑鱼	521
高高@@	521
飞跃	521
难怪	521
钱财	521
遗失	521
起因	521
赶走	521
西湖	521
英语专业	521
花纹	521
老家	521
第一阶段	521
移动@@	521
积水	521
矿产资源	521
火山灰	521
潜伏	521
油泵	521
氦	521
死于	521
摇滚乐	521
弹道	521
媲美	521
劳斯	521
克森	521
中小	521
ish@@	521
35@@	521
黄蜂	520
配额	520
逗留	520
规制	520
考证	520
省略	520
特斯	520
片状	520
湖水	520
来信	520
时性	520
新生代	520
斧	520
搞笑	520
投保	520
弗雷德	520
开拓@@	520
平安@@	520
屎	520
失明	520
名言	520
号线	520
受灾	520
发表@@	520
卓	520
加工过程	520
击球	520
准许	520
下落	520
ool	520
ek	520
PCI	520
PB@@	520
JVM	520
Ge@@	520
高层建筑	519
迈向	519
车票	519
路口	519
跟前	519
现货	519
消逝	519
海洋生物	519
擅@@	519
感染性	519
急忙	519
怀里	519
弹道导弹	519
婉@@	519
否@@	519
动作@@	519
加拉	519
公安	519
侧重于	519
他用	519
业者	519
portlet	519
ings	519
ame	519
髋关节	518
雪地	518
重任	518
都市@@	518
过错	518
诺言	518
讳	518
英美	518
白勺	518
涉足	518
消解	518
法新社	518
殴打	518
橱柜	518
模型@@	518
想一想	518
开除	518
帝王	518
安徽省	518
安全部队	518
分行	518
为准	518
中亚	518
lib@@	518
ach	518
NT	518
黑板	517
闪闪发光	517
锆	517
输送机	517
虱	517
葡@@	517
舰艇	517
致力	517
脐	517
肆虐	517
硫化@@	517
百老汇	517
版本@@	517
澜	517
清算	517
泌尿@@	517
本合同	517
普顿	517
执导	517
性格@@	517
怀抱	517
床垫	517
小册子	517
实用程序	517
夕@@	517
处女@@	517
受不了	517
南北@@	517
免得	517
传教士	517
二手	517
ere	517
Ter@@	517
顺从	516
雪茄	516
重点@@	516
议长	516
萌芽	516
腕	516
胜出	516
背心	516
百万@@	516
甲基@@	516
琳@@	516
照耀	516
灌木丛	516
法郎	516
水利@@	516
最新@@	516
岂@@	516
小企业	516
奖赏	516
喧@@	516
分析模型	516
再有	516
付钱	516
人身@@	516
amb@@	516
装甲@@	515
蛋白@@	515
藏族	515
舔	515
管家	515
立足	515
窃取	515
移居	515
短篇小说	515
白蛋白	515
疯子	515
猫咪	515
狮子@@	515
炙@@	515
比作	515
格兰特	515
暨	515
明确@@	515
早熟	515
房租	515
弗里	515
多边形	515
塘@@	515
发展观	515
原告	515
单项	515
从那以后	515
事是	515
两面	515
ort	515
PWM	515
OK	515
HBV	515
Data@@	515
风吹	514
跟进	514
赔偿@@	514
赎回	514
读物	514
裸露	514
蛮	514
蔽	514
船体	514
耳环	514
盏	514
湿法	514
期货@@	514
早饭	514
探望	514
拉链	514
成虫	514
心底	514
妇女@@	514
基板	514
卡因	514
刺绣	514
兰州	514
1930	514
龙卷风	513
鼻腔	513
进修	513
这比	513
蹄	513
趾	513
规章	513
白领	513
流淌	513
核对	513
施压	513
改写	513
息肉	513
开水	513
床单	513
峡@@	513
宜人	513
基因突变	513
合伙	513
发出@@	513
单元测试	513
匿@@	513
全省	513
入门	513
不知@@	513
ve	513
ony	513
观察者	512
蚁@@	512
经贸	512
粉体	512
第一名	512
看清	512
现场@@	512
涂鸦	512
标示	512
杀人@@	512
无污染	512
断定	512
放开	512
把戏	512
成名	512
愿景	512
总有一天	512
年华	512
宙斯	512
地球@@	512
合作者	512
分布@@	512
中式	512
一席之地	512
YouTube	512
逗	511
输血	511
路易	511
跟上	511
赌注	511
课本	511
裕@@	511
翘	511
章程	511
突袭	511
矽@@	511
监视器	511
潜入	511
泉水	511
油气藏	511
水槽	511
服务公司	511
普遍性	511
春秋	511
拖车	511
技法	511
小巧	511
寓意	511
城市规划	511
各人	511
史料	511
可见光	511
南亚	511
动器	511
中间体	511
专门@@	511
URI	511
防腐剂	510
莫扎特	510
缀	510
组织化学	510
练习@@	510
纯正	510
空地	510
私募	510
神灵	510
硫化物	510
相撞	510
相似之处	510
测评	510
河岸	510
欺负	510
欢快	510
朱莉	510
悔@@	510
心意	510
形象@@	510
定点	510
多彩	510
坯@@	510
可供	510
原住民	510
几名	510
何况	510
令人吃惊	510
主营	510
一辆车	510
一脚	510
umb@@	510
ets	510
JAX	510
Fin@@	510
21%	510
麻醉@@	509
锻造	509
郊外	509
踪	509
解救	509
自学	509
绰号	509
粘合剂	509
盛会	509
泳池	509
果酱	509
暗淡	509
显微@@	509
授	509
拉拉	509
投机@@	509
尿酸	509
基坑	509
咏@@	509
双击	509
卡梅隆	509
千克	509
办公楼	509
体液	509
代尔	509
仓储	509
仇敌	509
VE@@	509
AE	509
28%	509
颅@@	508
革命性	508
里程	508
轰炸机	508
起居室	508
观测@@	508
编码器	508
第二季	508
焰	508
烫@@	508
新途径	508
攻势	508
打个	508
慢跑	508
封建@@	508
大学毕业	508
多酚	508
可视	508
卢卡斯	508
书院	508
专员	508
ail	508
RUP	508
9000	508
钡	507
采摘	507
逼真	507
超标	507
赛前	507
正常@@	507
标的	507
斯特拉	507
敌对	507
提振	507
律师@@	507
岳	507
婆婆	507
增强@@	507
出人意料	507
共性	507
允@@	507
傲@@	507
五次	507
上用	507
一大批	507
SH	507
JMS	507
CC@@	507
1.8	507
零售业	506
难于	506
载入	506
贺	506
课上	506
警察@@	506
般@@	506
肃@@	506
答道	506
确定性	506
硝化	506
滑行	506
巧合	506
层次结构	506
安放	506
哗@@	506
吻@@	506
勃	506
公路@@	506
住宅区	506
一棵树	506
ol	506
H5N1	506
饿@@	505
颠倒	505
颊	505
雇	505
贬低	505
胡须	505
立足于	505
牟@@	505
渗入	505
流氓	505
每分钟	505
明胶	505
放着	505
捆@@	505
扳@@	505
微波炉	505
引物	505
开工	505
建筑材料	505
并非如此	505
地面@@	505
在一起	505
合法化	505
十九	505
分子生物学	505
僵硬	505
值得@@	505
作证	505
伯里	505
传奇@@	505
人去	505
主要@@	505
不容	505
一具	505
ates	505
2.1	505
高超	504
马斯@@	504
遗	504
迟钝	504
躁@@	504
贱	504
芳烃	504
科学性	504
病史	504
熔岩	504
攻击性	504
成熟度	504
往前	504
坍塌	504
围墙	504
哀悼	504
呜@@	504
出入	504
俘虏	504
临到	504
饭菜	503
鞭	503
跌至	503
质量保证	503
萨斯	503
罪人	503
维和	503
系统结构	503
米特	503
着急	503
眶	503
爪子	503
波纹	503
构型	503
普遍@@	503
无限@@	503
推论	503
技术指标	503
我校	503
恢复正常	503
往后	503
弧形	503
就诊	503
多路	503
国际标准	503
哄	503
发泄	503
刺激性	503
冗长	503
box	503
MI@@	503
ATM	503
阿肯色州	502
阳光@@	502
这批	502
轰动	502
贴近	502
许许多多	502
苔丝	502
致富	502
而不@@	502
泰山	502
憩	502
弗里@@	502
广播公司	502
工夫	502
就餐	502
处死	502
全景	502
佛陀	502
两地	502
一职	502
eta	502
Val@@	502
55%	502
1800	502
108	502
高压@@	501
靶向	501
阿拉	501
道具	501
较量	501
虑	501
至此	501
老大	501
线型	501
约书亚	501
睁	501
海军@@	501
流转	501
汇聚	501
梳	501
来宾	501
新泽西	501
折断	501
德纳	501
异位	501
带子	501
宁可	501
头骨	501
大都市	501
啮合	501
受害人	501
厘@@	501
卷烟	501
保鲜	501
会用	501
亲身	501
乳糖	501
乳制品	501
丽斯	501
MC@@	501
23%	501
非常容易	500
隔开	500
那份	500
辨证	500
辞去	500
赤	500
调配	500
膛	500
罩@@	500
粗糙度	500
第四个	500
登机	500
电车	500
瓷砖	500
牙周@@	500
沃斯	500
救出	500
拉力	500
战时	500
小费	500
吏	500
古埃及	500
发表声明	500
厥	500
光顾	500
信度	500
伦斯	500
亵渎	500
书签	500
中间件	500
→	500
erv@@	500
VL@@	500
Pol@@	500
New	500
韦伯	499
量级	499
节课	499
舞者	499
胃肠	499
罗伊	499
甘蔗	499
珊@@	499
特效	499
点点	499
清华大学	499
泄	499
油管	499
水龙头	499
水箱	499
日益增长	499
拥有者	499
报告@@	499
广大客户	499
客户@@	499
存活率	499
喷洒	499
初选	499
东风	499
一击	499
1964	499
食堂	498
长途	498
转折点	498
诚挚	498
议论	498
讨	498
蓝光	498
菲斯	498
菊花	498
茬	498
自在	498
肝素	498
肋骨	498
第二轮	498
爬行	498
热源	498
浓密	498
文本@@	498
教派	498
完全相同	498
奇怪的是	498
唾液	498
哈尔滨	498
另一方	498
古罗马	498
别处	498
任一	498
他俩	498
之称	498
1962	498
1961	498
104	498
贬@@	497
翻新	497
缓释	497
精神病学	497
精心@@	497
皮埃尔	497
生物医学	497
热液	497
渴求	497
浊	497
本病	497
斯托@@	497
感染率	497
异体	497
峡	497
安心	497
喧嚣	497
单相	497
分离@@	497
低落	497
ani	497
EF@@	497
马尔	496
铃声	496
追捕	496
迟缓	496
解决@@	496
裹@@	496
脊髓灰质炎	496
缤纷	496
第八	496
社会性	496
示范@@	496
申请@@	496
滋	496
款人	496
无味	496
方可	496
数据仓库	496
挫	496
投向	496
懊@@	496
想像@@	496
平均年龄	496
局部@@	496
导轨	496
宣誓	496
十二个	496
励@@	496
创新能力	496
切斯特	496
农历	496
具体情况	496
公共服务	496
便秘	496
交融	496
ors	496
FL@@	496
Do@@	496
这么@@	495
过夜	495
裕	495
繁琐	495
精巧	495
粕	495
砌	495
电磁场	495
牙科	495
椰@@	495
晶格	495
显露	495
早上好	495
无与伦比	495
投入使用	495
手头	495
怀有	495
小径	495
坳	495
句话	495
反响	495
双面	495
千里	495
出众	495
亭@@	495
于本周	495
一瞬间	495
GF@@	495
FT@@	495
黑龙江省	494
雄心勃勃	494
银幕	494
酸化	494
遗嘱	494
退回	494
读数	494
讽	494
装扮	494
行径	494
螺旋桨	494
薄板	494
老子	494
畜	494
生根	494
球衣	494
狭小	494
灵长类	494
水晶@@	494
氢氧化@@	494
民兵	494
暗中	494
昏暗	494
文字@@	494
托斯	494
扔进	494
您好	494
恶人	494
小脑	494
大豆@@	494
堡@@	494
土壤水分	494
喂食	494
哥伦比亚大学	494
变小	494
受到@@	494
厢	494
下场	494
val@@	494
fil@@	494
ERP	494
Bank	494
128	494
驱车	493
集聚	493
酯化	493
赐予	493
私下	493
省钱	493
滋生	493
流过	493
汤匙	493
毛孔	493
朝鲜半岛	493
暴力事件	493
晃动	493
抑	493
工作日	493
小车	493
定做	493
学报	493
头巾	493
多发	493
图为	493
公用	493
八十	493
储蓄@@	493
Int@@	493
1967	493
高强	492
首脑	492
隶属	492
钝	492
边界@@	492
赫尔	492
谐振@@	492
订婚	492
薄片	492
获得@@	492
花香	492
聪@@	492
约束力	492
管路	492
洗手间	492
民法	492
歌迷	492
欠缺	492
树皮	492
快感	492
忠告	492
征兆	492
层次@@	492
好些	492
地缘	492
喝咖啡	492
啦@@	492
命中	492
区划	492
加热器	492
低头	492
不绝	492
上半场	492
ta	492
ma	492
MQ	492
骗局	491
阻塞性	491
门窗	491
迭	491
运费	491
计算机技术	491
能比	491
胸前	491
纺纱	491
瞭解	491
琳娜	491
玄武岩	491
煽动	491
水土流失	491
楔@@	491
排泄	491
招牌	491
居民@@	491
小巷	491
始建	491
夜总会	491
基准@@	491
地块	491
发抖	491
单车	491
全球@@	491
停机	491
伽	491
伯恩	491
与会者	491
不大可能	491
é	491
马尼拉	490
颓@@	490
韵律	490
难看	490
配以	490
跳水	490
诡@@	490
触发器	490
而战	490
精确度	490
第四季度	490
空气质量	490
禾	490
碟@@	490
硅胶	490
琉@@	490
我厂	490
悄悄地	490
并会	490
尼古拉斯	490
字形	490
地幔	490
后部	490
各种类型	490
力拓	490
几项	490
信条	490
不经意	490
ade	490
SCA	490
EB@@	490
不	489
防洪	489
这一@@	489
讯号	489
自然科学	489
绊@@	489
级联	489
精良	489
税收@@	489
用性	489
生殖器	489
特人	489
牡蛎	489
烟叶	489
滑板	489
渗透率	489
浇注	489
检定	489
核查	489
校友	489
新款	489
接吻	489
拉曼	489
所行	489
开关@@	489
年会	489
国米	489
吸收光谱	489
发生@@	489
反省	489
卸	489
单身@@	489
剪辑	489
关门	489
休闲@@	489
不间断	489
一氧化氮	489
ham	489
Peter	489
2.6	489
青春@@	488
锈	488
通俗	488
聘@@	488
符号@@	488
稚@@	488
电子政务	488
生理@@	488
理应	488
班上	488
猩猩	488
焕发	488
湾@@	488
早日	488
感到高兴	488
息息相关	488
很酷	488
布伦@@	488
射程	488
密歇根	488
家畜	488
家庭作业	488
交战	488
世界观	488
上个世纪	488
list	488
PN	488
MG	488
锚杆	487
过氧化	487
订货	487
菠菜	487
继续下去	487
疆	487
溪流	487
模糊控制	487
普拉@@	487
显像	487
旋转@@	487
新区	487
年限	487
宏观经济	487
壤	487
商量	487
包覆	487
僧侣	487
佔	487
个人信息	487
专科	487
不乏	487
万能	487
par@@	487
form@@	487
end	487
PK@@	487
MAC	487
HE@@	487
2.5%	487
1963	487
这能	486
近几个月	486
踏板	486
购置	486
贝多芬	486
莫过于	486
若干@@	486
肿@@	486
紧张@@	486
福利@@	486
磊	486
破坏@@	486
目标@@	486
玩意	486
牌子	486
汗水	486
氧基	486
母乳	486
死因	486
早年	486
常有	486
布拉格	486
嬉戏	486
克隆人	486
丙酮	486
不容忽视	486
ster	486
NF	486
Des@@	486
音乐剧	485
附录	485
酮@@	485
足总杯	485
谦虚	485
细胞因子	485
第二位	485
百科全书	485
生物降解	485
熨@@	485
烟花	485
母乳喂养	485
杰米	485
换上	485
年时	485
少有	485
基因工程	485
固执	485
制图	485
出境	485
共同点	485
介素	485
亚斯	485
丈	485
Fac@@	485
贫民窟	484
胡同	484
股指	484
祖父母	484
硼@@	484
病理@@	484
牙龈	484
火炉	484
漠化	484
淫@@	484
极易	484
无名	484
摔倒	484
拖动	484
悉@@	484
幼稚	484
宽大	484
宵@@	484
女主角	484
同年	484
南京@@	484
仰望	484
人体@@	484
中国人民@@	484
me	484
iPod	484
IV@@	484
默克尔	483
骨盆	483
钻探	483
钟爱	483
财产@@	483
贝叶斯	483
衰弱	483
蓝莓	483
莉亚	483
罕@@	483
疲弱	483
疆@@	483
版画	483
深陷	483
沉着	483
欢笑	483
柑橘	483
板凳	483
服药	483
救护车	483
性病	483
很久	483
奋力	483
多亏	483
圣殿	483
合肥	483
受人	483
反应时间	483
剪刀	483
前辈	483
出局	483
出具	483
仇	483
事态	483
上天	483
一堂	483
38%	483
镜片	482
部族	482
贩	482
议院	482
行销	482
芹	482
肉眼	482
美感	482
维数	482
社区@@	482
电路板	482
生前	482
玩意儿	482
母鸡	482
斯坦福	482
授粉	482
拷@@	482
怪兽	482
常务@@	482
层析	482
宫颈癌	482
大意	482
圆满	482
圆弧	482
含水	482
可卡因	482
兴奋@@	482
僵@@	482
人物@@	482
乌托邦	482
一般性	482
115	482
非法@@	481
足球队	481
账号	481
访华	481
誉@@	481
芝麻	481
联邦调查局	481
紧密@@	481
直到现在	481
病原	481
留住	481
海港	481
测度	481
流行音乐	481
沦@@	481
樟@@	481
榆@@	481
杀戮	481
昨天晚上	481
效性	481
扑克	481
强国	481
干嘛	481
安然	481
太棒了	481
增至	481
哪种	481
别名	481
内衬	481
书信	481
iki	481
ader	481
Ver@@	481
DA@@	481
32@@	481
驱散	480
蹒跚	480
说不定	480
荒唐	480
胶粘剂	480
线图	480
画画	480
用过	480
王先生	480
犹	480
汇票	480
止痛	480
时变	480
无礼	480
打字	480
手感	480
惟有	480
总督	480
性价比	480
头号	480
外地	480
响应@@	480
可扩展性	480
叙	480
取自	480
前台	480
前卫	480
伴奏	480
亿人	480
丽娜	480
不需	480
不一	480
NG@@	480
HLA	480
BR@@	480
辅助@@	479
跳过	479
荷兰@@	479
脐@@	479
胰腺炎	479
肖恩	479
滨海	479
滑雪@@	479
极富	479
普拉	479
晚年	479
晖	479
早早	479
施瓦@@	479
摩洛哥	479
摇摇@@	479
排卵	479
抗击	479
庙@@	479
应力场	479
尔多	479
小城镇	479
寓@@	479
实实在在	479
守门员	479
奥迪	479
奥氏体	479
唉	479
吉尔@@	479
兴旺	479
偏头痛	479
代表作	479
ag	479
PF	479
Name	479
雌	478
难免	478
银子	478
钻井液	478
那辆	478
透明@@	478
豆类	478
调频	478
调节器	478
蕴@@	478
菠萝	478
胆汁	478
胃肠道	478
竿	478
空军基地	478
病患者	478
现代主义	478
深沉	478
涵义	478
活动家	478
治疗师	478
明朝	478
插头	478
捧@@	478
惶@@	478
悟@@	478
应得	478
孩@@	478
学分	478
妃	478
垂直@@	478
四十年	478
哎	478
名气	478
句型	478
参展	478
加尔@@	478
分法	478
出租@@	478
农场主	478
内含	478
光镜	478
休斯	478
一路上	478
vi@@	478
ock	478
Richard	478
On@@	478
27%	478
骨干	477
预知	477
预留	477
钝化	477
达西	477
辛普森	477
萨达姆	477
草酸	477
芝士	477
节俭	477
自负	477
耿@@	477
筋膜	477
渗透@@	477
海明威	477
更为重要	477
技术性	477
扮演着	477
怜@@	477
年收入	477
工匠	477
多半	477
多一点	477
基础教育	477
同化	477
吉林省	477
反倾销	477
六十	477
休息@@	477
中锋	477
一元	477
一串	477
rol@@	477
ane	477
Sk@@	477
MD@@	477
Com@@	477
预热	476
钦佩	476
郝@@	476
资料@@	476
质粒	476
蜗牛	476
蒸汽@@	476
苗条	476
花旗集团	476
脉搏	476
胆道	476
约束条件	476
红葡萄酒	476
竞选活动	476
照着	476
潘基文	476
成群	476
意甲	476
孕期	476
子集	476
圆锥	476
回归@@	476
出差	476
债权	476
俺	476
亮丽	476
事迹	476
不等式	476
不予	476
三峡	476
七天	476
mar@@	476
饶	475
颗@@	475
运到	475
访问控制	475
蒸气	475
蒙古族	475
细胞质	475
竣工	475
窃听	475
穴位	475
磨牙	475
盔甲	475
电解@@	475
牧草	475
熬	475
炫@@	475
洋洋	475
沿海地区	475
正试图	475
样例	475
旋风	475
心愿	475
弹奏	475
引述	475
居于	475
坚韧	475
四位	475
卜	475
助攻	475
刚刚开始	475
冷淡	475
修斯	475
优先@@	475
丸@@	475
下挫	475
dis@@	475
bin	475
Perl	475
1900	475
＞	474
造出	474
过氧化氢	474
诉求	474
计算器	474
警戒	474
胜地	474
缺水	474
最低@@	474
暴乱	474
数码相机	474
散落	474
效仿	474
扰@@	474
心动图	474
影星	474
弗莱	474
引人@@	474
合金@@	474
关节@@	474
为数不多	474
中级	474
个数	474
一国	474
zip	474
ver@@	474
6.5	474
2.2	474
露营	473
集中营	473
鄂@@	473
逆转录	473
运动鞋	473
贺卡	473
调理	473
节律	473
粘接	473
碰巧	473
疏远	473
生存率	473
满怀	473
消息传递	473
松开	473
星形	473
提供@@	473
懂@@	473
外周	473
哥伦布	473
关系式	473
克劳	473
偷窃	473
严酷	473
不仅如此	473
一如	473
RAM	473
1953	473
陕@@	472
金枪鱼	472
重量轻	472
酒杯	472
遮盖	472
财经	472
解调	472
立式	472
稳步	472
痴迷	472
热解	472
汉姆	472
此法	472
梯子	472
枯竭	472
时能	472
收敛性	472
惬意	472
小额	472
好似	472
士气	472
围栏	472
口香糖	472
仕@@	472
互助	472
一点@@	472
ano	472
ROM	472
89@@	472
鳞	471
陕西省	471
蹄@@	471
资格@@	471
说些	471
血液循环	471
脱位	471
组与	471
简报	471
相交	471
沸石	471
橱	471
晋级	471
放学	471
收购@@	471
擦拭	471
技术改造	471
承包@@	471
情趣	471
年头	471
媚	471
奏效	471
外籍	471
品系	471
史前	471
可持续性	471
先行	471
保护主义	471
侬	471
传送@@	471
两级	471
cat	471
Ke@@	471
1959	471
龙头	470
药学	470
系统化	470
筏	470
竭尽全力	470
漆黑	470
游玩	470
渔夫	470
渐近	470
深情	470
测距	470
早前	470
数学家	470
接手	470
挨	470
慈济	470
怎@@	470
巴林	470
客气	470
学生会	470
咯	470
反常	470
原则上	470
北欧	470
分销	470
几秒钟	470
伯南克	470
仿生	470
严寒	470
ama	470
Ind@@	470
﹑	469
陷于	469
闭塞	469
超时	469
赞助商	469
规律性	469
背着	469
肥沃	469
职权	469
耐热	469
粘合	469
白雪	469
癣	469
球体	469
热力	469
沿线	469
气缸	469
柠檬@@	469
有别于	469
整形@@	469
改建	469
才行	469
愤	469
心功能	469
循	469
异同	469
展品	469
实实	469
四川@@	469
发炎	469
中均	469
yst@@	469
uk@@	469
ix@@	469
Str@@	469
降价	468
酱@@	468
那片	468
逝去	468
赛特	468
赛尔	468
观察家	468
衡	468
羔羊	468
税款	468
积分@@	468
砰	468
白痴	468
甸@@	468
珠宝@@	468
毅力	468
椎	468
徽	468
尼尔森	468
大容量	468
夕阳	468
增值税	468
坏人	468
在历史上	468
国营	468
嘻@@	468
刃@@	468
内窥镜	468
公鸡	468
体式	468
仿真@@	468
书上	468
erg@@	468
Kh@@	468
飞越	467
错综复杂	467
送达	467
轮回	467
车床	467
踪@@	467
跳出	467
豁@@	467
螺母	467
英国广播公司	467
芋	467
舰船	467
脑出血	467
脊椎动物	467
翰	467
罗夫	467
第二阶段	467
第二条	467
穿著	467
眼看	467
电子束	467
片断	467
熬@@	467
测控	467
流星	467
法兰克福	467
曙光	467
支派	467
投产	467
性好	467
得上	467
弹力	467
年轻@@	467
巴勒斯坦人	467
尤指	467
多万	467
外商投资	467
印第安@@	467
午后	467
出炉	467
倚	467
保温@@	467
仍会	467
亲手	467
交易员	467
交互作用	467
互连	467
da	467
VB	467
SR	467
Her@@	467
HL	467
FA	467
19%	467
集中精力	466
长袍	466
镶	466
退缩	466
赎@@	466
谓词	466
语调	466
评量	466
解说	466
表面积	466
获悉	466
腻	466
脊椎	466
管理制度	466
第一轮	466
笛@@	466
研究组	466
矗立	466
疱疹	466
甲基化	466
生物质	466
玛丽@@	466
温度@@	466
深入探讨	466
波及	466
曾一度	466
昏	466
摇篮	466
执法@@	466
弹塑性	466
广为	466
差错	466
失业@@	466
大有@@	466
大大减少	466
大军	466
可取	466
化妆@@	466
创业者	466
其为	466
佑	466
丽丝	466
ub	466
Tim@@	466
TM@@	466
酸度	465
过滤@@	465
贝蒂	465
芦苇	465
翻译@@	465
群众@@	465
科幻	465
真皮	465
漂流	465
污垢	465
气田	465
每天晚上	465
摒弃	465
恶作剧	465
忆	465
工程建设	465
尼古丁	465
地站	465
因果关系	465
加班	465
倦	465
借给	465
亚瑟	465
两件	465
专有	465
一曲	465
一无@@	465
Jo@@	465
Em@@	465
镍@@	464
邮	464
贮	464
药店	464
肝移植	464
索尔	464
真想	464
电离	464
浪漫主义	464
水坝	464
水产	464
新来	464
效度	464
振动@@	464
挣钱	464
工具箱	464
四点	464
半天	464
千名	464
勿@@	464
低水平	464
丧	464
两性	464
不合	464
一模一样	464
ide	464
Microsoft	464
HB@@	464
顿饭	463
过载	463
误会	463
耳边	463
穴@@	463
玲@@	463
溶于	463
机械设备	463
所作所为	463
悬架	463
总干事	463
布森	463
对外开放	463
夺目	463
基础性	463
唐朝	463
各个领域	463
区块	463
写作@@	463
入口处	463
免税	463
主耶稣	463
OT	463
首页	462
迅猛	462
辅料	462
表示感谢	462
脑血管	462
聚在一起	462
耻@@	462
稠@@	462
积聚	462
盟国	462
瑞典@@	462
新政府	462
数十亿美元	462
接过	462
接待@@	462
拂@@	462
打磨	462
战舰	462
总成	462
徒步	462
彻底@@	462
外源	462
囚禁	462
囚@@	462
古迹	462
到访	462
初始@@	462
凯尔	462
中段	462
中东地区	462
两颗	462
东海岸	462
1966	462
驯@@	461
风景区	461
颚	461
长满	461
长出	461
镀金	461
错觉	461
铆@@	461
都灵	461
选址	461
退还	461
计算机系统	461
脑中	461
脆性	461
知识库	461
滚滚	461
泣	461
某事	461
果糖	461
机智	461
晴朗	461
时时	461
换言之	461
尔文	461
小鸡	461
导引	461
哈萨克斯坦	461
合理@@	461
可使	461
发亮	461
压裂	461
华纳	461
制定者	461
公共场所	461
全套	461
两台	461
1958	461
10000	461
非常@@	460
重复使用	460
螃蟹	460
节能@@	460
能以	460
编辑@@	460
稍早	460
正以	460
核反应堆	460
板球	460
智者	460
怎能	460
平等@@	460
屯@@	460
如是	460
品德	460
另一家	460
厉	460
华裔	460
北方@@	460
决不会	460
倒退	460
例经	460
佳肴	460
低等	460
为时@@	460
不合@@	460
一并	460
一出	460
ver	460
Corp	460
青霉素	459
重要@@	459
自行设计	459
肿瘤@@	459
翠	459
维德	459
租用	459
砾	459
石英@@	459
甲型	459
滑冰	459
涂装	459
流水线	459
治国	459
每条	459
弗拉@@	459
年幼	459
坚守	459
吉奥	459
切削@@	459
倒霉	459
主体性	459
世界性	459
一秒	459
一大群	459
ez	459
Sy@@	459
Serv@@	459
MATLAB	459
Christ@@	459
黎	458
装卸	458
花边	458
自然而然	458
聚类分析	458
老头	458
管材	458
极致	458
杰森	458
成绩@@	458
年青	458
好几年	458
塌	458
基本一致	458
呋@@	458
后人	458
合唱	458
协会@@	458
半个世纪	458
功用	458
克鲁斯	458
会想	458
乳酪	458
不切实际	458
⊙	458
lib	458
gre@@	458
马来@@	457
闹钟	457
金属材料	457
重整	457
酒庄	457
邸	457
遮住	457
较之	457
裁缝	457
肥皂@@	457
耕种	457
码率	457
热水器	457
满脸	457
源地	457
派生	457
正弦	457
整机	457
指头	457
房门	457
寓言	457
孟加拉	457
孙女	457
套餐	457
固定资产	457
吨@@	457
变速器	457
参数@@	457
光合作用	457
假冒	457
代号	457
上角	457
②	457
de@@	457
鱼雷	456
食用@@	456
静下来	456
除掉	456
轻视	456
转播	456
跟踪@@	456
课文	456
絮凝	456
第二代	456
科罗拉多	456
皮肤病	456
甘肃省	456
然大@@	456
没有@@	456
极有	456
有钱人	456
斯图尔特	456
政变	456
提纯	456
掠过	456
心绞痛	456
币@@	456
导航系统	456
实际意义	456
头颅	456
大肆	456
外向	456
固结	456
和弦	456
原生@@	456
卡通@@	456
剧作家	456
分页	456
其所	456
传质	456
以西	456
人种	456
一年级	456
Gro@@	456
频频	455
配伍	455
选举@@	455
远见	455
臭名昭著	455
腰椎间盘	455
老挝	455
犁@@	455
滕	455
每件	455
新月	455
成语	455
弊@@	455
布拉德	455
子民	455
大得多	455
地铁站	455
各家	455
冠脉	455
俄罗斯@@	455
体征	455
介意	455
专长	455
一阶	455
一盘	455
att@@	455
黄芪	454
重定向	454
跌落	454
访问者	454
讨论@@	454
积液	454
点亮	454
清香	454
深刻@@	454
泡泡	454
水母	454
正则	454
格纳	454
机架	454
改成	454
收缩@@	454
挥	454
打猎	454
廓	454
同情心	454
受控	454
人心@@	454
上周日	454
一整套	454
ight	454
PT	454
Mark@@	454
MP3	454
麦芽	453
钢厂	453
谐	453
蒿	453
肌肉@@	453
罗伯@@	453
窟	453
火烧	453
洗衣	453
梅西	453
果园	453
政府@@	453
抗抑郁	453
慈悲	453
心境	453
实惠	453
因果	453
听过	453
发货	453
友人	453
健身@@	453
作法	453
eth@@	453
ata	453
add@@	453
Wor@@	453
Me@@	453
0.1	453
顺畅	452
轻盈	452
趾@@	452
表象	452
羟	452
糯@@	452
电磁波	452
生出	452
演变成	452
格言	452
新世界	452
料理	452
数百名	452
摩擦@@	452
抑制@@	452
戚@@	452
开场	452
带式	452
婷	452
夺走	452
声调	452
坡度	452
在读	452
十几@@	452
创性	452
分心	452
公立学校	452
光强	452
保证金	452
Wil@@	452
IDE	452
Gl@@	452
24.@@	452
高峰期	451
饮食@@	451
长者	451
钻机	451
表观	451
行政区	451
藻@@	451
肥大	451
索取	451
糜@@	451
离子交换	451
现时	451
犁	451
淤@@	451
楼房	451
检验@@	451
格鲁@@	451
某处	451
无畏	451
新闻媒体	451
文明@@	451
搏斗	451
推荐@@	451
承办	451
怀旧	451
寂	451
家用电器	451
实践经验	451
字幕	451
妄	451
圣徒	451
四人	451
周边@@	451
吡啶	451
合作社	451
勋章	451
分类器	451
养活	451
公开赛	451
储存@@	451
乌拉圭	451
不惜	451
SARS	451
Cal@@	451
非常感谢	450
阿克	450
酝酿	450
遐@@	450
迷路	450
赞比亚	450
读出	450
说不@@	450
讲授	450
蜜月	450
累累	450
粘液	450
粗略	450
稻米	450
盘中	450
现金流	450
环境因素	450
特利	450
流动@@	450
河畔	450
柠檬酸	450
果断	450
析出	450
斥@@	450
斋	450
教学改革	450
故事@@	450
撒旦	450
探求	450
振荡器	450
承载能力	450
寻觅	450
妥善	450
变速	450
南韩	450
单晶	450
动画片	450
剑桥大学	450
内心深处	450
亚型	450
之于	450
主办@@	450
ert	450
XRD	450
Er@@	450
1600	450
餐桌上	449
陷入困境	449
镁@@	449
蹲@@	449
跋涉	449
茄	449
肾炎	449
美国空军	449
结点	449
纸浆	449
箔	449
简陋	449
科恩	449
画布	449
王妃	449
涝	449
消遣	449
海尔	449
毫秒	449
此案	449
棱镜	449
攻读	449
控诉	449
异形	449
奴役	449
奥尼尔	449
大亨	449
坎贝尔	449
共事	449
公交@@	449
何等	449
业已	449
一战	449
Jos@@	449
阁楼	448
莱纳	448
美酒	448
置身于	448
繁衍	448
笑脸	448
物权	448
爹	448
照明@@	448
汉斯	448
次日	448
格伦	448
手脚	448
成交量	448
微血管	448
形图	448
强健	448
幢	448
工具包	448
奥利	448
处理工艺	448
在短期内	448
卡罗@@	448
博文	448
兼具	448
关键作用	448
以备	448
人身	448
中国队	448
两旁	448
丘陵	448
马歇尔	447
零点	447
辟	447
象征性	447
调查报告	447
诸如此类	447
花样	447
罗宾	447
粗暴	447
种族主义	447
盖尔	447
申请者	447
猿@@	447
炉子	447
滇@@	447
涡轮机	447
普利@@	447
引来	447
小孔	447
对模型	447
头条	447
天文学	447
哥伦比亚@@	447
卢克	447
利润率	447
六种	447
二乘	447
上图	447
com@@	447
RE	447
Jon@@	447
Internet	447
34@@	447
1940	447
001	447
默默	446
鸿	446
鲁棒	446
锚固	446
钟声	446
郑州	446
那家	446
那双	446
道夫	446
路段	446
衷心	446
老爸	446
纸条	446
监理	446
生死@@	446
特大	446
烟火	446
没见	446
新华网	446
攀岩	446
捷径	446
拖累	446
惑	446
并不@@	446
帷幕	446
塞斯	446
喃	446
响声	446
发声	446
单是	446
信箱	446
使劲	446
众议员	446
事件@@	446
世界冠军	446
一小@@	446
bo@@	446
Sw@@	446
Conn@@	446
37%	446
鼻炎	445
鬼魂	445
高得	445
食盐	445
鑫	445
迅猛发展	445
谦卑	445
触动	445
莱克	445
腊	445
胶质瘤	445
翡翠	445
置评	445
缆	445
继承@@	445
第三代	445
砼	445
病原菌	445
爱情故事	445
滚筒	445
沉睡	445
格莱@@	445
杂交@@	445
本区	445
旨意	445
既定	445
放纵	445
搞定	445
思科	445
心肌缺血	445
委托人	445
好地解决	445
外包	445
增厚	445
噜	445
医疗机构	445
分泌物	445
分会	445
准备@@	445
产生@@	445
二烯	445
之源	445
三轴	445
les	445
骆@@	444
随身携带	444
通风@@	444
逆境	444
药效	444
自发性	444
篱笆	444
稳定剂	444
硅酸盐	444
病程	444
炖@@	444
湿性	444
收入@@	444
接收器	444
手边	444
得克萨斯州	444
开张	444
库区	444
失重	444
处女	444
城邦	444
四方	444
嘟@@	444
咒语	444
变电站	444
动画@@	444
创新性	444
凭着	444
公尺	444
公共交通	444
兜	444
仲	444
临时@@	444
Gra@@	444
BB@@	444
馅	443
食管癌	443
镁合金	443
重伤	443
递减	443
结成	443
磁体	443
眼科	443
沉闷	443
氮肥	443
本周一	443
有助	443
显示@@	443
断开	443
手写	443
所在@@	443
实体@@	443
哒	443
哈德	443
发生冲突	443
十字路口	443
冷酷	443
冠军杯	443
兵团	443
先例	443
亚人	443
两根	443
不说	443
不堪@@	443
三月份	443
一经	443
web@@	443
VA	443
Ber@@	443
And@@	443
麦片	442
那件	442
邀@@	442
诱因	442
裁剪	442
节省@@	442
聚合酶	442
美貌	442
管理体制	442
简明	442
电流@@	442
瓣膜	442
球场上	442
爱是	442
汇编	442
檀@@	442
极地	442
明显增加	442
掘	442
抓获	442
愈加	442
总而言之	442
并不认为	442
寿司	442
学士	442
多尔	442
嘎	442
可追溯	442
口罩	442
医护人员	442
匹兹堡	442
别致	442
倍受	442
个人资料	442
Us@@	442
90@@	442
阿兰	441
锻	441
连杆	441
转折	441
货品	441
芭芭拉	441
舵@@	441
般地	441
脑损伤	441
缔约@@	441
秆	441
磨机	441
相互影响	441
盛宴	441
疼@@	441
生态旅游	441
瑞银	441
火锅	441
海姆	441
母牛	441
括	441
打折	441
式样	441
广受	441
圭@@	441
商品价格	441
发了	441
却说	441
创造者	441
出水	441
假体	441
低端	441
主管部门	441
tion	441
1965	441
首届	440
预想	440
静力	440
闻名于世	440
铭记	440
遗传性	440
透气	440
蚤	440
肆@@	440
统筹	440
红旗	440
笨蛋	440
穆迪	440
碎屑	440
眼睑	440
漏油	440
波利斯	440
棕	440
来时	440
本领	440
本片	440
木偶	440
暴动	440
攀爬	440
摄影机	440
扩散@@	440
归结为	440
张家@@	440
布兰	440
巷@@	440
尔克	440
官僚@@	440
堰	440
卷曲	440
冷轧	440
党的@@	440
七十	440
一盒	440
port@@	440
net@@	440
gro@@	440
ake	440
Part@@	440
高速铁路	439
附加值	439
辈子	439
踪迹	439
群组	439
美国联邦	439
编纂	439
维吉尼亚	439
盖住	439
电信号	439
梅森	439
染上	439
整夜	439
接口@@	439
才智	439
户口	439
成藏	439
微细	439
家门	439
姓@@	439
大餐	439
吹嘘	439
利性	439
内疚	439
兴奋剂	439
兑@@	439
集结	438
陶器	438
里尼	438
那人	438
追究	438
辽宁省	438
辩解	438
舒适性	438
翔@@	438
缘由	438
石器	438
玷污	438
狠@@	438
牡丹	438
燕麦	438
照样	438
沸@@	438
汕@@	438
毛皮	438
欣喜	438
档次	438
极值	438
杯赛	438
放宽	438
摄	438
招聘@@	438
意大利人	438
忏悔	438
心存	438
幽默感	438
小猪	438
安全套	438
史蒂文	438
只想	438
华盛顿州	438
募@@	438
借钱	438
保加利亚	438
以致于	438
人脑	438
二年级	438
中山@@	438
上以	438
OL@@	438
HP@@	438
42%	438
36%	438
高楼	437
酬	437
那张	437
迎战	437
资质	437
请勿	437
营养素	437
科索沃	437
皮下	437
状体	437
清凉	437
流经	437
朗读	437
普查	437
斤	437
收治	437
推开	437
当代艺术	437
弗朗西斯	437
字样	437
孔雀	437
大地@@	437
块状	437
叶酸	437
区位	437
北美洲	437
俄勒冈州	437
体裁	437
伤势	437
代言人	437
交代	437
之势	437
丝绸之路	437
上颌	437
conf	437
cess	437
PEG	437
28.@@	437
1957	437
马匹	436
面目	436
阿里巴巴	436
间断	436
酒馆	436
违	436
衬底	436
聚合@@	436
美白	436
睫毛	436
相关系数	436
瑞尔	436
牢记	436
漫	436
清洁剂	436
水井	436
民俗@@	436
栏杆	436
枢@@	436
有机溶剂	436
普里	436
昵称	436
旅店	436
打架	436
寄托	436
安切洛蒂	436
大型@@	436
多用户	436
外贸@@	436
境况	436
基调	436
土豆@@	436
固相	436
回馈	436
反式	436
凶猛	436
凌	436
一百万	436
一个男孩	436
ery	436
NE@@	436
高尔夫球场	435
长于	435
醒目	435
解毒	435
观望	435
蓉	435
蒜	435
篷	435
琐事	435
玛雅	435
牙刷	435
游戏机	435
期内	435
曝@@	435
明尼苏达州	435
收紧	435
找矿	435
总成本	435
宝藏	435
安哥拉	435
大黄	435
圆柱@@	435
哟	435
吸水	435
司法部	435
双子@@	435
做人	435
也@@	435
amp@@	435
Apple	435
260	435
26%	435
骄@@	434
雁@@	434
闲逛	434
问答	434
遇难者	434
载有	434
触觉	434
疾病@@	434
生子	434
爵	434
焙烧	434
游记	434
清洗@@	434
流变学	434
毋@@	434
概	434
本机	434
无一@@	434
拓	434
山寨	434
地雷	434
喝一杯	434
后背	434
号称	434
克罗	434
二零零@@	434
事实@@	434
一动	434
our	434
高校@@	433
颤动	433
雷特	433
重演	433
醉酒	433
轻量级	433
讲故事	433
砂轮	433
猖獗	433
物价@@	433
海量	433
沦为	433
气藏	433
梅毒	433
桐@@	433
曲轴	433
明明	433
整体性	433
收看	433
技术参数	433
怒气	433
异构@@	433
已成	433
尼采	433
密闭	433
处分	433
可信度	433
利士	433
份子	433
令人担忧	433
享年	433
上尉	433
650	433
43%	433
0.1%	433
鲁斯	432
阻尼器	432
那不勒斯	432
赶来	432
评委	432
莫里斯	432
罗马帝国	432
纳尔	432
现身	432
游击队	432
港元	432
每场	432
板式	432
李子	432
明信片	432
无不	432
打碎	432
徵	432
孝	432
嬉@@	432
好得多	432
天平	432
地平	432
固定化	432
半场	432
医科大学	432
勾勒	432
公报	432
两分钟	432
不负责任	432
一脸	432
一环	432
一片@@	432
ala	432
550	432
隧@@	431
链球菌	431
那间	431
荧@@	431
脉络	431
耐高温	431
红宝石	431
烤肉	431
温带	431
海德@@	431
格拉@@	431
新闻记者	431
教给	431
招呼	431
所长	431
慢性病	431
慈	431
异型	431
广播电台	431
对比度	431
夫妻@@	431
太阳光	431
大猩猩	431
复印件	431
吾@@	431
发育@@	431
卡洛斯	431
加之	431
分选	431
兆瓦	431
债券市场	431
保健@@	431
俄克拉@@	431
专卖店	431
不符	431
98%	431
168	431
1.5%	431
驱动力	430
马克@@	430
隔离@@	430
陨石	430
锂离子	430
金银	430
邱@@	430
这道	430
辣椒@@	430
莱尔	430
致癌	430
腋@@	430
脑电图	430
背诵	430
美林	430
网络游戏	430
结晶@@	430
管理水平	430
私有化	430
真是太	430
相吻合	430
甜菜	430
机载	430
拧@@	430
抗药性	430
惯	430
常态	430
小剂量	430
寄主	430
实地@@	430
女性主义	430
复合体	430
参选	430
厅@@	430
利昂	430
养生	430
体贴	430
位子	430
伊利	430
ache	430
Pal@@	430
Li@@	430
里头	429
邵@@	429
逃生	429
这架	429
路易斯安那州	429
赫兹	429
责怪	429
自控	429
自信心	429
缩放	429
绚丽	429
管理信息系统	429
突出@@	429
眩晕	429
直升飞机	429
田纳西州	429
焦油	429
热轧	429
浓缩@@	429
浆料	429
标志物	429
本体论	429
文法	429
提早	429
扣押	429
影迷	429
层序	429
娃@@	429
大炮	429
塔克	429
在世	429
哀	429
卵巢癌	429
卡恩	429
减免	429
冻土	429
内力	429
兼并	429
东北地区	429
上床	429
sy@@	429
DW@@	429
餐饮@@	428
预览	428
韧	428
赛马	428
谦逊	428
节段	428
能干	428
肾小球	428
聋	428
积蓄	428
秘	428
碳酸盐岩	428
瞪	428
流量计	428
活体	428
洛尔	428
泼	428
注册表	428
毅@@	428
栈	428
朔	428
有色	428
散热器	428
改变@@	428
提示@@	428
扼要	428
德里克	428
得体	428
很差	428
弊	428
发射器	428
分解成	428
出没	428
冶	428
关乎	428
五名	428
丹佛	428
两样	428
Shar@@	428
III	428
驳@@	427
首创	427
足球比赛	427
腌@@	427
结冰	427
篇幅	427
简要地	427
简而言之	427
第三条	427
神论	427
理论家	427
牧民	427
满月	427
测温	427
水份	427
毛细血管	427
果香	427
权势	427
最棒	427
新版	427
抒@@	427
客运	427
埠	427
喧闹	427
哌@@	427
受益@@	427
卡塔尔	427
冰层	427
兴盛	427
供应@@	427
互联@@	427
书目	427
九龙	427
mod@@	427
la	427
Tom@@	427
PO	427
HR	427
CK	427
Aut@@	427
越来越@@	426
谈判@@	426
西南@@	426
血管瘤	426
芥@@	426
良多	426
腱	426
胶水	426
细胞株	426
糊口	426
立方体	426
特使	426
炼油厂	426
渐变	426
浸渍	426
浅层	426
法式	426
水瓶	426
检讨	426
桂林	426
服务提供者	426
暴躁	426
早点	426
政治学	426
意念	426
总决赛	426
庆幸	426
层间	426
孪@@	426
学徒	426
妓	426
图层	426
启	426
卿	426
化学家	426
化器	426
勾	426
助长	426
余人	426
体能	426
伤员	426
京剧	426
中层	426
七十年代	426
IO	426
FD@@	426
鼠疫	425
隐式	425
调查@@	425
蕴藏	425
营养价值	425
荔枝	425
艾米@@	425
良好@@	425
脸谱	425
而至	425
罗兰	425
绝经	425
经期	425
纵横	425
精神疾病	425
社交@@	425
示意	425
盾牌	425
畜牧业	425
湘	425
消防员	425
海事	425
注解	425
沪@@	425
檐	425
拮抗	425
抵挡	425
批量生产	425
当务之急	425
弱化	425
巫	425
崎	425
居室	425
射杀	425
奥运@@	425
头像	425
圣母	425
圆圈	425
四倍	425
啶	425
商机	425
励磁	425
仙女	425
举重	425
上加@@	425
一班	425
|	425
{	425
der@@	425
ATP	425
骨密度	424
酥@@	424
退休金	424
边界层	424
超前	424
起舞	424
贸易协定	424
质问	424
药理作用	424
脑膜炎	424
筐	424
真人	424
相当@@	424
甲虫	424
漱@@	424
横梁	424
昼夜	424
控制措施	424
拒	424
心肺	424
巅峰	424
尾气	424
多用	424
声乐	424
堆肥	424
呼气	424
叙@@	424
几百年	424
冲向	424
六岁	424
乖	424
不敢相信	424
str@@	424
TG	424
黛	423
马赛	423
阿拉伯语	423
阿德	423
阿伦	423
那名	423
辽宁	423
说是	423
言不@@	423
蕴涵	423
联机	423
署@@	423
称谓	423
相册	423
狭隘	423
炖	423
残暴	423
殊荣	423
此书	423
无耻	423
方方面面	423
收支	423
拆迁	423
我读	423
成正比	423
总冠军	423
怀疑@@	423
带回家	423
安息	423
夷	423
嗅	423
喝醉	423
发扬	423
双重@@	423
华南	423
区段	423
凡事	423
共和	423
入院	423
作用力	423
久远	423
两套	423
三百	423
MIM@@	423
面膜	422
闲置	422
钢琴@@	422
道家	422
逮@@	422
轰	422
装配@@	422
脑筋	422
胆碱	422
算术	422
秒@@	422
班机	422
消散	422
测试仪	422
流式细胞	422
法律法规	422
汉密尔顿	422
树下	422
朋	422
收成	422
摩天大楼	422
控制电路	422
打招呼	422
心肌细胞	422
开发新	422
小贩	422
完后	422
姐@@	422
大到	422
另类	422
勿	422
前部	422
制造者	422
具体分析	422
关头	422
伙@@	422
伊恩	422
交通运输	422
β	422
ox	422
FO	422
高音	421
郑	421
轧辊	421
身躯	421
计时器	421
薇@@	421
联络@@	421
终将	421
篮球@@	421
秃	421
社群	421
直达	421
留着	421
清晰度	421
波音公司	421
沙地	421
框架结构	421
枚举	421
杂种	421
杀灭	421
无关紧要	421
搬进	421
拉丁语	421
德尔@@	421
家居@@	421
宁夏	421
口水	421
受压	421
仑@@	421
义齿	421
中医药	421
ora	421
230	421
135	421
髁	420
风中	420
面容	420
钮	420
醌	420
遮挡	420
退伍军人	420
辖@@	420
谎	420
请教	420
角质	420
自我意识	420
脓肿	420
脏器	420
给与	420
细胞系	420
细胞学	420
第三季	420
短短的	420
生产实践	420
热衷	420
湖边	420
水平井	420
无能为力	420
持续增长	420
定于	420
娇	420
太极拳	420
天气预报	420
塌陷	420
坦诚	420
地质灾害	420
反复@@	420
友好合作	420
匹马	420
劝告	420
制造厂	420
分离出来	420
分子结构	420
信任@@	420
万英镑	420
be@@	420
魅@@	419
霍普@@	419
长春	419
避孕	419
订立	419
行动计划	419
耗资	419
第一代	419
端面	419
竖向	419
球状	419
流行性	419
洁白	419
泡沫@@	419
汤普森	419
氮气	419
气愤	419
比萨	419
椅@@	419
李明博	419
敲打	419
政府军	419
拉诺	419
抗病	419
打仗	419
恼火	419
弧焊	419
年仅	419
就任	419
大雪	419
多拉	419
制程	419
公立	419
低脂	419
书架	419
主动@@	419
专职	419
不振	419
一桩	419
ur	419
te	419
my@@	419
As@@	419
1948	419
106	419
风气	418
顶板	418
青海	418
资料库	418
诚然	418
要塞	418
自由化	418
纳多	418
箍	418
第九	418
空间结构	418
状态@@	418
活塞@@	418
汽水	418
氢化	418
每台	418
果皮	418
无锡	418
文化交流	418
放射治疗	418
携	418
弛@@	418
对峙	418
奸	418
塔拉	418
喝茶	418
咳@@	418
咨询服务	418
古镇	418
原子弹	418
卢旺达	418
医务人员	418
动乱	418
刘翔	418
再生@@	418
中央电视台	418
GE@@	418
B型	418
鲸@@	417
记者会	417
莺	417
脑室	417
缩影	417
结核@@	417
独生子女	417
狠	417
澳元	417
滑落	417
木工	417
整顿	417
教学内容	417
拦	417
投手	417
把头	417
执政党	417
执	417
恩赐	417
思维@@	417
巴马	417
山丘	417
婚前	417
塞浦路斯	417
地标	417
共处	417
之以@@	417
七岁	417
root	417
Rob@@	417
MMP	417
黄铜	416
魁@@	416
顾虑	416
靖@@	416
阿拉伯人	416
闲暇	416
进化论	416
这栋	416
诵	416
苔@@	416
群山	416
第一季	416
称重	416
电工	416
犯罪行为	416
洽	416
沃伦	416
每盎司	416
枝条	416
本该	416
有的是	416
最新进展	416
收听	416
搓	416
拱桥	416
心碎	416
小家伙	416
妇科	416
多线程	416
复杂@@	416
发怒	416
卡梅伦	416
十分必要	416
划船	416
击毙	416
俄语	416
住户	416
丙烷	416
不理	416
ul	416
ram	416
World	416
ISO@@	416
190	416
默认值	415
锰@@	415
辽阔	415
辐@@	415
超音速	415
调节作用	415
花花公子	415
自由贸易	415
脱色	415
繁	415
稠油	415
短期内	415
眸	415
版权@@	415
波尔多	415
油机	415
水道	415
棵树	415
本篇	415
本地化	415
普鲁@@	415
时用	415
方舟	415
教员	415
撤回	415
摄像	415
捕猎	415
持平	415
必需品	415
微循环	415
底物	415
展馆	415
小牛	415
寺院	415
安吉@@	415
太晚	415
大哥	415
大力发展	415
国脚	415
命中率	415
含水率	415
吐温	415
只读	415
变态	415
取暖	415
印第安	415
单元格	415
剥削	415
保险人	415
侠@@	415
乳化剂	415
乙酯	415
一小块	415
System	415
1300	415
驾驭	414
金黄	414
金融时报	414
赎罪	414
说实话	414
视觉@@	414
药片	414
羊羔	414
立法者	414
社会各界	414
登山@@	414
火器	414
濒临	414
汪	414
水滴	414
服务提供商	414
扼杀	414
房屋@@	414
情调	414
心脏@@	414
安保	414
婴儿@@	414
大涨	414
国界	414
双边关系	414
利益@@	414
倍数	414
义工	414
line	414
VS	414
RB@@	414
2.3	414
阿联酋	413
负压	413
讲讲	413
视觉效果	413
行动@@	413
蒙特利尔	413
艳丽	413
羞	413
穿行	413
碳酸钙	413
波特兰	413
梅花	413
撰	413
括@@	413
成百上千	413
悄然	413
恒温	413
弘扬	413
布罗@@	413
多月	413
喹@@	413
云彩	413
严禁	413
不可否认	413
}	413
AMD	413
陶醉	412
门廊	412
醒过来	412
逼迫	412
输送@@	412
苯二@@	412
花序	412
胡萝卜素	412
背景@@	412
紧身	412
策略师	412
突击	412
程序设计	412
碧	412
留有	412
气旋	412
比斯	412
橱窗	412
模拟实验	412
模式@@	412
无法控制	412
损失@@	412
拆分	412
应运而生	412
应从	412
库尔@@	412
富足	412
密歇根州	412
守恒	412
孩儿	412
奶制品	412
声名@@	412
升空	412
今天上午	412
亟待解决	412
书房	412
上线	412
ux	412
py	412
Wi@@	412
MM@@	412
JA@@	412
CG	412
1956	412
预防性	411
重奏	411
邦德	411
证词	411
议定书	411
褶@@	411
被子	411
若有	411
监听	411
爵夫人	411
煤炭@@	411
淤积	411
派克	411
有余	411
星空	411
新星	411
数以百万计	411
搜救	411
房东	411
异丙@@	411
带状	411
对外贸易	411
完美@@	411
安息日	411
始终@@	411
大洲	411
多相	411
多出	411
垃圾桶	411
坠入	411
四分	411
噪声@@	411
呵护	411
击打	411
农民@@	411
以使	411
乡间	411
乌斯	411
之时	411
不失	411
一个半	411
ik	411
RS@@	411
DN	411
CY@@	411
CMOS	411
ARM	411
23.@@	411
魏晋	410
飞去	410
霍夫	410
限制性	410
重新考虑	410
通告	410
违规	410
财报	410
详细描述	410
虹膜	410
蕨@@	410
绩效@@	410
监会	410
甫@@	410
灯塔	410
注塑	410
水蒸气	410
水温	410
殉@@	410
核心内容	410
极其重要	410
暴行	410
搞好	410
招收	410
打印@@	410
姓氏	410
外延	410
地势	410
判据	410
公然	410
休眠	410
人工神经网络	410
之光	410
义务教育	410
min@@	410
TI	410
ABS	410
锑	409
辗@@	409
输液	409
车门	409
越长	409
说得@@	409
讨价还价	409
表态	409
菌种	409
股票价格	409
耐克	409
美国之音	409
缉@@	409
细则	409
纠结	409
等位基因	409
第六章	409
第一份	409
矮小	409
疏忽	409
甙	409
特征值	409
爱意	409
熄@@	409
澄@@	409
润滑剂	409
海岛	409
洞察力	409
死神	409
核电厂	409
枯燥	409
本质@@	409
新闻网	409
打击@@	409
憎恶	409
干线	409
常压	409
就读于	409
多处	409
处方药	409
地盘	409
刻苦	409
共分	409
光学系统	409
伸长	409
估量	409
伊斯坦布尔	409
严重性	409
不均	409
ood@@	409
min	409
DSC	409
鼻孔	408
高估	408
阿斯@@	408
裂变	408
罪孽	408
结构调整	408
电讯	408
电脑游戏	408
歌舞	408
梦见	408
极点	408
拖欠	408
承担责任	408
扶手	408
总署	408
总公司	408
德军	408
当心	408
异物	408
学得	408
多条	408
哈拉	408
吉普@@	408
卖家	408
力量@@	408
侍	408
伍兹	408
从头@@	408
二十一	408
Hel@@	408
31%	408
25.@@	408
24%	408
103	408
韦德	407
鞍	407
阿布	407
防爆	407
造纸@@	407
运载	407
足部	407
贵宾	407
荚	407
爱丁堡	407
灰岩	407
法兰@@	407
最终用户	407
暴风雪	407
捏@@	407
抄袭	407
愈来愈	407
当有	407
引号	407
宛如	407
太平@@	407
天津市	407
大分子	407
国内@@	407
可言	407
又名	407
印章	407
卡利	407
单据	407
光速	407
保暖	407
人手	407
之大	407
为的是	407
old	407
Mod@@	407
JDBC	407
FE	407
震源	406
难关	406
降水量	406
避孕药	406
财年	406
计价	406
结扎	406
细胞周期	406
线性化	406
禾@@	406
瓦尔@@	406
理论界	406
涂膜	406
款待	406
杨树	406
曲目	406
新兴@@	406
探险@@	406
损毁	406
情怀	406
弹性体	406
尔巴@@	406
官司	406
受苦	406
受益人	406
取值	406
博拉	406
全然	406
克罗地亚	406
乘车	406
一步@@	406
ail@@	406
UT	406
Mag@@	406
41%	406
领悟	405
雷克	405
详细@@	405
米德	405
竖起	405
班加西	405
火热	405
溶血	405
波斯@@	405
油箱	405
氮素	405
有位	405
日产	405
新能源	405
攻入	405
振奋	405
指尖	405
徽章	405
常温	405
帕特@@	405
布线	405
姨@@	405
奖品	405
头晕	405
坞	405
图片@@	405
回购	405
商标@@	405
变数	405
停火	405
佩里	405
从容	405
个体@@	405
万年前	405
ts	405
OFDM	405
颅骨	404
震中	404
阻挠	404
追求@@	404
这些年来	404
误区	404
西海岸	404
虽说	404
蒂尼	404
耶夫	404
罪魁祸首	404
燃烧室	404
沿途	404
治疗@@	404
晃	404
无线通信	404
捞	404
意蕴	404
尼卡	404
大体上	404
坛@@	404
呼应	404
各样	404
可操作性	404
卡夫	404
全长	404
住在一起	404
亚尔	404
书法@@	404
万里	404
Oracle	404
Gri@@	404
70@@	404
33@@	404
高程	403
风采	403
难堪	403
门户网站	403
钟表	403
酿@@	403
郁闷	403
近红外	403
近十年	403
路易@@	403
诗词	403
诉讼@@	403
蛤@@	403
茄子	403
耶利@@	403
统统	403
繁重	403
石棉	403
矢	403
皇宫	403
热身	403
热管	403
浇	403
民居	403
栽	403
核电	403
枪杀	403
杂乱	403
文摘	403
敲击	403
扫描@@	403
悲	403
微晶	403
幂@@	403
山洞	403
宗族	403
基材	403
图示	403
咖啡店	403
动静	403
力争	403
前不久	403
冷凝	403
使用量	403
乏	403
中西	403
ute	403
IG	403
Dis@@	403
马赫	402
豪宅	402
训练有素	402
莱恩	402
胜利@@	402
纺丝	402
私营部门	402
白银	402
焦急	402
注浆	402
油污	402
水化	402
母体	402
橘子	402
桐	402
架上	402
机油	402
更衣室	402
拖鞋	402
抖	402
惊吓	402
安卓	402
委婉	402
坊@@	402
去处	402
前臂	402
几只	402
储备@@	402
产权@@	402
乙烯@@	402
与会	402
上路	402
aut@@	402
PC机	402
Capital	402
6.0	402
280	402
111	402
饭后	401
面罩	401
阶段性	401
阴阳	401
金银@@	401
都柏林	401
那头	401
选购	401
连贯	401
输运	401
诚意	401
获准	401
脂肪@@	401
美方	401
紫外光	401
离家	401
目的@@	401
犹他州	401
水器	401
气液	401
机械性能	401
本会	401
数以百计	401
掉下来	401
批发@@	401
战车	401
弗洛@@	401
平淡	401
居住@@	401
字眼	401
噶@@	401
合唱团	401
印制	401
冰激凌	401
住宅@@	401
不太好	401
PL	401
Business	401
300@@	401
骂@@	400
雄心	400
除尘器	400
酥	400
达到@@	400
走高	400
赢利	400
课外@@	400
诺曼	400
认识论	400
要件	400
蛙@@	400
荷马	400
毒药	400
每逢	400
步长	400
戴维@@	400
岂	400
宫内	400
增设	400
地理学	400
啼@@	400
可比	400
勘查	400
出战	400
军政府	400
亢@@	400
亚裔	400
五分	400
云母	400
举世@@	400
一般而言	400
一季度	400
fs	400
Firefox	400
32%	400
露天@@	399
雄伟	399
运往	399
转换@@	399
试验机	399
警觉	399
缝制	399
结肠癌	399
纽卡斯尔	399
筹款	399
窥@@	399
港币	399
清晰@@	399
浦东	399
氧化剂	399
殊	399
样板	399
有近	399
斯曼	399
推销员	399
拉索	399
德比	399
巴拉@@	399
就绪	399
宣	399
失败者	399
大都会	399
大笔	399
基站	399
吵架	399
叛逆	399
县城	399
单胞菌	399
共聚	399
server	399
ject@@	399
AG@@	399
29@@	399
齿轮@@	398
马吕斯	398
阿尔及利亚	398
长石	398
较佳	398
西奥	398
蛹	398
节拍	398
羹	398
美国股市	398
纳斯达克	398
百货@@	398
白垩	398
电路设计	398
电控	398
生意@@	398
燕子	398
流程图	398
汹涌	398
无色	398
支原体	398
或非	398
性激素	398
忘却	398
座落	398
定居点	398
大连@@	398
呵	398
厦@@	398
半透明	398
勤劳	398
势在必行	398
制动器	398
凡人	398
写字	398
六十年代	398
允	398
停车@@	398
任天堂	398
一味	398
ess	398
ath	398
LL	398
Don@@	398
29%	398
高功率	397
雨天	397
阿凡	397
远程教育	397
蹬	397
课件	397
诗集	397
蝴蝶@@	397
自卫	397
职称	397
精力充沛	397
生命科学	397
流体力学	397
洗脱	397
条文	397
未婚	397
曦	397
支流	397
推进剂	397
拉法	397
宪政	397
定值	397
处理厂	397
培根	397
坚持不懈	397
发明@@	397
加拉@@	397
到时候	397
出品	397
人时	397
人与自然	397
交出	397
之谜	397
下定决心	397
一记	397
ino	397
RFID	397
NF@@	397
270	397
馨	396
风度	396
雅克	396
银杏	396
金山	396
近海	396
过长	396
费尔@@	396
讨好	396
血细胞	396
自由市场	396
聪	396
神经节	396
神经病	396
真爱	396
相通	396
皮肤@@	396
甄@@	396
珂	396
片剂	396
炎性	396
活在	396
气门	396
民航	396
模组	396
效果显著	396
放贷	396
接连	396
指称	396
愧	396
幕墙	396
市内	396
小幅	396
契合	396
天下@@	396
塞特	396
压低	396
势必	396
加热炉	396
制造@@	396
关联@@	396
公差	396
保持联系	396
二酸	396
一举@@	396
ron	396
Office	396
ACE	396
850	396
67%	396
47%	396
44%	396
330	396
2050	396
高等学校	395
逐一	395
追捧	395
远景	395
转炉	395
训练营	395
营养物质	395
腔镜	395
绿叶	395
红茶	395
篱	395
管状	395
生锈	395
植物油	395
本世纪	395
星球大战	395
无机@@	395
提高@@	395
接线@@	395
损害赔偿	395
抗战	395
承运人	395
所受	395
我省	395
得救	395
弗雷	395
座落在	395
床边	395
常量	395
已达	395
少数@@	395
好于	395
大肠	395
地问	395
在座	395
可望	395
县级	395
加利@@	395
再者	395
光灯	395
做工	395
信使	395
使用率	395
主题公园	395
上位	395
sel@@	395
reg@@	395
eck	395
Lo@@	395
34%	395
29.@@	395
黯@@	394
颁@@	394
非盈利	394
非传统	394
雅各布	394
障碍物	394
这人	394
辟@@	394
转移@@	394
羽毛球	394
经常出现	394
竖	394
碳酸盐	394
看护	394
相较	394
直销	394
痤疮	394
电阻@@	394
电子表格	394
申诉	394
深邃	394
流通@@	394
果蝇	394
明日	394
无水	394
斗士	394
搬到	394
探查	394
捐	394
我试	394
成膜	394
想不到	394
总面积	394
总管	394
彼	394
峻@@	394
展览@@	394
多得多	394
双亲	394
去向	394
凯恩	394
冒险@@	394
充沛	394
假发	394
俯冲	394
以示	394
二醛	394
之分	394
中继	394
丙烯酸酯	394
ou	394
Lu@@	394
380	394
2D	394
27.@@	394
黄疸	393
驳回	393
额定	393
边锋	393
辖	393
词义	393
西林	393
肠炎	393
联动	393
耍@@	393
终究	393
纳特	393
生物力学	393
油腻	393
水牛	393
榜@@	393
最合适	393
数次	393
提单	393
技师	393
应性	393
干涸	393
岩石@@	393
委派	393
妄想	393
大众化	393
型钢	393
可可@@	393
动因	393
到场	393
信息处理	393
供养	393
低层	393
价廉	393
亲友	393
中外@@	393
下水道	393
上行	393
eng@@	393
SO	393
MPEG	393
Amazon	393
46%	393
颖	392
隔绝	392
防晒	392
酐	392
赋值	392
要紧	392
西蒙@@	392
草图	392
聚苯乙烯	392
联合国安理会	392
结盟	392
纲领	392
米奇	392
理工学院	392
炭黑	392
沉积@@	392
沃尔沃	392
污秽	392
机枪	392
普兰	392
无几	392
新约	392
教学效果	392
教士	392
扫罗	392
廉	392
尿布	392
富翁	392
安装@@	392
复配	392
商城	392
周后	392
即便如此	392
博尔顿	392
勘察	392
几何@@	392
内裤	392
入射	392
克里斯托弗	392
保护性	392
会员@@	392
ild	392
bur@@	392
NT@@	392
JD@@	392
AF	392
高明	391
青铜@@	391
阱	391
里尔	391
达克	391
资讯@@	391
谅解	391
诺贝尔	391
设备@@	391
讥@@	391
视听	391
色拉	391
而今	391
绝热	391
秧@@	391
祁@@	391
生日@@	391
率高	391
热泵	391
热带雨林	391
灌装	391
洼	391
根本性	391
柚@@	391
有所提高	391
方向盘	391
新思路	391
斥责	391
按着	391
快速@@	391
平地	391
峭壁	391
居所	391
小叶	391
定义@@	391
子里	391
好感	391
复数	391
印证	391
刺耳	391
分枝	391
公共政策	391
催生	391
保时捷	391
伤感	391
两条@@	391
东莞	391
own	391
inst@@	391
1955	391
该是	390
脱脂	390
美国队	390
线形	390
笔画	390
端部	390
竞争@@	390
睛	390
爱国主义	390
流感疫苗	390
法定@@	390
核糖@@	390
染色@@	390
枯萎	390
木马	390
新年@@	390
护理人员	390
手足	390
我军	390
度计	390
庙宇	390
常说	390
岸上	390
对偶	390
备有	390
圃	390
四月份	390
味觉	390
启迪	390
发源地	390
初级@@	390
划线	390
出汗	390
元代	390
保费	390
人类学家	390
亚运会	390
二氧化硅	390
一阵子	390
一文	390
一分@@	390
Tre@@	390
112	390
鱼肉	389
降幅	389
阻燃剂	389
采油	389
逢@@	389
这头	389
详述	389
评论员	389
计算机网络	389
言论自由	389
觅食	389
蘸	389
股息	389
笔直	389
监督管理	389
燃烧器	389
渤海	389
清淡	389
清洁@@	389
正中	389
旅游胜地	389
新加坡@@	389
敏感@@	389
摔跤	389
手帕	389
我市	389
感人	389
弥散	389
平移	389
家具@@	389
女星	389
奈特	389
太极	389
大队	389
大脑@@	389
大法官	389
圈闭	389
国集团	389
嗜好	389
响亮	389
哈维	389
咖啡厅	389
吟@@	389
厕	389
南极洲	389
助教	389
列宁	389
函数@@	389
充分体现	389
余震	389
三年级	389
一致@@	389
一包	389
sq@@	389
old@@	389
cre@@	389
bl@@	389
Te@@	389
1100	389
鼓掌	388
飞到	388
阿隆索	388
防务	388
贝卢斯科尼	388
请来	388
袖子	388
表彰	388
血清@@	388
胃炎	388
秦岭	388
眼底	388
省会	388
电子游戏	388
物流@@	388
煮熟	388
淘宝	388
梗@@	388
无形@@	388
季风	388
女童	388
国庆	388
回忆录	388
吞下	388
后现代主义	388
前路	388
冀@@	388
全家人	388
作王	388
传单	388
买单	388
上前	388
rit@@	388
ize	388
ime	388
SVG	388
Del@@	388
颁奖典礼	387
钟头	387
重量级	387
里人	387
还应	387
课后	387
该种	387
菁	387
芥	387
节流	387
肛@@	387
组委会	387
皮质激素	387
牙买加	387
流层	387
汽油@@	387
本场	387
暴徒	387
斯德哥尔摩	387
斑斓	387
教区	387
摩擦力	387
搁	387
埃拉	387
商业区	387
向南	387
北面	387
冉@@	387
光谱仪	387
僧@@	387
任教	387
亲缘	387
书包	387
中美关系	387
严格控制	387
一集	387
ical	387
G20	387
领导层	386
透射电镜	386
虚拟现实	386
茱@@	386
腾讯	386
肉桂	386
联队	386
羧酸	386
绵延	386
第一台	386
空白@@	386
皮尔斯	386
物化	386
火箭队	386
满足感	386
液中	386
沉沉	386
每组	386
模式识别	386
时限	386
新词	386
散射@@	386
成活率	386
性是	386
必然性	386
心肠	386
彦	386
年薪	386
师资	386
巴顿	386
尼说	386
基化	386
地想	386
单克隆	386
剩余@@	386
刚体	386
八卦	386
侍者	386
伊利@@	386
他称	386
乳剂	386
世贸组织	386
不尽相同	386
上个星期	386
rop@@	386
ript	386
au	386
48%	386
魁	385
高耸	385
骑着	385
驯鹿	385
隋@@	385
降雨量	385
认知@@	385
补救	385
萃	385
胰腺癌	385
立马	385
科幻小说	385
硝酸@@	385
眩	385
玻璃杯	385
汉娜	385
毋庸置疑	385
殖	385
条件@@	385
新鲜@@	385
斯坦利	385
按摩@@	385
扩张@@	385
执业	385
惊醒	385
布斯	385
小河	385
客商	385
失事	385
大跌	385
多方	385
嘌呤	385
各有@@	385
博士生	385
冷却水	385
低氧	385
user	385
Ubuntu	385
1947	385
1920	385
领事	384
非洲@@	384
露台	384
闸门	384
跨过	384
蔑视	384
药理	384
腹股沟	384
羚羊	384
置疑	384
织造	384
纷争	384
白葡萄酒	384
琥珀	384
特色@@	384
牢牢	384
焦炭	384
溺@@	384
淤泥	384
海鸥	384
洪灾	384
洛普	384
注射@@	384
治病	384
斯诺	384
挥霍	384
挥手	384
工具栏	384
就会	384
大屏幕	384
坦率	384
君主@@	384
可贵	384
可悲	384
可否	384
卵母细胞	384
初创	384
佐治@@	384
亲本	384
不光	384
下水	384
一晚	384
my	384
ive@@	384
atch	384
度	383
默默地	383
魔兽	383
门静脉	383
错位	383
避难	383
迸@@	383
购买者	383
诺贝尔@@	383
设计模式	383
藏身	383
脾脏	383
统治@@	383
简单@@	383
移植术	383
皇冠	383
电导率	383
热刺	383
炮制	383
流浪汉	383
此款	383
正则表达式	383
改性@@	383
搞清楚	383
报社	383
忠于	383
小组@@	383
嫁接	383
国际法	383
固体@@	383
喊叫	383
呼喊	383
吸附剂	383
含油	383
千瓦	383
劳务	383
加密@@	383
关键所在	383
保护环境	383
今年@@	383
之苦	383
不远处	383
下达	383
Net	383
Fil@@	383
里约热内卢	382
遗漏	382
通用性	382
豆子	382
调料	382
调情	382
讲道	382
蛋黄	382
萘	382
羞耻	382
组长	382
礼堂	382
碰上	382
眨眼	382
留心	382
电讯报	382
用该	382
热诚	382
温差	382
浮出	382
梯形	382
接通	382
希尔顿	382
巡逻@@	382
小鱼	382
富有@@	382
密不可分	382
天敌	382
复查	382
埃弗顿	382
坚定不移	382
国际足联	382
嗓子	382
同义词	382
千万别	382
勋爵	382
劈	382
剂型	382
公钥	382
克朗	382
倦怠	382
保持一致	382
会因	382
二号	382
乡土	382
乐章	382
之行	382
主旨	382
中国银行	382
东地区	382
下手	382
Rails	382
Pre@@	382
鱿鱼	381
酒后	381
调味品	381
获奖者	381
荐	381
苯甲酸	381
肺泡	381
美国农业部	381
精彩@@	381
竭诚	381
空腹	381
究	381
私立	381
硬质	381
省长	381
相见	381
理论体系	381
玻璃钢	381
深知	381
活儿	381
水壶	381
检查一下	381
有所增加	381
扬州	381
性疾病	381
幸好	381
官网	381
太远	381
垦	381
历史背景	381
化成	381
勘	381
凝视着	381
兰特	381
公车	381
中情局	381
ring	381
Win@@	381
TL	381
默斯	380
领导力	380
靓@@	380
阿什	380
闪光灯	380
钓鱼@@	380
遵照	380
适应能力	380
记述	380
织品	380
纳米材料	380
红灯	380
管弦@@	380
状物	380
焊机	380
水族馆	380
毛毯	380
比较复杂	380
材料@@	380
本构	380
早产儿	380
斯洛伐克	380
敌方	380
支气管炎	380
接触式	380
战争@@	380
待人	380
年均	380
巡回	380
实相	380
学术研究	380
奇观	380
售货员	380
单单	380
卑鄙	380
副词	380
冷冻@@	380
克利@@	380
借款人	380
伤者	380
主观@@	380
两千@@	380
三组	380
ample	380
Tom	380
37@@	380
黄铁矿	379
阵阵	379
铰链	379
逊尼派	379
身分	379
路线图	379
观众们	379
袭击者	379
表演者	379
蓄水	379
船队	379
腹痛	379
组态	379
絮凝剂	379
素食者	379
福尔摩斯	379
神像	379
瘾@@	379
琳达	379
煤气@@	379
满面	379
测出	379
毫不犹豫	379
次之	379
术式	379
斗篷	379
文坛	379
数百	379
拥护	379
打来	379
总人口	379
尽量@@	379
小道	379
头孢@@	379
备案	379
备件	379
圆顶	379
商议	379
咯@@	379
发短信	379
卡斯特罗	379
单纯@@	379
剪切@@	379
内壁	379
关注点	379
做客	379
偏僻	379
伴着	379
价值链	379
五四	379
下图	379
一英里	379
als	379
Med@@	379
Cli@@	379
0.3%	379
理	378
飞速	378
领养	378
预算@@	378
静脉注射	378
重达	378
遗弃	378
远高于	378
论断	378
角色扮演	378
补强	378
葵@@	378
英国首相	378
艾尔	378
耗能	378
病床	378
牵	378
热切	378
本市	378
推算	378
接线	378
掉落	378
拥护者	378
扮	378
成龙	378
布鲁克斯	378
山体	378
展示@@	378
官兵	378
姨妈	378
她家	378
太原	378
基座	378
参与@@	378
单点	378
北卡罗来纳州	378
分类@@	378
准入	378
再也不会	378
内贾德	378
光标	378
光学@@	378
体形	378
低剂量	378
乎乎	378
不良影响	378
不舍	378
不孕	378
bug	378
Stre@@	378
Kindle	378
FM	378
颁奖	377
静脉曲张	377
重合	377
酪氨酸	377
试探	377
西汉姆	377
裨益	377
脚跟	377
肝功能	377
考查	377
罚金	377
继任者	377
经常性	377
纵观	377
私营企业	377
睫@@	377
眉头	377
瑰@@	377
玻璃体	377
王位	377
湖区	377
测绘	377
浅色	377
模范	377
果味	377
本校	377
本应	377
昂山	377
文学创作	377
拭@@	377
弯矩	377
廖@@	377
帕特	377
孟子	377
奥兰多	377
奈尔	377
外星	377
处决	377
垄断@@	377
地名	377
哈尔@@	377
名牌@@	377
名录	377
名人@@	377
双相	377
刷牙	377
利克	377
儒	377
从业人员	377
东西方	377
不能不	377
上风	377
TL@@	377
鳄	376
马戏团	376
颠簸	376
雅加达	376
重载	376
连衣裙	376
过世	376
转染	376
超新星	376
豚	376
记录下来	376
莉娅	376
突破性	376
矛@@	376
珍藏	376
湖面	376
水深	376
水合物	376
氧化锌	376
格拉斯	376
树丛	376
杀掉	376
木匠	376
有朝一日	376
暂态	376
文集	376
我想	376
恳@@	376
心痛	376
开往	376
廊@@	376
常人	376
已于	376
巫术	376
导性	376
实验教学	376
夺回	376
大吃一惊	376
哈斯	376
合乎	376
匆@@	376
功能强大	376
剖宫产	376
初衷	376
分店	376
凸起	376
关联性	376
保全	376
保人	376
丰度	376
不着	376
三世	376
一举	376
ec	376
NE	376
Ele@@	376
B1	376
26.@@	376
﹕	375
髂	375
长跑	375
酯酶	375
避险	375
送上	375
诡异	375
耻辱	375
素描	375
笨重	375
电液	375
电击	375
玻利维亚	375
父子	375
涂上	375
浙@@	375
查出	375
构造函数	375
期末	375
无可	375
旅游景点	375
揣@@	375
拘捕	375
披萨	375
扭伤	375
房里	375
戴夫	375
平日	375
将领	375
学科@@	375
头人	375
商谈	375
哲学思想	375
受害	375
取悦	375
压缩空气	375
北宋	375
功能模块	375
列祖	375
互操作性	375
一等	375
sk@@	375
Notes	375
JAR	375
IL@@	375
DTD	375
首家	374
镜面	374
配准	374
逗号	374
逃亡	374
躯干	374
足球赛	374
诵@@	374
西边	374
被盗	374
虚幻	374
蓬勃	374
萨科奇	374
磷灰石	374
碳化@@	374
短波	374
睦@@	374
相聚	374
目击	374
火山口	374
湛@@	374
油酸	374
梦中	374
旦@@	374
斐	374
数千名	374
改制	374
报仇	374
抓起	374
打乱	374
感叹	374
展厅	374
尽全力	374
哇@@	374
原产	374
华盛顿大学	374
分给	374
内容@@	374
克林	374
充分考虑	374
伺@@	374
休息室	374
一首歌	374
servlet	374
dev	374
SG@@	374
Flash	374
3.2	374
零星	373
隔膜	373
隆重	373
门店	373
银屑病	373
辅以	373
轻声	373
跻身	373
赋存	373
贪污	373
贝特	373
诉说	373
解冻	373
视点	373
莫测	373
航天局	373
翁@@	373
网点	373
纳米技术	373
精简	373
章鱼	373
电话会议	373
流式	373
林区	373
机舱	373
最难	373
曼德拉	373
晚报	373
挑起	373
拼搏	373
惊异	373
形而上学	373
当量	373
引人入胜	373
小山	373
实时@@	373
塞满	373
反射率	373
双边@@	373
即时@@	373
其人	373
不如@@	373
na	373
ax@@	373
SIM@@	373
非暴力	372
酸碱	372
酒厂	372
道琼	372
透明质	372
转向@@	372
谋生	372
讬	372
蟹@@	372
英格兰队	372
苟@@	372
色剂	372
绝妙	372
第一张	372
立方米	372
硬质合金	372
硬盘@@	372
球拍	372
牢骚	372
熔点	372
源源不断	372
流媒体	372
权威@@	372
旬	372
早晚	372
新课程	372
接合	372
掀@@	372
指导方针	372
抛开	372
愈发	372
惨重	372
怠@@	372
德福	372
废话	372
容错	372
多用途	372
外伤性	372
喷射@@	372
名著	372
前门	372
刺杀	372
初步@@	372
再三	372
保险费	372
主干	372
两大类	372
下山	372
三千	372
ung	372
era	372
IV	372
EX@@	372
酪@@	371
这回	371
要用	371
裴@@	371
薰衣草	371
背离	371
肯尼	371
美式	371
维利	371
纸巾	371
猫头鹰	371
独特性	371
特技	371
炼厂	371
流放	371
氢原子	371
此时此刻	371
月刊	371
旁观者	371
故事情节	371
拌@@	371
总要	371
幽门	371
尚有	371
处以	371
声速	371
增长@@	371
喙	371
十天	371
医疗器械	371
北半球	371
力场	371
刺痛	371
内部结构	371
先进@@	371
倍感	371
保护措施	371
供货	371
之以	371
主修	371
丘吉尔	371
下拉@@	371
ull	371
Test@@	371
EL	371
B2@@	371
AU@@	371
1400	371
黯淡	370
鸦片	370
飞扬	370
降低@@	370
里斯本	370
边境@@	370
[...]
